{
  "stoi": {
    "ling": 5770,
    "Ġ4": 1103,
    "Ġpermit": 5740,
    "Co": 5581,
    "ĠcreÃ³": 3038,
    "Ġencima": 5262,
    "Ġpoeta": 2997,
    "Ġparticulares": 6376,
    "cel": 799,
    "ĠKandin": 7615,
    "Ġeurope": 3340,
    "Ġneg": 3736,
    "Ġabstra": 1797,
    "ĠCatÃ³lica": 8179,
    "uri": 2307,
    "jÃ³": 1415,
    "alles": 7208,
    "quero": 8665,
    "entan": 8009,
    "Ãī": 7295,
    "Ġrecibe": 5577,
    "yendo": 4795,
    "land": 1649,
    "40": 3237,
    "Ġcomercio": 8068,
    "lyn": 8318,
    "Ġdiez": 4116,
    "terior": 1324,
    "ilidad": 1930,
    "Ġboda": 9879,
    "sachusetts": 9248,
    "onna": 3999,
    "Ġdestacado": 4713,
    "Ġsubasta": 7579,
    "ĠÃĵleo": 3962,
    "4": 16,
    "Ġrostro": 3291,
    "ĠpercepciÃ³n": 8611,
    "isa": 3071,
    "Ãºlti": 911,
    "ĠBretaÃ±a": 6772,
    "Ġbal": 6183,
    "Ġrecl": 8949,
    "Ġf": 227,
    "Ġtoma": 5755,
    "ĠDol": 9974,
    "Ġdificul": 5838,
    "Ġatribuida": 8140,
    "ĠCab": 2374,
    "ĠWang": 9871,
    "Ġjug": 8841,
    "Ġtraje": 8275,
    "berg": 2490,
    "Ġfuturo": 5527,
    "ĠdonaciÃ³n": 9620,
    "ĠinauguraciÃ³n": 8852,
    "eriormente": 3339,
    "Ġlienzos": 2975,
    "Ġ1990": 3270,
    "Ġmanuscrito": 2955,
    "iga": 5239,
    "Î¹": 3207,
    "ĠRod": 3239,
    "Ġps": 4695,
    "Ã±Ã³n": 7474,
    "tarios": 9675,
    "ctura": 1056,
    "Ġexcel": 3994,
    "porÃ¡n": 1254,
    "Ġais": 6622,
    "ĠCasta": 9873,
    "Ġcapital": 3158,
    "Ġpens": 2812,
    "cÃ¡ngel": 8144,
    "vÃ©s": 1427,
    "Ġviajar": 6784,
    "Ġexper": 1751,
    "89": 7749,
    "ct": 346,
    "ĠArn": 6965,
    "Ġmanifest": 8971,
    "ĠContemporÃ¡n": 2458,
    "Ġ146": 7412,
    "qu": 562,
    "ri": 238,
    "Ġantiguos": 3731,
    "Ġap": 589,
    "¥": 83,
    "Ġcosa": 7320,
    "ĠClara": 7846,
    "Ġza": 7941,
    "Ġfuga": 7289,
    "ĠIII": 2367,
    "ingham": 8751,
    "ans": 2518,
    "Ġesa": 2061,
    "Ġdado": 4344,
    "Ġtextos": 3739,
    "Ġactual": 3375,
    "for": 871,
    "ĠanatomÃŃa": 8321,
    "ĠErnst": 7118,
    "Ġrecha": 3839,
    "enza": 8746,
    "Ġfachada": 5811,
    "ĠIgu": 9475,
    "ĠcentrÃ³": 8358,
    "ĠMarÃŃa": 918,
    "corÃ³": 9078,
    "Ġencontraba": 3800,
    "Ġinvestig": 2632,
    "ĠThÃ©o": 9856,
    "ĠbritÃ¡nica": 8247,
    "ĠTama": 8673,
    "Ġplie": 9260,
    "Ġmatric": 7652,
    "diendo": 3181,
    "ĠPolonia": 7077,
    "ĠConstable": 9683,
    "iense": 8012,
    "Ġparticipado": 8156,
    "den": 482,
    "qui": 398,
    "ĠCali": 3744,
    "Ġconv": 7611,
    "ĠSuiza": 4914,
    "Ġinscripciones": 9414,
    "ĠvivÃŃa": 6209,
    "Ġcubi": 7676,
    "ĠprofesiÃ³n": 8282,
    "Ġcali": 4489,
    "ĠSir": 7421,
    "ws": 9428,
    "gun": 501,
    "udad": 682,
    "ĠreputaciÃ³n": 7673,
    "Ġpres": 625,
    "ĠSus": 1221,
    "Ġredes": 8656,
    "ĠCristÃ³bal": 7149,
    "Ġdesn": 1922,
    "Ġindustrial": 7181,
    "Ġ1953": 4745,
    "Æ": 113,
    "Ġreca": 9720,
    "rino": 6828,
    "Ġ1961": 4441,
    "Ġmix": 7533,
    "Ġfiguran": 9005,
    "zon": 4950,
    "Ġinfl": 846,
    "ĠInfl": 8038,
    "Ġcada": 1598,
    "ĠrestauraciÃ³n": 4014,
    "embrandt": 4374,
    "ame": 4373,
    "Ġmuy": 774,
    "Ġabril": 1976,
    "ĠHombre": 9391,
    "Ġrecibido": 6081,
    "Ġexam": 9748,
    "ĠpoblaciÃ³n": 6748,
    "Ġoficial": 3454,
    "Ġeuropea": 7523,
    "Ġconsa": 7806,
    "amora": 7540,
    "ĠAzerbaiyÃ¡n": 8701,
    "Ġdeben": 8228,
    "Ġgenera": 1069,
    "ig": 271,
    "ĠPhilip": 6214,
    "Ġes": 257,
    "ĠTur": 3923,
    "Ġrespuesta": 7718,
    "gida": 5340,
    "ĠClub": 4978,
    "Ġweb": 8008,
    "Ġalar": 7871,
    "Ġhumana": 3611,
    "ĠRoyal": 4811,
    "gart": 9006,
    "Ã±e": 7141,
    "Ġpopu": 1883,
    "Ġsel": 4839,
    "ĠAlexand": 7216,
    "ĠInici": 6409,
    "Ġesceno": 6646,
    "Ã©is": 8073,
    "dorf": 5511,
    "J": 34,
    "uis": 2427,
    "Ġor": 505,
    "Ġarquitectos": 7617,
    "Ġ90": 6571,
    "Ġcompleta": 5438,
    "Ġestim": 6322,
    "ĠPat": 3130,
    "Ġvez": 1021,
    "3": 15,
    "etas": 3241,
    "tina": 3246,
    "Ġsalv": 7691,
    "xa": 5886,
    "Ġlogra": 4536,
    "OR": 5518,
    "ĠFig": 7123,
    "ĠcÃ©": 4303,
    "sar": 9402,
    "ĠcÃ¡n": 8134,
    "Õ": 127,
    "ĠOrden": 3834,
    "icales": 6678,
    "Ġotorg": 8640,
    "Ġr": 1034,
    "Ġfeminista": 9517,
    "Ġ1964": 4119,
    "Ġmelan": 8042,
    "piro": 2943,
    "Ġubic": 2957,
    "ĠReconocimientos": 9579,
    "Ġhistorias": 6512,
    "itan": 6982,
    "ĠpequeÃ±a": 3460,
    "ĠHor": 7490,
    "Ë": 118,
    "orrelie": 9719,
    "Ġcapilla": 2303,
    "ĠFernando": 1948,
    "Ġepisodio": 6642,
    "Ġpropiedad": 3961,
    "ĠCrucifixiÃ³n": 8232,
    "Ġllevar": 6500,
    "erÃŃas": 3331,
    "oras": 7888,
    "Ġapren": 2212,
    "ħ": 157,
    "Ġmarcha": 5880,
    "Ġmarinas": 8824,
    "Ã¡i": 6245,
    "Ġhijos": 2135,
    "Ġescenas": 1373,
    "Ġmaestra": 6036,
    "bor": 2532,
    "vismo": 9799,
    "Ġinstitu": 2553,
    "Ġpro": 334,
    "Ġviuda": 6401,
    "ells": 9318,
    "ĠMos": 7721,
    "Ġfuer": 676,
    "Ġefectu": 9011,
    "Ġpublicaciones": 6110,
    ".),": 7092,
    "Ġcartas": 6288,
    "Ġpost": 5927,
    "gia": 4316,
    "Ġ0": 3260,
    "Ġampliamente": 7052,
    "Ġdici": 1766,
    "ĠArti": 1996,
    "dÃŃ": 3913,
    "ĠCour": 6765,
    "larse": 7665,
    "yos": 2582,
    "ison": 5914,
    "etros": 4802,
    "ĠGreco": 3335,
    "ĠAcadem": 5227,
    "estig": 2095,
    "gosto": 2156,
    "Ġvit": 5558,
    "Ġsentimientos": 8534,
    "tÃ³": 978,
    "pub": 7154,
    "Ġplasm": 9305,
    "Ġaceite": 8653,
    "ĠAnto": 6631,
    "ilares": 5079,
    "ĠÎ": 1740,
    "Ġpapa": 4956,
    "ur": 412,
    "Ġhero": 8748,
    "ris": 1505,
    "ĠhistÃ³rica": 5461,
    "ĠSor": 5319,
    "Ġmide": 6863,
    "Ġpop": 7491,
    "ĠTrabajÃ³": 6085,
    "Ġgris": 3929,
    "Ġpasto": 5976,
    "ĠGra": 1700,
    "Ã³grafo": 7539,
    "adÃŃa": 6259,
    "Ġ1916": 5841,
    "ĠRet": 1304,
    "deg": 2344,
    "olÃ³gicas": 9396,
    "Ġmantiene": 8648,
    "ĠtenÃŃan": 4496,
    "bÃŃa": 7093,
    "Ãºmenes": 6638,
    "Ġguard": 7980,
    "ĠCar": 661,
    "Ġ1881": 6234,
    "ĠModerno": 2730,
    "ĠParti": 4093,
    "Ġse": 248,
    "gres": 1294,
    "ĠFrans": 6614,
    "iete": 2710,
    "Ġdem": 2407,
    "ĠRomero": 5896,
    "ĠVarsovia": 9217,
    "Ġtropas": 8781,
    "Î½": 3383,
    "pan": 3559,
    "ĠArtÃŃstica": 9754,
    "Ġdepos": 8368,
    "ĠVida": 3314,
    "Ġ1921": 5193,
    "ĠalegÃ³r": 7053,
    "ĠAcadÃ©m": 6222,
    "i": 61,
    "mÃ¡n": 1811,
    "ĠSegun": 2889,
    "195": 3149,
    "ĠdestacÃ³": 5174,
    "ĠBrown": 8758,
    "ques": 2017,
    "umen": 4622,
    "Ġargent": 5620,
    "ĠlÃŃ": 4525,
    "ĠacompaÃ±": 2977,
    "Ġcomb": 2926,
    "laciones": 4290,
    "igh": 4342,
    "pent": 9050,
    "Ġfin": 738,
    "ĠPanamÃ¡": 8446,
    "Ġhombres": 2994,
    "Ġcuidado": 7850,
    "orca": 4606,
    "Ġnaran": 6363,
    "Ġlle": 660,
    "ĠLaure": 8916,
    "ĺ": 176,
    "cien": 5274,
    "dar": 2892,
    "Ġenfoque": 7380,
    "Ġescen": 1100,
    "Ġclaramente": 5729,
    "pias": 2463,
    "ĠCourbet": 9578,
    "ĠAf": 5727,
    "quisiciÃ³n": 5897,
    "ina": 410,
    "ius": 6827,
    "ĠmarchÃ³": 8801,
    "irm": 1395,
    "ĠhÃ¡": 5822,
    "onio": 864,
    "ĠUnido": 5662,
    "Ġcon": 236,
    "Ġlocalidad": 4777,
    "gurÃ³": 6535,
    "Ġcorte": 2342,
    "ĠpÃºblicos": 6603,
    "ĠCharles": 3364,
    "ĠRenÃ©": 7368,
    "Ġplan": 1468,
    "olÃ³g": 1918,
    "ĠViejo": 4333,
    "ģ": 153,
    "ĠcontemporÃ¡neo": 3966,
    "ign": 2051,
    "Ġconcl": 4102,
    "ĠVÃ¡zquez": 9147,
    "ĠPeters": 4005,
    "Ġrealizar": 2787,
    "Ġrealismo": 2659,
    "Ġ1926": 4886,
    "Ġfrom": 9948,
    "iel": 9860,
    "ĠBran": 9119,
    "ĠDra": 9473,
    "ĠbasÃŃlica": 6746,
    "ĠBona": 8766,
    "Ġcontribu": 3835,
    "ĠromÃ¡n": 8044,
    "ĠcÃ³m": 7105,
    "Ġpobre": 6730,
    "Ġestu": 3887,
    "cio": 550,
    "ĠpresentÃ³": 2642,
    "ierra": 5013,
    "ĠJose": 2160,
    "taban": 6986,
    "ida": 791,
    "Ġ176": 4520,
    "uidad": 9055,
    "ĠBurgos": 6635,
    "Ġsello": 8973,
    "Ġdedicado": 4134,
    "ĠCada": 5994,
    "ĠMora": 5298,
    "ĠDepartamento": 8617,
    "Ġmundo": 1318,
    "ĠTen": 3725,
    "ĠValencia": 1953,
    "ĠapÃ³st": 5967,
    "Ġfrancesa": 3032,
    "Ġfamilias": 7993,
    "Ġparticu": 1465,
    "ĠSol": 3584,
    "Ġve": 554,
    "ĠPit": 6151,
    "ĠOr": 1477,
    "uselas": 3556,
    "Ġventa": 5450,
    "ĠNar": 8091,
    "naciÃ³n": 6362,
    "Ġtrasla": 1713,
    "rup": 6184,
    "ĠKiev": 9373,
    "ĠAya": 9971,
    "Ġaut": 6491,
    "Ġoscura": 8100,
    "Ġdistintas": 4263,
    "ĠFab": 6497,
    "Ġgrupo": 1227,
    "ĠEmbaj": 9848,
    "ĠInt": 1350,
    "Ġviaja": 8663,
    "ĠEducaciÃ³n": 5702,
    "ĠJardÃŃn": 8857,
    "Ġpuesto": 3729,
    "ĠIsabel": 2951,
    "iva": 4249,
    "Ġtapices": 6795,
    "ceta": 7242,
    "Ġempieza": 9409,
    "gulos": 9309,
    "ĠJaneiro": 7854,
    "ledo": 3432,
    "Ġdirecta": 7713,
    "Ġsentido": 2687,
    "Ġsa": 988,
    "ÃŃtulo": 7584,
    "ĠMendo": 9116,
    "ĠAndalu": 7410,
    "Ġave": 8745,
    "Ġcorrespondiente": 9817,
    "champ": 8293,
    "ĠEspe": 4826,
    "Ġsiglo": 628,
    "ĠBodegÃ³n": 9825,
    "Ġantiguas": 5313,
    "aban": 1131,
    "Ġsug": 3505,
    "Ġic": 2104,
    "Ġtren": 9250,
    "hire": 8378,
    "ĠAnexo": 9061,
    "ÃŃfico": 5482,
    "Ġmedio": 1758,
    "Ġaspecto": 3712,
    "Ġcit": 6181,
    "ĠmitolÃ³gicos": 8782,
    "Ġpaso": 3792,
    "rique": 2864,
    "Ġfiguras": 927,
    "Ġbol": 7254,
    "Ġdesapare": 4095,
    "Ġmultimedia": 6793,
    "Ġediciones": 7810,
    "ĠaÃ±o": 709,
    "ĠArchiv": 9966,
    "ĠDer": 7162,
    "ĠGÃ©nova": 8584,
    "ĠJoseph": 4030,
    "dia": 1014,
    "Ġdirige": 9514,
    "amo": 4107,
    "Ġpresent": 1333,
    "pie": 4234,
    "ĠÎº": 9043,
    "Ġoscuros": 8603,
    "Ġsuces": 4386,
    "Ġgesto": 6786,
    "Ġperteneciente": 6261,
    "Ġperdido": 4959,
    "Ġ1999": 3713,
    "Ġrelacionado": 5547,
    "Ġfir": 8327,
    "ĠIma": 8092,
    "Ġnoticia": 9285,
    "cchio": 9047,
    "Ġexpan": 8458,
    "Ġprim": 450,
    "¿": 108,
    "Ġpintado": 2107,
    "Ġvolumen": 6005,
    "Ġveces": 1957,
    "Ġplen": 6760,
    "Ġsos": 2246,
    "Barcelona": 6946,
    "ĠdebiÃ³": 5519,
    "ĠPre": 3008,
    "xic": 2521,
    "sig": 7889,
    "Ġliterario": 8474,
    "Ġautores": 3528,
    "Ġfundam": 3750,
    "ĠrevoluciÃ³n": 8025,
    "Ġeventos": 8022,
    "Ġtab": 1338,
    "Ġellos": 1450,
    "bo": 993,
    "itas": 2439,
    "Ġrecibi": 4080,
    "Ġdolor": 6374,
    "Ġmente": 9830,
    "Ġconstru": 1746,
    "Ġserie": 1127,
    "Ġom": 8427,
    "Ġdoce": 5322,
    "entar": 4167,
    "Ġub": 2302,
    "Ġoblig": 4267,
    "ĠRivera": 4975,
    "ando": 381,
    "umo": 8452,
    "Ġpas": 823,
    "ĠhistÃ³rico": 3920,
    "Ã¨ne": 5669,
    "ch": 306,
    "uso": 691,
    "ĠEgipto": 3679,
    "Ġdra": 2952,
    "ĠDebido": 6199,
    "Ġpersonales": 6307,
    "de": 186,
    "Ġsalones": 8067,
    "Ġol": 5634,
    "fal": 6556,
    ")": 8,
    "empla": 7202,
    "Ġpuertas": 5477,
    "ĠPoussin": 9730,
    "Ġ1901": 5402,
    "ĠÃĵ": 2739,
    "Ġorfe": 7664,
    "Ġbarcos": 9377,
    "Ġsolo": 1435,
    "Ġresponsable": 9740,
    "usal": 6654,
    "ĠnaciÃ³": 1994,
    "ĠalegorÃŃa": 7026,
    "Ġitinera": 8711,
    "ĠasistiÃ³": 6030,
    "dados": 3176,
    "Ġluces": 6105,
    "Ġ199": 712,
    "Ġnave": 6269,
    "Ġnub": 5787,
    "inando": 9831,
    "Ġpoder": 2434,
    "ĠEcuador": 5206,
    "rada": 974,
    "Ġmaravillos": 9857,
    "drÃŃa": 7358,
    "Ġmultitud": 8666,
    "amb": 3804,
    "Ġincorpo": 4188,
    "e": 57,
    "Ġ189": 1033,
    "Ġfon": 1372,
    "Ġexistencia": 5467,
    "Ġpuede": 1112,
    "ĠXI": 1381,
    "ĠSi": 1858,
    "Ġtradu": 3888,
    "cipe": 3772,
    "guesa": 8647,
    "Ġadoles": 7847,
    "Ġprote": 2511,
    "ite": 4037,
    "Ġfund": 7677,
    "ĠGogh": 3515,
    "Ġparroquia": 7134,
    "X": 48,
    "ĠevolucionÃ³": 9657,
    "me": 686,
    "ĠrÃ©gimen": 9133,
    "ĠMonumento": 5833,
    "gante": 5710,
    "Ġpola": 8295,
    "ĠSara": 8080,
    "red": 4236,
    "ĠReyes": 4855,
    "ĠEvangelista": 9630,
    "Ġacadem": 7437,
    "ĠTel": 9184,
    "han": 6031,
    "ĠHans": 4907,
    "Ġdejando": 6379,
    "min": 800,
    "Ġfemin": 6099,
    "las": 377,
    "tario": 3952,
    "r": 70,
    "Ġesc": 428,
    "Ġmunicipio": 9519,
    "Ã³vil": 9114,
    "Ġatribuye": 6649,
    "Ġmarcado": 8030,
    "Ġiglesia": 1224,
    "Ġdijo": 4108,
    "N": 38,
    "Ġpolicrom": 7030,
    "Ġvalora": 7444,
    "ga": 519,
    "Ġ188": 1076,
    "eri": 453,
    "ul": 384,
    "ĠAnd": 1444,
    "Ġsegui": 7519,
    "eta": 1997,
    "americ": 2796,
    "cir": 3366,
    "Ġemi": 9744,
    "Ġvis": 905,
    "ĠanÃ¡lisis": 5928,
    "unci": 4905,
    "Ġnomb": 1680,
    "Ġaluminio": 6824,
    "Ġmovimientos": 4837,
    "rÃ³nica": 8229,
    "d": 56,
    "196": 2456,
    "Ġexclusivamente": 7737,
    "ice": 1833,
    "Ġpresente": 3660,
    "Ã©st": 5063,
    "Ġcuales": 2222,
    "Ġcint": 8483,
    "ĠreacciÃ³n": 9180,
    "Ã³": 203,
    "iza": 2215,
    "Ġjulio": 2064,
    "usieron": 7170,
    "ĠDist": 6778,
    "Ġdon": 489,
    "Ġconstitu": 3917,
    "na": 401,
    "ĠPerÃº": 4513,
    "Ġpon": 4397,
    "cti": 4916,
    "unst": 2625,
    "Ġconocimiento": 4347,
    "ĠCornel": 7319,
    "Ġdesnudo": 4262,
    "Ġjes": 9163,
    "Ġarm": 4906,
    "ĠAbra": 5799,
    "ĠGua": 5092,
    "Ġmarchante": 9200,
    "Ï": 121,
    "ÃŃtico": 5905,
    "ĠAbraham": 7265,
    "Ġmilitares": 8051,
    "Ġop": 2454,
    "Ġhabla": 7128,
    "uv": 1631,
    "ÏĦ": 3510,
    "ĠSar": 4088,
    "Ġnuevamente": 6049,
    "ĠtÃŃtulos": 8557,
    "rena": 3566,
    "ĠmuriÃ³": 2359,
    "clo": 7004,
    "ille": 2120,
    "Ġderechos": 8359,
    "cion": 307,
    "ĠContempo": 7147,
    "yes": 6237,
    "ĠTrabajo": 9958,
    "venes": 3273,
    "ĠtÃ©cnico": 8441,
    "mÃ¡ticas": 5970,
    "iner": 9863,
    "Ġaguafuerte": 8203,
    "as": 210,
    "Ġembaj": 6691,
    "rÃ©s": 3662,
    "Ġprofun": 9700,
    "eo": 367,
    "Ġmat": 925,
    "pez": 3502,
    "Ġentus": 8237,
    "ĠEsco": 5779,
    "ĠWilhelm": 6696,
    "ĠMarie": 4117,
    "dador": 3668,
    "ĠBuen": 7860,
    "rimiento": 4897,
    "ĠNoruega": 9545,
    "ĠÃ³": 852,
    "Ġdestruido": 9422,
    "Ġfen": 7138,
    "ĠDinamarca": 7458,
    "Ġfel": 6368,
    "x": 76,
    "Ġon": 2966,
    "Ġpinta": 5732,
    "brica": 6295,
    "Ġblo": 7660,
    "Ġmurales": 2493,
    "ĠPan": 3418,
    "cli": 9548,
    "Ġesposo": 6293,
    "licos": 3358,
    "Ġvid": 3401,
    "itada": 4882,
    ".-": 7057,
    "ĠinstituciÃ³n": 5046,
    "Ġutilizada": 8063,
    "ĠFor": 2483,
    "ĠningÃºn": 4859,
    "Ġfundado": 7287,
    "Ġtorm": 9090,
    "Ġclaustro": 8709,
    "Ġnuestros": 9434,
    "ĠMarc": 6305,
    "iene": 947,
    "Ġfro": 4057,
    "Ġdestacando": 6705,
    "Ġalma": 4189,
    "Ġeleg": 8301,
    "ĠcÃ³mic": 9426,
    "Ġinicia": 4966,
    "cip": 555,
    "Ġespi": 3694,
    "ĠCuba": 3031,
    "icos": 493,
    "Ġfuncion": 5223,
    "ĠMallorca": 6319,
    "jeron": 6125,
    "Ġrecur": 3893,
    "ĠEliz": 9498,
    "ĠApol": 9893,
    "Ġnaturales": 6162,
    "omen": 1708,
    "ĠVÃ©ase": 2028,
    "Ġincluido": 6615,
    "Ġpintora": 2046,
    "ablo": 1648,
    "Ġevento": 7538,
    "ĠNational": 3150,
    "Ġcitado": 8388,
    "Ġ1991": 3871,
    "Ġdibujos": 1519,
    "imedia": 7263,
    "side": 7271,
    "ancia": 1163,
    "urs": 5708,
    "Ġpergamino": 8813,
    "CA": 7221,
    "wer": 6329,
    "Ġdisco": 8510,
    "Ġcompa": 3717,
    "Ġesque": 4368,
    "Ġform": 1073,
    "cor": 1173,
    "ĠAntonio": 1277,
    "ĠPub": 5275,
    "Ġevitar": 7762,
    "ity": 3974,
    "ĠquiÃ©n": 7934,
    "ĠconstrucciÃ³n": 2935,
    "16": 1144,
    "ĠcomposiciÃ³n": 1622,
    "ĠCornelis": 8932,
    "Ġdomin": 2666,
    "laban": 9168,
    "anci": 5406,
    "ĠMax": 4460,
    "ĠcolecciÃ³n": 1097,
    "ĠAlexander": 7551,
    "Ġdecla": 4243,
    "ĠPortugal": 5375,
    "oro": 3783,
    "medi": 5541,
    "Ġvi": 471,
    "Ġfamiliar": 3932,
    "zÃ¡": 2405,
    "Ġsimilar": 3373,
    "Y": 49,
    "gust": 2589,
    "rer": 5135,
    "ĠsÃ¡": 6961,
    "Ġinver": 7601,
    "Ġblanco": 2309,
    "ĠHotel": 6611,
    "ĠGrand": 9189,
    "so": 563,
    "Ġrango": 9490,
    "Ġsimboliza": 8284,
    "ĠCue": 6703,
    "ĠBlanca": 9909,
    "Ġcreado": 4816,
    "rio": 1052,
    "Ã¡culos": 9833,
    "Ġdefini": 2841,
    "ĠCa": 596,
    "et": 383,
    "ĠViena": 3022,
    "conoci": 1223,
    "ĠTheo": 5248,
    "Ġ2010": 3133,
    "ĠPis": 9692,
    "cuen": 2930,
    "Ã©rcito": 4501,
    "Ġfigurativo": 7286,
    "sula": 6458,
    "¨": 86,
    "itar": 1542,
    "Ġregreso": 3837,
    "Ġot": 479,
    "ĠÃºnicamente": 5806,
    "Ġtar": 1331,
    "Ġegip": 4863,
    "rina": 8132,
    "Ġeditorial": 7351,
    "Ġtalla": 6733,
    "Ġdella": 4259,
    "Ġprimarios": 9902,
    "Ġcrisis": 8129,
    "Ġpesar": 2293,
    "Ġjust": 6306,
    "Ġauto": 3020,
    "n": 66,
    "org": 1988,
    "Ġmen": 723,
    "Ġfundadores": 7905,
    "Ġdie": 4512,
    "Ġbue": 3553,
    "laciÃ³n": 1672,
    "ide": 677,
    "Ġrepos": 8500,
    "18": 641,
    "Ġfechado": 5734,
    "Ġcristianos": 7017,
    "ĠautorÃŃa": 6375,
    "Ġesculturas": 2386,
    "Ġflor": 6277,
    "ĠCapilla": 4477,
    "ĠLeo": 5380,
    "ĠSa": 838,
    "ntesis": 7115,
    "ĠMag": 2066,
    "Ġcele": 1817,
    "ĠCanal": 9021,
    "Ġfinales": 1938,
    "Ġconcur": 6624,
    "Ġhermos": 4737,
    "ĠLibro": 3474,
    "ĠquizÃ¡": 5968,
    "ĠcelebraciÃ³n": 9938,
    "ith": 6075,
    "pone": 3799,
    "ambi": 408,
    "Ġestudiando": 9337,
    "Ġmoda": 4399,
    "Ġesquema": 8652,
    "ĠBasÃŃlica": 6956,
    "ĠmÃ©todo": 5548,
    "ĠcomÃºn": 3337,
    "ĠMano": 9251,
    "ĠsurgiÃ³": 7014,
    "cla": 1917,
    "ĠBur": 2906,
    "ĠPens": 7598,
    "ladelfia": 6441,
    "part": 3698,
    "ĠConstant": 5372,
    "rentes": 6975,
    "ĠY": 652,
    "Ġapunt": 6628,
    "pÃ³n": 3890,
    "Ġocas": 2031,
    "rea": 1801,
    "ĠCat": 2910,
    "Ã¡z": 2551,
    "Ġmode": 1279,
    "ĠapariciÃ³n": 6123,
    "Ġmunicip": 7213,
    "ĠFalleciÃ³": 4660,
    "Ġcont": 443,
    "tolÃ³g": 4020,
    "Ġde": 187,
    "meda": 9166,
    "ĠPers": 7166,
    "ulouse": 7798,
    "vos": 3224,
    "Ġpertene": 1962,
    "Ġagua": 2179,
    "mez": 3967,
    "Ġcercan": 6240,
    "ĠMÃ©": 1003,
    "ĠQ": 1215,
    "loria": 6436,
    "ĠsarcÃ³fa": 9634,
    "ĠestaciÃ³n": 9273,
    "ĠEjÃ©rcito": 9085,
    "Ġsangre": 7392,
    "Ġfragmento": 7643,
    "uenos": 1688,
    "todo": 3706,
    "aciÃ³n": 695,
    "Ġexten": 2681,
    "«": 89,
    "ĠpÃ¡jaros": 8322,
    "cando": 3802,
    "Ġ2000": 3119,
    "Ġincur": 9092,
    "um": 355,
    "ronce": 2905,
    "ĠMagos": 6918,
    "Ġretrospectiva": 4874,
    "ex": 2296,
    "ĠAutor": 4872,
    "Ġinteresante": 9483,
    "Ġdesconoce": 7781,
    "ĠCafÃ©": 9874,
    "Ġprofundi": 4624,
    "Ġoccidental": 4547,
    "Ġespacios": 4118,
    "zgo": 6298,
    "Ġrecoge": 9574,
    "ranj": 3026,
    "Ġcompromiso": 9088,
    "ĠLes": 4270,
    "jero": 8995,
    "ĠHuman": 9942,
    "ĠYo": 5830,
    "Ġcere": 9129,
    "Ġecon": 3353,
    "fos": 4861,
    "ĠexhibiciÃ³n": 4533,
    "Ġmathfrak": 8700,
    "Ġ2003": 3697,
    "ĠRos": 1989,
    "quis": 3153,
    "ret": 3384,
    "Ġmin": 1516,
    "ĠMuestra": 7021,
    "vÃŃan": 8183,
    "Ġhist": 739,
    "Ġreconocido": 4866,
    "Ġbien": 1278,
    "uran": 6976,
    "Ġad": 892,
    "Ġretra": 600,
    "Ġestas": 1733,
    "dero": 3003,
    "cida": 2281,
    "ĠPere": 6479,
    "Ġgusto": 3874,
    "ĠtÃŃtulo": 2298,
    "inete": 6167,
    "rante": 5379,
    "ĠGiuse": 9625,
    "Ġmanif": 3865,
    "bet": 7646,
    "ernes": 9258,
    "ĠexcepciÃ³n": 8591,
    "Ġtemprana": 5023,
    "Ġdell": 9144,
    "Ġinfant": 5985,
    "Ġrin": 9342,
    "cimientos": 6044,
    "Ġclases": 2820,
    "ibles": 4183,
    "Ġcaracteriza": 5534,
    "ĠfiguraciÃ³n": 7910,
    "partamento": 5152,
    "ĠFriedrich": 7238,
    "Ġcultiv": 5817,
    "ĠFrancisco": 1263,
    "ĠXIV": 4665,
    "rama": 6043,
    "stros": 6623,
    "ĠRubens": 3468,
    "Ġvela": 8377,
    "ĠMir": 9225,
    "Ġcuad": 595,
    "didas": 4891,
    "museum": 6206,
    "ĠiluminaciÃ³n": 6242,
    "Ġmere": 9697,
    "Ġsoldados": 6463,
    "Ġvestido": 3526,
    "ĠPel": 9693,
    "aragoza": 3536,
    "alleres": 5019,
    "ĠLoren": 2641,
    "ĠpaÃŃses": 3631,
    "Ġmonjes": 9481,
    "ie": 352,
    "izi": 5427,
    "º": 103,
    "Ġsantos": 3073,
    "ĠSeÃ±ora": 4144,
    "ĠAcademy": 5607,
    "ĠhabÃŃa": 822,
    "ĠÃºltimos": 2808,
    "dir": 5096,
    "ertad": 4120,
    "Ġhon": 4024,
    "Ġreconocimiento": 4219,
    "Ġpie": 1047,
    "Ġhumano": 4034,
    "Ġexcl": 4454,
    "ĠparecÃŃa": 9597,
    "Ġd": 297,
    "Ġmonumento": 3530,
    "Ġpigmento": 7148,
    "ĠBien": 2004,
    "Ġase": 6001,
    "ĠAle": 1001,
    "cul": 579,
    "Ġtam": 7568,
    "ĠserÃŃa": 2741,
    "Ġregular": 7420,
    "Ġcorriente": 5304,
    "Ġentera": 9915,
    "Ġtitu": 2349,
    "Ġcarta": 4282,
    "ĠEstuvo": 8435,
    "ĠLegado": 9257,
    "ĠEuropa": 1759,
    "ĠdiscÃŃ": 2403,
    "Ġdebe": 3328,
    "vas": 2919,
    "Ġbocetos": 4514,
    "ily": 8705,
    ":": 22,
    "Ġpoten": 8189,
    "Ġhi": 656,
    "ptico": 2685,
    "embre": 886,
    "Ġvisitas": 9212,
    "ĠincluÃŃa": 7642,
    "ĠPINTURA": 8879,
    "ĠMo": 657,
    "ranza": 6371,
    "Ġdenota": 9992,
    "ĠarquitectÃ³nico": 7716,
    "ĠDominicana": 9262,
    "uber": 8212,
    "Ġespectador": 2780,
    "ĠGuti": 8216,
    "tivos": 1301,
    "ĠarmonÃŃa": 7537,
    "uz": 7282,
    "Ġvon": 3451,
    "ĠorganizaciÃ³n": 6684,
    "ĠdecisiÃ³n": 9190,
    "Ġinaugura": 3592,
    "Ġcontrajo": 7227,
    "ĠBilbao": 4159,
    "landa": 3797,
    "cl": 607,
    "Ġbanco": 9649,
    "ciÃ³n": 251,
    "Ġperman": 1761,
    "rile": 5846,
    "ĠGuggenheim": 8326,
    "ÃŃos": 5436,
    "Ġcubier": 3700,
    "Ġhal": 5170,
    "Ã©tico": 3363,
    "per": 878,
    "ganiz": 1621,
    "ĠGerona": 9961,
    "Ġhelen": 9889,
    "lar": 516,
    "Ġempleo": 8324,
    "ĠformaciÃ³n": 2148,
    "Ġayud": 5250,
    "ĠconociÃ³": 2701,
    "estival": 4248,
    "che": 1305,
    "cada": 3052,
    "Ġprima": 4598,
    "ĠMaestro": 3838,
    "Ġx": 1217,
    "w": 75,
    "Ġdorada": 8457,
    "Ġdada": 7187,
    "ĠMorales": 9355,
    "81": 8130,
    "ĠArm": 6858,
    "E": 29,
    "ĠinterÃ©s": 2444,
    "Ġimpresionismo": 5057,
    "Ġtitulada": 4873,
    "Ġcobre": 5777,
    "ĠpasiÃ³n": 6806,
    "ĠBoliv": 8581,
    "peti": 5552,
    "Ġutilizado": 5074,
    "ĠHum": 4664,
    "Ġcondu": 4716,
    "ĠColegio": 4336,
    "-,": 8544,
    "Ġdestacadas": 5535,
    "Ġta": 3545,
    "ira": 2630,
    "Ġrue": 7179,
    "Ġsil": 4250,
    "Ġl": 221,
    "Ġpastores": 7251,
    "ĠSÃ£o": 6573,
    "Ġello": 2572,
    "nos": 1284,
    "Ġpublica": 2993,
    "ĠPablo": 2185,
    "Ġfuerte": 2705,
    "Ġamplio": 5649,
    "Ġconquista": 9616,
    "Ġ1969": 4669,
    "ĠadoptÃ³": 9439,
    "ĠCerv": 7873,
    "ish": 6315,
    "Ġtipos": 5051,
    "Ã¡ndose": 1620,
    "ula": 2236,
    "fico": 5140,
    "Ġsint": 5290,
    "Ġrefu": 8265,
    "Ġexponer": 5678,
    "Ġhorizo": 4860,
    "Ġninguna": 4451,
    "Ġotros": 755,
    "dades": 1351,
    "ĠPortrait": 8115,
    "ļ": 178,
    "ombar": 8263,
    "Ð½": 4325,
    "bos": 7071,
    "Ġvie": 3869,
    "ĠeconÃ³m": 5404,
    "Ġprofunda": 7459,
    "piÃ³": 9185,
    "ÃŃr": 1651,
    "82": 7782,
    "ure": 1679,
    "Ġiglesias": 4109,
    "Ġprotagonistas": 9544,
    "fici": 698,
    "ĠToulouse": 8065,
    "Ã¼n": 7228,
    "Ġresistencia": 9577,
    "Ġfras": 7739,
    "tidos": 9118,
    "ĠThomas": 3828,
    "talia": 1364,
    "ĠTo": 1149,
    "ĠVictoria": 5177,
    "Ġ1878": 6358,
    "rell": 9437,
    "hibi": 5429,
    "Ãºs": 973,
    "arlo": 5393,
    "Ġancho": 5022,
    "iencia": 2569,
    "Ġ1978": 4354,
    "Ġlaterales": 5310,
    "Ġobtener": 5432,
    "Ġcasas": 5155,
    "ÃŃb": 4105,
    "ĠPasiÃ³n": 7258,
    "ĠCara": 1982,
    "Ġdestru": 8723,
    "Ġdere": 1330,
    "Ġcer": 935,
    "alizado": 3788,
    "Ġestudiantes": 5389,
    "ĠPrimeros": 7317,
    "Ġvertic": 5809,
    "pp": 8072,
    "illy": 7547,
    "omb": 697,
    "ĠgÃ©neros": 6759,
    "vico": 7699,
    "ĠBau": 2360,
    "cerdo": 5525,
    "Ġacer": 2797,
    "ĠdifÃŃ": 4012,
    "Ġasunto": 7895,
    "Ġevidencia": 6773,
    "ĠcrÃŃticos": 4178,
    "cular": 5269,
    "ĠInterior": 9702,
    "Ġren": 3560,
    "ĠUniversity": 7681,
    "cy": 5681,
    "Ġsuelo": 4776,
    "ĠHugo": 9516,
    "itando": 7125,
    "nas": 2072,
    "Ġmodo": 2471,
    "ĠRodrÃŃ": 4637,
    "ose": 7610,
    "Ġsuelen": 7090,
    "ĠNicola": 8381,
    "Ġ1830": 8374,
    "ĠConcepciÃ³n": 5143,
    "arago": 3504,
    "Ġderecho": 3899,
    "Ġrefleja": 4804,
    "gancia": 9812,
    "Ġconcep": 2665,
    "one": 1563,
    "Ġata": 4304,
    "ĠChristian": 8759,
    "Ġcol": 613,
    "ntexto": 3894,
    "Ġlista": 6126,
    "ĠAcadÃ©mie": 8404,
    "erido": 5240,
    "ĠlÃ¡minas": 6971,
    "Ġ169": 5352,
    "ĠimpresiÃ³n": 4381,
    "Ġfechada": 7425,
    "ĠBorgo": 8580,
    "Ġgeneraciones": 9623,
    "ĠAst": 5318,
    "ĠProbablemente": 9343,
    "ĠdinastÃŃa": 5635,
    "Ġsensi": 4940,
    "Ġo": 249,
    "elos": 6907,
    "Ġdestacados": 5120,
    "Ġhistoria": 1370,
    "vol": 6382,
    "Ġtablas": 3770,
    "ĠhipÃ³": 8532,
    "Ġdecide": 9320,
    "cter": 972,
    "×": 129,
    "Ã¡ct": 2590,
    "ĠMari": 9230,
    "Ġpublicado": 3841,
    "CO": 6172,
    "M": 37,
    "ajest": 8637,
    "ĠlitografÃŃa": 8605,
    "ĠMil": 2299,
    "ĠUniÃ³n": 4961,
    "Ġdesnu": 3579,
    "bieron": 9949,
    "Ġment": 9774,
    "Ġposteriores": 3654,
    "Ġflan": 9666,
    "ĠMas": 2767,
    "cuela": 1028,
    "Ġcomercia": 5487,
    "Ġ147": 8153,
    "Ġllegada": 5370,
    "ĠAz": 3436,
    "Ġbeca": 4769,
    "tÃ³n": 3624,
    "Ġpedest": 8893,
    "Ġrelato": 7442,
    "ccio": 6484,
    "ĠJane": 6154,
    "Ã³st": 3368,
    "Ġembajador": 9742,
    "Ġnumeros": 1606,
    "dencias": 3970,
    "ime": 3218,
    "Ġate": 9052,
    "b": 54,
    "Ġmarzo": 1929,
    "Ġmasa": 9818,
    "L": 36,
    "alidades": 3109,
    "11": 2996,
    "Ġdiplom": 8976,
    "ĠCuatro": 8828,
    "Ġextra": 2498,
    "Ġproblema": 9304,
    "ĠinvenciÃ³n": 9333,
    "Ġvigor": 9326,
    "Ġespal": 6158,
    "ĠgÃ³tica": 8834,
    "ĠregresÃ³": 3115,
    "omo": 1933,
    "Ġ1853": 9541,
    "lier": 6833,
    "Ġbril": 2815,
    "Ġproven": 6608,
    "Ġlecciones": 8188,
    "ureza": 8964,
    "ĠMe": 1121,
    "Ł": 183,
    "ĠEugenio": 8007,
    "Ġbailar": 8922,
    "Ġapart": 8015,
    "Ġresultado": 3844,
    "Ġornam": 4544,
    "ĠSorolla": 8422,
    "dÃ³n": 5384,
    "presionista": 9695,
    "Ġso": 363,
    "Ġcalles": 5579,
    "sky": 5253,
    "Ġcru": 3194,
    "ĠMientras": 4396,
    "Ġcole": 638,
    "Ġcomposi": 6949,
    "ĠCorte": 7246,
    "Ġcura": 6264,
    "Ġimprim": 9063,
    "dalu": 5111,
    "ĠCorre": 7257,
    "olÃ³gico": 4073,
    "ĠconstruyÃ³": 7324,
    "Ġconver": 2415,
    "Ġencont": 1143,
    "ĠFried": 6038,
    "vania": 6923,
    "dado": 1709,
    "gura": 2635,
    "Ġrevista": 2520,
    "ĠcÃ¡mara": 4610,
    "Ġinfancia": 4630,
    "ĠhabrÃŃa": 3848,
    "Ġinstru": 9921,
    "Ġpsic": 7670,
    "terales": 4987,
    "tipo": 9272,
    "Ġmencion": 2346,
    "Ġindustria": 7801,
    "Ġ50": 3937,
    "erior": 611,
    "ĠAllÃŃ": 3426,
    "ĠLib": 2002,
    "Ġmuros": 6568,
    "ĠPremios": 3708,
    "amiento": 1178,
    "ĠcentÃŃmetros": 7350,
    "ĠTinto": 9253,
    "Ġabri": 5388,
    "cional": 520,
    "Ġfactura": 9907,
    "Ġsimbolista": 9379,
    "Ġverdad": 6659,
    "ĠNorte": 5001,
    "ĠFarnes": 9135,
    "ĠCoruÃ±a": 8533,
    "Ġdeci": 1407,
    "ĠFilip": 5765,
    "Ĩ": 158,
    "au": 643,
    "Ġrepresentantes": 7756,
    "Ġescala": 5382,
    "stan": 9140,
    "Ġpropor": 2788,
    "Ġenten": 4977,
    "ualidad": 6443,
    "ĠmontaÃ±as": 7218,
    "Ġtestimonio": 8975,
    "ĠTÃ©cnica": 8424,
    "Ġade": 2920,
    "ade": 7955,
    "ĠCap": 2430,
    "Ġexplica": 7534,
    "ĠiconografÃŃa": 4933,
    "Ġplano": 2577,
    "Ġcent": 874,
    "ĠEstatal": 6429,
    "sor": 3866,
    "Ġsuyos": 9226,
    "Ġ1882": 6451,
    "jetos": 1897,
    "ĠDresde": 6365,
    "Ġcomposiciones": 3029,
    "ĠcrÃ¡": 9716,
    "Ġmon": 1000,
    "ol": 286,
    "ust": 1192,
    "Ġtexto": 2391,
    "Ġneces": 2440,
    "Ġdiversos": 2253,
    "ĠDesta": 5271,
    "Ġenfermedad": 5975,
    "quist": 8888,
    "Ġvanguar": 2969,
    "erba": 7995,
    "ĠrÃ¡pidamente": 7182,
    "Ġcola": 7590,
    "Ġveneciano": 8304,
    "zÃ¡s": 5190,
    "lacio": 1184,
    "ĠBernardo": 6591,
    "entado": 3902,
    "depen": 2401,
    "untos": 2412,
    "landÃ©s": 3359,
    "pont": 7958,
    "yck": 3312,
    "ĠAutorretrato": 6496,
    "ĠEstado": 3192,
    "ĠAlberto": 3629,
    "Ġinno": 4608,
    "etti": 5685,
    "ĠCommons": 7056,
    "Ġpedestal": 9688,
    "Ġexhibe": 5828,
    "maciÃ³n": 2480,
    "Ġeso": 5706,
    "Ġuniverso": 9461,
    "ĠGerar": 8724,
    "ted": 1518,
    "Ġtierras": 7580,
    "atori": 8820,
    "Ġazules": 7325,
    "rente": 3742,
    "ek": 8366,
    "Ġsignific": 6140,
    "ste": 1348,
    "ĠBiblioteca": 2723,
    "cademia": 917,
    "xido": 9827,
    "edades": 7465,
    "Ġbrasile": 8405,
    "Ġreflejo": 8338,
    "Ġacci": 8220,
    "Ġblanca": 5663,
    "ĠTeo": 8356,
    "Ġ1987": 3872,
    "Ġllev": 1334,
    "gip": 2361,
    "ĠfÃŃsica": 9284,
    "Ġveget": 7933,
    "tus": 7399,
    "Ġvoluntad": 8685,
    "kov": 4298,
    "putaciÃ³n": 3433,
    "tivas": 1366,
    "ĠsalÃ³n": 5481,
    "Ġhecho": 1566,
    "ĠCatalina": 4435,
    "lock": 8887,
    "ĠOtras": 5009,
    "ĠCarrera": 5859,
    "ĠIt": 7044,
    "ĠMaxim": 9004,
    "Ġarzob": 9590,
    "ĠKV": 8411,
    "Ġpleno": 9348,
    "ĠBeck": 9954,
    "lesiÃ¡st": 9359,
    "Ġby": 9778,
    "Ġdo": 619,
    "Ġdedica": 5725,
    "tiendo": 8187,
    "mÃ³s": 5680,
    "Ïħ": 4632,
    "Ġasimismo": 8094,
    "ĠSegÃºn": 2256,
    "ĠniÃ±os": 3408,
    "Ġ500": 8193,
    "Ġambi": 2462,
    "Ġhabiendo": 9392,
    "Ġpoco": 1633,
    "urales": 7839,
    "ĠTodas": 9600,
    "ĠcontÃ³": 9255,
    "ens": 926,
    "ĠIsrael": 8176,
    "Ġdecorativo": 6561,
    "Ãºl": 6146,
    "Ġmismas": 7603,
    "Ġche": 8632,
    "ĠabriÃ³": 5892,
    "quet": 7419,
    "Ġdedicados": 9758,
    "ritu": 2216,
    "ben": 4770,
    "unciÃ³n": 4639,
    "Ġcastel": 9102,
    "ĠafirmÃ³": 9576,
    "Ġmun": 1072,
    "Ñĥ": 8791,
    "Ġflamencos": 6665,
    "ĠInmaculada": 7370,
    "ctores": 3930,
    "ĠHer": 1820,
    "lanes": 9619,
    "teau": 6898,
    "Ġgobierno": 3060,
    "Ġvol": 1295,
    "Äĩ": 7485,
    "ĠperÃŃo": 1779,
    "Ġreci": 876,
    "Ã¡genes": 1683,
    "Ġhab": 488,
    "ĠadquisiciÃ³n": 9904,
    "Ġexcep": 4921,
    "Ġpaleta": 5287,
    "Ġtransi": 7337,
    "Ġho": 1030,
    "Sa": 7738,
    "cep": 943,
    "Ġquedan": 9014,
    "zanne": 5659,
    "mann": 3279,
    "Ġnatal": 3136,
    "mas": 796,
    "Ġimportante": 1704,
    "Ã³rdoba": 3180,
    "ĠSon": 3843,
    "Los": 8070,
    "Ġasocia": 9216,
    "enera": 908,
    "Ġobstante": 4840,
    "Ġcomo": 311,
    "ĠAquÃŃ": 6789,
    "Ġinac": 7602,
    "ka": 1875,
    "icia": 3371,
    "Ġin": 296,
    "IST": 9356,
    "Ġacce": 8919,
    "ĠWat": 6185,
    "Ġrecor": 2626,
    "Ġra": 931,
    "ister": 5498,
    "Ġmoder": 1446,
    "Ġpropie": 4573,
    "Ġelemento": 4787,
    "leo": 816,
    "Ġdemuestra": 7549,
    "ĠDom": 3814,
    "val": 1827,
    "laron": 7332,
    "Ġprimavera": 6008,
    "licas": 3444,
    "ĠAmÃ©rica": 3300,
    "lo": 262,
    "Ġsuerte": 9802,
    "Ġparte": 623,
    "ĠFuer": 6820,
    "Ġsubje": 9397,
    "leos": 4503,
    "ÃŃsimo": 6239,
    "stro": 3302,
    "ĠHay": 3296,
    "Ġculto": 6671,
    "Ġgrie": 1919,
    "ĠSebastiÃ¡n": 4286,
    "Ġdestacada": 7981,
    "197": 2406,
    "Ġdenomin": 2982,
    "ĠCÃ©s": 7329,
    "ĠJan": 2144,
    "vÃŃa": 2111,
    "Ġp": 193,
    "Ġarcos": 8076,
    "Ġduda": 5128,
    "Ġrepresentan": 3200,
    "ĠAndrea": 3627,
    "Ġhasta": 702,
    "ĠMÃ¡laga": 4228,
    "ĠcompaÃ±": 2691,
    "Ġdibujar": 6068,
    "Ġmost": 3043,
    "ky": 8815,
    "ĠMiami": 6664,
    "ente": 293,
    "Ġprecisamente": 9267,
    "dust": 2760,
    "mitage": 6883,
    "cur": 1090,
    "ea": 1289,
    "ĠInter": 1656,
    "vid": 2280,
    "form": 3730,
    "Ġgui": 4747,
    "Ġi": 1932,
    "ĠaÃºn": 2333,
    "ĠÃ¡tico": 7774,
    "ĠBartol": 4952,
    "Ġextranjero": 5507,
    "ĠFlorencia": 1887,
    "Ġhombre": 1869,
    "ĠOviedo": 8041,
    "Ġtalento": 4380,
    "ĠmÃ©dico": 7157,
    "gent": 1530,
    "ficamente": 6094,
    "tedra": 9376,
    "Ġmono": 3911,
    "Ġmez": 2890,
    "Ġatribu": 2278,
    "Ġmill": 4543,
    "ĠFoto": 7576,
    "Ġpaisaje": 1502,
    "Ġocasiones": 3111,
    "ĠAlgunas": 4580,
    "Ġdul": 7861,
    "ĠvisitÃ³": 5504,
    "Ġreserv": 9504,
    "xim": 2308,
    "lores": 5489,
    "Ġhabitu": 3393,
    "ĠCant": 5814,
    "Ġcuarto": 5573,
    "De": 9547,
    "Ġama": 4772,
    "Ġdibuj": 4992,
    "Ġuni": 2116,
    "colmo": 8227,
    "ĠplÃ¡sticas": 5791,
    "ĠMendoza": 9328,
    "igos": 6547,
    "ĠMonet": 5338,
    "cena": 5495,
    "ok": 4207,
    "Ġautora": 9398,
    "versidad": 1212,
    "ĠAlejand": 3193,
    "icu": 8763,
    "160": 8776,
    "ĠsÃŃmbolos": 5448,
    "Ġmatrimonio": 2479,
    "Ġintele": 3984,
    "ĠhabitaciÃ³n": 5918,
    "ĠtÃ©rminos": 7520,
    "io": 279,
    "ĠEse": 4557,
    "Ġfrecue": 5578,
    "Ġcoron": 6116,
    "Ã©ndose": 2899,
    "ĠRenoir": 5490,
    "mo": 349,
    "stas": 537,
    "ĠLau": 8504,
    "Ġlien": 930,
    "ĠCele": 9895,
    "ĠAlex": 3503,
    "0": 12,
    "Ġjurado": 8294,
    "Ġcamino": 4192,
    "lamo": 8996,
    "ule": 6567,
    "Ġcolore": 8214,
    "Ġobje": 1975,
    "tivamente": 2417,
    "Ġvarias": 1515,
    "ĠconvirtiÃ©ndose": 9084,
    "atal": 1020,
    "Ġcontinuar": 8137,
    "lamento": 9877,
    "ĠMedellÃŃn": 8646,
    "terio": 8438,
    "ĠÃ³leos": 5561,
    "ha": 1191,
    "ĠdepÃ³": 7684,
    "ĠMunicip": 9506,
    "ĠCentral": 5354,
    "ĠBuenos": 1896,
    "Ġcombina": 8583,
    "Ġamarillo": 3274,
    "ĠObras": 2194,
    "andro": 7065,
    "ĠImperial": 7736,
    "Ġdatos": 6911,
    "Ã¡ticas": 6680,
    "ĠtambiÃ©n": 474,
    "Ġelegido": 5546,
    "Ġequipo": 7447,
    "ĠGÃ³": 3915,
    "fil": 3673,
    "Ġ1927": 4613,
    "Ġvisitantes": 9179,
    "ĠInglaterra": 2726,
    "ĠmÃ¡s": 378,
    "Ġedificios": 3482,
    "ĠLima": 3941,
    "ĠPue": 3539,
    "ĠinaugurÃ³": 7169,
    "Ġmarca": 7476,
    "stÃŃa": 3723,
    "Ġdemost": 9631,
    "tene": 1748,
    "Ġmuralista": 7793,
    "adura": 6724,
    "Ġesfuerzo": 8930,
    "ambiÃ©n": 416,
    "itados": 7630,
    "ĠHo": 1172,
    "Ġper": 342,
    "Ġdue": 9531,
    "ĠpequeÃ±o": 2761,
    "ĠclÃ¡sica": 4424,
    "ĠComen": 5650,
    "ĠrecibiÃ³": 1744,
    "uncia": 8149,
    "Ã³nica": 4663,
    "Ġdan": 3773,
    "Ġdirecto": 8896,
    "ĠKar": 4480,
    "Ġtap": 4311,
    "Ġrecuerda": 5072,
    "ĠEscultura": 3910,
    "ou": 4924,
    "Ġ[.]": 8804,
    "ntico": 6997,
    "Ġch": 1616,
    "Ġprivado": 8442,
    "Ġgrado": 7060,
    "raba": 5665,
    "ĠIsa": 6885,
    "Ġcasos": 5723,
    "fic": 873,
    "irÃ³": 3062,
    "Ġtan": 1769,
    "Ġese": 1332,
    "tit": 8704,
    "ĠNÃº": 7687,
    "ĠLorenzo": 2949,
    "ĠMara": 7333,
    "Ġexterior": 4455,
    "lante": 2024,
    "Ġ55": 9679,
    "pe": 368,
    "ĠGalleria": 7247,
    "Ġartistas": 733,
    "erdo": 3628,
    "Ø": 130,
    "Ġple": 8056,
    "Ġprin": 8311,
    "Ġabo": 6658,
    "Ġterreno": 7441,
    "Ġaco": 3442,
    "Ġpreg": 8393,
    "ĠAlfred": 6648,
    "ĠllegÃ³": 2465,
    "res": 254,
    "plona": 7027,
    "Ãºm": 1682,
    "gre": 2234,
    "Ġricos": 9436,
    "ionalmente": 8771,
    "ĠMu": 1203,
    "tic": 999,
    "ĠRij": 7965,
    "ĠApÃ³": 8793,
    "Ġmanifiesto": 7984,
    "ĠParque": 7959,
    "Ġactriz": 8287,
    "erra": 1788,
    "Ġ1955": 4612,
    "ParÃŃs": 6000,
    "imismo": 4179,
    "iedad": 2364,
    "Ġrus": 9019,
    "Ġperformance": 7697,
    "olÃ³gica": 4476,
    "mi": 473,
    "rencia": 975,
    "Ġpuro": 8934,
    "Ġacademia": 5213,
    "Ġfuerza": 4288,
    "Ġpasar": 5826,
    "Ġencuentro": 7064,
    "imos": 5394,
    "Ġbrazos": 5212,
    "ĠCranach": 9117,
    "Ġ1907": 5280,
    "ĠPont": 7423,
    "Ġventanas": 8120,
    "ire": 1998,
    "ĠCol": 1040,
    "Ġaca": 7058,
    "Ġale": 1095,
    "Ġdio": 2494,
    "Ġtrabajaron": 8823,
    "Ġcompletamente": 5260,
    "do": 226,
    "].": 8166,
    "ĠValent": 7863,
    "go": 357,
    "usi": 3476,
    "rando": 1655,
    "Ġestuvieron": 8230,
    "Ġgi": 8110,
    "ĠThÃ©": 6632,
    "Ġterren": 7935,
    "Ġiconos": 8850,
    "ĠBasilea": 9323,
    "Ġhe": 922,
    "ĠCampo": 6849,
    "Ġrea": 5509,
    "omÃ©": 2422,
    "Ã¡nch": 4063,
    "Ġencu": 6356,
    "urice": 7046,
    "ĠAy": 2861,
    "Ġoch": 6799,
    "ficio": 1692,
    "Ġchilena": 9852,
    "Ġcontinu": 1732,
    "Ġcatorce": 8898,
    "15": 1246,
    "Ġinglesa": 7717,
    "Ġnarra": 4279,
    "Ġproducir": 6836,
    "ĠGonzÃ¡lez": 3782,
    "Ġproye": 1609,
    "ĠÃ©ste": 6078,
    "Ġobserva": 4256,
    "Ġdipl": 7073,
    "Ġmenciona": 6619,
    "ÃŃculos": 5343,
    "Ġis": 2650,
    "onas": 4087,
    "ĠCosme": 8733,
    "ĠJuana": 7389,
    "Ġay": 1796,
    "Ġparti": 724,
    "cund": 5233,
    "Ġ37": 9878,
    "entaciÃ³n": 2102,
    "ĠZ": 900,
    "ĠVe": 2967,
    "Ġcultural": 2845,
    "Ġdirigido": 8345,
    "igura": 569,
    "Ġinfluencia": 1417,
    "Ġcomunes": 7505,
    "laga": 3819,
    "ĠCupido": 7978,
    "ĠPalacio": 1716,
    "Ġcu": 321,
    "iago": 1665,
    "ampa": 8796,
    "bana": 8386,
    "ĠpermitiÃ³": 4867,
    "mu": 9743,
    "eries": 4047,
    "uth": 6340,
    "Ġpartir": 1371,
    "ĠContemporary": 9612,
    "varez": 6361,
    "para": 1911,
    "ĠdebÃŃan": 9573,
    "Ġvalor": 3764,
    "Ġconven": 3082,
    "ĠacadÃ©micos": 9382,
    "teral": 6369,
    "elig": 7110,
    "ĠSilva": 9441,
    "Ġsigue": 4657,
    "ĠMichael": 6651,
    "Ġurbano": 6892,
    "Ġsimboliz": 7917,
    "Ġemble": 6657,
    "ĠPaÃŃses": 3998,
    "Ġ": 151,
    "9": 21,
    "imas": 7174,
    "ara": 1725,
    "Ġservi": 3114,
    "ĠVol": 4404,
    "Ġatribuidas": 8832,
    "ĠOrozco": 7564,
    "ĠÃģl": 4327,
    "20": 1156,
    "ĠBÃ¡rbara": 9710,
    "Ġhierro": 6749,
    "Ġautorretrato": 6187,
    "chen": 5255,
    "§": 85,
    "rich": 2469,
    "Ġfirmado": 5344,
    "ĠgÃ©n": 1590,
    "ĠviajÃ³": 3006,
    "ĠGauguin": 4265,
    "Ġestatua": 3168,
    "Ġvestim": 8695,
    "dou": 6679,
    "ĠaceptÃ³": 9351,
    "Ġjard": 3034,
    "vida": 9408,
    "ĠJoaqu": 3311,
    "Ġpersonalidades": 9674,
    "f": 58,
    "ombi": 6743,
    "dios": 4452,
    "ĠcÃ¡l": 8883,
    "ritÃ¡n": 2647,
    "Ġfunda": 4239,
    "Ġinterior": 2510,
    "uidos": 3419,
    "tista": 1595,
    "Ã±ola": 2014,
    "ĠeclesiÃ¡st": 9706,
    "Ġvestidos": 7640,
    "Ġpintada": 3495,
    "yaquil": 9699,
    "Ġeduca": 9380,
    "Ġcentro": 1939,
    "Ġhablar": 7894,
    "pre": 1358,
    "hit": 7750,
    "ĠFerra": 7101,
    "ĠclÃ¡s": 2076,
    "bado": 3392,
    "ĠWest": 6017,
    "encial": 9028,
    "Ġmas": 2611,
    "Ġderiva": 9243,
    "Ġtierra": 3342,
    "uesca": 9070,
    "que": 224,
    "Ġencontramos": 8559,
    "sch": 4888,
    "Ġvisible": 6179,
    "Ġesca": 3104,
    "raciÃ³n": 842,
    "gano": 8387,
    "Ġseries": 5575,
    "ciente": 2633,
    "Ġbre": 4244,
    "ĠtradiciÃ³n": 2558,
    "ph": 1607,
    "ĠAd": 2214,
    "Ġdocumentos": 6138,
    "parte": 6317,
    "Ġtinta": 4448,
    "arro": 765,
    "ma": 366,
    "Ġabuelo": 7651,
    "ĠdiseÃ±": 2086,
    "chi": 1977,
    "Ġ(\"": 5332,
    "Ġcaballe": 8826,
    "ney": 5699,
    "ĠpequeÃ±os": 4053,
    "ĠBot": 5324,
    "Ġdepartamento": 8256,
    "risto": 1286,
    "Ġcuando": 965,
    "Ġcris": 7150,
    "Ġcomienza": 4521,
    "ĠVit": 5369,
    "dimension": 7528,
    "villa": 1737,
    "icas": 452,
    "Ġingles": 5418,
    "iles": 2800,
    "Ġgol": 6625,
    "Ġmet": 1626,
    "emporÃ¡n": 1261,
    "Ġana": 9362,
    "Ġpremio": 2381,
    "rid": 671,
    "ĠMedi": 6186,
    "Ġmiemb": 1425,
    "¯": 92,
    "Ġpresenta": 2722,
    "du": 427,
    "ĠVerme": 6634,
    "irrinco": 9254,
    "Ġellas": 2182,
    "Ġdocumento": 5963,
    "uy": 1031,
    "pen": 1274,
    "ĠUr": 3380,
    "ĠserÃŃan": 7650,
    "ĠÎ±": 7248,
    "ĠsegÃºn": 1514,
    "IA": 4182,
    "Ãģ": 7970,
    "ĠTuvo": 6846,
    "Ġorfebre": 8104,
    "ĠTanto": 8692,
    "Ġilustrado": 8414,
    "ĠIndependencia": 9684,
    "ĠBauhaus": 8003,
    "ĠSant": 624,
    "Ġestrel": 6416,
    "Ġtrans": 1409,
    "Ġw": 4384,
    "jos": 745,
    "Ġvive": 7047,
    "ĠCosta": 4464,
    "Al": 5179,
    "Ġvoz": 9082,
    "tado": 967,
    "Ġlugares": 3521,
    "ĠLatino": 6983,
    "ĠLo": 794,
    "Ġpersona": 4357,
    "Ġalterna": 8672,
    "ĠdescribiÃ³": 6891,
    "ĠEug": 8484,
    "Ġcristianismo": 8908,
    "Ã³n": 229,
    "ĠvÃŃcti": 8270,
    "gares": 3231,
    "ĠperiÃ³": 4045,
    "roso": 9780,
    "Ġflorent": 4830,
    "titudes": 8886,
    "Ġran": 7725,
    "ĠFrancis": 1147,
    "Ġmedios": 4285,
    "Ġcreando": 6395,
    "Ġdebido": 2099,
    "Ġrespon": 3926,
    "Ġ1968": 4215,
    "Ġligeramente": 7426,
    "nier": 9593,
    "ĠBiografÃŃa": 1153,
    "abeth": 7008,
    "uyÃ³": 7842,
    "Ġabierta": 7051,
    "ĠLewis": 9823,
    "ĠColecciÃ³n": 2345,
    "Ġagra": 8057,
    "Å": 112,
    "ima": 1353,
    "Ġdinero": 5624,
    "ĠIglesia": 2230,
    "Ġje": 5950,
    "ĠestÃ©": 5915,
    "ĠplÃ¡stica": 5759,
    "torial": 3669,
    "taba": 4945,
    "ĠatmÃ³s": 5804,
    "Ġdistancia": 7256,
    "ĠserÃ¡": 5321,
    "Ġvanguardias": 8833,
    "Ġverdadera": 6737,
    "alizaciÃ³n": 4170,
    "ĠgÃ³": 3356,
    "ĠColle": 3395,
    "Ġat": 992,
    "ĠAgust": 4032,
    "Ġrenacentista": 4744,
    "cura": 5005,
    "Ġvictoria": 9105,
    "ĠPal": 1856,
    "ette": 6220,
    "orno": 3445,
    "ĠCass": 8412,
    "Ġfuente": 3648,
    "uci": 8367,
    "log": 1308,
    "ĠPietro": 4751,
    "lida": 7199,
    "mos": 986,
    "ĠD": 299,
    "Ġconsiderar": 7636,
    "Ġnatural": 1800,
    "Ġmesa": 4619,
    "Ġpes": 1445,
    "ĠFortun": 9737,
    "Ġ1883": 6493,
    "Ð²": 4703,
    "ĠDem": 6558,
    "Ġcos": 1745,
    "Ġintrodujo": 7578,
    "Ġ29": 3934,
    "ÃŃn": 512,
    "quilla": 9979,
    "Ġtarea": 8784,
    "entes": 798,
    "fas": 5528,
    "cont": 1080,
    "inter": 5983,
    "Ġconocer": 3942,
    "Ã©lgica": 4720,
    "Ġfrancis": 9039,
    "Ġrealiz": 548,
    "ĠdecÃŃa": 7296,
    "Ġtumbas": 7521,
    "Ðµ": 3722,
    "ĠcontemporÃ¡neos": 3817,
    "Ġimpres": 1345,
    "gol": 9797,
    "Ġcin": 1635,
    "Ġejecutado": 9570,
    "Ġgobern": 6041,
    "cracia": 8969,
    "gue": 1200,
    "Ġsigni": 1964,
    "Ġconocida": 2143,
    "Ġlineal": 9387,
    "ĠCla": 2169,
    "Ġsimbol": 2289,
    "Ġarcilla": 9120,
    "Ġex": 331,
    "ĠAlf": 2174,
    "ĠCatedral": 4058,
    "Au": 7645,
    "Ġuna": 276,
    "ĠFam": 5083,
    "eamente": 8253,
    "ivos": 4985,
    "ĠpoesÃŃa": 3634,
    "grama": 7998,
    "Ġsab": 2023,
    "iana": 2829,
    "ĠMantua": 9768,
    "pectiva": 1772,
    "ĠRu": 4549,
    "Ġcampo": 2803,
    "imen": 5531,
    "zzo": 3897,
    "gel": 806,
    "ppe": 8085,
    "Ġenfer": 3236,
    "ve": 536,
    "ĠexposiciÃ³n": 907,
    "Ð¾Ð²": 8200,
    "lÃŃn": 1767,
    "Ġcue": 1454,
    "37": 6583,
    "Ġtridimension": 9937,
    "Ġcolectivas": 3719,
    "viene": 7164,
    "Ġcardenal": 5586,
    "aja": 3230,
    "Mo": 6427,
    "Ġlit": 8206,
    "Ġmezcla": 4620,
    "Ġnaturalismo": 6432,
    "aje": 1142,
    "ĠCÃ³": 8861,
    "Ġcuerpos": 5783,
    "Ġaunque": 1083,
    "Ġdar": 2887,
    "ĠpintÃ³": 1329,
    "venida": 8661,
    "ĠLibros": 9175,
    "ĠVinci": 5516,
    "ash": 2988,
    "Ġconsiderada": 4871,
    "ivas": 7034,
    "ĠmetÃ¡": 7914,
    "ĠplÃ¡st": 2283,
    "Ġimpresiones": 8963,
    "iento": 692,
    "ĠGracias": 6647,
    "ĠBol": 2631,
    "Ġcat": 2125,
    "Ġ2": 354,
    "Ġmane": 7593,
    "ĠcaracterÃŃsticas": 3326,
    "Ġmovimiento": 1674,
    "ĠLyon": 8521,
    "ĠColomb": 2784,
    "Ġ196": 782,
    "ĠG": 289,
    "Ġcolombi": 8595,
    "Ġvincu": 4147,
    "Ġrebel": 9207,
    "ĵ": 171,
    "ĠBras": 3590,
    "olÃŃtico": 9159,
    "Ġand": 2217,
    "Ġverdes": 8727,
    "Ġactivo": 3406,
    "Ġfemen": 2305,
    "Ġhojas": 4523,
    "len": 2717,
    "Ã©ndole": 9383,
    "Ġ1895": 5909,
    "Ġcosas": 4121,
    "ĠPaula": 8936,
    "ras": 308,
    "Ġmedievales": 9944,
    "sur": 7657,
    "ĠcanciÃ³n": 9174,
    "Ġblan": 1544,
    "Ġafect": 7206,
    "Ġ1932": 4841,
    "Ġmucho": 1971,
    "Ġtot": 4724,
    "ĠSovi": 9953,
    "Ġlenguaje": 4689,
    "ĠArtistas": 2683,
    "umento": 3607,
    "Arte": 7848,
    "ĠRodrÃŃguez": 4661,
    "erg": 5214,
    "Ġalab": 8168,
    "ĠWill": 9231,
    "uir": 1469,
    "Ġ2014": 3557,
    "Ġdentro": 1807,
    "varo": 8649,
    "Ġsociales": 4726,
    "ĠExhibi": 7807,
    "hib": 3852,
    "Ġdiferenci": 8895,
    "Ġconservadas": 8397,
    "Ġuniversal": 8737,
    "ĠLey": 8396,
    "esiÃ³n": 6798,
    "ĠProvincial": 4158,
    "no": 503,
    "ĠCo": 570,
    "ĠsÃ³": 6677,
    "Ġaparentemente": 8515,
    "Ġyo": 6844,
    "Ġcuadro": 884,
    "Ġalcanzar": 8362,
    "genes": 1392,
    "nam": 3771,
    "Ġ1934": 4775,
    "pi": 535,
    "Ġpocas": 6088,
    "Ã©": 243,
    "Ġproductos": 7913,
    "serrat": 9203,
    "Ġrestaura": 2396,
    "Ġ1962": 4414,
    "ĠÃīdouard": 8732,
    "ĠI": 333,
    "Ġnotab": 2680,
    "Ġ2008": 3455,
    "Ġante": 2049,
    "Ġmuestras": 5347,
    "ierro": 6096,
    "Ġrara": 9842,
    "Ġmaestros": 2535,
    "ĠsÃ©": 9249,
    "ĠobservaciÃ³n": 9705,
    "ĠencontrÃ³": 4865,
    "rÃŃ": 674,
    "dell": 9603,
    "reas": 5981,
    "34": 6071,
    "ĠMat": 2433,
    "Ġfresco": 2810,
    "gu": 508,
    "cadem": 830,
    "ĠCarta": 8987,
    "Ġjoven": 1641,
    "Ġsuf": 2936,
    "Ġexal": 8953,
    "Ġjuventud": 5276,
    "Ġofici": 2126,
    "Ġllegaron": 7669,
    "media": 3931,
    "ĠconcepciÃ³n": 6135,
    "Ġcircunst": 8466,
    "Ġcha": 9026,
    "als": 5889,
    "ds": 7763,
    "Ġespera": 5899,
    "unio": 1876,
    "Ġpasos": 9639,
    "ĠAcuare": 8288,
    "Ġsacerdote": 8684,
    "Ġpapiros": 8391,
    "ĠAmbos": 7748,
    "Ġ1954": 4602,
    "10": 2012,
    "Ġentra": 7515,
    "ĠMuse": 1442,
    "ĠprÃ³": 4592,
    "ĠEstudios": 6868,
    "ciano": 5284,
    "dal": 1181,
    "Ġamor": 2862,
    "ĠescultÃ³rico": 9423,
    "Ġremo": 5617,
    "Ġconsecuencia": 6334,
    "Ġdeseo": 5672,
    "Ġenfo": 5288,
    "ĠrazÃ³n": 5533,
    "Ġvanguardia": 4732,
    "ĠProye": 8848,
    "Ġmue": 896,
    "Ġllevaba": 8990,
    "ĠLudwig": 7954,
    "Ġsujeto": 9965,
    "tividad": 1969,
    "und": 2304,
    "Ã§a": 8716,
    "32": 6555,
    "ĠmaÃ±ana": 9696,
    "tar": 849,
    "Ġteatral": 7940,
    "vador": 3086,
    "Ġapari": 5485,
    "bate": 5466,
    "ĠFranco": 9410,
    "dano": 9796,
    "ĠbÃºsque": 5583,
    "ĠSch": 2137,
    "iy": 7398,
    "Ġprimeras": 2115,
    "ĠLeg": 7362,
    "ĠLouvre": 2612,
    "eno": 1471,
    "IN": 4023,
    "Ð¾": 3310,
    "ĠTok": 6326,
    "Ġaprecia": 6542,
    "cciones": 1753,
    "ĠEscorial": 6810,
    "ĠKn": 9978,
    "ctÃ³n": 3323,
    "Ġenfati": 9912,
    "Ġsombrero": 7671,
    "ĠNue": 833,
    "ĠBajos": 3901,
    "oluciÃ³n": 6715,
    "Ġfueron": 870,
    "Ġvisto": 4631,
    "rin": 2200,
    "ĠAzerbaiy": 8696,
    "ĠJunta": 7346,
    "Ġmaestro": 1555,
    "ĠRamsÃ©s": 8924,
    "Ġespada": 8755,
    "ĠÃ¡rabe": 8645,
    "Ġamar": 2311,
    "laces": 4082,
    "lan": 441,
    "ias": 787,
    "Ġh": 252,
    "Ġalemana": 6424,
    "Ġartista": 626,
    "Ġinst": 3497,
    "ut": 1291,
    "ĠcadÃ¡": 9717,
    "gla": 2464,
    "Ġnegra": 6472,
    "Ġpueblos": 6109,
    "Ġconvirtieron": 9199,
    "Ġrecursos": 8021,
    "ĠMon": 1730,
    "ĠSobre": 4759,
    "ĠÃ³r": 5421,
    "uidas": 3625,
    "70": 3247,
    "c": 55,
    "lado": 912,
    "he": 649,
    "los": 468,
    "ĠIgna": 6084,
    "Ġalcal": 8150,
    "Ġproporciones": 8536,
    "Ġ182": 2646,
    "Ġjardines": 7522,
    "Ġrepeti": 7374,
    "1998": 9417,
    "stitu": 950,
    "Ar": 2428,
    "cialmente": 5693,
    "Ġfam": 675,
    "ĠMem": 4728,
    "itales": 9449,
    "Â": 109,
    "istad": 3886,
    "ĠgrÃ¡fico": 5405,
    "ski": 3061,
    "Ġsimbolismo": 4719,
    "ĠLu": 728,
    "ĠMatisse": 6079,
    "encia": 758,
    "ĠMilla": 9528,
    "rales": 2384,
    "Ġcolores": 1194,
    "ĠJacopo": 8970,
    "rededor": 2044,
    "tulo": 2011,
    "Ġestil": 2442,
    "tro": 1404,
    "Ġimpon": 9592,
    "lera": 7586,
    "tesis": 8219,
    "ĠVatic": 5426,
    "Ġmuerte": 1082,
    "ĠLitera": 7352,
    "-": 10,
    "ĠVir": 955,
    "ĠOtto": 6447,
    "Ġabsolu": 7003,
    "ĠAragÃ³n": 6033,
    "Ġadecu": 6674,
    "Ġrelacionadas": 7845,
    "inos": 1265,
    "Ġto": 485,
    "ĠPrem": 1029,
    "Ġsigui": 1174,
    "tros": 1793,
    ".\"": 4337,
    "alÃ³": 3397,
    "Ġpopulares": 5129,
    "»": 104,
    "Ã¼s": 6272,
    "ĠTierra": 8090,
    "Ġautorretratos": 9276,
    "dose": 1238,
    "ĠMoisÃ©s": 8468,
    "ĠRobert": 3655,
    "Ġderecha": 1756,
    "Ġcob": 8456,
    "25": 3968,
    "Ġavan": 4166,
    "Ġlum": 3297,
    "Ġemo": 3977,
    "Ġvarios": 1339,
    "Ġmol": 5090,
    "å": 139,
    "ĠJoa": 3051,
    "Ġhumor": 7156,
    "Ġrealista": 3845,
    "old": 3714,
    "ĠCine": 8236,
    "ĠFlores": 9844,
    "ĠcientÃŃf": 8421,
    "bÃ³": 3146,
    "ami": 4621,
    "Ġmura": 1230,
    "Ġque": 237,
    "arla": 9364,
    "Ġantigu": 1207,
    "ĠFont": 9626,
    "fÃ©": 5336,
    "ĠÃļ": 4481,
    "Ġalumno": 3499,
    "ĠGonzÃ¡": 3747,
    "fle": 9713,
    "ĠFlorida": 6958,
    "Ġ75": 8601,
    "ĠdisposiciÃ³n": 6919,
    "dista": 5180,
    "pintor": 8902,
    "ĠGeorg": 3520,
    "ĠUcran": 8984,
    "heim": 3975,
    "Ġpertenece": 5834,
    "jer": 1139,
    "ĠGuerra": 2021,
    "iosa": 7592,
    "Ġmedida": 3935,
    "ĠAntoine": 8425,
    "Ġorganizado": 8803,
    "ĠTw": 9805,
    "Ġtransfor": 6235,
    "Ġ1879": 7146,
    "Ġreproducciones": 9627,
    "Ġcaptura": 7363,
    "ellÃ³n": 4433,
    "ĠMetro": 4148,
    "abil": 8980,
    "ĠTal": 3861,
    "Ġperdida": 9497,
    "Ġva": 1826,
    "Ġubicado": 6301,
    "Ġsegu": 3856,
    "Ġcomen": 1342,
    "ĠclÃ¡sico": 4681,
    "Ġ1948": 4700,
    "pido": 3963,
    "ĠPro": 1115,
    "Ġcasa": 1260,
    "ĠÃºltimo": 2139,
    "Ġempren": 8029,
    "ivo": 4363,
    "ĠtemÃ¡ticas": 9187,
    "Ġresta": 2054,
    "Ġcromatismo": 9652,
    "Ġrespec": 6117,
    "Ġcone": 7648,
    "ĠEugÃ¨ne": 8909,
    "ĠFel": 8798,
    "Ġpriv": 1934,
    "matismo": 5465,
    "ĠHein": 9065,
    "ĠWal": 3413,
    "ĠAsociaciÃ³n": 3675,
    "are": 1177,
    "Ġplanta": 4348,
    "Ġcomple": 1175,
    "ĠVirgen": 1041,
    "ĠCu": 1158,
    "ĠAnton": 4561,
    "lares": 1374,
    "Ġescribir": 6210,
    "Ġinterna": 4708,
    "Ġprobable": 1855,
    "ĠRomano": 7962,
    "ĠÃ³p": 9596,
    "ue": 204,
    "pado": 6855,
    "Ġinicio": 5882,
    "ĠBautista": 3667,
    "Ġconfirm": 8217,
    "tas": 803,
    "unca": 2528,
    "ĠExpuso": 8541,
    "ĠRes": 3155,
    "dica": 2047,
    "ĠdocumentaciÃ³n": 9100,
    "ador": 670,
    "ÃŃcu": 1945,
    "Ġpreocu": 5182,
    "ĠBanco": 5760,
    "ria": 1229,
    "osofÃŃa": 5346,
    "gido": 3258,
    "pulo": 3015,
    "Ġtur": 4868,
    "Ġ197": 807,
    "Ġintenso": 8196,
    "Ġperfil": 6644,
    "Ġrojo": 2513,
    "Ġent": 392,
    "ĠVenus": 3108,
    "ĠCle": 4705,
    "Ġla": 199,
    "Ġconocido": 1462,
    "Ġespect": 1990,
    "ĠConstantino": 6667,
    "ĠBas": 2669,
    "Ġizquierda": 1731,
    "ĠMadrazo": 8802,
    "ĠhÃ©ro": 8409,
    "ĠcromÃ¡tica": 8445,
    "Ġter": 913,
    "Ġinicios": 5931,
    "Ġatrib": 2754,
    "ĠPo": 1114,
    "ĠBartolomÃ©": 7091,
    "Ġambas": 4276,
    "Ġreloj": 8671,
    "ĠgeomÃ©trica": 8809,
    "Ġamericano": 9611,
    "xima": 6383,
    "Ġcomplement": 8066,
    "ĠAugu": 5514,
    "Ġy": 213,
    "turi": 3578,
    "ĠMa": 557,
    "',": 7510,
    "Ġala": 8545,
    "ĠfrancÃ©s": 1611,
    "Ġcomplejo": 8712,
    "st": 202,
    "Ġadelante": 5014,
    "Ġesencial": 9588,
    "dices": 8314,
    "ĠMarina": 8659,
    "zar": 1490,
    "Ġlar": 1390,
    "adajo": 5877,
    "ĠTex": 7066,
    "ano": 399,
    "ficial": 5055,
    "ĠBogotÃ¡": 4268,
    "ĠComenzÃ³": 6456,
    "adÃ©mica": 5726,
    "ĠAmb": 4292,
    "Ġexhi": 1712,
    "Ã¡nchez": 4324,
    "ĠCaja": 5763,
    "ĠLong": 9369,
    "yssen": 6413,
    "Ġimperial": 8340,
    "rary": 6882,
    "ĠinstalaciÃ³n": 6590,
    "Ġmo": 438,
    "ĠArgentina": 2489,
    "Ġrefor": 7454,
    "[BOS]": 2,
    "stra": 538,
    "Ġefectos": 3904,
    "Ãºan": 7614,
    "ĠWood": 8822,
    "Ġtraslado": 8729,
    "Ġplaza": 4232,
    "Ò": 124,
    "dad": 312,
    "vio": 4578,
    "unt": 483,
    "OL": 9360,
    "Ġmenudo": 2082,
    "Ġinici": 1314,
    "Ġadquirida": 6673,
    "car": 642,
    "Ġsustitu": 7403,
    "Ġpeso": 9321,
    "Ġpronto": 4781,
    "gÃ³": 1152,
    "Ġempe": 2448,
    "Ġya": 825,
    "Ġpier": 7418,
    "Ġnada": 4469,
    "ÏĢ": 6150,
    "Ġsegun": 1281,
    "Ġdiciembre": 1890,
    "Ġsupone": 7429,
    "Ġ163": 3285,
    "cuenta": 5742,
    "Ġfau": 8208,
    "Ġrom": 2048,
    "Ġdifere": 1537,
    "Ê": 117,
    "Ġfol": 4465,
    "Ġconservada": 5601,
    "Ġpan": 1794,
    "ĠAcu": 7139,
    "Ġpudo": 2610,
    "Ģ": 152,
    "ta": 303,
    "Ġcontrato": 7178,
    "Ġsencil": 4482,
    "Ġexplic": 5576,
    "Ġcolegio": 7911,
    "Ġprincipalmente": 2085,
    "ĠLis": 4757,
    "Ġsobr": 5949,
    "ĠMÃ©dici": 6061,
    "Ġviolencia": 8537,
    "ton": 1275,
    "ĠsirviÃ³": 6990,
    "ĠAÃ±os": 7453,
    "Ġlan": 3943,
    "Ġpue": 564,
    "Ġfem": 1874,
    "Ġdemostra": 6225,
    "Ġcentra": 7992,
    "ĠPintÃ³": 5940,
    "vile": 9148,
    "ĠAngel": 5751,
    "ĠEste": 1183,
    "uro": 957,
    "Ġencuentra": 1186,
    "Ľ": 179,
    "48": 5844,
    "Ġocur": 4590,
    "vido": 5622,
    "AM": 5690,
    "ĠSin": 1478,
    "ke": 2153,
    "crÃ¡": 6796,
    "ĠllevÃ³": 2818,
    "Ġjunio": 1927,
    "pio": 8762,
    "Ġjefe": 7596,
    "Ġarro": 4051,
    "ap": 2140,
    "Ġcompuesto": 6629,
    "ĠSco": 8838,
    "ertura": 8147,
    "ĠWeyden": 9303,
    "Ñ": 123,
    "yÃ³": 2282,
    "Ġinteres": 2617,
    "ĠVos": 8432,
    "ĠDatos": 8026,
    "cilla": 7733,
    "Ġig": 1016,
    "Ġimpor": 919,
    "Ġ1937": 4370,
    "Ġdesen": 8552,
    "Ġcontaba": 8507,
    "das": 492,
    "Ġdisper": 8221,
    "gada": 2295,
    "ĠuniÃ³n": 8670,
    "Ġterritorio": 7498,
    "ĠenseÃ±Ã³": 7250,
    "Ã²": 7197,
    "ah": 9137,
    "ĠRa": 1106,
    "Ġem": 556,
    "Ġhizo": 1271,
    "SA": 6595,
    "laje": 8860,
    "arra": 2740,
    "Ġvasos": 3632,
    "manas": 3789,
    "Ġproceso": 3132,
    "Ġgradu": 4394,
    "gica": 3721,
    "ĠmarquÃ©s": 7130,
    "yden": 7513,
    "Ġretrato": 1159,
    "Ġlitera": 2074,
    "Ġnos": 3475,
    "dÃŃan": 6072,
    "ĠRevoluciÃ³n": 5099,
    "ĠCabe": 9194,
    "Âª": 5660,
    "ĠDan": 6575,
    "dÃ©s": 8740,
    "cro": 2613,
    "Ġaparecer": 9126,
    "ĠGre": 1576,
    "ĠFranz": 7176,
    "Ġcaus": 4893,
    "Ġabs": 5629,
    "Ġ1858": 9080,
    "Ġconvencional": 8199,
    "ĠOficios": 6656,
    "ĠEstilo": 6386,
    "retra": 2799,
    "Ġah": 1985,
    "Ġleyen": 5503,
    "ĠsufriÃ³": 6991,
    "ĠWay": 9887,
    "ĠCi": 1610,
    "Ġescena": 1548,
    "croix": 7724,
    "calipsis": 9308,
    "ĠGregor": 4997,
    "orce": 8258,
    "Ġapar": 4915,
    "al": 208,
    "Ġenfrent": 7235,
    "Ġ1998": 3826,
    "Ġviaje": 2506,
    "95": 8306,
    "Ġfigurativa": 8892,
    "Ã©tr": 8914,
    "ices": 3682,
    "Ġideales": 9598,
    "rias": 4807,
    "umas": 9618,
    "ena": 666,
    "ĠVal": 966,
    "Ã©rico": 8773,
    "Ã¸": 6257,
    "ĠDibujo": 4436,
    "ĠCub": 7766,
    "creto": 8829,
    "ĠasÃŃ": 933,
    "ĠSab": 5267,
    "minos": 7440,
    "Ġ1981": 4389,
    "ĠVaticano": 7279,
    "Ġseguido": 5307,
    "ĠPlata": 6580,
    "ĠcontinuÃ³": 3622,
    "Ġidentific": 3327,
    "ĠEdward": 6817,
    "Ġfondos": 4659,
    "Ġabstracto": 4081,
    "uma": 3650,
    "Ġfu": 2276,
    "Ġimpre": 6902,
    "Ġ22": 3268,
    "ova": 6566,
    "ĠPu": 5245,
    "Ġpieza": 3598,
    "Ġ40": 4568,
    "ific": 5641,
    "Ġalguna": 3936,
    "Ġsua": 4892,
    "Ġestar": 3141,
    "dieron": 3850,
    "tivismo": 6268,
    "Ġresulta": 6341,
    "ivamente": 4784,
    "ĠMedio": 9930,
    "ible": 1322,
    "Ġsombre": 5888,
    "ĠCor": 1105,
    "ĠNavar": 7245,
    "Ġemocional": 9989,
    "ĠingresÃ³": 4856,
    "Ġemociones": 9940,
    "ing": 662,
    "ntan": 7006,
    "govia": 7591,
    "ernos": 8845,
    "Ġ1995": 3864,
    "Ġizquier": 1492,
    "Ġbau": 5026,
    "enario": 5520,
    "Ġlumin": 8682,
    "Ġservir": 9016,
    "ĠLlo": 9429,
    "Ġenfa": 7223,
    "Ġdecorado": 6888,
    "ĠestableciÃ³": 4152,
    "ĠHijo": 4673,
    "Ġalgo": 2588,
    "Ġsepa": 5034,
    "Ġsimilares": 5161,
    "ĠArtes": 574,
    "ĠJusti": 9951,
    "ĠMario": 7113,
    "ĠRoberto": 7991,
    "ania": 7401,
    "Ġproblemas": 4809,
    "ĠDÃŃa": 4271,
    "ĠJoaquÃŃn": 3758,
    "Ġcontin": 1403,
    "ĠfilÃ³sofo": 9613,
    "Ġ150": 3282,
    "Ġdich": 2266,
    "Ġseda": 8633,
    "ĠcaracterÃŃstico": 8398,
    "ĠFe": 2052,
    "ĠsÃ³lo": 2546,
    "incip": 700,
    "179": 9171,
    "well": 6701,
    "rÃŃa": 895,
    "ĠGÃ³mez": 4438,
    "ĠMuchas": 7618,
    "ĠHasta": 6951,
    "bel": 3549,
    "ĠvocaciÃ³n": 8303,
    "tion": 1110,
    "42": 7119,
    "Ġvideo": 6950,
    "Ġbuscar": 7916,
    "Ale": 8165,
    "Ð´": 7469,
    "iendo": 899,
    "cepciÃ³n": 2127,
    "ĠteorÃŃa": 5266,
    "Ġsabe": 4010,
    "Ã¡ndola": 9349,
    "Ġdific": 5764,
    "cre": 1292,
    "ĠDiario": 9986,
    "ĠII": 1583,
    "ĠVasari": 4910,
    "Ġposee": 5703,
    "Ġinfluy": 3572,
    "ĠAustra": 6894,
    "Ġprestigio": 8162,
    "ĠÃīmile": 9416,
    "eles": 2343,
    "Ġvin": 3620,
    "demos": 5837,
    "Ġimag": 6357,
    "Ġpartida": 7808,
    "ĠFundaciÃ³n": 2245,
    "alizar": 6003,
    "Ġ1630": 9297,
    "ĠTorres": 4145,
    "Ġdebajo": 6366,
    "ĠRam": 2038,
    "rantes": 8608,
    "ks": 3041,
    "ĠSofÃŃa": 5424,
    "ĠRica": 6763,
    "Ġsupera": 6726,
    "Ġestado": 1476,
    "ĠZÃºrich": 9891,
    "ĠBÃ¡r": 8979,
    "ĸ": 174,
    "£": 81,
    "ĠmostrÃ³": 4315,
    "Ġbizantino": 8346,
    "Ġcomienzos": 5613,
    "Í": 119,
    "mes": 5538,
    "ĠTurÃŃn": 9654,
    "Ġregistro": 7067,
    "ĠBotticelli": 6981,
    "Ġinfluen": 1037,
    "ĠÃ©pocas": 9599,
    "sta": 264,
    "oles": 4449,
    "ĠcÃ©le": 4979,
    "cta": 1693,
    "ĠKah": 9791,
    "manos": 2370,
    "gui": 3054,
    "upe": 8790,
    "ĠAdri": 7232,
    "Ġ2015": 3630,
    "adre": 827,
    "Ġpadre": 1167,
    "ĠBib": 5876,
    "ĠRo": 747,
    "ĠdiscÃŃpulo": 3348,
    "Ġinfluenciado": 6508,
    "Ġacces": 8891,
    "Ġdisting": 3594,
    "Ġidi": 7229,
    "ĠRuiz": 6900,
    "ĠIsaac": 9468,
    "Ã¡pol": 3438,
    "Ġdecorados": 7049,
    "ps": 2968,
    "tor": 509,
    "ĠMargarita": 6442,
    "cento": 7927,
    "Ġmantuvo": 4879,
    "ĠÃ³leo": 1004,
    "Ġline": 7297,
    "Ġllamado": 2059,
    "Ġnoctur": 7102,
    "eas": 2269,
    "ĠMarta": 8985,
    "Ġaniversario": 8123,
    "ĠEj": 6059,
    "ĠNapoleÃ³n": 5891,
    "ly": 2933,
    "ruguay": 4810,
    "Or": 8450,
    "Ħ": 156,
    "ĠXVI": 2869,
    "Ġreligios": 1553,
    "Ġ39": 9903,
    "Louis": 9048,
    "Ġclaro": 4289,
    "ĠdesarrollÃ³": 3007,
    "ĠÃ©": 543,
    "renci": 7544,
    "polit": 3832,
    "ccion": 2557,
    "vo": 386,
    "Ġ31": 5397,
    "Ġinvent": 3666,
    "Ġdiferente": 5265,
    "Ġact": 6258,
    "Ġhistori": 2352,
    "ĠVa": 4995,
    "viendo": 7790,
    "ĠpublicaciÃ³n": 5792,
    "Ġproducido": 8847,
    "Ġpromo": 3745,
    "ĠMac": 7878,
    "icista": 6159,
    "Ġrepresentante": 6661,
    "jand": 2922,
    "pus": 6960,
    "ÃŃfica": 5745,
    "antos": 9749,
    "pol": 1298,
    "Ġexpul": 7753,
    "ĠrÃŃo": 3808,
    "ĠvolÃºmenes": 6889,
    "ĠJoan": 3551,
    "Ġelem": 1491,
    "Ġfie": 4358,
    "lage": 5464,
    "Ġfamilia": 985,
    "udo": 1071,
    "erar": 4852,
    "rilla": 9539,
    "Ġcantidad": 4499,
    "Ġescal": 5387,
    "cÃŃan": 3688,
    "Ġrenacent": 3958,
    "ĠÐ": 2237,
    "ĠÃ©nfasis": 9110,
    "Ġvolver": 5425,
    "ĠPlÃ¡sticas": 3709,
    "poleÃ³n": 5305,
    "iente": 5867,
    "Ġfoto": 1691,
    "ĠabstracciÃ³n": 4672,
    "Ġeuro": 2652,
    "Ġinvitado": 6531,
    "tiÃ³": 1321,
    "Ãºnich": 3068,
    "Ġvisitar": 7898,
    "mÃ³": 3159,
    "ĠLÃ¡zaro": 7427,
    "Ġpintar": 1667,
    "alizados": 9209,
    "ĠIndi": 6520,
    "Ġrojas": 5926,
    "ington": 2571,
    "Ġincluyendo": 3415,
    "Ġreinado": 7059,
    "icorn": 8526,
    "gon": 2141,
    "ĠcatÃ³": 9301,
    "ĠahÃŃ": 7016,
    "tiene": 3083,
    "yo": 1104,
    "Ġ1865": 8127,
    "ĠVas": 2618,
    "Ã©ndez": 9450,
    "ĠgrÃ¡f": 3595,
    "Ġabstracta": 6928,
    "ĠMinisterio": 4564,
    "ĠVer": 1755,
    "Ġmanier": 6609,
    "Ã³lica": 4946,
    "Ġproble": 3446,
    "ianza": 7813,
    "cionado": 7909,
    "Ġinstituciones": 5412,
    "tiliz": 1007,
    "tionale": 9213,
    "Ġluminos": 5194,
    "cencia": 5060,
    "Ġpra": 4627,
    "rito": 3092,
    "Ġprivada": 3243,
    "Ġelect": 8194,
    "ĠBienal": 2292,
    "Ġpince": 3509,
    "Ġviajes": 4312,
    "Ġocul": 5821,
    "Ġ1863": 7777,
    "caba": 5625,
    "ariamente": 7826,
    "ĠWol": 6103,
    "ĠclÃ¡sicas": 9647,
    "Ġtama": 2671,
    "bia": 4486,
    "ĠCaprich": 8966,
    "Ġigual": 2811,
    "Ġof": 906,
    "Col": 9446,
    "Ġanteriormente": 6510,
    "ĠSan": 476,
    "rami": 6643,
    "Ġnatura": 937,
    "ĠtomÃ³": 4575,
    "ĠJean": 2037,
    "ĠT": 309,
    "ĠMay": 4231,
    "ĠLlu": 7742,
    "Ġelegante": 8155,
    "Ġdetermin": 4277,
    "Ġ1970": 3213,
    "ĠSanto": 2579,
    "Ġparcialmente": 8505,
    "ller": 8721,
    "Ġcritic": 7828,
    "mediat": 7481,
    "Ġret": 5596,
    "Ġiz": 1482,
    "Ġpersonas": 2593,
    "urbar": 7081,
    "ĠartÃŃsticos": 3466,
    "Ġbanda": 8178,
    "ĠWa": 5415,
    "lard": 7387,
    "Ġcopias": 3862,
    "pin": 4515,
    "Ġpadres": 3522,
    "ku": 6874,
    "Ġ1906": 5176,
    "ĠniÃ±a": 5712,
    "ĠPrimera": 3485,
    "Ġsimplemente": 6738,
    "Ġalcalde": 9967,
    "ĠHacia": 5362,
    "Ġespeci": 902,
    "ĠDani": 5925,
    "ĠvolviÃ³": 3202,
    "illermo": 5238,
    "Ġsim": 865,
    "ĠmÃºltiples": 5108,
    "ctiva": 5139,
    "Ġpob": 4318,
    "ķ": 173,
    "fÃŃa": 2390,
    "Ġcontrasta": 9756,
    "Ġposiblemente": 4682,
    "caras": 8658,
    "Ġcreativo": 9022,
    "Ġfirm": 2026,
    "uramente": 7431,
    "Ġvanitas": 8644,
    "Ġ23": 3289,
    "Ġaband": 2297,
    "Ġsep": 8951,
    "ĠprolÃŃ": 9056,
    "Ġgente": 4881,
    "Ġpereg": 9752,
    "ĠpodrÃŃa": 2798,
    "Ġun": 225,
    "zio": 5785,
    "Ġproviene": 9496,
    "Ġ1960": 2958,
    "ĠDE": 5636,
    "Ġprepara": 5181,
    "Ġindustri": 9629,
    "Ġportada": 6899,
    "ĠcreaciÃ³n": 2503,
    "Ġtum": 2695,
    "ĠEvangelio": 7233,
    "Ġleyenda": 6564,
    "umera": 9923,
    "ĠFederico": 4434,
    "ab": 282,
    "tivi": 1485,
    "Ġpreci": 4046,
    "Ġactualidad": 4039,
    "Ġcartel": 7632,
    "Ġsorpren": 6039,
    "Ġconta": 2980,
    "ĠjaponÃ©s": 6476,
    "ieron": 7312,
    "Ġsomb": 2972,
    "ĠCos": 2541,
    "Ġpermanece": 8463,
    "Ġasim": 9002,
    "Ġenorme": 6811,
    "fran": 8054,
    "Ġpasando": 7212,
    "ĠTurner": 9486,
    "cerÃŃa": 7357,
    "Ġdife": 1132,
    "ĠdifÃŃcil": 4667,
    "ĠespaÃ±oles": 4349,
    "Ġnacionales": 5766,
    "Ġ191": 1026,
    "Ġverse": 5986,
    "Ġhici": 3456,
    "Ġllegar": 4418,
    "Ġescritora": 8083,
    "Ġcompletar": 8489,
    "jÃ³n": 8565,
    "ĠCultural": 2734,
    "isis": 3184,
    "ĠSt": 2600,
    "tÃ³r": 1248,
    "Madrid": 3905,
    "Ġnobleza": 7967,
    "ĠllamÃ³": 6308,
    "ĠWarhol": 6502,
    "Ġacuarela": 3555,
    "ĠMich": 2615,
    "ffizi": 6672,
    "Ġcan": 1974,
    "Ġdeclar": 7700,
    "ĠpelÃŃcu": 2638,
    "Ġcosta": 6989,
    "Ġcinco": 2294,
    "Ġ179": 3093,
    "Ġafe": 4988,
    "ĠGalerie": 4678,
    "Ġfuese": 7932,
    "ĠFilippo": 9136,
    "200": 2006,
    "Ġdistintos": 4778,
    "Ġcuanto": 3774,
    "Ġfriso": 9581,
    "Ġcolec": 1070,
    "ĠGen": 7457,
    "ĠJa": 1088,
    "im": 298,
    "ĠIbero": 9855,
    "ĠCÃ¡": 3217,
    "ric": 1627,
    "inal": 7554,
    "Ã¡ndo": 2602,
    "undo": 4173,
    "ĠFrida": 9242,
    "ĠHe": 2227,
    "onso": 2657,
    "Ġvariedad": 5512,
    "ĠHi": 2363,
    "ĠCro": 5800,
    "orado": 4911,
    "Ġprincipios": 2170,
    "ĠIX": 7347,
    "Ġ185": 1694,
    "pia": 2204,
    "Ġsur": 1313,
    "ese": 2603,
    "zco": 5420,
    "Ġparedes": 4065,
    "ĠprotecciÃ³n": 8561,
    "ĠEmilio": 8625,
    "erva": 1391,
    "dÃŃa": 2117,
    "cent": 1822,
    "encio": 8407,
    "Ġescuela": 1398,
    "ĠenviÃ³": 6689,
    "Ġmexicana": 8048,
    "ciÃ³": 680,
    "itud": 4406,
    "ĠCivil": 6841,
    "ĠFrances": 2524,
    "orios": 9141,
    "Ġesto": 2316,
    "Ġapreci": 3399,
    "ĠNik": 7504,
    "Ã¡micas": 9103,
    "Ġaso": 4685,
    "Ġretros": 4251,
    "ĠArte": 586,
    "Ġver": 688,
    "icana": 7906,
    "Ġcara": 1117,
    "Ġparro": 4291,
    "ulgar": 8865,
    "ho": 1481,
    "Ġopin": 5441,
    "Ġpies": 4086,
    "Ġmito": 4782,
    "ĠDesde": 1783,
    "amos": 4641,
    "Ġmuchas": 1924,
    "olu": 1188,
    "ĠacadÃ©mico": 4761,
    "ĠÃ¡rea": 6168,
    "cran": 5854,
    "Ġjue": 5142,
    "ĠAu": 1842,
    "estiv": 3701,
    "ĠIl": 2455,
    "cÃ³n": 5808,
    "Ġpermite": 4754,
    "ĠalgÃºn": 3809,
    "Ġojos": 3918,
    "Ġtrabajar": 2583,
    "Ġgremio": 7628,
    "Ġjap": 5320,
    "ĠRey": 2556,
    "fra": 3100,
    "ĠdibujÃ³": 9808,
    "ĠatenciÃ³n": 3101,
    "Ġabandon": 2614,
    "urero": 4625,
    "ĠValladolid": 3957,
    "igra": 3488,
    "Ġconstruir": 6718,
    "Ã³men": 8235,
    "Ġpel": 2157,
    "Ô": 126,
    "Ġplas": 3973,
    "taciÃ³n": 1285,
    "yle": 6275,
    "Ġmateri": 1848,
    "ĠinscripciÃ³n": 4828,
    "ÏĤ": 4339,
    "Ġejemplo": 1742,
    "Ġdejado": 9240,
    "ĠOxford": 8906,
    "Ġ21": 3696,
    "Ġpodemos": 6861,
    "Ġmu": 361,
    "rit": 1630,
    "olÃ³gicos": 7536,
    "ĠDu": 2118,
    "Ġ\"": 463,
    "ĠUni": 718,
    "ctora": 5646,
    "Ġtalleres": 5609,
    "ueva": 4507,
    "Ġsepara": 6896,
    "Ġj": 429,
    "ĠSecre": 8078,
    "ĠErn": 4216,
    "ĠB": 265,
    "Ġpl": 1968,
    "Ġ[": 1864,
    "ĠCA": 8292,
    "Ġgrab": 1038,
    "Ġenerg": 8148,
    "Ġconcepto": 4555,
    "iÃ³": 1266,
    "Ġconsi": 915,
    "Ġconstruida": 9420,
    "ĠObra": 2372,
    "Ġencontrado": 6082,
    "Ġexhibida": 9936,
    "Ġconvo": 8586,
    "esa": 3462,
    "Ġcaballero": 6047,
    "mith": 5956,
    "ti": 250,
    "Ġestaban": 2866,
    "ĠJerusal": 6869,
    "Ġsanto": 4762,
    "Ġdicho": 4110,
    "ĠPerugino": 9106,
    "Ġformaron": 9677,
    "Ġton": 2435,
    "iste": 8864,
    "it": 322,
    "ĠEugen": 5631,
    "Ġorganizada": 5953,
    "ĠVictor": 6387,
    "Ġma": 422,
    "Ġprovin": 2998,
    "Ġle": 440,
    "ĠBolonia": 5572,
    "Ġcolorido": 4944,
    "ĠespaÃ±olas": 8597,
    "Ġador": 4056,
    "Ġprensa": 6204,
    "ĠNiÃ±o": 2315,
    "Ġpropietario": 8854,
    "laridad": 5682,
    "trÃ¡s": 4198,
    "ĠMy": 9312,
    "ĠDurante": 1522,
    "por": 504,
    "Ġminu": 6006,
    "Ġgriegos": 6954,
    "Ġnie": 4402,
    "Ġreflej": 3740,
    "ĠHu": 4387,
    "endo": 705,
    "ĠÃºnico": 3240,
    "ĠChica": 3471,
    "Ġ15": 707,
    "ĠCole": 1423,
    "ĠcatalÃ¡n": 6434,
    "onos": 6477,
    "Ã©rrez": 8459,
    "razÃ³n": 6227,
    "frak": 8681,
    "ĠAlgunos": 3589,
    "Ġrepresentaciones": 2907,
    "dap": 4824,
    "Ġusado": 8136,
    "dic": 788,
    "esis": 5694,
    "untamiento": 2914,
    "Ġsosteniendo": 8401,
    "ĠWethey": 7840,
    "bum": 5134,
    "Ġsus": 365,
    "est": 425,
    "Est": 9892,
    "Ġexpuestas": 7024,
    "tera": 1290,
    "Ġvalle": 9208,
    "tando": 3053,
    "ĠWalter": 6390,
    "omas": 2814,
    "Ġvino": 6877,
    "dicos": 5082,
    "ĠBolivia": 9582,
    "Ġtransmi": 5555,
    "ural": 3605,
    "ĠEspaÃ±a": 977,
    "gal": 2644,
    "Ġ26": 3256,
    "Ã±ado": 6636,
    "ctor": 1128,
    "Ġino": 9669,
    "Ġmujeres": 1569,
    "Ġneo": 2900,
    "Ġnormalmente": 8931,
    "ystyle": 7448,
    "ĠDelacroix": 7953,
    "ĠQue": 4415,
    "relie": 8361,
    "ila": 8307,
    "Ġpen": 2365,
    "rarse": 5167,
    "Ġce": 2467,
    "ĠTrin": 4936,
    "ceso": 2240,
    "ĠinspirÃ³": 5829,
    "tero": 6722,
    "Ġcic": 4542,
    "Ġrecre": 6384,
    "ĠVII": 4930,
    "Ġciudades": 3317,
    "Ġnuevo": 1652,
    "ĠempezÃ³": 3746,
    "ĠGinebra": 9222,
    "rÃ¡": 753,
    "Ã¡lo": 2476,
    "Ġincluyen": 4209,
    "Ġdenominado": 6543,
    "ĠVersalles": 8039,
    "vard": 8482,
    "ÃŃsmo": 8014,
    "ĠGi": 1808,
    "ĠPaisaj": 3587,
    "ĠMonasterio": 5437,
    "17": 1378,
    "Ġacceso": 6966,
    "ĠnÃºm": 1831,
    "ficÃ³": 8662,
    "Î»": 6884,
    "Ġrecon": 3080,
    "uela": 1023,
    "redo": 5683,
    "ĠPlaza": 5500,
    "ĠAna": 3120,
    "Ġprofes": 1220,
    "ienen": 2122,
    "ĠTor": 1829,
    "Ġobjetos": 2062,
    "quite": 990,
    "ĠBen": 2488,
    "Ġescul": 746,
    "tales": 8686,
    "Ġpatio": 6790,
    "Ġcapacidad": 5955,
    "Ġhonor": 3135,
    "ĠpequeÃ±as": 3821,
    "Ġprimera": 835,
    "Ġexpertos": 9322,
    "ĠfotÃ³grafo": 7344,
    "O": 39,
    "Ġcostumbrista": 9218,
    "ĠFa": 2474,
    "ĠEx": 685,
    "Ġcubre": 8310,
    "ĠMin": 2481,
    "Ġnuev": 1851,
    "gelo": 6985,
    "dem": 552,
    "taÃ±a": 6446,
    "Ãºb": 1049,
    "ĠAsimismo": 6353,
    "ĠAlcalÃ¡": 9445,
    "ario": 665,
    "ĠFlo": 1525,
    "Ġpintaba": 7314,
    "Ġcreaciones": 8991,
    "Ġfamosas": 7755,
    "ĠConcurso": 6713,
    "ĠGas": 6279,
    "Ġpul": 5010,
    "Ġmor": 3417,
    "lesias": 3715,
    "Ġmucha": 4475,
    "Ġcorona": 4796,
    "ĠreproducciÃ³n": 7261,
    "eso": 3633,
    "Ġsin": 837,
    "Ġoficiales": 6867,
    "Ġcampesinos": 7922,
    "Ġllevaron": 7979,
    "erse": 6144,
    "Ġparticip": 1637,
    "Ġromano": 5062,
    "Ġsex": 4329,
    ",": 9,
    "Ġz": 2025,
    "lid": 3492,
    "ram": 6345,
    "Ġindi": 1236,
    "jam": 8566,
    "Ġdiscurso": 9150,
    "Ġs": 197,
    "Ġexpuso": 2769,
    "Ġtro": 4137,
    "ĠAt": 4607,
    "igÃ¼edad": 4377,
    "Ġclaroscuro": 7923,
    "ribun": 9482,
    "terrÃ¡n": 5668,
    "ĠBeca": 9173,
    "ĠAten": 3264,
    "Ġau": 664,
    "emp": 756,
    "ĠpolÃŃticas": 7305,
    "vieron": 2187,
    "ito": 1493,
    "Ġ198": 737,
    "ispÃ¡n": 7849,
    "san": 6829,
    "ĠherÃ¡l": 9905,
    "Ġtextura": 9345,
    "Ġcincuenta": 6194,
    "Ġmuerto": 4953,
    "zaga": 9372,
    "Ġestatu": 2084,
    "Ġrecientes": 8126,
    "ĠÃ¡reas": 8472,
    "Ġexca": 7074,
    "tiz": 5422,
    "iso": 1791,
    "mis": 7582,
    "ĠAbad": 9960,
    "ĠsÃŃ": 1375,
    "Ġsocial": 2477,
    "Ġrepi": 9227,
    "Ġha": 364,
    "Ġdirector": 2347,
    "imental": 8981,
    "Ġfundada": 7912,
    "Ġsido": 1008,
    "Ġapro": 2058,
    "ceres": 7942,
    "bao": 3880,
    "Ġmenos": 1881,
    "ĠrealizaciÃ³n": 4079,
    "gn": 2777,
    "ĠLibre": 7814,
    "ĠHel": 4252,
    "ĠespecializÃ³": 8281,
    "itado": 2742,
    "ÃŃst": 542,
    "eron": 629,
    "arca": 3118,
    "ĠTar": 5386,
    "Ġformada": 8827,
    "tien": 4780,
    "ĠTorre": 6062,
    "Ġdeca": 5315,
    "Ġportu": 6197,
    "ĠAla": 9366,
    "iblemente": 9153,
    "entales": 2772,
    "emisza": 8069,
    "damente": 3338,
    "ĠPamplona": 7436,
    "graf": 573,
    "Ġestudio": 1402,
    "ĠBoston": 5719,
    "Ġprincip": 716,
    "Ġtrist": 8527,
    "Ġcompara": 8431,
    "aro": 2842,
    "adros": 9271,
    "anos": 1129,
    "Ġretablo": 1436,
    "Ġesp": 2272,
    "ionado": 8843,
    "ĠAsturias": 7802,
    "ĠLam": 6217,
    "Ġgeneral": 1452,
    "Ġmetros": 3554,
    "amor": 7971,
    "Ġconde": 3933,
    "Ġsobrino": 8540,
    "cador": 7956,
    "Ġvig": 6087,
    "ĠtransformaciÃ³n": 9963,
    "Ġbu": 3642,
    "Ġ33": 8708,
    "Ġestatuas": 5095,
    "ĠAdria": 9734,
    "Ġenf": 4722,
    "ĠenergÃŃa": 9108,
    "ada": 330,
    "ĠDise": 4734,
    "Ġacto": 6490,
    "ĠTes": 9121,
    "Bornemisza": 8290,
    "Ġmanto": 6725,
    "ll": 7371,
    "ĠLie": 6947,
    "Ġsatisfa": 8699,
    "ĠÃģngeles": 4332,
    "Ġcivil": 3262,
    "ĠAmeric": 3903,
    "Ġhoy": 2350,
    "tte": 5550,
    "viÃ³": 1257,
    "Ġnacido": 4129,
    "lÃŃ": 1340,
    "ĠHunt": 7530,
    "Ġcomerciales": 9885,
    "ĠXVIII": 2918,
    "Ġemplea": 9606,
    "ĠartÃŃculos": 6529,
    "ĠViv": 9474,
    "ĠBudapest": 8323,
    "itu": 575,
    "ĠSalÃ³n": 1233,
    "ÃŃso": 5961,
    "ĠGusta": 4738,
    "Ġmanierismo": 9201,
    "ĠinterpretaciÃ³n": 4847,
    "ĠRusia": 3683,
    "ridge": 7754,
    "Ġpueblo": 2675,
    "lezas": 6537,
    "³": 96,
    "Ġfundador": 4836,
    "ood": 5529,
    "gas": 1832,
    "Ġeta": 2336,
    "Ġtodas": 2027,
    "ĠJul": 2523,
    "ĠParece": 9500,
    "Ġrealizada": 2545,
    "iciÃ³n": 2168,
    "rico": 9772,
    "ĠIn": 590,
    "t": 72,
    "ĠVia": 4942,
    "Ġ167": 5881,
    "Ġaleg": 4269,
    "ĠReconoci": 7127,
    "Ġ11": 3227,
    "iencias": 3982,
    "ĠAugust": 7779,
    "pto": 8291,
    "ì": 146,
    "Ġit": 1169,
    "Ġsovi": 8531,
    "quez": 2284,
    "andin": 6941,
    "ÃŃf": 3084,
    "iti": 9522,
    "Ġcomun": 2070,
    "65": 9969,
    "ĠquedÃ³": 3928,
    "Ġfrecuentemente": 7327,
    "Ġorigen": 2413,
    "Ġpalabras": 4075,
    "Ġfrutas": 6992,
    "Ġtanto": 1137,
    "pal": 1870,
    "ĠCast": 1668,
    "Ġtercer": 5901,
    "Ġexpresiones": 7690,
    "ĠOn": 6984,
    "Ġpintores": 1015,
    "tambiÃ©n": 8859,
    "tistas": 8548,
    "gs": 7253,
    "guin": 3960,
    "ĠAlbert": 4098,
    "erbaiy": 8494,
    "Ġacontecimientos": 8365,
    "ĠsecciÃ³n": 5191,
    "Ġbiz": 4582,
    "Ġllegado": 6200,
    "ĠdÃ©c": 1317,
    "ajas": 8819,
    "uest": 6932,
    "Ġcubismo": 5796,
    "ĠPerug": 6509,
    "ĠHora": 9560,
    "Ã«": 7890,
    "ral": 717,
    "ĠejecuciÃ³n": 4257,
    "ante": 1208,
    "esto": 6067,
    "ĠIb": 5824,
    "uida": 1950,
    "tan": 1958,
    "Ġmarfil": 9316,
    "Ġvist": 3113,
    "Ġmorir": 8835,
    "Ġmone": 7689,
    "Ġlad": 7720,
    "dera": 780,
    "Ġpincelada": 5644,
    "Ġpoemas": 5524,
    "Ġrepresentado": 3716,
    "Ġley": 9334,
    "Ġcla": 1066,
    "Ġapenas": 5028,
    "Ġaspectos": 5054,
    "Ġlegado": 5728,
    "],": 8787,
    "®": 91,
    "embro": 9678,
    "ido": 486,
    "Ġcuar": 3478,
    "Ġpresentada": 9079,
    "isiÃ³n": 3050,
    "Ġprofesional": 4574,
    "Ġrupestres": 9385,
    "Ġnombra": 9458,
    "ÃŃm": 2279,
    "gencia": 9124,
    "Ġperro": 7300,
    "Ã¤": 3142,
    "ismos": 7587,
    "ĠAc": 2736,
    "ĠTiziano": 3548,
    "ĠStan": 9053,
    "pulos": 5220,
    "Ġindividual": 2688,
    "logÃŃas": 8298,
    "dena": 5595,
    "ÃŃ": 219,
    "onasterio": 2570,
    "ĠDomin": 2817,
    "Ġnombres": 5106,
    "Ġsele": 3449,
    "lia": 2956,
    "Ġdefin": 5371,
    "Ġmirando": 8395,
    "mina": 2959,
    "ĠOtoÃ±o": 7543,
    "ados": 402,
    "Ġ1898": 6169,
    "onis": 8389,
    "bito": 4474,
    "Ġprue": 5400,
    "ĠVil": 5551,
    "ĠColombia": 3095,
    "Ġtres": 952,
    "Ġ16": 621,
    "Ġexpresa": 8379,
    "ĠStreet": 8349,
    "Ġarri": 5460,
    "dias": 4412,
    "ĠtÃºn": 6337,
    "ĠConsta": 3518,
    "randa": 8309,
    "Ġcaso": 2516,
    "Ġ1909": 5045,
    "ntera": 5000,
    "Ġcontornos": 7943,
    "ccident": 3139,
    "Ġapoyo": 5440,
    "visiÃ³n": 4375,
    "covia": 9975,
    "ro": 230,
    "iere": 2981,
    "dra": 2425,
    "Ġcolaborado": 8780,
    "men": 1240,
    "Ġderro": 7886,
    "Ġmiembros": 2944,
    "ny": 5435,
    "ĠHaarlem": 8241,
    "Ġpero": 632,
    "elli": 3639,
    "ĠCalv": 8344,
    "Ġreflex": 9785,
    "Ġaprendizaje": 6676,
    "ĠNatural": 9962,
    "jar": 1613,
    "abilidad": 9431,
    "ĠbÃ³veda": 6594,
    "Ġliteraria": 6970,
    "pÃ³": 2301,
    "tam": 8702,
    "ĠParticip": 6224,
    "ĠCul": 8913,
    "Ġinte": 1669,
    "Ġrepresentados": 5411,
    "ĠcÃ³mo": 4199,
    "ĠpictÃ³ricos": 7825,
    "orte": 1966,
    "gidas": 8440,
    "tt": 2377,
    "ĠKarl": 5935,
    "80": 3343,
    "titud": 4353,
    "Ã±oz": 8043,
    "Ġ1871": 7434,
    "Ġsino": 1686,
    "bres": 2586,
    "ĠDolores": 9571,
    "ĠMetropolit": 4714,
    "ang": 3215,
    "Ġapoy": 4846,
    "ellos": 9834,
    "dando": 7159,
    "Ġvas": 2382,
    "ĠÃ©l": 1063,
    "ĠLas": 760,
    "ĠRoy": 3996,
    "tuvo": 2378,
    "sÃ©s": 8451,
    "curo": 6964,
    "[EOS]": 3,
    "ĠDie": 2306,
    "Ġabre": 6536,
    "ĠQui": 3450,
    "ury": 9533,
    "ĠMenciÃ³n": 6252,
    "ĠPark": 9060,
    "bla": 5309,
    "ele": 1145,
    "Ġreflejan": 8128,
    "Ġbra": 3097,
    "ĠilustrÃ³": 8972,
    "ĠEuro": 1593,
    "Ġhijas": 6281,
    "ĠMig": 1510,
    "porÃ³": 9502,
    "cultad": 5160,
    "Ġn": 263,
    "ĠtÃ©cnica": 1412,
    "Ġactu": 1211,
    "Ġreyes": 6633,
    "Ġprotagon": 3350,
    "Ġmitad": 3102,
    "tada": 1828,
    "ulio": 1419,
    "quÃŃ": 2373,
    "ĠHomenaje": 7023,
    "Ġsub": 2416,
    "Ġmonumentales": 9459,
    "Ġdom": 4706,
    "ĠFon": 6418,
    "Ġterra": 6670,
    "Ġclave": 6756,
    "ĠEd": 2836,
    "rans": 5407,
    "zion": 9331,
    "cieron": 3685,
    "Ġjuicio": 8125,
    "ĠusÃ³": 8267,
    "Ġ(": 268,
    "Ġcatal": 4524,
    "ladel": 5557,
    "Ġrepresenta": 793,
    "(": 7,
    "Ġvo": 2597,
    "ĠJim": 6373,
    "Ġ155": 5711,
    "Ġespos": 1684,
    "ĠMol": 5471,
    "Ġescritores": 6248,
    "co": 317,
    "bles": 2220,
    "ĠUU": 5293,
    "ĠÃģmsterdam": 3678,
    "inadas": 7267,
    "Ġmuerta": 5816,
    "Ġdise": 1118,
    "mino": 3189,
    "Ġhue": 5097,
    "Ġmisma": 1662,
    "ĠM": 235,
    "AN": 5737,
    "ĠCin": 5762,
    "Ġinicial": 6292,
    "volucion": 3388,
    "ĠCer": 4021,
    "Ġaltar": 3389,
    "demi": 9914,
    "hn": 6700,
    "Ġmuertos": 6807,
    "Ġconflic": 6905,
    "ĠBat": 5064,
    "Ġilustrar": 8939,
    "Ġpuerta": 4302,
    "adio": 9027,
    "dos": 387,
    "Ġsust": 4925,
    "Ġpremi": 7175,
    "gro": 1721,
    "ĠFunda": 2147,
    "Ġexperiencia": 5199,
    "Ã³cra": 8585,
    "Ġinteg": 7759,
    "Ġveneciana": 7326,
    "ĠDavid": 2485,
    "tiva": 767,
    "Ġreflejar": 9645,
    "niversario": 7055,
    "193": 3148,
    ".": 11,
    "Ġgalar": 6055,
    "ĠAlfonso": 4504,
    "Ġocu": 2030,
    "Ġtoda": 1401,
    "ez": 1019,
    "ĠWar": 4684,
    "Ġenrique": 9448,
    "Ġsue": 1925,
    "Ġdibu": 673,
    "stre": 4668,
    "Ġenero": 1936,
    "Ġperspectiva": 2449,
    "Ġdire": 1146,
    "ĠAdam": 8690,
    "Ġrecono": 5769,
    "Ġsal": 1400,
    "Ġhomenaje": 4044,
    "ĠEspaÃ±ol": 6639,
    "Ġbe": 2260,
    "Ġsegundo": 2335,
    "cilia": 8579,
    "Ġministro": 8317,
    "Ġsiguiendo": 5700,
    "ĠGalerÃŃa": 759,
    "miento": 853,
    "ar": 207,
    "ĠBernard": 5391,
    "Ã±ol": 1096,
    "vi": 343,
    "torios": 5858,
    "Ġcorrientes": 7029,
    "ĠSegundo": 7653,
    "ĠPierre": 3882,
    "Ġdicha": 4313,
    "siÃ³n": 1060,
    "gulares": 7532,
    "rÃ¡ndose": 9112,
    "el": 280,
    "Ġincor": 3210,
    "cios": 1500,
    "ĠPas": 2238,
    "ĠFil": 5906,
    "Ġchina": 6890,
    "Ġinsp": 5341,
    "ĠRegres": 8592,
    "Ġnov": 9001,
    "Ġprincipales": 2241,
    "ĠVI": 4092,
    "ustra": 1065,
    "ctos": 1213,
    "nt": 194,
    "ĠPe": 1458,
    "ĠpodÃŃan": 6524,
    "Fran": 6016,
    "Ġrepublic": 9367,
    "Ġfamil": 889,
    "ntica": 8744,
    "cam": 5366,
    "Ġ1996": 3947,
    "ley": 2965,
    "ĠCrÃŃ": 9390,
    "Ġmus": 2911,
    "ĠmÃºsica": 2938,
    "Ġpermanente": 4563,
    "up": 4077,
    "iss": 3953,
    "Ġti": 605,
    "Ã©l": 3036,
    "ĠTro": 5900,
    "Ġpueb": 2166,
    "bol": 1198,
    "Ġescultores": 5803,
    "ĠCristÃ³": 7018,
    "Ġnobles": 8573,
    "Ġman": 609,
    "gues": 4845,
    "Ġcera": 6143,
    "ni": 502,
    "cher": 4149,
    "ĠQuint": 7964,
    "Ġllevado": 6587,
    "strucciÃ³n": 4233,
    "var": 2129,
    "Ġciclo": 5885,
    "Ġintensidad": 8654,
    "Ú": 132,
    "ĠJard": 7009,
    "Ġ1943": 5162,
    "¤": 82,
    "Ġ1880": 4963,
    "Ġpecho": 8213,
    "Ġfamosos": 6805,
    "Ġvisita": 3656,
    "ĠdiseÃ±os": 4634,
    "ĠÃļlti": 6666,
    "ĠÂ¿": 4901,
    "Ġreina": 3367,
    "Ġincon": 6347,
    "bi": 315,
    "omenaje": 2880,
    "ĠlÃŃm": 9526,
    "ĠcÃ³dice": 7231,
    "phe": 9998,
    "ĠartÃŃculo": 6260,
    "ĠEn": 329,
    "Ã¡s": 332,
    "Ġguarda": 7497,
    "ĠCarl": 6693,
    ";": 23,
    "dido": 1507,
    "Ġciencia": 8369,
    "Ġhomb": 2438,
    "ĠNÃ¡poles": 3796,
    "ĠpictÃ³ricas": 5894,
    "Ġexter": 3596,
    "Ġdiferentes": 1786,
    "Ġflore": 8941,
    "ĠocasiÃ³n": 5281,
    "Ġminia": 2834,
    "vin": 1466,
    "Ġconceptos": 8875,
    "ĠautÃ³": 8262,
    "Ġdura": 5236,
    "ĠBolÃŃvar": 9908,
    "ios": 442,
    "leza": 1255,
    "Ġameric": 5428,
    "esÃŃa": 3079,
    "ĠtÃ©cnicas": 2431,
    "ĠProf": 6250,
    "Ġalrededor": 2232,
    "man": 539,
    "ĠhacÃŃan": 9976,
    "Ġclientes": 9467,
    "ĠArthur": 7460,
    "Ġtipo": 1690,
    "lÃ¡st": 1540,
    "ĠTiz": 3221,
    "eriores": 3854,
    "Ġsurrealistas": 8779,
    "Ġartes": 1562,
    "Ġestudios": 1312,
    "gua": 1250,
    "Ċ": 150,
    "iÃ³n": 525,
    "Ġef": 6545,
    "p": 68,
    "ĠGabriel": 5158,
    "quel": 1599,
    "ĠGaller": 1546,
    "Ġdestac": 1862,
    "ĠPaz": 5086,
    "Ġnum": 1464,
    "ĠevoluciÃ³n": 5470,
    "Ġforma": 694,
    "Ġrecibir": 6735,
    "teriores": 2939,
    "ĠAl": 465,
    "Ġeran": 1587,
    "ĠaÃ±os": 514,
    "Ġdenom": 5303,
    "reros": 6467,
    "ticelli": 6530,
    "Ġbrillantes": 6685,
    "Ġaprendiz": 4225,
    "Ġyeso": 7321,
    "lamente": 8816,
    "ibu": 3161,
    "Ġ1977": 4623,
    "ĠVerde": 9815,
    "ĠtraducciÃ³n": 8942,
    "Ġ1869": 8243,
    "ĠAng": 7375,
    "Ġfas": 5739,
    "Ġreper": 7473,
    "Ġnarrativa": 9610,
    "Ġprecios": 6862,
    "Ġdel": 244,
    "ĠLisboa": 5753,
    "Ġherede": 6822,
    "ĠsiguiÃ³": 4150,
    "Ġarriba": 6750,
    "ĠHist": 1437,
    "ĠLic": 7241,
    "ne": 879,
    "toÃ±o": 4453,
    "Ġ202": 2103,
    "gular": 3484,
    "à": 134,
    "Ġniv": 3379,
    "Ġmostraba": 9650,
    "Ġespa": 683,
    "Ġprovincia": 4076,
    "end": 6831,
    "tz": 5556,
    "zado": 2285,
    "Ġfuera": 2314,
    "Ġrepar": 8330,
    "Ġdistin": 6270,
    "uales": 2628,
    "ĠfÃŃsico": 9991,
    "ĠNikol": 9158,
    "ĠRosa": 5254,
    "graph": 9870,
    "illo": 1354,
    "ĠTeatro": 3794,
    "Ġaparece": 1967,
    "Ġescribe": 7493,
    "Ġescon": 8889,
    "icidad": 3919,
    "ÃŃmetros": 6906,
    "Ãºa": 3295,
    "ĠAnÃ¡lisis": 5962,
    "icio": 5285,
    "amen": 4869,
    "Ã©m": 2020,
    "Ġapa": 6776,
    "ingen": 9947,
    "Ġexig": 9122,
    "ł": 184,
    "ĠvacÃŃo": 9470,
    "Ġprofesionales": 9540,
    "Ġinsta": 2273,
    "Ġpren": 4372,
    "ĠNo": 1010,
    "ĠantigÃ¼edad": 6610,
    "arrol": 1091,
    "ĠLÃ³pez": 3823,
    "Ġgober": 5187,
    "Ġvac": 7641,
    "ĠSebasti": 4140,
    "ĠMundo": 8940,
    "ons": 7627,
    "lasco": 7631,
    "ĠcorazÃ³n": 7613,
    "ĠRÃ³": 8503,
    "ĠMedia": 4766,
    "vada": 5938,
    "Ġposi": 5686,
    "ussin": 9406,
    "ĠHals": 7743,
    "ĠmÃºsicos": 8226,
    "ica": 305,
    "rede": 1589,
    "A": 25,
    "ĠReal": 1433,
    "Ġfines": 6026,
    "Ġquiso": 8731,
    "Ġpol": 1124,
    "Ġllevan": 7772,
    "ĠToledo": 3686,
    "ĠVIII": 6518,
    "ĠAmbros": 8904,
    "ĠAsÃŃ": 3056,
    "Ġmuestran": 3198,
    "illos": 5720,
    "Ġpalacios": 8103,
    "ĠDiego": 3174,
    "Ġmara": 6528,
    "ĠPintura": 1252,
    "Ġabar": 9726,
    "Ġacor": 9164,
    "B": 26,
    ").": 457,
    "Ġoportun": 5696,
    "vuel": 4771,
    "erto": 7836,
    "Z": 50,
    "Ġpublici": 9384,
    "Ġdivi": 4161,
    "ann": 7987,
    "Ġlat": 4889,
    "Ġequilib": 6174,
    "ĠSue": 4858,
    "Ġentender": 8250,
    "ĠMan": 961,
    "Ġcul": 971,
    "xico": 1196,
    "ĠGiorg": 8416,
    "¦": 84,
    "jor": 2100,
    "ĠcartÃ³n": 9017,
    "Ġsilla": 9205,
    "Ġfrances": 2119,
    "grafo": 3005,
    "ĠCalifornia": 4998,
    "Ġtare": 5982,
    "ĠCent": 1239,
    "ĠayudÃ³": 7679,
    "ĠPaint": 7010,
    "tenstein": 8955,
    "ĠbritÃ¡n": 3357,
    "ĠestÃ©tico": 8818,
    "izaciÃ³n": 3452,
    "90": 6775,
    "Ġcoment": 6845,
    "ores": 726,
    "use": 769,
    "Ġparecido": 8460,
    "ĠLeon": 2274,
    "dentes": 3117,
    "ĠTu": 5084,
    "ĠNaturaleza": 7994,
    "Ġoriginal": 1984,
    "tun": 3391,
    "ĠVirgin": 9169,
    "Ġconvertido": 7735,
    "´": 97,
    "uvent": 5211,
    "Ġmuseo": 1459,
    "ĠhistÃ³ricas": 7393,
    "ĠZÃº": 8576,
    "Ġrequer": 4091,
    "Ġfun": 868,
    "Ŀ": 181,
    "Ġformal": 6423,
    "pa": 323,
    "Ġrup": 9278,
    "Ġcarteles": 6160,
    "ĠBru": 4717,
    "ĠChe": 7211,
    "pida": 8869,
    "ĠdiseÃ±o": 2209,
    "Arts": 6808,
    "oli": 3321,
    "jo": 403,
    "ĠÃºltimas": 4996,
    "ĠBlake": 8448,
    "ĠConde": 7594,
    "ĠTem": 9898,
    "ĠMilÃ¡n": 3494,
    "Ġsiguiente": 2329,
    "fuer": 3346,
    "sto": 571,
    "port": 7531,
    "Ãł": 2964,
    "Ġcentros": 8174,
    "ruecos": 9466,
    "Ġdirectamente": 4554,
    "Ġcolonia": 9673,
    "urgo": 8276,
    "ĠpÃ¡": 5244,
    "guez": 2976,
    "ĠdebÃŃa": 5297,
    "onal": 9586,
    "ĠdiseÃ±ado": 8806,
    "Ġ1973": 4509,
    "ĠAdo": 2832,
    "vaciÃ³n": 4186,
    "ĠÃºn": 1582,
    "ĠencargÃ³": 3738,
    "zana": 8882,
    "ĠdÃ³": 5721,
    "Ġsostiene": 4645,
    "lamen": 2155,
    "tual": 4131,
    "smo": 1166,
    "Ġapare": 1027,
    "ĠMargar": 6153,
    "]": 52,
    "respon": 2411,
    "Ġpaneles": 3965,
    "Ġmercado": 5218,
    "Ġsiguen": 8113,
    "Ġrelieves": 6180,
    "ĠKle": 6489,
    "ĠMusÃ©e": 5468,
    "ger": 2136,
    "Ġilum": 2749,
    "ĠEsto": 2802,
    "sw": 9662,
    "sas": 7553,
    "atorio": 7570,
    "Ġgeneralmente": 3467,
    "quilib": 5761,
    "Ġ3": 860,
    "Ġatra": 2706,
    "ĠCert": 8408,
    "Ġarti": 445,
    "tadas": 3544,
    "ĠJunto": 4851,
    "Ġ2018": 4133,
    "Ġ1887": 5998,
    "Ġtrabaj": 507,
    "Ã©mica": 4600,
    "ren": 447,
    "Ġsens": 3540,
    "Ġcubri": 8999,
    "tea": 7788,
    "ĠparticipÃ³": 2531,
    "Ġrepresentadas": 7945,
    "turo": 3988,
    "ĠartÃŃsticas": 3074,
    "Ġmant": 1853,
    "Ġempleado": 8831,
    "lana": 3749,
    "em": 300,
    "ĠPaul": 2096,
    "ĠTintoretto": 9584,
    "Ġsentimiento": 6163,
    "ĠMariano": 5917,
    "Mar": 6973,
    "¸": 101,
    "ĠdesempeÃ±Ã³": 9287,
    "Ġescor": 9725,
    "ora": 584,
    "22": 4887,
    "Ġarca": 7600,
    "ĠRom": 2300,
    "Ġespe": 639,
    "cifixiÃ³n": 6121,
    "ĠEntre": 1269,
    "Ġausencia": 7952,
    "Ġdiscu": 9007,
    "Ġmosa": 4042,
    "Ġtenebri": 9822,
    "Ġmismo": 834,
    "ĠPIN": 7874,
    "ĠVicente": 3396,
    "Ġtemple": 5337,
    "cientos": 9946,
    "Ġanimales": 2616,
    "ĠDis": 5171,
    "Ġgrabador": 3519,
    "grafos": 8190,
    "ĠMante": 8437,
    "ĠUffizi": 6917,
    "Ġaf": 1355,
    "27": 5469,
    "ĠHerman": 8225,
    "Ġviva": 8171,
    "ĠaÃ±ad": 3710,
    "lina": 7608,
    "Ġ1910": 4127,
    "Ġnunca": 2721,
    "emb": 1092,
    "ilia": 4141,
    "Ġhumanas": 6579,
    "ten": 561,
    "Ġpeda": 9099,
    "dada": 3308,
    "ĠpasÃ³": 2277,
    "u": 73,
    "Ġestudiar": 2985,
    "bable": 1689,
    "k": 63,
    "ĠK": 511,
    "°": 93,
    "Ġantigua": 2851,
    "ĠfilosofÃŃa": 6785,
    "Ġfavore": 9964,
    "cÃ©s": 1467,
    "ĠGiuseppe": 9945,
    "Ġdefen": 4204,
    "Ġmanos": 2682,
    "Ġescudo": 7508,
    "Ġsuje": 6895,
    "ĠMer": 2779,
    "ĠÃ¡l": 5768,
    "Ġseme": 5604,
    "Ġ1854": 9731,
    "vest": 6312,
    ".,": 2340,
    "ĠacabÃ³": 9399,
    "volu": 1657,
    "Ġapo": 2003,
    "Ġpigmentos": 5793,
    "AS": 8946,
    "Ġpapiro": 4870,
    "zo": 530,
    "Ġseguridad": 8161,
    "Ġexpresionista": 6616,
    "Ġpluma": 8268,
    "Ġim": 417,
    "ĠConse": 5259,
    "ĠPaolo": 6266,
    "ĠGet": 9721,
    "Ġ157": 6232,
    "Ġcap": 1013,
    "Ġholandesa": 8698,
    "Ġnaturaleza": 1889,
    "ples": 3573,
    "ĠPer": 1328,
    "ĠBellas": 715,
    "Ġnueva": 2080,
    "Ġmit": 2661,
    "Ġnovela": 5157,
    "sh": 5016,
    "Îº": 8133,
    "ĠpÃ³st": 8122,
    "Ġalf": 7541,
    "tida": 4253,
    "ĠVincent": 6534,
    "Ġcatedral": 2724,
    "ĠdÃ©": 6527,
    "ĠHernÃ¡ndez": 7381,
    "Ġvaria": 4275,
    "iones": 1182,
    "Ġpromin": 9617,
    "Ġcen": 9970,
    "ĠApare": 8947,
    "ĠTer": 3298,
    "Ġresist": 6233,
    "Ġsuperiores": 9508,
    "Ġenca": 3991,
    "ĠKa": 3035,
    "Ġgan": 2184,
    "Ġsen": 2224,
    "ĠrelaciÃ³n": 2079,
    "Ġexhibi": 2226,
    "Ġmonasterio": 3663,
    "Ġprome": 9296,
    "ÃŃlica": 4112,
    "Ġcolectivo": 7616,
    "ĠestÃ¡n": 1276,
    "ĠJulio": 3277,
    "Ġestaciones": 9925,
    "dro": 4194,
    "Ġdocumenta": 9932,
    "Ġ1886": 5997,
    "Ġpodido": 9256,
    "Ġactor": 8525,
    "ĠdifusiÃ³n": 6969,
    "nto": 1804,
    "ĠFi": 3768,
    "Ã³mica": 5717,
    "ĠÃīl": 6342,
    "ĠAr": 344,
    "cero": 6274,
    "Ġincen": 6417,
    "fru": 7185,
    "ĠProdu": 9641,
    "peo": 5360,
    "'s": 3183,
    "pon": 958,
    "166": 8962,
    "Ã¡mica": 2672,
    "Ġru": 2190,
    "ĠreligiÃ³n": 6318,
    "Ġhum": 1209,
    "Ġtratamiento": 4463,
    "ĠApolo": 6475,
    "Ġfal": 2530,
    "ĠEspaÃ±ola": 6106,
    "Ġ201": 783,
    "ĠpelÃŃcula": 3271,
    "Ġguar": 4539,
    "Ġmediev": 9411,
    "Ġcomenzaron": 7620,
    "Ġintelectu": 4122,
    "ĠregiÃ³n": 4009,
    "ĠpatrÃ³n": 7919,
    "Ġneer": 5044,
    "Ġorden": 2362,
    "R": 42,
    "Ġlibras": 8870,
    "ĠSal": 815,
    "Ġ1933": 4962,
    "Ġbasada": 6697,
    "zando": 4160,
    "Ġbreve": 6328,
    "ĠTom": 3123,
    "ĠTru": 8636,
    "ĠGine": 8767,
    "ĠConvento": 8707,
    "ultÃ¡n": 9067,
    "?": 24,
    "Ġasociado": 8286,
    "Ġjapones": 5376,
    "ĠposiciÃ³n": 4104,
    "cesiÃ³n": 7492,
    "tta": 7186,
    "zaro": 6454,
    "Ġimpresionista": 5183,
    "ĠcÃ©lebre": 6481,
    "Ġpr": 559,
    "Ġmemoria": 5126,
    "zzi": 8087,
    "½": 106,
    "ĠFigura": 9869,
    "Ġmillones": 5252,
    "Ġsobres": 6753,
    "con": 663,
    "Ġll": 4115,
    "cripciÃ³n": 1565,
    "Ġcercano": 5587,
    "helm": 6057,
    "vers": 881,
    "Ġepiso": 4721,
    "Ġexhibido": 9933,
    "Ġabunda": 6586,
    "dt": 9183,
    "ĠgeomÃ©tr": 3585,
    "Ġmanifesta": 6283,
    "ĠdejÃ³": 3077,
    "Ġlograr": 8630,
    "ĠPina": 4168,
    "Ġa": 196,
    "Ġincluye": 4157,
    "ĠresultÃ³": 9237,
    "Ġtempo": 4190,
    "Ġimagen": 1560,
    "Ġfrecuent": 4686,
    "lantes": 4799,
    "ĠMunicipal": 3938,
    "Ġdescrito": 8342,
    "ĠbÃŃb": 5210,
    "oci": 496,
    "ĠparticipaciÃ³n": 4964,
    "Ġsuici": 9894,
    "Ġdesarrolla": 6570,
    "ĠpermaneciÃ³": 4483,
    "Ġtecno": 8856,
    "ê": 144,
    "ocu": 4733,
    "alista": 1638,
    "Ġpatrones": 9012,
    "Ġpoema": 6166,
    "ĠCalle": 9074,
    "ï": 148,
    "ĠGio": 2101,
    "Ġrit": 8792,
    "Ġindividu": 1504,
    "Qu": 9771,
    "dor": 668,
    "ĠFro": 9722,
    "Ġtratados": 9789,
    "inastÃŃa": 4834,
    "Ġmem": 3646,
    "Ġconciencia": 9245,
    "ĠNatura": 5006,
    "ximo": 5234,
    "iÃ±ol": 9798,
    "Ã¼": 1205,
    "ers": 1577,
    "ĠSantos": 5781,
    "ĠMuerte": 6238,
    "ĠgÃ³tico": 5008,
    "Ġprocedente": 6473,
    "Ġhistor": 3649,
    "Ġcro": 3272,
    "Ù": 131,
    "sociaciÃ³n": 3506,
    "ethey": 7803,
    "Ġaust": 6178,
    "Ġacomo": 9149,
    "arte": 2816,
    "ĠParticipa": 9352,
    "Ġcarne": 9751,
    "Ġplanos": 5217,
    "Ġcau": 9315,
    "Ġtranspare": 9154,
    "ĠSegunda": 3608,
    "Ġsingular": 9455,
    "ĠOtro": 5085,
    "lesi": 9162,
    "The": 7856,
    "ld": 7968,
    "lez": 3004,
    "ft": 5219,
    "Î¿ÏĤ": 9324,
    "Ġ12": 2105,
    "Ġregres": 1527,
    "g": 59,
    "Ġhermanos": 3201,
    "Ġilustraciones": 3266,
    "Ġretab": 1235,
    "cita": 3989,
    "actu": 8496,
    "49": 6544,
    "bus": 8053,
    "No": 9770,
    "ĠJac": 4986,
    "Ġseno": 7626,
    "Ġint": 444,
    "Ġ2001": 3853,
    "Ġpaisajista": 6027,
    "Ġformato": 3840,
    "ĠBarbi": 9413,
    "bili": 9013,
    "ÃŃstico": 3381,
    "ism": 8308,
    "pecto": 2389,
    "Ġencargos": 4356,
    "ĠexhibiÃ³": 5119,
    "tra": 414,
    "stad": 8257,
    "ĠNeo": 9000,
    "ĠtÃŃpico": 8143,
    "Ġdia": 6165,
    "Î¼": 8743,
    "ĠMont": 2110,
    "Ġsegunda": 2018,
    "Ġejer": 3618,
    "ĠAlcal": 7893,
    "ĠOt": 3421,
    "ues": 6485,
    "ĠcondiciÃ³n": 6681,
    "ptiembre": 2045,
    "Ġrena": 3169,
    "Ġdis": 797,
    "Ġ24": 2928,
    "linas": 9861,
    "ĠFue": 921,
    "Ġconocidas": 4736,
    "ĠÃģngel": 1666,
    "cismo": 8678,
    "jes": 2195,
    "Ġdesconocida": 8877,
    "ĠWashington": 3542,
    "diente": 2828,
    "Ġima": 1268,
    "Ġobserv": 2876,
    "Ġnuestra": 8280,
    "olla": 6704,
    "Ġoficio": 6897,
    "Ġrelevancia": 9886,
    "piente": 7896,
    "ĠconvirtiÃ³": 2050,
    "ĠCort": 7495,
    "ĠMois": 7944,
    "Ġimporta": 1074,
    "ĠDibu": 3322,
    "Ġformado": 5075,
    "ĠAdol": 5517,
    "pu": 497,
    "Ġconservado": 3591,
    "pl": 1202,
    "lor": 2071,
    "idente": 2927,
    "fornia": 4658,
    "arroco": 5851,
    "Ġpudi": 3748,
    "Ġlide": 9917,
    "ĠBaj": 2737,
    "aux": 3562,
    "ĠaprendiÃ³": 6581,
    "zÃ³": 970,
    "Ġobras": 458,
    "ĠTiene": 6637,
    "Ġdiv": 4655,
    "cas": 742,
    "186": 4052,
    "gotÃ¡": 4078,
    "rÃ¡s": 4981,
    "ini": 1053,
    "Ġbelleza": 2897,
    "Âº": 2326,
    "stos": 2060,
    "ĠConsejo": 6155,
    "Ġmusicales": 8141,
    "Ġhora": 7430,
    "©": 87,
    "quinas": 9839,
    "Ã©n": 369,
    "usiÃ³n": 2186,
    "ĠÎµ": 6550,
    "Ġactos": 9089,
    "Ġtono": 4696,
    "ĠLin": 7210,
    "ald": 5820,
    "ĠcreciÃ³": 9536,
    "Ġven": 1443,
    "Ġmadre": 1901,
    "Ġdibujo": 1225,
    "ĠJames": 4656,
    "Ġverda": 3780,
    "Ġestructura": 2859,
    "rem": 781,
    "Ġdebate": 9204,
    "Ġac": 523,
    "ĠDet": 8355,
    "Ġquince": 8204,
    "Ġponer": 8928,
    "ert": 1501,
    "ĠÃģn": 1581,
    "Ġsobre": 424,
    "ĠProvin": 3197,
    "emo": 9670,
    "Ġherencia": 9062,
    "Ġreligiosa": 3945,
    "inados": 4941,
    "Ġ1940": 3949,
    "ĠGrecia": 5812,
    "Ġpiel": 5325,
    "Ġ80": 4969,
    "Ġsecretario": 8974,
    "Ġpresentar": 8299,
    "Ġrepresentando": 5410,
    "uer": 405,
    "via": 2090,
    "Ġcuello": 6302,
    "Ġteatro": 3615,
    "ple": 1179,
    "ĠAtenas": 5488,
    "ĠCasas": 7561,
    "baj": 460,
    "Ġaun": 7625,
    "Ġ1848": 8925,
    "Ġprofesora": 7193,
    "Ġhace": 1952,
    "Ġculturales": 5526,
    "Ġestaba": 1359,
    "Ġtriun": 5328,
    "ĠArchi": 6323,
    "Ġcolumna": 7291,
    "Ġgama": 7111,
    "gan": 1042,
    "Ġpos": 587,
    "Ġoscu": 2853,
    "ĠJuicio": 8373,
    "ĠPopular": 9008,
    "ĠÃ©xito": 2595,
    "Ġsu": 239,
    "Ġnacion": 8332,
    "Ġmezc": 9131,
    "anÃŃa": 4890,
    "ĠItalia": 1418,
    "tios": 7996,
    "Ġrode": 3167,
    "Ġplenamente": 8812,
    "Ġ145": 8116,
    "zada": 3334,
    "ĠFol": 9252,
    "ĠTi": 4698,
    "Ġ1938": 5173,
    "Ġacciones": 9059,
    "tia": 6215,
    "ĠIncluso": 8943,
    "Ġpod": 1520,
    "licaciÃ³n": 4967,
    "ficas": 9549,
    "icismo": 2398,
    "ð": 149,
    "Ġurban": 5566,
    "Ġmedia": 5929,
    "Ġpueden": 1867,
    "ude": 3422,
    "Ġrecomen": 9288,
    "Ġanciano": 8986,
    "Ġ1923": 5296,
    "tiv": 644,
    "ivin": 9753,
    "ispo": 4049,
    "ĠAlcÃ¡": 6813,
    "ĠJorge": 2745,
    "Ġnoticias": 8720,
    "Ġmis": 1130,
    "l": 64,
    "Ã³so": 7042,
    "ĠbiografÃŃa": 7489,
    "Ġestampas": 5314,
    "ĠGalicia": 9580,
    "Ġpintando": 4274,
    "cue": 500,
    "ĠAma": 6460,
    "Ġarque": 4001,
    "dencia": 1195,
    "ellido": 7619,
    "ono": 1543,
    "edad": 1441,
    "Ġutiliz": 1064,
    "ĠCorona": 6814,
    "Ġmodi": 6349,
    "Ġllena": 8465,
    "187": 4362,
    "scar": 9636,
    "adÃ©m": 2560,
    "zob": 7571,
    "Ġtorno": 3693,
    "Ġhabita": 6115,
    "\")": 7239,
    "Ġmexic": 3309,
    "ĠgrÃ¡fica": 6935,
    "ĠMadre": 9317,
    "Ġsist": 3228,
    "Ġnar": 5098,
    "84": 5122,
    "ĠLeopoldo": 9659,
    "Ġaplic": 3588,
    "icipal": 3166,
    "Ġcata": 5523,
    "rbol": 2664,
    "ĠBritÃ¡nico": 8479,
    "Ã³nico": 8689,
    "Ġda": 940,
    "ĠPh": 3907,
    "ĠSiglo": 8037,
    "ĠIg": 1798,
    "the": 4171,
    "ĠescribiÃ³": 2554,
    "Ġtemp": 1859,
    "rÃ¡fica": 2640,
    "Ġcomprom": 7335,
    "Ġfase": 5771,
    "inci": 4440,
    "uido": 1306,
    "ĠaquÃŃ": 3743,
    "ĠmarrÃ³n": 8016,
    "Ġenferme": 5112,
    "jas": 1325,
    "Ã³m": 2813,
    "Ġconsta": 3676,
    "ĠBalle": 8589,
    "Ġdisplaystyle": 7463,
    "vento": 2375,
    "ome": 4530,
    "Ġpunt": 6856,
    "Ġutiliza": 4019,
    "ĠleÃ³n": 9433,
    "ĠdÃ©cadas": 4531,
    "ĠAlemania": 2164,
    "Ġpractic": 6040,
    "Ġhubo": 5350,
    "Ġ1928": 4261,
    "ĠcomparaciÃ³n": 7780,
    "ĠpolÃŃ": 1572,
    "ĠKunst": 3390,
    "ema": 1843,
    "88": 6406,
    "Ġwe": 7529,
    "Ġnecesario": 8269,
    "Ġcort": 8277,
    "tisse": 6014,
    "Ġhorizonte": 9739,
    "uicio": 4948,
    "Ã¡culo": 6286,
    "Bar": 5797,
    "Ġenci": 4367,
    "lant": 7383,
    "Ġdispla": 7411,
    "ĠLÃ³": 3786,
    "ĠCena": 9143,
    "ĠRusiÃ±ol": 9816,
    "sterdam": 3259,
    "aron": 588,
    "Ġexpuesto": 5071,
    "Ġamigo": 2400,
    "ĠBeat": 9985,
    "ĠÃ©poca": 946,
    "Ġ1891": 6098,
    "sen": 2219,
    "ĠOtros": 3653,
    "Ġevolucion": 5530,
    "Ġparecer": 6921,
    "vado": 3896,
    "gimen": 8254,
    "ik": 3824,
    "Ġbusto": 7002,
    "Ġnega": 8512,
    "Ġtriunfo": 8538,
    "Ġprotagonista": 7378,
    "itario": 5070,
    "ĠPatrimonio": 8808,
    "ĠAsunciÃ³n": 5630,
    "Ġmuch": 1002,
    "Ġposib": 5401,
    "Ġtradiciones": 6683,
    "Ġcostumbri": 5133,
    "ent": 223,
    "ĠCrist": 3677,
    "ĠorgÃ¡n": 9685,
    "ional": 2984,
    "Ðº": 5738,
    "cola": 9093,
    "Ġmad": 2857,
    "Ġaz": 1673,
    "Ġtemas": 1483,
    "Ġexpresar": 7478,
    "ĠvisiÃ³n": 3191,
    "ĠNuestra": 4260,
    "Ġpelig": 9462,
    "Ġencuent": 845,
    "ĠEspa": 854,
    "ĠRub": 2776,
    "ĠsituaciÃ³n": 5505,
    "Ġgrabados": 2310,
    "anta": 3412,
    "ĠperdiÃ³": 8060,
    "Ġhacer": 1866,
    "mente": 380,
    "Ġencargo": 2648,
    "zones": 6843,
    "ĠBenito": 7435,
    "ÃŃsima": 5878,
    "ip": 5839,
    "Ġcapa": 2509,
    "ĠHan": 5172,
    "quer": 1773,
    "ĠatrÃ¡s": 8335,
    "Ġllam": 1044,
    "Ġrepresentada": 4586,
    "Ġmanuscri": 1815,
    "inaciÃ³n": 1986,
    "ĠJesucristo": 9711,
    "Ġlucha": 6712,
    "Ġ2022": 5564,
    ".)": 3469,
    "!": 4,
    "ĠDres": 5947,
    "Ġcontienen": 8799,
    "bes": 6188,
    "Ġintensa": 8046,
    "Ġ2023": 6761,
    "gos": 792,
    "Ġestando": 9589,
    "idas": 5078,
    "Ġunivers": 4939,
    "ĠBritÃ¡n": 6948,
    "ĠCÃ©sar": 8480,
    "ber": 681,
    "Ġcuer": 1451,
    "Ġexa": 5584,
    "Ġtemplo": 4074,
    "Ġas": 518,
    "guera": 9931,
    "Ġfamosa": 5472,
    "Ġmodelos": 3223,
    "ĠFu": 5571,
    "Ġmayores": 5396,
    "lista": 2860,
    "ot": 4646,
    "ĠE": 228,
    "Ġparticular": 1659,
    "hen": 7094,
    "Ġtele": 5789,
    "ĠUl": 6093,
    "ari": 1596,
    "Ġdemasiado": 5936,
    "fe": 517,
    "gna": 4411,
    "gno": 8910,
    "Ġk": 3047,
    "ĠArquitectura": 5329,
    "lie": 8881,
    "Ġco": 319,
    "ĠModer": 1893,
    "ĠotoÃ±o": 7122,
    "Ġescenario": 7085,
    "San": 6009,
    "Ġconce": 3203,
    "Ġdecorativas": 8302,
    "ĠRico": 5995,
    "Ġnorte": 2893,
    "ĠES": 9776,
    "Ġ(-": 5268,
    "Ġesperanza": 9840,
    "ĠLar": 7173,
    "pos": 372,
    "ĠCaballero": 7715,
    "ospital": 4247,
    "ĠUnidos": 1625,
    "Ġintrodu": 2753,
    "Ġpar": 391,
    "ĠGan": 8797,
    "cusiÃ³n": 8105,
    "ĠdiseÃ±Ã³": 6149,
    "ed": 828,
    "ĠAm": 869,
    "Ġbru": 6045,
    "Ġcuatro": 1474,
    "ĠLan": 4422,
    "ĠMes": 5671,
    "cen": 710,
    "fora": 6435,
    "sachus": 9167,
    "Ġagre": 6702,
    "Ġadop": 3547,
    "ientes": 8836,
    "ĠpenÃŃnsula": 9987,
    "Ġpertenecen": 9787,
    "ĠRiv": 3978,
    "Ġpruebas": 9656,
    "194": 3457,
    "dida": 1771,
    "inam": 6459,
    "Ġ1893": 5562,
    "raron": 3986,
    "ort": 6708,
    "Ġindepen": 3164,
    "ĠAust": 3868,
    "ĠperÃŃodo": 1910,
    "ĠpÃºblico": 2394,
    "Ġmundial": 9565,
    "ĠEgip": 3470,
    "ene": 777,
    "Ġenvuel": 8024,
    "Ġinacab": 8233,
    "ĠPrim": 1719,
    "Ġnombre": 1168,
    "Ġing": 4752,
    "ĠGiorgione": 8607,
    "ÃŃrculos": 7947,
    "Ġbas": 1578,
    "sterio": 2409,
    "radores": 8594,
    "trait": 7142,
    "gil": 9550,
    "pint": 3670,
    "ĠChurchill": 7031,
    "Ġalto": 2591,
    "ranos": 8111,
    "Ġ1951": 5056,
    "Ġdei": 7784,
    "ĠColonia": 6462,
    "ĠAlba": 6779,
    "Ġcambia": 9564,
    "IG": 7833,
    "rable": 9310,
    "ental": 1472,
    "Ġmayo": 1795,
    "ses": 3875,
    "Ġlu": 599,
    "ĠdetrÃ¡s": 4235,
    "Ġtabla": 1965,
    "ĠVi": 2242,
    "ĠmÃºsico": 8626,
    "ĠNa": 521,
    "Ġencontrar": 2874,
    "Ġboceto": 7001,
    "ardo": 1497,
    "ĠKu": 8488,
    "Sant": 9858,
    "omet": 4385,
    "Ġ1877": 7339,
    "ĠPam": 6287,
    "Ġsignificado": 5061,
    "Ġ7": 1426,
    "ubo": 3825,
    "Ġmani": 2199,
    "titu": 9973,
    "we": 3157,
    "anda": 8352,
    "Ġconvertir": 5677,
    "Ń": 185,
    "Ġpose": 2877,
    "adal": 7198,
    "Ġpoderos": 6937,
    "ĠBrue": 6050,
    "Ġentrar": 7973,
    "ĠPiedad": 6533,
    "ĠExposiciÃ³n": 1187,
    "eras": 1717,
    "gh": 1439,
    "cino": 7151,
    "Ġ1903": 5832,
    "turas": 2257,
    "Ġunidad": 8207,
    "ĠSe": 433,
    "Ġjesui": 9583,
    "Ġna": 654,
    "ĠPrÃŃncipe": 9198,
    "quÃŃa": 5849,
    "rida": 5868,
    "Ġser": 470,
    "tudes": 5446,
    "taciones": 4628,
    "allero": 4029,
    "Ġconsiderados": 9299,
    "ĠterminÃ³": 5990,
    "vis": 1978,
    "ĠplÃ¡stico": 5501,
    "xto": 2758,
    "Ġsemej": 7695,
    "Ġ45": 7811,
    "gentina": 2213,
    "Ġentorno": 4558,
    "ĠAnna": 4162,
    "Ġrealizaron": 7666,
    "ĠJohan": 3145,
    "):": 4022,
    "Ġminiatura": 5934,
    "Ġv": 258,
    "ĠKat": 7386,
    "ĠtransiciÃ³n": 8084,
    "Ġens": 9553,
    "Ġmanifie": 5102,
    "ĠpÃ¡ginas": 5942,
    "gam": 6335,
    "ĠRep": 2718,
    "ĠPosteriormente": 3635,
    "Ġ162": 3306,
    "Ã¡rez": 7686,
    "uerto": 3179,
    "Ġdef": 1539,
    "Ġbur": 3349,
    "Ġcontacto": 3600,
    "ĠFie": 9494,
    "erife": 9123,
    "Ġnaturalezas": 7773,
    "Ġpublic": 1393,
    "pla": 2549,
    "ĠMant": 7283,
    "Ġrela": 929,
    "ĠInmacu": 6887,
    "Ġmi": 566,
    "ÃŃo": 987,
    "sk": 1676,
    "ĠrÃ¡pi": 4848,
    "Ġ10": 1941,
    "Ġactividades": 5031,
    "umentos": 5722,
    "if": 4468,
    "Am": 8406,
    "Ġfabric": 9763,
    "ĠAzul": 9653,
    "Ġeste": 582,
    "Ġidentificado": 7480,
    "Ġgrande": 3186,
    "ĠSegovia": 8433,
    "Ġorganiz": 1747,
    "ĠUnivers": 2901,
    "Ġcandida": 9846,
    "ĠJer": 2627,
    "denes": 8375,
    "cimiento": 1218,
    "Ġ1917": 5081,
    "ven": 636,
    "ĠgÃ©nero": 1816,
    "Ġtras": 875,
    "ĠtÃŃ": 1486,
    "ight": 6554,
    "arenta": 6430,
    "omÃ©tr": 3400,
    "Ġcomprome": 8655,
    "Ġbos": 5229,
    "blo": 7345,
    "í": 147,
    "angular": 8884,
    "ĠArtist": 7915,
    "Ġcatalo": 9068,
    "nia": 3699,
    "Ġnuevas": 3294,
    "into": 4500,
    "Ġadul": 8989,
    "tivo": 768,
    "ĠThyssen": 6453,
    "Ġpolic": 4829,
    "gar": 687,
    "Ġ)": 3304,
    "ĠdeclarÃ³": 7926,
    "Ġalta": 3582,
    "alizadas": 9638,
    "Ġradic": 5186,
    "Ġsiete": 3365,
    "liam": 2543,
    "Ġrelacionados": 6929,
    "Ġsagra": 8679,
    "and": 890,
    "Ġdeja": 6344,
    "sal": 7928,
    "Ġfran": 951,
    "Ġviol": 5021,
    "Ġmuse": 2538,
    "F": 30,
    "dora": 5478,
    "Ġfi": 2404,
    "¡": 79,
    "ĠquÃ©": 5327,
    "Ġlocales": 5476,
    "inÃ³": 7514,
    "net": 7817,
    "Ġcomien": 2334,
    "Ġversiones": 4567,
    "Ġdesa": 2410,
    "Ġutilizar": 6352,
    "Ġetapa": 2727,
    "Ġantes": 1382,
    "Ġemp": 6938,
    "ĠtÃŃo": 6398,
    "Ġcorri": 3187,
    "eridad": 7877,
    "vancia": 9757,
    "ĠraÃŃz": 7462,
    "Ġicono": 2573,
    "Ġpatrocin": 7020,
    "paÃ±": 1526,
    "Ġcabo": 3563,
    "Born": 8252,
    "es": 212,
    "ler": 645,
    "Ġinau": 2824,
    "ĠAntigÃ¼edad": 8693,
    "grÃ¡fica": 3776,
    "Ġingres": 2700,
    "Ġsum": 8169,
    "H": 32,
    "alistas": 6303,
    "Ġfl": 8529,
    "Ġretratado": 8725,
    "Ġpasa": 6755,
    "ĠSeba": 3489,
    "ello": 2676,
    "Ġaproxim": 3439,
    "ĠCano": 6127,
    "Ġnoche": 4413,
    "tecas": 7929,
    "188": 2794,
    "Ġprodujo": 3769,
    "ĠDes": 730,
    "dÃŃgen": 5865,
    "ĠBou": 5264,
    "Ġilustra": 1299,
    "Ġrenacimiento": 9484,
    "uda": 1075,
    "lesia": 934,
    "Ġdesarrollar": 4446,
    "ĠFalle": 4013,
    "Ġcompro": 6600,
    "Ġarmon": 5215,
    "ilo": 672,
    "Ġcaracteriz": 3275,
    "ĠJesÃºs": 1879,
    "ck": 883,
    "Ç": 114,
    "ingÃºn": 4651,
    "atro": 976,
    "oscÃº": 3599,
    "bolo": 3434,
    "Ġmm": 8453,
    "Ġbizant": 4746,
    "Ġaproximadamente": 4498,
    "Ġimpulso": 9655,
    "Ġinternacional": 2895,
    "Ġanimal": 5688,
    "ĠPla": 2176,
    "ĠdÃ³lares": 6195,
    "Ġcast": 3124,
    "ĠpÃ©rdida": 8564,
    "deros": 4779,
    "chos": 2091,
    "Ġtratado": 6002,
    "Ġreales": 4351,
    "Ġmodernista": 8118,
    "ĠUno": 4583,
    "hua": 6959,
    "Ġcreciente": 8677,
    "ustro": 7714,
    "Ġdevo": 4862,
    "Ġinv": 1155,
    "ĠCri": 9667,
    "Ġsituada": 6139,
    "ĠMarcel": 6034,
    "Ġpostura": 8096,
    "Ġllen": 5993,
    "ĠExposiciones": 2327,
    "zano": 7834,
    "ĠpublicÃ³": 2909,
    "ĠAndrÃ©": 4679,
    "uega": 8272,
    "este": 3370,
    "Ġ183": 2484,
    "Ġvent": 3009,
    "ĠToda": 9566,
    "Ġdefensa": 9244,
    "ĠdecidiÃ³": 3833,
    "Ġtomado": 9786,
    "ĠSpa": 9804,
    "igÃ¼": 3574,
    "Ġmona": 9775,
    "Ġpureza": 9224,
    "Ġib": 3803,
    "ĠHol": 3908,
    "ĠÃ¡": 1024,
    "ĠBonn": 8520,
    "Ġayudante": 9792,
    "forma": 3785,
    "Ġpropia": 2424,
    "Ġacab": 3212,
    "Ġseres": 8485,
    "cÃ³": 1369,
    "ĠHospital": 6246,
    "Ġrecu": 1841,
    "ĠcapitÃ¡n": 8878,
    "Ġ1873": 8034,
    "Ġalberga": 5069,
    "resa": 4896,
    "Ġcome": 5960,
    "ĠidentificaciÃ³n": 9378,
    "Ġmascul": 5403,
    "Ã©e": 2983,
    "ĠcatÃ³lica": 8399,
    "ĠtardÃŃa": 9794,
    "Ġ2011": 3286,
    "ĠXVII": 3011,
    "ĠRen": 3532,
    "ado": 274,
    "ĠFlor": 5385,
    "ĠsitÃºa": 7207,
    "Ġjuego": 6198,
    "Ġgest": 3182,
    "Ġres": 744,
    "Ġmag": 5748,
    "ĠPortu": 4742,
    "Ġ1967": 4379,
    "Ġclaros": 4803,
    "ĠSil": 4043,
    "Ġconsiderable": 6695,
    "Ġreligiosas": 4730,
    "Ġproporcion": 3976,
    "ĠArtÃŃstico": 8461,
    "Ġpatr": 4330,
    "ĠtelevisiÃ³n": 7866,
    "ĠarquitectÃ³nicos": 8180,
    "raciones": 5589,
    "Ġciudad": 850,
    "Ġocho": 4055,
    "Ġtrata": 2447,
    "ĠJuvent": 9729,
    "tamente": 2731,
    "adas": 495,
    "Ġconst": 5756,
    "Ġelo": 4912,
    "iv": 863,
    "dimiento": 6052,
    "entas": 4697,
    "ĠAR": 6504,
    "ĠRealizÃ³": 4550,
    "Ġpat": 2924,
    "cano": 3580,
    "ĠfalleciÃ³": 4220,
    "ĠmÃ©": 2173,
    "ĠAires": 1763,
    "ĠhipÃ³tesis": 9268,
    "ĠCastel": 7999,
    "Ġperci": 6147,
    "Ġestric": 9493,
    "ĠFine": 7704,
    "verso": 4559,
    "ĠProcedencia": 9181,
    "Ġnombrado": 2839,
    "ĠEdiciones": 9130,
    "ĠChile": 2001,
    "Ġhubiera": 7903,
    "uniden": 2387,
    "Ġfalle": 2053,
    "sos": 2371,
    "Ġ1930": 3090,
    "mat": 4506,
    "ustos": 7503,
    "ĠBell": 5294,
    "Ġedificio": 2441,
    "Ġformar": 5118,
    "Ġpeque": 1245,
    "cca": 7184,
    "ĠP": 246,
    "Ġfre": 1408,
    "Ġprevi": 6910,
    "Ġevi": 2898,
    "[PAD]": 0,
    "Ġteat": 4692,
    "Ġfe": 962,
    "Ġprecis": 6599,
    "como": 4638,
    "ĠJo": 818,
    "icho": 7083,
    "Ġvida": 771,
    "ĠJerÃ³nimo": 4314,
    "yeron": 6723,
    "Ġhaber": 1617,
    "ĠartÃŃst": 735,
    "ĠcontemporÃ¡nea": 5863,
    "Ġcompuesta": 8509,
    "AR": 5282,
    "eth": 3983,
    "ĠWolf": 8164,
    "Ġblancos": 8624,
    "ĠconservaciÃ³n": 6837,
    "Ġvaso": 7797,
    "Ġgig": 8502,
    "ĠÂ": 3276,
    "ĠrÃŃ": 2801,
    "Ġcristian": 6604,
    "cionales": 1762,
    "Ġciertas": 8119,
    "ter": 620,
    "Ġpopularidad": 8805,
    "Ġeditor": 7191,
    "Ġestadouniden": 2601,
    "Ġqui": 720,
    "rodu": 1523,
    "grada": 3527,
    "ced": 6880,
    "ders": 8394,
    "guer": 6311,
    "ĠNavarro": 9290,
    "ĠDi": 1579,
    "ĠpÃ¡gina": 5433,
    "iller": 4319,
    "ĠVio": 8135,
    "ĠLiceo": 9520,
    "ĠcompletÃ³": 6924,
    "ĠSÃ¡nchez": 4335,
    "Ġte": 602,
    "stru": 1162,
    "chus": 8470,
    "Ġinter": 741,
    "cuent": 727,
    "ĠMetropolitano": 6360,
    "ordin": 5536,
    "Ġ100": 4317,
    "urias": 6771,
    "Ġconflicto": 9425,
    "â": 136,
    "Ġvender": 7535,
    "ĠPrimer": 3641,
    "ĠSeÃ±": 7475,
    "gÃ©n": 7868,
    "ĠAmigos": 9298,
    "itt": 7331,
    "ĠVÃŃ": 6486,
    "ÑĢ": 4653,
    "an": 211,
    "le": 247,
    "ĠLeÃ³n": 2827,
    "ĠfÃ¡": 3581,
    "Ġfrag": 3122,
    "Ġmostrar": 5148,
    "ĠBlanco": 7950,
    "Ã¨s": 8036,
    "hist": 4491,
    "Ãºsque": 5390,
    "Ġcielo": 3507,
    "Ġreempla": 7455,
    "ĠinspiraciÃ³n": 4040,
    "Ġ160": 3752,
    "bro": 6872,
    "ges": 4054,
    "Ġactitud": 5870,
    "Ġmoderna": 4680,
    "ĠSim": 2833,
    "Ġe": 188,
    "Ġhija": 2036,
    "Ġsuba": 4493,
    "ran": 295,
    "ĠidÃ©": 9605,
    "ĠcomisiÃ³n": 9530,
    "ĠGustave": 8382,
    "cke": 6013,
    "Ġtotal": 4184,
    "Ġpiso": 6557,
    "Ã±a": 540,
    "oma": 848,
    "ĠSta": 4756,
    "Ġamb": 1778,
    "ĠJor": 7629,
    "Ġhoras": 5145,
    "Ġinmedia": 7558,
    "ĠTestamento": 3877,
    "cara": 6901,
    "Ġconsist": 3665,
    "ĠuniÃ³": 6584,
    "ĠBel": 622,
    "Ġmanuscritos": 3216,
    "ĠÃ¡rbol": 2962,
    "Ġmejor": 2228,
    "Ġtendencias": 5661,
    "ĠJosÃ©": 953,
    "eria": 2544,
    "Ġbatallas": 9824,
    "Ġcopia": 3078,
    "Ġproyect": 6823,
    "\"": 5,
    "ĠFestival": 5027,
    "Ġescu": 3647,
    "Ġ-": 604,
    "ĠU": 411,
    "Ġlleno": 7851,
    "ĠChina": 4519,
    "unque": 866,
    "ĠDa": 1551,
    "Ġprofundidad": 5670,
    "ĠGar": 1888,
    "Ġag": 3214,
    "Ġinca": 9559,
    "ĠGh": 8569,
    "Ġconstruido": 7496,
    "Ġpig": 3684,
    "ĠDomen": 5697,
    "mania": 1987,
    "nal": 5373,
    "ĠformÃ³": 3245,
    "cifi": 4594,
    "Ġtien": 5813,
    "empo": 928,
    "ĠrÃ¡": 3922,
    "ĠSantiago": 1734,
    "ĠBreton": 8778,
    "eran": 5923,
    "Ġbio": 5131,
    "Ġ).": 5594,
    "Ġincluso": 2138,
    "Ġpanorama": 8817,
    "vidad": 5115,
    "Ġ18": 385,
    "Ġnacimiento": 3626,
    "leta": 4913,
    "ĠinvestigaciÃ³n": 5036,
    "ĠAmberes": 3299,
    "Ġest": 288,
    "rosa": 7045,
    "Ġincluy": 1823,
    "ĠestudiÃ³": 2193,
    "ĠInv": 6471,
    "urt": 5351,
    "Ġgriega": 5689,
    "ĠGuillermo": 5342,
    "zaba": 7468,
    "ĠCru": 5458,
    "dÃ³": 949,
    "Ġdesnudos": 4902,
    "Ġvestida": 7391,
    "rados": 2668,
    "seldorf": 6957,
    "ficaciones": 7013,
    "ĠcatÃ¡logo": 3851,
    "Ġcient": 4426,
    "ĠZo": 9810,
    "ĠAlejandrÃŃa": 9609,
    "Ġusando": 8558,
    "Ġacentu": 9708,
    "Ġelementos": 1813,
    "Ġresi": 1979,
    "Ġdemas": 5444,
    "glaterra": 2667,
    "Ġlab": 5840,
    "ĠGobierno": 5805,
    "Ġregist": 2766,
    "Ġrespons": 6426,
    "Ġcerca": 2191,
    "serra": 8789,
    "Ġmateria": 6521,
    "Ġvisual": 3971,
    "000": 2312,
    "osos": 4164,
    "Ġregresar": 5999,
    "EspaÃ±a": 8492,
    "ĠÃ©sta": 9232,
    "Ġcursos": 8197,
    "Ġ1660": 9981,
    "fasis": 9069,
    "Ġ1988": 4090,
    "ĠBr": 1865,
    "Ġholandeses": 9104,
    "Ġestadounidenses": 7963,
    "Ġar": 294,
    "ĠCÃ¡mara": 8142,
    "ornos": 6314,
    "ĠfotÃ³": 5447,
    "riz": 3261,
    "ĠHabana": 2790,
    "Ġgeo": 6878,
    "Ġ1868": 8154,
    "aba": 568,
    "Ġvelo": 7862,
    "ĠcarÃ¡": 2355,
    "Ġindividuales": 3138,
    "Ġprem": 1603,
    "Ġuso": 1754,
    "ĠCas": 1157,
    "An": 5419,
    "ĠApÃ³st": 9182,
    "ĠLudw": 7881,
    "36": 6263,
    "Ġcomunidad": 5231,
    "Ġexpe": 8059,
    "Ġsignos": 9058,
    "ĠutilizaciÃ³n": 7443,
    "ficada": 9211,
    "ĠAlto": 8770,
    "pest": 3319,
    "Ġconsider": 7336,
    "Ġreconocimientos": 7167,
    "Ġpudiera": 7982,
    "Ġpuer": 2275,
    "ĠSierra": 8747,
    "Ġ25": 2622,
    "Ġantiguo": 2763,
    "riendo": 7268,
    "festa": 5996,
    "ÑĤ": 5836,
    "caron": 6740,
    "Con": 9585,
    "ĠMuriÃ³": 5146,
    "ĠPon": 6526,
    "Ġcolecciones": 2165,
    "ĠCarra": 6694,
    "Par": 5188,
    "Ġsecre": 5011,
    "ĠMal": 3042,
    "Ġanual": 9454,
    "Ġtrabaja": 5637,
    "isaj": 731,
    "Ġmano": 1727,
    "ĠHam": 3718,
    "ĠRum": 9835,
    "Ġlibros": 2067,
    "ĠVin": 2768,
    "D": 28,
    "ĠMed": 2492,
    "Ġrecibiendo": 8628,
    "grÃ¡f": 2083,
    "pura": 5731,
    "Ġimpacto": 7904,
    "Ġ2016": 3707,
    "urre": 3058,
    "Ġprogra": 3711,
    "ultura": 1365,
    "ĠResurrecciÃ³n": 7079,
    "ĠHab": 2056,
    "Ġtradicionalmente": 9350,
    "ĠPic": 5539,
    "39": 6310,
    "ĠconsiderÃ³": 8289,
    "can": 984,
    "uil": 9330,
    "tiles": 6102,
    "ĠHizo": 9900,
    "Ġintento": 7663,
    "ĠFran": 567,
    "Ġhubi": 5744,
    "P": 40,
    "ĠPom": 5618,
    "rest": 5898,
    "Ġitali": 1272,
    "ĠEE": 5149,
    "Ġ1979": 4395,
    "rato": 1552,
    "izo": 1012,
    "ĠjardÃŃn": 4273,
    "ĠForm": 7930,
    "is": 269,
    "rece": 5049,
    "ĠPeque": 9346,
    "G": 31,
    "8": 20,
    "Ã¡st": 3513,
    "Ġ177": 5306,
    "lab": 887,
    "Ġcarica": 5600,
    "Ġpla": 956,
    "ĠBajo": 7918,
    "ghel": 6431,
    "ĠOficial": 6729,
    "vor": 3570,
    "Ġcolectiva": 4587,
    "caro": 9807,
    "ierto": 8920,
    "ĠLuz": 8598,
    "Ġpiedras": 6952,
    "ĠediciÃ³n": 3525,
    "ĠPÃŃo": 9919,
    "ĠoposiciÃ³n": 7875,
    "public": 7656,
    "Ġusa": 6904,
    "dan": 3088,
    "ĠSique": 8341,
    "portun": 5642,
    "ĠPier": 3265,
    "ĠEspacio": 8753,
    "Ġcuyo": 2725,
    "Ġllamados": 7843,
    "guna": 3430,
    "Ġcementerio": 6313,
    "Ġperiodo": 2339,
    "Ġexponentes": 9083,
    "ĠAnt": 740,
    "46": 6124,
    "Ġtrabajos": 1685,
    "j": 62,
    "Ġplena": 7844,
    "bilidad": 4674,
    "Ġ19": 285,
    "tagon": 3292,
    "Ġtempera": 8312,
    "ĠPertene": 8081,
    "86": 7581,
    "ragona": 9814,
    "der": 526,
    "yectoria": 2844,
    "ĠLab": 6440,
    "Ġalemanes": 8045,
    "udades": 3253,
    "ĠGeorges": 5195,
    "ÃŃa": 270,
    "ĠademÃ¡s": 1554,
    "Ġdese": 5018,
    "ĠSho": 7988,
    "ander": 3820,
    "glÃ©s": 2771,
    "Ġconten": 3030,
    "ÅĤ": 8205,
    "ĠEnrique": 4062,
    "Ġtodos": 1639,
    "Ġautodidacta": 7483,
    "osotros": 9881,
    "ĠvendiÃ³": 6193,
    "Ġ1892": 5545,
    "ieren": 6316,
    "ĠLady": 9777,
    "ĠabandonÃ³": 5413,
    "Ġrevi": 1900,
    "uraciÃ³n": 9145,
    "eos": 2735,
    "Ġecuestre": 8786,
    "bido": 1411,
    "ĠAleks": 7711,
    "ĠIll": 8047,
    "Ġul": 9800,
    "ĠUniversal": 5241,
    "Ġestrecha": 7966,
    "ki": 2785,
    "h": 60,
    "ĠMart": 1524,
    "Ġtrataba": 8138,
    "dita": 8273,
    "Ġcuenta": 2694,
    "er": 200,
    "Ġeuropeos": 6525,
    "Ġdesign": 5856,
    "Ġcoleccion": 3529,
    "Ġlevant": 6051,
    "Ġchino": 7639,
    "ĠTeresa": 5687,
    "ĠCopenhague": 7771,
    "Ġpone": 8498,
    "Ġcier": 1640,
    "Ġdor": 8331,
    "Ġdescen": 5907,
    "Ġcomis": 6152,
    "Ġinqui": 7989,
    "ĠLouis": 3571,
    "Ġiniciativa": 9354,
    "Ġ2020": 5408,
    "ĠOl": 3878,
    "ı": 167,
    "Ġdiagon": 9086,
    "Ġinci": 4527,
    "gen": 480,
    "Ġllega": 6630,
    "guÃ©s": 7103,
    "ĠScho": 4425,
    "Ġhijo": 1335,
    "dez": 1872,
    "ĠEm": 2131,
    "Ġcumpl": 6945,
    "Ġsuel": 4070,
    "Ġ1984": 3790,
    "Ġretorn": 9765,
    "ĠUna": 1495,
    "Ġblancas": 9680,
    "Ġan": 591,
    "ĠBarroco": 6370,
    "Ġposibilidad": 8006,
    "Ġencar": 1051,
    "Ġpinceladas": 6253,
    "Ġsir": 2709,
    "ĠpÃºblica": 5701,
    "Ð»": 6444,
    "Ġjoyas": 7340,
    "rÃ¡f": 1455,
    "Ġaristo": 7486,
    "Ġcre": 601,
    "Ġinstr": 5497,
    "ital": 1723,
    "Ġconvirti": 4671,
    "Ġnin": 3254,
    "ĠL": 253,
    "ĠBrooklyn": 9996,
    "Ġcelebrada": 6284,
    "ĠfÃŃs": 4579,
    "Ġcuarenta": 6655,
    "uario": 4556,
    "ĠPintores": 5043,
    "Ġruso": 4085,
    "Ļ": 177,
    "Ġbaja": 6478,
    "Ġ65": 9319,
    "ulÃ³": 6461,
    "ĠOs": 3303,
    "ĠMartÃŃn": 2218,
    "Ġcoti": 3477,
    "Ġminim": 9956,
    "yr": 8687,
    "Ġdatan": 8462,
    "Ġcostum": 3014,
    "Ġpredo": 4649,
    "[UNK]": 1,
    "ÃŃptico": 7658,
    "Ġrazon": 9929,
    "tos": 498,
    "ĠBorg": 9747,
    "ung": 3126,
    "Ġmulti": 3332,
    "ĠPÃ©": 3487,
    "ern": 795,
    "iguraciÃ³n": 7155,
    "cin": 2707,
    "ilvania": 8109,
    "Ġacus": 7129,
    "Ġnego": 5861,
    "Ġrele": 4490,
    "abe": 7456,
    "Ġsiendo": 1541,
    "Ġsecundaria": 9357,
    "ĠClemente": 6870,
    "Ġpi": 1405,
    "ĠdirigiÃ³": 7089,
    "Ġsosten": 4350,
    "ĠBosco": 9325,
    "ĠbaÃ±o": 9782,
    "Ġdiosa": 6607,
    "Ġperiodista": 7883,
    "ĠWikimedia": 7281,
    "Ġunos": 1903,
    "¹": 102,
    "Ġ1985": 3791,
    "Ġdelante": 6032,
    "ĠGiovanni": 2925,
    "ĠHenry": 5076,
    "celona": 1216,
    "eter": 9561,
    "ĠGe": 1926,
    "stadt": 9221,
    "ioso": 6627,
    "Ġfo": 1242,
    "ĠcarÃ¡cter": 2379,
    "ĠperfecciÃ³n": 7799,
    "Ġutilizando": 5941,
    "ĠBer": 1214,
    "dam": 1549,
    "ĠBern": 2473,
    "ĠlÃŃnea": 2937,
    "Ġcruz": 3558,
    "ĠChurch": 6060,
    "ÃŃsticos": 5780,
    "Ġsustit": 9024,
    "Ġ193": 832,
    "ĠMach": 7409,
    "Ġautor": 1150,
    "Ġahora": 2468,
    "ĠMc": 7120,
    "Ġexpon": 2738,
    "Ġdic": 4581,
    "Ġcrear": 3019,
    "garon": 7672,
    "Ġpreten": 4566,
    "ĠSp": 5666,
    "memora": 4626,
    "Ġdominio": 6412,
    "ien": 360,
    "Ġfantas": 6236,
    "ĠChrist": 3914,
    "Ġresal": 6192,
    "amÃ©rica": 6800,
    "ĠMoscÃº": 3704,
    "Ã¡g": 2094,
    "rÃ©": 2332,
    "Ġado": 2351,
    "ction": 4955,
    "Ġutilizados": 8775,
    "Ġ192": 859,
    "Ġrel": 1093,
    "vori": 9826,
    "Ġdedicarse": 6864,
    "ĠPaisaje": 4180,
    "bida": 7767,
    "ĠresidiÃ³": 7413,
    "Ġapellido": 7730,
    "ska": 8360,
    "cci": 1914,
    "ĠBorbÃ³n": 8418,
    "Ġtemprano": 7864,
    "iores": 2013,
    "se": 371,
    "Ġrey": 1567,
    "Ġreti": 4417,
    "retrato": 3543,
    "ĠpidiÃ³": 7794,
    "ĠClaudio": 7795,
    "ĠTab": 8077,
    "ĠSen": 6751,
    "Ġtaller": 1508,
    "Ġobs": 1907,
    "Ġambos": 2537,
    "Ġescalera": 7623,
    "Ġ1942": 4785,
    "isco": 6934,
    "ĠCarracci": 9220,
    "Ġacu": 1416,
    "ana": 467,
    "Ġ300": 9077,
    "ĠalemÃ¡n": 2733,
    "Ġexposiciones": 1346,
    "ĠEscor": 6690,
    "Ġpese": 9277,
    "Ġhecha": 6662,
    "Ġleg": 7082,
    "Ġimper": 9924,
    "chÃ³": 5263,
    "ĠPetersburgo": 4242,
    "cie": 9587,
    "Ġanim": 1664,
    "itos": 3787,
    "ĠAra": 7007,
    "Ġecue": 7452,
    "ista": 764,
    "Ġpobres": 9926,
    "Ġ70": 5326,
    "ĠapareciÃ³": 6097,
    "Ġocupa": 6464,
    "ĠGrabado": 5094,
    "onces": 1406,
    "Ġne": 831,
    "Ġ),": 4710,
    "Ġmonte": 8614,
    "Ġ1500": 9563,
    "Ġrepresent": 856,
    "Ġfic": 8997,
    "ĠinteresÃ³": 9156,
    "Ġincendio": 7925,
    "ĠJosep": 5381,
    "ĠDesarrol": 8619,
    "amas": 5746,
    "Ġoccident": 3690,
    "ientos": 2268,
    "Ġbar": 1615,
    "185": 5216,
    "Ġrega": 7585,
    "Ġnor": 6023,
    "ĠlitografÃŃas": 9795,
    "Ġdiscip": 7439,
    "gadas": 5189,
    "viedo": 7509,
    "ere": 4541,
    "Ġident": 4883,
    "Ġdif": 1951,
    "les": 396,
    "Ġprovo": 4208,
    "Ġinc": 7612,
    "Ġtiempo": 1006,
    "ĠHoy": 7479,
    "ĠBatalla": 8501,
    "bar": 954,
    "ĠManuel": 1905,
    "·": 100,
    "Ĵ": 170,
    "anorama": 7408,
    "ĠentrÃ³": 5040,
    "ualmente": 6297,
    "lic": 811,
    "Ġvest": 1632,
    "ĠIndust": 7316,
    "rick": 8098,
    "ĠDÃ¼sseldorf": 7299,
    "kusa": 9714,
    "ĠThe": 1488,
    "def": 8351,
    "Ġ166": 3705,
    "ji": 6173,
    "Buenos": 9712,
    "orme": 6709,
    "orge": 2022,
    "ĠR": 292,
    "Ġ1976": 4323,
    "43": 7397,
    "yn": 3674,
    "com": 2883,
    "ĠMaurice": 7255,
    "eza": 5378,
    "Ġdesempe": 5463,
    "dras": 5980,
    "Ġigu": 2019,
    "ĠcomprÃ³": 5919,
    "Ġcitar": 9270,
    "Ġdestinada": 9704,
    "ori": 1361,
    "ĠtodavÃŃa": 3386,
    "ya": 773,
    "Ġruinas": 7936,
    "Ġpubl": 5647,
    "ĠJe": 1608,
    "ĠrepresentaciÃ³n": 1724,
    "ĠEduardo": 5024,
    "ĠEdo": 8912,
    "Ġestilo": 790,
    "cole": 6219,
    "ĠVo": 4957,
    "ĠLy": 5228,
    "Ġreconoci": 1612,
    "ables": 5292,
    "ĠMuÃ±oz": 8117,
    "uye": 9523,
    "ĠRosario": 5431,
    "Ġhermana": 3425,
    "Ġdoble": 6645,
    "Ġ1915": 5144,
    "Ġroja": 6538,
    "udÃ³": 6381,
    "Ã³rico": 4597,
    "cana": 5537,
    "ĠtardÃŃo": 8562,
    "berto": 2555,
    "ĠEva": 6819,
    "nes": 2162,
    "Ġ1920": 3374,
    "Ġfrente": 2385,
    "ĠV": 310,
    "mico": 9111,
    "bra": 1170,
    "ĠNacido": 5667,
    "ĠBar": 810,
    "ino": 455,
    "ĠGol": 8549,
    "tern": 7516,
    "Ġalum": 1809,
    "Ġarrodil": 7068,
    "ĠWor": 6519,
    "Ġ27": 3459,
    "ĠDen": 5475,
    "Ġpuerto": 7507,
    "Ġlejos": 7272,
    "Ġhicieron": 4437,
    "ĠCamp": 9507,
    "ĠpictÃ³r": 1484,
    "ĠÃ©n": 9072,
    "Ġnacida": 9982,
    "eric": 1517,
    "Ã³rdo": 3156,
    "ĠsÃŃntesis": 9042,
    "Ġayuntamiento": 9569,
    "Ġcorre": 3755,
    "landesa": 8363,
    "ĠArtista": 6879,
    "ings": 5860,
    "Ã¡tico": 5775,
    "Ġadap": 4971,
    "ologÃŃa": 4321,
    "Ġrealistas": 7637,
    "Ġporque": 2321,
    "Ġalej": 6792,
    "erado": 6744,
    "Ġfondo": 1623,
    "uvre": 2495,
    "ĠForma": 8807,
    "eld": 4819,
    "Ġcotidi": 3751,
    "Ġdefinitivamente": 6707,
    "Ġarquite": 1120,
    "uen": 627,
    "ĠÃºltima": 2287,
    "ĠFelipe": 2711,
    "Ġimplic": 9568,
    "ĠDespuÃ©s": 1895,
    "Ġnacional": 2819,
    "espe": 8353,
    "Ġus": 1533,
    "mol": 3040,
    "uelas": 4401,
    "ĠAp": 6208,
    "Ġpublicados": 9882,
    "Ġbarroco": 3435,
    "ĠgalerÃŃas": 4532,
    "ĠAsÃŃs": 8961,
    "Ġtarde": 1463,
    "Ġec": 5887,
    "Ġvalenci": 7035,
    "12": 2491,
    "Ġcontexto": 4943,
    "ĠMuseos": 5606,
    "ise": 2198,
    "ĠDescripciÃ³n": 2408,
    "Ġcaballo": 3727,
    "ĠTre": 4596,
    "Ġgrabado": 2097,
    "sola": 9980,
    "Ġelab": 6112,
    "erial": 4431,
    "Ġfor": 466,
    "Ġfuentes": 4629,
    "timo": 6574,
    "ĠXV": 1094,
    "ĠBiblia": 7292,
    "onial": 5616,
    "ĠDor": 9897,
    "Ġpropias": 5230,
    "alla": 1645,
    "ĠBre": 2896,
    "rero": 3867,
    "ĠCra": 5633,
    "Ġvuel": 2781,
    "ĠParÃŃs": 713,
    "ĠHolbein": 8719,
    "ĠPa": 461,
    "ĠexpresiÃ³n": 2782,
    "ĠPri": 4322,
    "Ġidea": 3196,
    "Ġprocedentes": 8017,
    "Ġcolo": 857,
    "ĠWilliam": 2663,
    "quista": 5698,
    "ĠPintor": 2519,
    "plica": 9715,
    "Ġev": 4172,
    "Ġhaciendo": 4591,
    "Ġafi": 6903,
    "ita": 994,
    "Ġfemeninas": 7290,
    "Ġpremios": 3651,
    "ĠTaller": 6243,
    "ĠcÃŃrculo": 4458,
    "Ġpared": 4018,
    "Ġmarcada": 9098,
    "Ġresidencia": 4146,
    "eraciÃ³n": 5203,
    "deos": 7566,
    "Ġholandes": 5198,
    "Ġmediados": 3404,
    "ia": 275,
    "İ": 166,
    "rel": 2088,
    "ĠdomÃ©st": 7369,
    "III": 1760,
    "Ġ2005": 3352,
    "uesto": 2207,
    "zi": 3313,
    "Ġasi": 5483,
    "Ġtitulado": 4798,
    "bÃ³n": 5549,
    "mÃ¡": 1320,
    "Ġarte": 456,
    "ĠdÃŃas": 3018,
    "anto": 826,
    "gado": 1293,
    "Ġpint": 291,
    "Ġrect": 8011,
    "ĠAi": 1591,
    "rigo": 8058,
    "ĠFun": 8998,
    "Ġ1888": 5674,
    "Ġtermin": 2254,
    "ĠRepÃºblica": 3002,
    "ĠprecisiÃ³n": 7396,
    "Ġinfluencias": 3793,
    "¢": 80,
    "Ġrevela": 8420,
    "mediatamente": 7719,
    "Ġcel": 8167,
    "Ġrealizados": 4642,
    "om": 233,
    "ĠUm": 8954,
    "Ġ1885": 6037,
    "uerra": 1141,
    "Ġverano": 4218,
    "ĠKan": 9535,
    "ĠhistÃ³ricos": 5513,
    "sy": 7969,
    "mara": 3081,
    "ales": 382,
    "ĠPaulo": 4821,
    "ĠAlexandre": 8325,
    "Ġ1950": 3394,
    "almente": 532,
    "til": 858,
    "diz": 2679,
    "Ġeuropeo": 7215,
    "ĠN": 327,
    "riel": 4508,
    "Ġ164": 3985,
    "ĠSalamanca": 7276,
    "Ġesmal": 7080,
    "Ġingeni": 7308,
    "cab": 6058,
    "Ġcono": 1570,
    "Ġmom": 1310,
    "ĠPol": 2092,
    "ys": 2713,
    "ĠDaniel": 6256,
    "ĠdemÃ¡s": 4727,
    "ĠAvi": 9292,
    "ĠCalvario": 9661,
    "ic": 220,
    "ĠVenezuela": 3604,
    "ÃŃgenes": 8390,
    "ernas": 7303,
    "Ã³nimo": 2478,
    "jet": 1681,
    "ĠNikolÃ¡i": 9769,
    "gulo": 5879,
    "ĠRetiro": 8210,
    "vemente": 8567,
    "te": 261,
    "to": 272,
    "taron": 4904,
    "ĠHern": 5590,
    "ona": 549,
    "Ġterri": 4923,
    "Ġparticularmente": 4909,
    "Ġmayor": 862,
    "Ġanteriores": 4466,
    "Ġhogar": 7667,
    "ĠSolo": 8897,
    "Ġprimero": 2692,
    "ĠDe": 598,
    "Ġresul": 1955,
    "ĠEspÃŃritu": 8631,
    "5": 17,
    "Ġalgunas": 1532,
    "Ġsor": 4266,
    "Ġdeman": 7869,
    "ividad": 8469,
    "Ġtri": 2393,
    "ĠVig": 9694,
    "ĠRetrato": 1819,
    "deral": 9663,
    "Ã©r": 808,
    "mÃ¡tica": 3511,
    "Ã±ana": 7892,
    "ĠBal": 3096,
    "lano": 3464,
    "ĠMÃºsica": 9109,
    "Ġoriental": 5842,
    "Ġrasgos": 4442,
    "Ġrequerida": 5153,
    "Ġnegras": 5873,
    "ĠLew": 9018,
    "Ġimpro": 9681,
    "Ġpapel": 1702,
    "V": 46,
    "cal": 1558,
    "Ġespalda": 9658,
    "yer": 4794,
    "Ġfalta": 5077,
    "si": 388,
    "Ġdefinitiva": 9197,
    "Ġcomer": 2341,
    "Ġinm": 5374,
    "Ġdama": 5916,
    "ĠMantegna": 8543,
    "ĠconsiguiÃ³": 5715,
    "osÃ³": 9665,
    "rig": 2010,
    "ĠPrin": 8370,
    "ĠNacional": 751,
    "Ġcm": 1048,
    "Ġ190": 1036,
    "Ġimpresionistas": 5657,
    "ĠcomunicaciÃ³n": 7445,
    "ĠGir": 9146,
    "ĠAcademia": 995,
    "Ġliteratura": 4002,
    "tique": 8840,
    "ĠCruz": 2945,
    "Ġitaliano": 1861,
    "ĠespaÃ±ola": 2421,
    "Ġorig": 964,
    "ĠMur": 5163,
    "daron": 4617,
    "Ġ'": 2791,
    "ĠPlan": 8107,
    "ĠXIII": 5041,
    "itudes": 9503,
    "ĠmaestrÃŃa": 7573,
    "Ġganado": 9648,
    "Ġdocente": 7145,
    "ĠNacionales": 8918,
    "ĠCasa": 1868,
    "ĠPalma": 5932,
    "Ġval": 1785,
    "ĠmitolÃ³g": 4245,
    "coteca": 4299,
    "Å¡": 9404,
    "bin": 9635,
    "Ġplata": 3836,
    "erales": 8209,
    "ÃŃnsula": 8917,
    "grÃ¡fico": 3644,
    "Ġpropio": 1749,
    "ilip": 3267,
    "Ġdepen": 5283,
    "ĠChar": 2423,
    "Ġgran": 524,
    "ĠlatÃŃn": 6171,
    "ĠÃį": 9537,
    "ĠSaint": 3537,
    "ura": 255,
    "Ġpincel": 4569,
    "Ġsuyo": 7209,
    "ĠDurero": 4990,
    "ĠPapiro": 5611,
    "Ġidentificar": 8419,
    "ĠContexto": 9872,
    "ctur": 6332,
    "ĠcivilizaciÃ³n": 9485,
    "Ġpropuesta": 8264,
    "penhague": 7252,
    "uno": 4599,
    "Ġflo": 1528,
    "ĠaÃ±": 400,
    "Ġ32": 8959,
    "Ġsiempre": 2133,
    "Ġalas": 7870,
    "ĠLle": 5958,
    "Ġguerra": 1946,
    "Ġusar": 7548,
    "Ġgeomet": 8139,
    "Ġesco": 4517,
    "ĠacrÃŃ": 7792,
    "Ġboce": 3242,
    "Ġbajorrelie": 9984,
    "Ġitalianos": 5648,
    "ĠpÃ¡g": 3128,
    "ĠX": 545,
    "aliz": 451,
    "Ġmala": 8357,
    "ames": 4123,
    "tir": 2348,
    "lem": 2786,
    "seÃ±": 2109,
    "ĠAnunciaciÃ³n": 4284,
    "rey": 5457,
    "vier": 2263,
    "Ġtelas": 5772,
    "Ġcorta": 8596,
    "Ġpartes": 3251,
    "Ġunicorn": 9142,
    "Ã©nez": 6859,
    "Ġ1956": 4693,
    "itaba": 7727,
    "Ġoriginales": 4701,
    "Ġconservador": 8921,
    "ĠPapa": 5532,
    "Ġdetalle": 5286,
    "Ġga": 2778,
    "darse": 6042,
    "ĠAlfredo": 7343,
    "ĠComun": 5272,
    "Ġmotivo": 2684,
    "ĠSimon": 8019,
    "hol": 4310,
    "ril": 981,
    "ĠArts": 3420,
    "Ġfra": 3637,
    "iev": 7438,
    "ĠVeron": 8372,
    "Ġrazones": 8334,
    "ĠartÃŃstico": 1770,
    "Ġlito": 4529,
    "ĠHungrÃŃa": 8261,
    "ĠDomenico": 6699,
    "Ġcarga": 9671,
    "Ġrealizado": 2034,
    "Ġabajo": 6113,
    "Ġobtiene": 7330,
    "ĠCaravaggio": 4938,
    "Ġacuare": 2189,
    "ficaciÃ³n": 2774,
    "ccidente": 8343,
    "ĠmÃŃn": 9491,
    "perio": 3472,
    "Ġconsig": 2987,
    "pes": 2908,
    "Ġimport": 3098,
    "ĠBil": 3568,
    "ĠCÃ©": 5695,
    "Ġvertical": 9219,
    "Ġsalir": 9703,
    "uiz": 6385,
    "ine": 839,
    "165": 8849,
    "ĠMuseo": 462,
    "Ġ175": 5137,
    "ĠComo": 1825,
    "ĠTa": 1956,
    "ĠsimbÃ³": 4450,
    "ĠEsta": 1164,
    "ĠIndepen": 6161,
    "rie": 1357,
    "os": 191,
    "ĠadquiriÃ³": 5224,
    "Ġcubierto": 9988,
    "Ġfallecido": 6552,
    "atos": 4128,
    "ĠÃ¡m": 4749,
    "ĠEnt": 1125,
    "Le": 5913,
    "Ġabor": 6692,
    "ĠChicago": 3565,
    "Ġterminar": 6850,
    "ttgart": 9762,
    "Î·": 6285,
    "Ġset": 7322,
    "Ġlongitud": 8945,
    "br": 4017,
    "Ġactiva": 9165,
    "ĠQuer": 9374,
    "tions": 8064,
    "ÃŃdo": 4989,
    "a": 53,
    "inet": 9073,
    "Ġsetenta": 7527,
    "ĠHonor": 4069,
    "Ġsanta": 5088,
    "Ġexclus": 7309,
    "Ġejerci": 9400,
    "olo": 4577,
    "Ġcated": 8613,
    "Ó": 125,
    "Ġden": 1715,
    "cula": 6752,
    "Ġdiversas": 2267,
    "Ġsuperfici": 2840,
    "ĠXIX": 1777,
    "ĠSevilla": 2016,
    "ĠprÃ¡cticamente": 6641,
    "ĠÃ": 610,
    "Ġfront": 7983,
    "vino": 9551,
    "poco": 7972,
    "C": 27,
    "Ġ1941": 5334,
    "usse": 9293,
    "Ġprece": 6053,
    "Ġespont": 8765,
    "ciado": 3940,
    "ĠNicol": 4135,
    "rieron": 8329,
    "Ġcontiene": 3815,
    "Ġquienes": 3576,
    "itente": 8124,
    "Ġglo": 7599,
    "ĠPascu": 9279,
    "Ġsitio": 6054,
    "ile": 1243,
    "Ġentrega": 9476,
    "Ġlig": 3066,
    "Ġpe": 749,
    "ĠGenera": 3178,
    "Ġdiferencia": 3781,
    "I": 33,
    "Ġbo": 1134,
    "Ġdonante": 9927,
    "Ġincluidos": 8772,
    "Ġcompren": 4072,
    "ĠGiovan": 2698,
    "ĠBra": 3070,
    "ĠAdemÃ¡s": 1944,
    "Ġdesarrollaron": 9851,
    "uestra": 4139,
    "Ġevo": 5159,
    "giÃ³": 2693,
    "ĠcontribuyÃ³": 8449,
    ");": 2130,
    "ĠGia": 8634,
    "ĠtÃ©cn": 960,
    "Ġcargo": 3369,
    "Ġasegura": 8522,
    "Ġcueva": 9783,
    "ĠRenacimiento": 2902,
    "sovia": 8750,
    "ĠGante": 8570,
    "Ġpoetas": 8508,
    "Ġiniciales": 9009,
    "ĠhacÃŃa": 4884,
    "Ġrol": 6351,
    "Ġnoviembre": 1942,
    "ĠColecciones": 7900,
    "ciales": 4328,
    "des": 469,
    "Ġmuseos": 2654,
    "ĠBene": 7674,
    "uf": 9388,
    "Ġacent": 7433,
    "Ġconmemora": 5130,
    "ntos": 6175,
    "Ġ1929": 4355,
    "demÃ¡s": 1025,
    "ĠCarmen": 4707,
    "en": 216,
    "ĠraÃŃ": 4898,
    "Ġestudiante": 7729,
    "ĠocupÃ³": 7734,
    "ford": 4033,
    "ĠAgustÃŃn": 4510,
    "Ġterminado": 8714,
    "Ġhalla": 4378,
    "orÃ³": 3305,
    "bil": 5048,
    "Ġinscri": 5544,
    "clÃ¡s": 6732,
    "ragon": 7946,
    "ĠcrÃŃtico": 3233,
    "Ġdice": 3463,
    "gorÃŃa": 2499,
    "ĠAntoni": 7595,
    "tedral": 1892,
    "Ġfil": 2539,
    "emas": 3329,
    "burg": 4739,
    "gra": 439,
    "undi": 2848,
    "Ġchil": 4993,
    "ĠclÃ¡sicos": 7131,
    "imo": 1319,
    "ĠseÃ±": 3659,
    "alizÃ³": 2868,
    "Ġnotable": 3741,
    "Ġsoldado": 8680,
    "inado": 2261,
    "Ġbi": 8635,
    "rador": 4812,
    "ĠMarga": 8506,
    "iz": 325,
    "ĠCons": 5125,
    "greso": 4675,
    "Ġsiguieron": 8297,
    "Ġcastillo": 5615,
    "Ġconoce": 2999,
    "vierte": 5121,
    "ĠMond": 9615,
    "gico": 7857,
    "Ġtom": 1787,
    "Ġreun": 3610,
    "ĠZurbarÃ¡n": 7710,
    "ntro": 1738,
    "Ġfuego": 6348,
    "Ġdata": 5543,
    "ĠFranÃ§ois": 6967,
    "erida": 8574,
    "Ġpatrimonio": 8245,
    "rabes": 9552,
    "aciones": 3235,
    "Ġejemplos": 4035,
    "Ġseg": 2063,
    "AL": 5598,
    "ĠresurrecciÃ³n": 6498,
    "ĠRafael": 1920,
    "Ġletras": 5232,
    "Ġpintura": 373,
    "bablemente": 8415,
    "Ġtiempos": 4894,
    "Ġrecupera": 4788,
    "ost": 1067,
    "adora": 2913,
    "7": 19,
    "Ġprofundo": 7500,
    "Ġ1857": 8517,
    "ĠlÃŃneas": 2855,
    "ĠPor": 945,
    "ĠjÃ³venes": 3603,
    "Ã¶": 2527,
    "ĠutilizÃ³": 4968,
    "cia": 314,
    "fort": 6769,
    "rist": 1113,
    "gin": 2548,
    "orm": 1722,
    "Ġlleva": 2923,
    "cle": 6612,
    "izÃ³": 8551,
    "Ġfant": 4038,
    "Ġreferencia": 3121,
    "Re": 5845,
    "tarse": 5810,
    "iado": 4371,
    "Ġcur": 2497,
    "didos": 5058,
    "Ġintelectuales": 7461,
    "ĠCenter": 6452,
    "Ġactualmente": 2517,
    "ĠLeonardo": 2821,
    "Ġsuperior": 2562,
    "ione": 4175,
    "Ġmonumental": 5743,
    "Ġt": 222,
    "ditos": 8691,
    "ĠPi": 3232,
    "ĠJulian": 8926,
    "Ġabstractas": 9542,
    "ĠCity": 8547,
    "ĠJudi": 7405,
    "ĠrenovaciÃ³n": 9046,
    "Ġsea": 3461,
    "Ġconsideran": 8560,
    "Ġ14": 997,
    "cina": 3307,
    "rial": 4918,
    "ladas": 2496,
    "ĠincluyÃ³": 6455,
    "ĠHon": 7768,
    "cri": 593,
    "ĠSimÃ³n": 7938,
    "ment": 3318,
    "lad": 6101,
    "Ġmater": 9341,
    "Ġretrata": 8618,
    "Ġtradi": 1337,
    "Ġm": 214,
    "Cu": 7783,
    "ON": 5991,
    "Ġitaliana": 4151,
    "60": 2885,
    "ĠTol": 8657,
    "1": 13,
    "Ġreve": 3619,
    "ĠStre": 7109,
    "Ġdestino": 5658,
    "Ġligera": 5964,
    "Ġsociedad": 2912,
    "icip": 4588,
    "orias": 6788,
    "macu": 6585,
    "Ġcompleto": 4844,
    "ĠEdad": 4060,
    "adajoz": 5943,
    "ĠEstudio": 7604,
    "ĠTambiÃ©n": 1058,
    "ĠmontaÃ±a": 8249,
    "Ġmediante": 2606,
    "ier": 1022,
    "ĠBe": 1473,
    "pieza": 6133,
    "ĠopiniÃ³n": 7195,
    "Ġdecora": 1736,
    "oni": 2764,
    "Ġdesper": 8638,
    "Ġfirma": 4430,
    "reo": 5316,
    "Ġhabitual": 5107,
    "izados": 9724,
    "Ġdestacar": 4712,
    "Ġentrada": 4305,
    "ĠGregorio": 6593,
    "ĠÃŃnt": 6120,
    "dÃ©": 4917,
    "Ġsat": 7891,
    "mpa": 7484,
    "ĠPicasso": 2323,
    "Ġderi": 3830,
    "Ġteniendo": 7709,
    "zz": 7005,
    ".[": 5574,
    "Ġescritor": 3127,
    "quil": 3546,
    "Ġboca": 7635,
    "ĠEstudiÃ³": 3658,
    "Ġinfluenci": 7025,
    "Ġesta": 431,
    "ĠOrsay": 8830,
    "ĠProvincia": 9464,
    "fica": 948,
    "ĠSu": 576,
    "Ġherrami": 8215,
    "Ġafirm": 4644,
    "zuela": 3151,
    "Ro": 8668,
    "Ġmaravil": 8785,
    "Ġur": 2792,
    "ght": 6943,
    "Ġexcelente": 6687,
    "Ġ13": 1784,
    "un": 215,
    "una": 1961,
    "ĠFlandes": 7043,
    "entos": 606,
    "Ġ156": 4718,
    "ĠiniciÃ³": 4132,
    "Ġmanten": 3496,
    "ungrÃŃa": 8004,
    "Ġpeti": 9340,
    "entada": 5330,
    "Ġ1911": 5003,
    "ĠFeli": 2542,
    "inera": 6428,
    "ĠReci": 5361,
    "Î±": 3091,
    "amp": 5959,
    "Ġmirada": 4361,
    "ĠAlejandro": 4066,
    "ĠtÃ©cnicos": 7494,
    "ĠÏĦ": 7624,
    "ĠEle": 6134,
    "Ġ1935": 5110,
    "ĠQuito": 6562,
    "ĠGoya": 2533,
    "rent": 2486,
    "Ġoriginalmente": 5930,
    "Ġnoti": 5395,
    "Ġdecorativos": 7342,
    "ĠneoclÃ¡s": 7424,
    "ĠperiÃ³dicos": 8903,
    "Ġilust": 4786,
    "Ġcuentos": 9259,
    "ĠTodo": 7757,
    "Ġestancia": 3284,
    "ĠPen": 5127,
    "ader": 6320,
    "gio": 1326,
    "remio": 5560,
    "Ġbosque": 7236,
    "Ġimp": 1757,
    "Ġmostrando": 7078,
    "Ġvali": 5235,
    "ĠFern": 1440,
    "Ġdi": 301,
    "ĠJules": 8400,
    "Ġconex": 8040,
    "Ġreino": 7820,
    "Ġfemenina": 5201,
    "porte": 4205,
    "ĠTrabaj": 4193,
    "lix": 6731,
    "nista": 7274,
    "ÃŃculo": 4723,
    "ĠPar": 553,
    "ĠmÃºlti": 4813,
    "Ġobservar": 6851,
    "vere": 8593,
    "ĠCam": 1561,
    "iro": 2979,
    "Ġxilo": 7563,
    "ĠVen": 2461,
    "ĠEditorial": 6747,
    "ĠIsi": 6936,
    "paÃ±a": 4126,
    "Ġju": 2826,
    "Ġ8": 1431,
    "vaciones": 6821,
    "emos": 3762,
    "estamento": 2989,
    "americano": 6070,
    "ĠMor": 2677,
    "ĠCarre": 8279,
    "Ġ1908": 4937,
    "Ġlargo": 1873,
    "ua": 2106,
    "Ġmujer": 1384,
    "Ġdescribe": 4589,
    "mit": 2598,
    "ĠalcanzÃ³": 6388,
    "ĠEstudi": 2188,
    "ĠSeÃ±or": 8052,
    "Ġhermanas": 7731,
    "II": 689,
    "Ġmal": 3458,
    "Ã¼r": 6925,
    "ĠProce": 7678,
    "ĠsÃŃm": 2575,
    "ker": 4793,
    "),": 407,
    "uni": 1983,
    "ĠSix": 8754,
    "ĠCiv": 5855,
    "ĠCastro": 7087,
    "ĠArturo": 9057,
    "adores": 1475,
    "zione": 9113,
    "lti": 784,
    "ju": 4838,
    "Mad": 3680,
    "Ġbuena": 4502,
    "itor": 6177,
    "ĠNic": 3076,
    "Ġdimen": 3211,
    "Ġsuper": 1912,
    "Ġrestos": 5052,
    "Ġestre": 4124,
    "ville": 6090,
    "char": 6280,
    "ĠcambiÃ³": 7747,
    "Ġrepresentaba": 6734,
    "americanos": 9607,
    "ĠAlegorÃŃa": 7390,
    "cali": 6995,
    "Ġacerca": 4731,
    "pariciÃ³n": 9601,
    "fel": 7867,
    "Ġpresidente": 3640,
    "posto": 9901,
    "ĠcuestiÃ³n": 9246,
    "Ġparticipa": 2703,
    "ÃŃncipe": 3925,
    "Ġtemplos": 8777,
    "ra": 190,
    "ĠCiudad": 1949,
    "La": 2167,
    "Ġalfa": 9370,
    "lanos": 7063,
    "Ġrique": 5933,
    "mista": 7273,
    "Ġespl": 7298,
    "Ġ9": 1429,
    "ratos": 7609,
    "terdam": 9727,
    "Ġ1952": 5185,
    "Ġprofesor": 2089,
    "Ġdesaparecido": 8853,
    "gÃ¼": 8071,
    "Ġpaisaj": 802,
    "ĠrepresentÃ³": 6012,
    "ĠAqu": 9554,
    "col": 2369,
    "able": 1176,
    "Ġcompar": 4283,
    "Ġabandonar": 7680,
    "Ġoscuro": 4576,
    "Ġvan": 989,
    "loj": 6392,
    "Ġpasado": 4255,
    "Ġabier": 3103,
    "Ã³logo": 5339,
    "ind": 5655,
    "Ġgal": 1698,
    "ĠA": 231,
    "ĠÃ©po": 924,
    "ĠrÃ©": 5101,
    "Ġesfuer": 5984,
    "Ġcierto": 3720,
    "pera": 1111,
    "ĠtrasladÃ³": 2502,
    "abel": 2576,
    "ĠLou": 8333,
    "ĠDomingo": 3855,
    "ĠMi": 1386,
    "Ġhacen": 4864,
    "rones": 6621,
    "era": 348,
    "Ġmarido": 4572,
    "Ġdig": 3732,
    "Ġprincipal": 1882,
    "Ġextranj": 3778,
    "ĠcÃ¡": 2712,
    "Ä": 111,
    "Ġtercio": 7633,
    "Ã©rica": 2040,
    "itaciÃ³n": 3538,
    "ĠRevista": 9836,
    "Ġocre": 9529,
    "Ġ1963": 4400,
    "ĠRetratos": 9344,
    "Ġexist": 1720,
    "Ġrodeado": 8717,
    "ĠCur": 7872,
    "Ġdioses": 6553,
    "ry": 2146,
    "minante": 6389,
    "Ġrelie": 3110,
    "ĠZaragoza": 3950,
    "ĠGer": 3508,
    "Ġ1947": 4652,
    "ĠÃ¡rboles": 5289,
    "Ġimpa": 5857,
    "ĠFre": 3045,
    "Ġ184": 2132,
    "Ġroca": 9562,
    "Ġsepul": 6128,
    "ĠislÃ¡": 9849,
    "ĠenseÃ±anzas": 9736,
    "ĠmÃ¡g": 7313,
    "Ġreciente": 5105,
    "leros": 8313,
    "ult": 3959,
    "ĠBan": 3160,
    "lico": 1479,
    "ĠNav": 8239,
    "uerta": 7224,
    "Ġcas": 581,
    "bano": 4832,
    "Ġeje": 1774,
    "Ġescri": 812,
    "Ġtex": 1363,
    "Ġejemp": 1259,
    "uros": 5588,
    "tido": 2244,
    "amientos": 5570,
    "Pa": 5109,
    "Ġ1896": 5952,
    "ĠAnne": 9876,
    "icante": 6419,
    "Ġtener": 2904,
    "Ġpareja": 3481,
    "wn": 4880,
    "Ġfabrica": 7355,
    "rado": 546,
    "Ġtumba": 3623,
    "ĠCon": 647,
    "ĠMet": 7098,
    "Ġcerem": 5902,
    "itz": 4174,
    "Ġautodida": 7117,
    "Ġinspirada": 8195,
    "Ġnue": 734,
    "Ġmate": 6339,
    "erv": 841,
    "zas": 1315,
    "Ġpocos": 3954,
    "Ġclase": 3405,
    "mÃ¡ticos": 6912,
    "ĠDios": 3152,
    "ass": 7837,
    "Ġ1946": 4842,
    "Ġcron": 6182,
    "ĠmÃ¡r": 2843,
    "hi": 909,
    "ĠJacob": 4934,
    "iena": 2324,
    "ĠHouse": 7502,
    "Ġprincesa": 9202,
    "Ġg": 287,
    "lagro": 9690,
    "Ġ159": 4618,
    "chando": 9591,
    "Ġpal": 3154,
    "Ī": 160,
    "Ġjaponesa": 8403,
    "Ġloc": 2142,
    "Ġfemenino": 5819,
    "Ġcorresponde": 7354,
    "fo": 1573,
    "Ġgo": 1670,
    "Ġrelig": 1383,
    "Ġterminada": 9510,
    "Ġfru": 3044,
    "Ġquin": 6913,
    "Ġdoctor": 8825,
    "Ġuno": 861,
    "Ġflores": 2643,
    "ĠMateo": 5540,
    "ĠJapÃ³n": 4083,
    "iter": 7957,
    "pula": 5585,
    "amento": 1898,
    "Ġdin": 3244,
    "Ġflamenca": 6327,
    "izada": 5279,
    "Ġ978": 6018,
    "Ġrepres": 534,
    "Ġpuso": 5602,
    "iar": 3287,
    "ĠJoh": 1449,
    "ĠBrook": 9023,
    "denal": 5103,
    "Ġ1905": 5087,
    "derico": 4365,
    "quiera": 8013,
    "Ġsituado": 5818,
    "ĠIm": 2163,
    "on": 198,
    "Ġlib": 814,
    "Ġ000": 5456,
    "ĠMartÃŃnez": 4206,
    "Ġdesde": 732,
    "Ba": 6503,
    "eli": 2134,
    "ĠintervenciÃ³n": 7323,
    "ĠReina": 4633,
    "Ġfemeninos": 8244,
    "ches": 4221,
    "Ġcreador": 8173,
    "ĠGui": 7588,
    "Ġrecuer": 2775,
    "Ġexp": 630,
    "Ġmural": 1935,
    "Ġalim": 5965,
    "Ġporce": 9430,
    "Ġpuntos": 5080,
    "Ġfer": 7108,
    "ĠfÃ¡cil": 6142,
    "ĠGutiÃ©rrez": 8495,
    "Ġurugua": 9393,
    "Ġses": 4704,
    "ntes": 510,
    "ĠFeria": 5977,
    "Ġnumerosas": 2674,
    "igo": 3784,
    "ĠInstitute": 7168,
    "ĠNe": 1394,
    "6": 18,
    "Ġjar": 8238,
    "ĠPuerto": 4326,
    "ĠSoci": 2073,
    "Ġund": 7838,
    "ĠAutÃ³n": 9994,
    "cho": 612,
    "ĠVille": 9054,
    "Ġlados": 5569,
    "Ġpopular": 2882,
    "ĠNueva": 1079,
    "tol": 2150,
    "ĠEstados": 1647,
    "Ġceleb": 2515,
    "Ġbiblioteca": 6114,
    "Ġarchi": 7061,
    "Ġbarro": 2318,
    "ĠInternational": 7039,
    "osa": 1039,
    "Ġparece": 2178,
    "Ġirre": 7259,
    "Ġmanifestaciones": 9386,
    "ĠTan": 6394,
    "sÃ³": 7172,
    "ĠRio": 9407,
    "cidos": 3500,
    "ĠacompaÃ±ado": 8198,
    "ĠSui": 4398,
    "Ã©ricas": 9151,
    "ken": 6721,
    "Ġbase": 2881,
    "ĠAlgun": 2368,
    "ĠGeorge": 4688,
    "ĠdecoraciÃ³n": 2247,
    "ticas": 1699,
    "Ġni": 1059,
    "In": 5853,
    "ĠincorporÃ³": 9819,
    "ĠMirÃ³": 5484,
    "rÃŃan": 3597,
    "Ġpers": 1550,
    "ĠestÃ©tica": 3831,
    "ĠPÃ©rez": 3846,
    "orgio": 6157,
    "Ġsolitario": 9172,
    "190": 2399,
    "Ġpropios": 5029,
    "tab": 910,
    "Ġ170": 5553,
    "grafÃŃa": 714,
    "lari": 7835,
    "ĠteorÃŃas": 9546,
    "ĠOri": 3561,
    "wa": 2915,
    "ĠXX": 1706,
    "Ġpre": 515,
    "Ġcontro": 4306,
    "Ġ1": 240,
    "ĠIV": 2536,
    "ĠmenciÃ³n": 6767,
    "Ġcor": 634,
    "ĠLÃ©": 5246,
    "ĠfotografÃŃa": 3290,
    "kin": 4970,
    "ĠCastilla": 5261,
    "TU": 6156,
    "ĠUruguay": 5510,
    "iano": 1509,
    "Ġflu": 9527,
    "Ġaprove": 7036,
    "Ġpub": 1017,
    "wood": 9291,
    "tim": 7876,
    "ĠPremio": 1197,
    "ĠContemporÃ¡neo": 2807,
    "Ġrefe": 2055,
    "hel": 5038,
    "Ġlas": 290,
    "Ġfamoso": 3775,
    "ĠDeco": 7334,
    "ani": 2690,
    "zos": 1307,
    "toria": 2850,
    "Ġbarco": 6532,
    "Ġescultor": 1980,
    "ĠInf": 4154,
    "uiendo": 8572,
    "Ġlibre": 2878,
    "ĠGaspar": 9707,
    "Ġbrillante": 5348,
    "ĠSam": 5357,
    "Ġcam": 880,
    "Ġpersonajes": 1940,
    "Ġcub": 3606,
    "staba": 8371,
    "Ġequi": 3879,
    "ĠVermeer": 6871,
    "Ġmuchos": 1521,
    "ĠUn": 1234,
    "Ġtienen": 2621,
    "ĠYa": 4340,
    "pintura": 8447,
    "yan": 9403,
    "±": 94,
    "Ġrural": 8192,
    "ĠVar": 4691,
    "vangel": 2750,
    "adie": 8499,
    "rana": 3087,
    "ĠselecciÃ³n": 9281,
    "say": 5323,
    "ĠpÃºblicas": 5758,
    "Ġdirig": 3001,
    "Ġele": 1457,
    "ĠRock": 9841,
    "Ġli": 1109,
    "ificaciÃ³n": 7512,
    "Ġ1899": 6282,
    "ĠHuel": 9779,
    "Ġvivir": 4699,
    "Ġasign": 5409,
    "illa": 658,
    "Ġorg": 6488,
    "Ã±olas": 8079,
    "Ġil": 898,
    "Ġalmacen": 9941,
    "Ġreligioso": 4421,
    "Ġadqui": 1877,
    "itÃ©": 6576,
    "ĠofreciÃ³": 9177,
    "Ġtecho": 5359,
    "biÃ³": 891,
    "Ġcontrario": 6107,
    "Ġtene": 8957,
    "ĠdiscÃŃpulos": 5676,
    "ĠindÃŃgen": 6145,
    "Ġbarroca": 7901,
    "44": 6916,
    "lados": 3010,
    "Ġcopi": 4534,
    "Ġexperiencias": 8157,
    "Ġhumil": 7882,
    "ĠMexic": 6522,
    "Ġretratista": 4835,
    "ĠfotografÃŃas": 4407,
    "¶": 99,
    "pole": 4392,
    "ĠOccidente": 9452,
    "int": 256,
    "bas": 2804,
    "Ġcambi": 2886,
    "ĠpresentaciÃ³n": 7349,
    "Ġdesnuda": 5895,
    "Ġ1972": 4467,
    "Ġepisodios": 9157,
    "cker": 6940,
    "ĠSur": 4130,
    "culos": 3586,
    "26": 4980,
    "Ġambiente": 4258,
    "Art": 7353,
    "Ġpinceles": 9910,
    "Ã©s": 397,
    "Ö": 128,
    "Ġregularmente": 9489,
    "ux": 3403,
    "ĠÃ¡lbum": 6255,
    "Ġcala": 5939,
    "Ġindic": 4473,
    "ba": 430,
    "ÃŃsticas": 4815,
    "ĠCaracas": 3612,
    "ĠDentro": 8274,
    "douard": 7135,
    "tr": 1311,
    "Ġmensaje": 7525,
    "ĠEscri": 4972,
    "ÃŃstica": 3255,
    "cias": 761,
    "Ġmateriales": 2950,
    "ĠIs": 1646,
    "Ġcierta": 3734,
    "Ġdegli": 9664,
    "Ġchileno": 8348,
    "Ġsimple": 4008,
    "Ġmonar": 8960,
    "Ã´me": 9444,
    "El": 2619,
    "ĠParma": 9003,
    "Ġnoble": 4801,
    "Ġdocum": 1585,
    "ĠColectiva": 9602,
    "Ġautoridades": 8600,
    "Ġdiecis": 7655,
    "ĠExp": 6289,
    "Ġredon": 7099,
    "Ġinventario": 6474,
    "Ġborde": 6706,
    "Ġrodil": 8706,
    "Ġgrandes": 1367,
    "rus": 5992,
    "Ġbronce": 3165,
    "Ġtran": 1193,
    "Ġpues": 2206,
    "ĠNi": 1594,
    "ĠTrinidad": 6122,
    "Ġnorm": 6074,
    "ĠescultÃ³r": 4783,
    "ĠRi": 3238,
    "Ġpatro": 6908,
    "Ġpala": 5445,
    "Ġadquirido": 5714,
    "ulos": 2482,
    "ins": 3609,
    "Ġceremonia": 9488,
    "Ġmoderno": 4068,
    "Ġconserv": 1258,
    "ĠCarlo": 6766,
    "va": 376,
    "33": 5843,
    "Ġpastel": 6359,
    "Ġprer": 7722,
    "Ġcentral": 2151,
    "ĠJerusalÃ©n": 7069,
    "Ġlectura": 6470,
    "ĠbaÃ±": 8300,
    "ĠMel": 4364,
    "fol": 9859,
    "Ġestilos": 4497,
    "ĠGiotto": 7132,
    "Ġlengu": 3873,
    "ĠAlfaro": 9732,
    "ranach": 8876,
    "mans": 8937,
    "Ġpersonalidad": 7012,
    "ĠCollege": 5462,
    "Ġpo": 448,
    "ĠdiseÃ±ador": 5752,
    "ciendo": 2161,
    "z": 78,
    "Ġdando": 5707,
    "Ġesos": 4929,
    "ĠniÃ±o": 2716,
    "Ġsopor": 7661,
    "ĠcompaÃ±ÃŃa": 5365,
    "teles": 3993,
    "Ġune": 9865,
    "ĠCataluÃ±a": 4264,
    "ĠPaÃŃs": 3269,
    "Ã¨re": 4753,
    "ĠBrujas": 9264,
    "ĠPoco": 6271,
    "setti": 8821,
    "ĠfilÃ³so": 7416,
    "ĠHar": 3490,
    "Ġrosas": 9934,
    "ĠJesu": 9567,
    "ficado": 2319,
    "vie": 4097,
    "Ġart": 648,
    "Ġelim": 6438,
    "ĠlÃ¡piz": 6698,
    "uca": 9862,
    "ÃŃp": 8609,
    "isterio": 3354,
    "Ġzar": 8669,
    "Ġedad": 2000,
    "Ġdocumental": 6411,
    "ĠTra": 1642,
    "Ġmodelo": 2128,
    "ĭ": 163,
    "Ġam": 522,
    "ĠPlÃ¡st": 2934,
    "Ġmenores": 7177,
    "Ġdescubier": 4974,
    "ĠAdÃ¡n": 7865,
    "Ġcultura": 1280,
    "ĠReino": 4808,
    "ĠsolÃŃa": 8337,
    "Ġmosaicos": 7038,
    "ĠEscul": 3023,
    "Ġvista": 2475,
    "Ġpad": 3163,
    "ĠMall": 5632,
    "ĠExist": 5850,
    "Ġcontenido": 5138,
    "Ġbatal": 9034,
    "ork": 998,
    "Ġesquina": 6876,
    "ĠSha": 6962,
    "terra": 2563,
    "or": 206,
    "23": 4823,
    "Ġsurrealista": 6141,
    "ĠNor": 3362,
    "Ġcurso": 6015,
    "Ġaconte": 5640,
    "ĠPilar": 7404,
    "ĠIngres": 5802,
    "Ġmonarca": 9701,
    "ĠsimbÃ³lico": 8667,
    "Ġmay": 659,
    "arÃ¡": 3964,
    "W": 47,
    "ĠPie": 1854,
    "Ġmejores": 3480,
    "mer": 3621,
    "Ġesas": 6546,
    "atalla": 3325,
    "ĠInvestig": 9518,
    "osp": 3672,
    "Ġnivel": 3912,
    "ble": 679,
    "Ġmagn": 6860,
    "Ġviene": 9558,
    "icamente": 1710,
    "Ġrelativamente": 8622,
    "ĠPr": 3638,
    "cillo": 9041,
    "Ġdestr": 4227,
    "adala": 7931,
    "ĠGru": 4254,
    "ĠSuperior": 5257,
    "ĠTate": 7249,
    "S": 43,
    "Ġprof": 893,
    "Ġarmas": 5890,
    "rue": 3895,
    "eral": 3491,
    "Ġzonas": 6029,
    "Ġ1870": 5623,
    "Ð¸Ñ": 8476,
    "ĠlogrÃ³": 5784,
    "dimen": 7472,
    "ĠcategorÃŃa": 4792,
    "Ġpago": 8108,
    "ĠcaracterÃŃst": 2057,
    "Ġquien": 888,
    "Ġsola": 4346,
    "Ġminiaturas": 5202,
    "ĠArg": 9922,
    "Ġdespla": 8553,
    "SBN": 3795,
    "Ġproducto": 8514,
    "liar": 8867,
    "ĠPalais": 8967,
    "lam": 736,
    "Ġdecir": 2948,
    "Ġedu": 2599,
    "Ġluminosidad": 8402,
    "Ġtradicional": 3028,
    "icaciÃ³n": 3733,
    "ĠGuggen": 8296,
    "Ġextre": 5066,
    "ulo": 2550,
    "EN": 4676,
    "Ġbastante": 3811,
    "ĠO": 390,
    "ĠJu": 704,
    "Ġcolumnas": 4743,
    "ĠÃł": 6247,
    "ĠGal": 551,
    "Ġcombin": 6511,
    "cial": 1136,
    "Ġmilita": 6866,
    "Ġlabor": 3939,
    "urrecciÃ³n": 4016,
    "iografÃŃa": 1043,
    "Ġant": 706,
    "Ġprimo": 8872,
    "entalmente": 8528,
    "Ġpersonal": 2587,
    "Ã³g": 1352,
    "Ã§o": 4408,
    "fer": 2221,
    "ĠlÃŃn": 1743,
    "ashington": 3410,
    "Ġacuarelas": 4505,
    "ĠÃģ": 936,
    "ĠejerciÃ³": 8285,
    "Ġdivers": 1356,
    "Ã¯": 6196,
    "ĠTenerife": 9440,
    "Ġmonum": 1902,
    "Ġcita": 7744,
    "Ġparis": 6076,
    "Ġcorrespon": 2526,
    "adalajara": 7985,
    "ĠretratÃ³": 8114,
    "ĠcÃŃrculos": 8106,
    "Îµ": 3636,
    "alo": 2856,
    "ĠPin": 8430,
    "xiÃ³n": 4352,
    "isto": 9035,
    "Ġclas": 1839,
    "anticismo": 5684,
    "enas": 4196,
    "ĠHermitage": 7377,
    "Ġjo": 1414,
    "ĠInstituto": 1972,
    "ĠpodÃŃa": 4036,
    "ĠTe": 1397,
    "Ġindust": 3524,
    "Ġpros": 4341,
    "cocÃ³": 6847,
    "Ġnecesidad": 6501,
    "Ġfinanci": 7190,
    "ak": 8761,
    "ĠprÃ¡ct": 2825,
    "AD": 8814,
    "empre": 2015,
    "Ã©ase": 1884,
    "izado": 4774,
    "ÃŃrculo": 2578,
    "ĠPartido": 8641,
    "ĠAri": 9029,
    "Ġperse": 8487,
    "art": 1765,
    "Ġprofesores": 7776,
    "Ġfunera": 5988,
    "Ġcual": 1032,
    "ĠJos": 776,
    "hem": 6842,
    "Ġcasi": 1739,
    "Ġtal": 836,
    "Ġdesconocido": 6762,
    "Ġdemos": 4565,
    "ĠMaria": 2637,
    "Ġamig": 1580,
    "Ġconcurso": 5502,
    "Ġmosaico": 6563,
    "ong": 2655,
    "Ġdimensiones": 3829,
    "quÃ©s": 4885,
    "Ġsupuso": 8873,
    "Ġcabezas": 5724,
    "idad": 669,
    "ĠAnte": 8088,
    "Ġformas": 1846,
    "TURA": 7682,
    "dientes": 4106,
    "Ġacuerdo": 4015,
    "Ġtrat": 2432,
    "Ġ30": 2770,
    "Ġadorn": 6403,
    "Ġri": 1909,
    "ĠMurillo": 6523,
    "ĠSup": 4601,
    "Ã¡zquez": 2581,
    "Ġcondiciones": 6091,
    "bio": 2123,
    "gi": 941,
    "vados": 8182,
    "erÃŃa": 560,
    "ĠActualmente": 4603,
    "dw": 6974,
    "Ġsaber": 8158,
    "Ġestampa": 7693,
    "ĠEdi": 2522,
    "ĠIN": 9313,
    "Ġtrayectoria": 4789,
    "Ġextien": 9161,
    "Ġcl": 1636,
    "rib": 1810,
    "Ġ1866": 7203,
    "Ġconcreto": 8218,
    "Ġ1931": 4748,
    "Ġencontra": 2203,
    "Ġpresentes": 7084,
    "Ġpast": 3944,
    "eros": 684,
    "ff": 1604,
    "Ġizquierdo": 5355,
    "Ġinfor": 3979,
    "150": 7304,
    "ĠSiqueiros": 8426,
    "ĠacadÃ©m": 3424,
    "Ġmantener": 7622,
    "Ġases": 5067,
    "ĠaplicaciÃ³n": 7879,
    "bios": 6832,
    "ĠFra": 3541,
    "Ġprofundamente": 8846,
    "od": 3483,
    "ĠMedalla": 3226,
    "Ġmodernismo": 6404,
    "ham": 2689,
    "bre": 326,
    "bon": 5937,
    "ŀ": 182,
    "ili": 1803,
    "Ġcabeza": 2239,
    "alidad": 785,
    "ĠDiv": 9432,
    "ĠelecciÃ³n": 8224,
    "ĠLa": 335,
    "Ġtrabajado": 7770,
    "ĠCorn": 4899,
    "orn": 3229,
    "BA": 6466,
    "ĠRib": 4281,
    "Ġproces": 5221,
    "ë": 145,
    "quial": 6764,
    "Ġpri": 1204,
    "ĠFÃ©": 8170,
    "inamarca": 7032,
    "Ġtrabajaba": 5741,
    "Ã©cn": 914,
    "Ġmetal": 4878,
    "Ġarg": 6802,
    "Ġposterior": 1624,
    "Ġinmediatamente": 8571,
    "ĠtÃŃp": 3498,
    "mile": 7545,
    "Ġapariencia": 6853,
    "Ġrealmente": 7741,
    "Ġotras": 1098,
    "Ġaparte": 9672,
    "Ġcreada": 6324,
    "ĠRamÃ³n": 3687,
    "189": 2686,
    "ye": 804,
    "entras": 1122,
    "ĠVis": 3387,
    "Ġsuele": 5612,
    "Ġestadounidense": 3140,
    "positor": 7407,
    "Ġrusa": 7976,
    "Ġcorrespondencia": 9418,
    "Ã±ora": 3429,
    "Ġflamen": 2265,
    "Ġconoci": 703,
    "zadas": 8086,
    "ĠTrÃŃptico": 8590,
    "¬": 90,
    "Ġbro": 6812,
    "ĠdonÃ³": 8842,
    "Ġejemplares": 8266,
    "ĠtenÃŃa": 1597,
    "Ġestructuras": 8927,
    "ĠlÃ¡": 2858,
    "ĠTomÃ¡s": 4683,
    "Ġ1872": 7338,
    "ĠMuseum": 1764,
    "ty": 4545,
    "ĠGuadalajara": 8577,
    "ĠRibera": 6513,
    "ĠCha": 4405,
    "ense": 4546,
    "Ġbaj": 1185,
    "Ġcoleccionistas": 8697,
    "ĠacciÃ³n": 5317,
    "ĠmayorÃŃa": 2286,
    "Ġochenta": 7552,
    "ĠHenri": 4201,
    "ĠGarcÃŃa": 2752,
    "ĠNu": 8674,
    "ĠMujer": 4495,
    "Ġdeb": 2508,
    "Ġvuelta": 5733,
    "Ġnotables": 5921,
    "tulos": 6100,
    "ĠBro": 3162,
    "ĠOb": 1703,
    "Ġafirma": 7086,
    "cados": 3681,
    "sa": 754,
    "Ġdesem": 4456,
    "Ïģ": 5208,
    "ĠAlicante": 6881,
    "Ġcolabora": 2501,
    "Ġconsum": 9595,
    "alia": 8259,
    "ĠbÃºsqueda": 5903,
    "Ġinvestigaciones": 8734,
    "Ġvisuales": 6249,
    "\",": 1148,
    "Ġestos": 1535,
    "Ġmusical": 7088,
    "Ġdonde": 527,
    "Ġcasado": 9233,
    "ĠFerrer": 9511,
    "ĠdepÃ³sito": 9709,
    "Ġincl": 786,
    "Ġindependiente": 5417,
    "Ġhabilidad": 5453,
    "Ġinus": 6963,
    "tu": 487,
    "cÃ¡": 4484,
    "udÃ³nimo": 8710,
    "Ġvariaciones": 9353,
    "isla": 9471,
    "ficar": 7824,
    "Ġoro": 2233,
    "Ġ1965": 4177,
    "Ġcuyas": 5848,
    "lÃ³": 2211,
    "Ġesposa": 1991,
    "son": 616,
    "ones": 729,
    "ksmuseum": 9628,
    "Ġrealizando": 5815,
    "ĳ": 169,
    "Ġigno": 8471,
    "ĠAntes": 6933,
    "Ã©ticos": 8950,
    "Ġpara": 341,
    "bajo": 2846,
    "ĠIgnacio": 6565,
    "cu": 318,
    "ĠValdÃ©s": 9457,
    "ĠIndia": 6136,
    "ĠVenecia": 2121,
    "trecht": 9509,
    "Ġinterpre": 2258,
    "Ġespacial": 9339,
    "Ġsirve": 8899,
    "ilio": 3981,
    "Ġfavo": 6499,
    "tica": 752,
    "ĠDalÃŃ": 6433,
    "fi": 1840,
    "Ġindica": 4999,
    "ĠToro": 8874,
    "Ġcomercial": 7277,
    "Ã±ez": 5619,
    "Ã¡l": 1891,
    "gara": 7791,
    "ici": 418,
    "ĠEvangel": 3761,
    "Ġdesarrollo": 3134,
    "ĠÂ¡": 6719,
    "us": 277,
    "Ġseptiembre": 2078,
    "ĠSte": 3106,
    "Ĭ": 162,
    "Ġfue": 345,
    "useum": 5353,
    "Ġ1986": 3827,
    "ĠCir": 8703,
    "Ġmister": 9206,
    "Ġ178": 3777,
    "Ġdescubierto": 7852,
    "ruz": 1775,
    "ctas": 4908,
    "Ġproyecto": 2585,
    "iblio": 1931,
    "Ġnumerosos": 2831,
    "Ġmaestras": 7899,
    "ĠÃº": 9828,
    "ribu": 1447,
    "Ġfrecuentes": 9853,
    "ca": 328,
    "omeo": 9115,
    "2": 14,
    "diciones": 4773,
    "Ġdedic": 1232,
    "Ġresp": 5825,
    "Ġentre": 478,
    "entadas": 9864,
    "ĠSurre": 9229,
    "ĠEp": 8328,
    "ÃŃritu": 3443,
    "Ġpermi": 2075,
    "Ġexternos": 4217,
    "Ġ2013": 3593,
    "Ġvilla": 7659,
    "Ġdeten": 8184,
    "Ġcar": 558,
    "ell": 1206,
    "ĠorÃŃgenes": 9928,
    "ĠBattista": 8251,
    "ĠCan": 1904,
    "ĠGuido": 9920,
    "Ġpresi": 7707,
    "Ġori": 2719,
    "ĠGa": 2443,
    "ĠCÃŃrculo": 4570,
    "EL": 7832,
    "curso": 2322,
    "ĠAteneo": 6915,
    "ĠfantasÃŃa": 9821,
    "ĠCh": 565,
    "Ġlibro": 1513,
    "Ġdirigida": 5704,
    "Ġrelieve": 4540,
    "ĠdirecciÃ³n": 3726,
    "Ex": 8481,
    "Ġ5": 1119,
    "Ġba": 1349,
    "Ġbellas": 5827,
    "ĠRegresÃ³": 9968,
    "Ġnaranja": 7855,
    "ĠtravÃ©s": 1489,
    "Ġcoleccionista": 5864,
    "Ġdestinado": 8177,
    "ces": 459,
    "ĠproducciÃ³n": 2158,
    "Ġburgues": 9381,
    "ĠbodegÃ³n": 6774,
    "Ġhacia": 1050,
    "Ġestancias": 8862,
    "ĠAuguste": 9424,
    "Ġenvi": 3842,
    "Ġtodo": 1009,
    "ficios": 2395,
    "ĠBon": 4025,
    "Ġfecha": 2653,
    "Ġ1994": 3863,
    "ĠholandÃ©s": 5979,
    "li": 513,
    "yas": 2317,
    "ĠapÃ³stoles": 7482,
    "Ġsuce": 5718,
    "Ġjuegos": 9266,
    "ĠPensilvania": 9107,
    "Ġetc": 2755,
    "aj": 337,
    "78": 3185,
    "ĠalusiÃ³n": 8952,
    "ĠAndalucÃŃa": 8858,
    "donado": 7394,
    "Ġencuentran": 1908,
    "Ġpare": 877,
    "Ġintensi": 6397,
    "ĠquerÃŃa": 6465,
    "Ġcristiana": 7000,
    "onÃŃa": 7137,
    "Ġdescan": 6408,
    "ĠColor": 9640,
    "ĠGÃ©n": 6024,
    "Ġob": 313,
    "ular": 6066,
    "ĠÃ¡ngel": 2500,
    "Ġembar": 1226,
    "ĠArquite": 4320,
    "s": 71,
    "ĠNavarra": 8977,
    "ov": 7466,
    "Ġ1861": 8316,
    "ĠEra": 3724,
    "Ġespejo": 6130,
    "Ġempresa": 7694,
    "Ġpresencia": 2847,
    "cÃŃa": 1107,
    "beres": 2990,
    "bert": 1789,
    "vera": 2605,
    "Ġtemporal": 7829,
    "Ġadquiri": 2649,
    "Ġflorentino": 8347,
    "tades": 6626,
    "ĠcÃº": 6572,
    "haus": 4750,
    "cado": 1267,
    "ementerio": 5154,
    "Ġfinal": 2328,
    "ĠestÃ¡": 743,
    "dente": 1790,
    "ĠSel": 9368,
    "Ġinspi": 1802,
    "Ġcualidades": 7990,
    "mont": 6803,
    "lle": 9361,
    "Ġperson": 817,
    "Ġescultora": 9274,
    "Gal": 7158,
    "Ġascen": 5499,
    "Ġpinturas": 699,
    "ĠActu": 3955,
    "ĠLen": 6189,
    "idades": 2108,
    "ĠInstitu": 1650,
    "Ġfle": 7819,
    "ĠAbstra": 9128,
    "Ġca": 419,
    "ĠDibujos": 9793,
    "dice": 4308,
    "pro": 4755,
    "ĠPed": 1360,
    "mica": 1511,
    "ĠEscuela": 1054,
    "ĠBeaux": 6211,
    "ĠBellini": 8102,
    "ĠMit": 9030,
    "Ġdificultades": 8493,
    "ĠcompaÃ±ero": 9195,
    "Ġ1897": 5563,
    "Ġrico": 6602,
    "erias": 8616,
    "su": 3921,
    "Ġbauti": 6839,
    "Ġtec": 6780,
    "Ġclasicismo": 7746,
    "Ġvir": 3131,
    "ĠpÃ¡jar": 6262,
    "ban": 1081,
    "Ġbor": 2662,
    "ĠPalom": 5790,
    "ĠAndre": 8035,
    "lica": 801,
    "get": 6596,
    "ĠLich": 9492,
    "Ġbast": 9415,
    "Ġ1859": 9081,
    "Ġdanza": 9371,
    "ant": 358,
    "Ġreligiosos": 4702,
    "imiento": 1210,
    "ĠgalerÃŃa": 2453,
    "ĠDere": 8800,
    "Ġformando": 8175,
    "Ġsem": 5349,
    "ui": 316,
    "Ġpab": 8749,
    "ĠKe": 5709,
    "ĠsÃŃmbolo": 3645,
    "Ġre": 241,
    "bein": 7897,
    "ĠMontevideo": 5442,
    "ĠMundial": 2636,
    "tes": 436,
    "q": 69,
    "Ĳ": 168,
    "Ã": 110,
    "mon": 2609,
    "Ġella": 1531,
    "vel": 2916,
    "eval": 5196,
    "Ġdescri": 1899,
    "19": 475,
    "ntas": 4472,
    "tin": 4492,
    "ros": 353,
    "Ġrec": 6399,
    "Ġtier": 6835,
    "Ġmexicano": 5567,
    "Ġfirmada": 6495,
    "Ma": 7607,
    "cono": 4927,
    "Ġarquitecto": 2879,
    "Ġpaisajes": 1421,
    "idos": 2525,
    "ispano": 6592,
    "Ġ17": 748,
    "all": 1336,
    "Ġtestamento": 7372,
    "tio": 2795,
    "rian": 9918,
    "ĠF": 304,
    "Ġfar": 9365,
    "cus": 7511,
    "ĠDirecciÃ³n": 9854,
    "lon": 6296,
    "ntal": 5367,
    "Ġtenido": 5479,
    "Ã¡logo": 2852,
    "Ġpale": 4511,
    "Ġestablecer": 6480,
    "rÃ³n": 2584,
    "Ġconsiderado": 2704,
    "erista": 6191,
    "Ġ1959": 4212,
    "Ġmuebles": 8599,
    "alizada": 4960,
    "landes": 2658,
    "ĠilustraciÃ³n": 5591,
    "ĠLucas": 3351,
    "Ġbuen": 3900,
    "Ġveint": 5966,
    "ĠCanadÃ¡": 7214,
    "Ġespecializado": 7116,
    "Ġllamada": 2940,
    "Ġobtuvo": 2871,
    "Ġsugiere": 6273,
    "ĠModern": 6999,
    "ĠLuis": 1377,
    "ggen": 8055,
    "Ġtard": 4202,
    "ĠÃºlti": 968,
    "tuales": 8211,
    "Ġge": 2460,
    "198": 2235,
    "Ġide": 923,
    "Å«": 9139,
    "Ġsuperficies": 7949,
    "Ġreferencias": 6589,
    "Ġcolor": 843,
    "cil": 1362,
    "tel": 1830,
    "ĠVers": 7163,
    "Ġfruto": 8160,
    "ĠMad": 655,
    "ilea": 8623,
    "ĠValenci": 9538,
    "ĠMÃ¡r": 9801,
    "Ġsolamente": 8201,
    "cipa": 2337,
    "tismo": 2426,
    "ĠCarol": 7422,
    "Ġlic": 6517,
    "Ġ1993": 3995,
    "Ġmuest": 2338,
    "Ġequilibrio": 8478,
    "lace": 9524,
    "Ġevidente": 6300,
    "Es": 4410,
    "Ġtraslada": 7165,
    "Ġproce": 2288,
    "manes": 6577,
    "á": 135,
    "ĠZa": 4240,
    "ĠAntigu": 3616,
    "ĠsensaciÃ³n": 5494,
    "ĠcontemporÃ¡n": 1814,
    "orio": 4479,
    "Ġgracia": 7708,
    "Ġdenomina": 8383,
    "Ġestable": 1658,
    "ĠXXI": 8099,
    "ĠMark": 9750,
    "Ġadi": 6176,
    "Ġ1966": 4528,
    "Ġamiga": 9624,
    "entro": 6998,
    "Ġunas": 2594,
    "ĠRe": 472,
    "Ã±os": 1099,
    "diÃ³": 1045,
    "Ġ1864": 7778,
    "ĠHend": 9735,
    "biendo": 7124,
    "grÃ¡ficos": 4760,
    "Ġnegros": 8810,
    "Ã¡n": 362,
    "ĠautÃ©": 7388,
    "Ġespecie": 5480,
    "win": 9389,
    "Ġfri": 8185,
    "chas": 2069,
    "Ġcir": 2629,
    "jante": 3072,
    "Ġaquel": 1847,
    "ĠEstocolmo": 8735,
    "bolos": 5312,
    "ĠGu": 1018,
    "ĠEl": 350,
    "Ġllegando": 7217,
    "ĠMore": 8061,
    "Ġregalo": 9210,
    "Ð": 122,
    "Ġmomento": 1498,
    "ĠindÃŃgenas": 8811,
    "ĠPedro": 1420,
    "Ġlado": 1850,
    "Ġhospital": 8354,
    "28": 5377,
    "at": 340,
    "Ġdescubrimiento": 7278,
    "Ġdistint": 2229,
    "Ġasum": 7285,
    "Ã©tica": 2175,
    "pti": 1614,
    "pec": 1297,
    "Ġmuestra": 1222,
    "Ġperfe": 2953,
    "ath": 9095,
    "Ġdatado": 9952,
    "Ġfrecuencia": 5883,
    "dest": 6207,
    "ard": 778,
    "Ġdesignado": 8855,
    "ĠPalencia": 9883,
    "Ġsol": 1385,
    "ĠGuer": 5869,
    "Ã¼sseldorf": 7171,
    "Ġsurrealismo": 6223,
    "uego": 1256,
    "presionismo": 5778,
    "ĠTodos": 7575,
    "alismo": 2608,
    "ĠSalon": 6783,
    "ale": 1219,
    "ilidades": 5776,
    "Ġafric": 7376,
    "ĠCanaria": 7884,
    "Ġder": 2205,
    "ĠperteneciÃ³": 8713,
    "Ġbene": 5847,
    "Ġlen": 3129,
    "Ġmedal": 2596,
    "ĠacadÃ©mica": 6350,
    "Ġreg": 840,
    "irma": 2963,
    "uan": 9999,
    "Ġconvento": 3440,
    "y": 77,
    "ĠMonte": 3063,
    "Ġguer": 6278,
    "Ġtre": 3689,
    "ĠNaciÃ³": 3692,
    "ĠdescripciÃ³n": 5747,
    "Ġdisfru": 8191,
    "Ġconside": 2225,
    "Ġ1902": 6137,
    "ĠimÃ¡genes": 1696,
    "entÃ³": 2762,
    "Ġobjetivo": 4551,
    "Ġparroquial": 7644,
    "ama": 1282,
    "Ġconstruc": 8923,
    "Ġpu": 7136,
    "Ġsobrevi": 4462,
    "ĠSanta": 1086,
    "Ġesbo": 7907,
    "Ġgloria": 9294,
    "Ġ149": 4223,
    "fun": 8741,
    "Ġimpos": 7752,
    "rios": 2891,
    "Ġretratar": 9037,
    "fradÃŃa": 9241,
    "ix": 2978,
    "ĠBos": 4947,
    "Ġnove": 3067,
    "laba": 5114,
    "ĠGeneral": 4382,
    "24": 5015,
    "Ġenviado": 8992,
    "Ġrefiere": 6770,
    "ĠSalvador": 3617,
    "Ġrecientemente": 8231,
    "Ġcortes": 6025,
    "ĠconexiÃ³n": 9660,
    "ĠNico": 4369,
    "Ġdiri": 3870,
    "Ïī": 6996,
    "urante": 614,
    "Ġlo": 393,
    "don": 2429,
    "Ġsit": 5414,
    "inio": 6276,
    "Ġalgun": 763,
    "Ġ2006": 3281,
    "turista": 5568,
    "Ġconstr": 3105,
    "omin": 1634,
    "ĠAmor": 8694,
    "ĠgraduÃ³": 7830,
    "Ġcalle": 2291,
    "Ġsemi": 9556,
    "ĠMarcos": 5204,
    "Ġdecorar": 6714,
    "torio": 2656,
    "Ġnotas": 8554,
    "Ġ165": 3517,
    "ĠBuda": 6801,
    "tÃ¡n": 6380,
    "ĠMadonna": 4922,
    "cha": 650,
    "mita": 4388,
    "ĠCompaÃ±ÃŃa": 8993,
    "Ġcarrera": 1750,
    "Åį": 3209,
    "Ġelabora": 3336,
    "ast": 6391,
    "Ġ1890": 4156,
    "Ġmadera": 2043,
    "Ġmarco": 3916,
    "Ġdos": 585,
    "Ġapertura": 9594,
    "Ã³r": 631,
    "Ġinterrum": 9809,
    "ĠPieter": 4390,
    "38": 6355,
    "Ã¡r": 1584,
    "stante": 1916,
    "ER": 5089,
    "Ġhan": 1190,
    "adÃ¡": 4516,
    "Ġmejo": 2806,
    "ĠCÃ³rdoba": 3372,
    "ĠImperio": 4309,
    "Ġcate": 4067,
    "Ġcine": 4006,
    "ĠMadame": 8278,
    "Ġaire": 3330,
    "stes": 5291,
    "ostum": 2702,
    "ĠÃī": 2008,
    "ĠJimÃ©nez": 7831,
    "ĠMar": 423,
    "posi": 420,
    "Ġcabello": 6578,
    "culo": 1547,
    "ĠMÃ¡s": 2854,
    "clas": 6483,
    "guar": 2452,
    "Ġbras": 7589,
    "ĠJack": 7574,
    "Ð°": 3411,
    "ial": 1921,
    "ru": 404,
    "reg": 5392,
    "tilidad": 9031,
    "ĠPalazzo": 5971,
    "cÃ©": 6620,
    "Ġdiferencias": 7634,
    "Ķ": 172,
    "tto": 2397,
    "tados": 2757,
    "Ġgrupos": 4331,
    "ĠBodeg": 9275,
    "Ġinfluido": 6968,
    "Ġinicialmente": 6108,
    "ĠSem": 5209,
    "ĠNatividad": 8868,
    "ĠAut": 8089,
    "lag": 5017,
    "Ġdorado": 5100,
    "ĠH": 339,
    "Ġmeses": 3219,
    "Ġproyectos": 5249,
    "nivers": 6506,
    "amente": 484,
    "ines": 2744,
    "ĠOxirrinco": 9265,
    "hur": 6613,
    "Ġconocimientos": 8938,
    "par": 1165,
    "msterdam": 3416,
    "Ġpunto": 2152,
    "ĠWorld": 9633,
    "Ġmostra": 2504,
    "izar": 5823,
    "Ġacep": 3075,
    "Ġvidrio": 5237,
    "Ġras": 3341,
    "ĠGiorgio": 6402,
    "ical": 4185,
    "Ġhechas": 8062,
    "tad": 3382,
    "Ġnace": 9338,
    "Ġgracias": 2954,
    "uÃ±a": 3220,
    "enoir": 5335,
    "ĠWe": 2783,
    "Ġ1889": 5363,
    "83": 7107,
    "ĠMarco": 6420,
    "Ġespiritu": 4278,
    "Ġhom": 6216,
    "ĠCre": 3759,
    "Ġtorre": 7760,
    "ĠCamille": 9020,
    "ĠtrabajÃ³": 1776,
    "ites": 6505,
    "psis": 8604,
    "Ġger": 9472,
    "Ġhuel": 7726,
    "Ġverde": 2931,
    "1992": 9847,
    "ĠEst": 494,
    "ĠPint": 824,
    "inada": 4200,
    "SB": 3728,
    "ctu": 701,
    "00": 597,
    "Ġactividad": 2946,
    "'": 6,
    "Ġetapas": 7827,
    "Ġhoja": 7775,
    "Ġempres": 4609,
    "Ġasist": 2561,
    "ĠDÃŃaz": 5225,
    "Ġpsico": 8683,
    "Ġos": 2068,
    "Ġaj": 6437,
    "ĠBÃ©lgica": 5053,
    "Ġveinte": 5423,
    "mar": 2005,
    "Ġbello": 9957,
    "ĠmitolÃ³gicas": 9307,
    "ĠHistoria": 1705,
    "Ġconf": 1707,
    "Ġ2019": 4301,
    "Ġ1957": 4280,
    "ian": 1496,
    "ĠVÃŃctor": 8305,
    "Ġhistoriadores": 5954,
    "uestas": 3602,
    "ĠadmiraciÃ³n": 8756,
    "hÃŃa": 9138,
    "rafael": 8524,
    "ĠromÃ¡nt": 4100,
    "Ġhor": 2973,
    "ĠTh": 1410,
    "ella": 5368,
    "ĠRetablo": 4487,
    "Ġvaca": 8535,
    "ĠTres": 5300,
    "Ġvalores": 6083,
    "ĠResta": 9335,
    "Ġdibujante": 3601,
    "ĠespaÃ±ol": 1231,
    "tirio": 6230,
    "m": 65,
    "Ġaus": 4976,
    "Ġen": 205,
    "Ġsede": 4850,
    "ĠModerna": 9604,
    "Ġamistad": 4089,
    "Ġprobablemente": 2231,
    "Ġmer": 2960,
    "Ġ1925": 4593,
    "Ġpermane": 2383,
    "Ġtendencia": 4444,
    "cum": 1343,
    "ĠAn": 640,
    "Î¿": 2830,
    "ĠRus": 2446,
    "Ġplasmar": 9306,
    "rera": 1249,
    "Ġdeco": 982,
    "ist": 359,
    "Ġsome": 9637,
    "Ġmonumentos": 6551,
    "Ġdisp": 5831,
    "Ġgriego": 3170,
    "ĠPost": 3089,
    "ĠCuenca": 9555,
    "rik": 8010,
    "Ġcostumbre": 9543,
    "rugua": 3664,
    "ĠmudÃ³": 4535,
    "ĠLondres": 1460,
    "Ġ1980": 3252,
    "orros": 8546,
    "Ġextensa": 8757,
    "Ġvistas": 4919,
    "ĠLet": 5459,
    "Ġlarga": 4767,
    "arÃŃa": 2033,
    "Ġagosto": 2181,
    "Ġsuficiente": 7557,
    "Ġrealiza": 3479,
    "Ġdieron": 7384,
    "Ġhumanidad": 8563,
    "ĠChi": 8676,
    "antes": 1303,
    "Ġmadrile": 6164,
    "ĠVall": 9152,
    "way": 9215,
    "Ġaquella": 4666,
    "uelo": 3552,
    "ĠCollection": 7606,
    "ÃŃrico": 9155,
    "Ġcoro": 7880,
    "ĠFÃ©lix": 8880,
    "zaron": 4214,
    "omÃŃa": 3847,
    "ĠpolÃŃtica": 3512,
    "Ġsent": 1189,
    "Ġcalidad": 2961,
    "ĠFar": 5333,
    "Ã¡": 232,
    "ĠVie": 3144,
    "Ġbasa": 7518,
    "tible": 9405,
    "dico": 2884,
    "Ġdejar": 5496,
    "Ġflamenco": 3997,
    "da": 266,
    "Ġsentado": 7562,
    "Ġpron": 9453,
    "ĠneerlandÃ©s": 6840,
    "Ġ1862": 7758,
    "hu": 8271,
    "Ġmedi": 696,
    "µ": 98,
    "ĠcrÃŃtica": 2867,
    "Ġbel": 1628,
    "ĠReales": 9950,
    "Ġreda": 7740,
    "iche": 8956,
    "ĠAlcÃ¡zar": 8050,
    "Ġocup": 4447,
    "Ġcercana": 7048,
    "ã": 137,
    "Ġprepa": 5073,
    "icasso": 2290,
    "igi": 5451,
    "ĠVel": 2567,
    "Ġtomando": 9759,
    "Ġbatalla": 4296,
    "gor": 1506,
    "anas": 1845,
    "Ġ36": 8031,
    "ĠSchool": 5735,
    "ĠMunch": 7638,
    "Ġvio": 1923,
    "Ġthe": 2113,
    "ion": 529,
    "Ġarquitectura": 2098,
    "ĠÃ³rdenes": 9401,
    "ragÃ³n": 4768,
    "Ġsant": 1878,
    "ĠClaude": 6618,
    "ĠJaime": 9170,
    "ill": 1316,
    "Ġmuro": 6711,
    "ady": 7859,
    "orial": 7194,
    "vaggio": 4729,
    "anza": 2568,
    "ĠdenominaciÃ³n": 8738,
    "Ġviejo": 7307,
    "Ġgraf": 9698,
    "Ġluego": 1701,
    "Ġconsigue": 8968,
    "Ġ1982": 4048,
    "bara": 5091,
    "ezas": 5151,
    "Ġtrascen": 8988,
    "Ã©ro": 7022,
    "arias": 3523,
    "¾": 107,
    "ich": 617,
    "ĠjudÃŃos": 9283,
    "Ġamena": 9036,
    "ĠPinturas": 4614,
    "Ġsombras": 5493,
    "ĠRepres": 5599,
    "voluciÃ³n": 2487,
    "Ġpalacio": 2451,
    "Ġ1924": 5030,
    "ĠCeÃ¡n": 8901,
    "Ġ60": 4643,
    "ĠeconÃ³mica": 7668,
    "ajes": 1529,
    "Ġuniversidad": 9460,
    "ĠFrank": 6004,
    "Ã©ndo": 4853,
    "Ġescultura": 1138,
    "Ġreno": 5169,
    "Ġinform": 4991,
    "forme": 6048,
    "ĠDuchamp": 8519,
    "sion": 2865,
    "empos": 4654,
    "ĠMonta": 9038,
    "ĠHamburgo": 8464,
    "ĠUniversidad": 1341,
    "Ġdenominada": 7902,
    "Ġcab": 821,
    "gaciÃ³n": 5801,
    "Ġten": 725,
    "Ġconservan": 3661,
    "stras": 9718,
    "ĠEr": 2793,
    "Ġreconocida": 7364,
    "cÃ³fa": 9300,
    "È": 115,
    "Ġconseguir": 6668,
    "unto": 637,
    "uesta": 2255,
    "Ġseguidores": 8005,
    "Ġfranceses": 5132,
    "ze": 2991,
    "ĠAgui": 8948,
    "Ġapor": 4875,
    "Ġluna": 7160,
    "Ġ195": 829,
    "rÃ³": 820,
    "ĠpodrÃŃan": 7204,
    "Ġsi": 897,
    "Ġefe": 1806,
    "Ġexisten": 5278,
    "Ġalgunos": 1244,
    "ĠCaracter": 9959,
    "Ġdistinguir": 9421,
    "rez": 1456,
    "ĠÃ³pera": 8752,
    "cis": 916,
    "Ġencargada": 7977,
    "Ġlienzo": 1089,
    "Ġlocal": 4229,
    "Ġzona": 3533,
    "ĠIlustra": 5614,
    "Ġsensibilidad": 7379,
    "ĠPrincip": 8364,
    "ĠEu": 3806,
    "hon": 6826,
    "Ġrojos": 9097,
    "Ġcuest": 4687,
    "Ġjuntos": 7143,
    "ĠfunciÃ³n": 5104,
    "ir": 389,
    "Ġreco": 2873,
    "Ġiba": 6794,
    "ĠAustralia": 7526,
    "ĠAsia": 8336,
    "MA": 6739,
    "ĠFernÃ¡ndez": 3972,
    "Ġproto": 8863,
    "ĠdestrucciÃ³n": 8688,
    "ĠCastillo": 4636,
    "Ġfigura": 594,
    "Ġcui": 3987,
    "Ġparticipar": 6425,
    "Ġelaborado": 9767,
    "Ġmath": 8556,
    "Ġmecenas": 6448,
    "stein": 4694,
    "lin": 2418,
    "Ġtrono": 6364,
    "Ġben": 7100,
    "ĠSociet": 6914,
    "Ġconsiste": 8020,
    "Ġinternacionales": 5912,
    "ĠinstalÃ³": 5047,
    "Ġalcan": 2566,
    "ĠPet": 1947,
    "Ġpic": 1413,
    "Ġtotalmente": 6993,
    "Ġ1855": 8339,
    "bierno": 2357,
    "polis": 5782,
    "ladolid": 3564,
    "Ġideas": 4155,
    "Ġestudi": 578,
    "tre": 1954,
    "Ġampli": 3465,
    "Ġcri": 2942,
    "emis": 7675,
    "reza": 8428,
    "Ġefecto": 3320,
    "Ġpin": 2210,
    "jado": 4287,
    "une": 6407,
    "Ġtrazo": 9977,
    "erte": 7986,
    "erac": 8675,
    "ĠEstas": 3849,
    "din": 4903,
    "lot": 4690,
    "Ġpredi": 8890,
    "landia": 8615,
    "Ġverdadero": 6931,
    "Ġcostumbres": 7306,
    "ĠgeomÃ©tricas": 8181,
    "ĠAlber": 7559,
    "Ġcarre": 9186,
    "tense": 9336,
    "ĠmÃ©rito": 8417,
    "ĠvÃŃn": 9332,
    "gÃºn": 942,
    "terno": 8726,
    "ĠCultura": 1494,
    "ĠseÃ±a": 3171,
    "Ġ1875": 6815,
    "41": 7070,
    "Ġconsidera": 1237,
    "Ġreuni": 9868,
    "ethe": 6092,
    "Ġrep": 1906,
    "tora": 5522,
    "[": 51,
    "frica": 4715,
    "Ġsacri": 5247,
    "ĠRichard": 5957,
    "Ġcal": 1928,
    "Ġindependencia": 7939,
    "menes": 4537,
    "Ġsupon": 7556,
    "ĠcerÃ¡mica": 3569,
    "ĠmÃ¡rmol": 3427,
    "ĠintroducciÃ³n": 9196,
    "v": 74,
    "Ġdormi": 9890,
    "Ġ2024": 8082,
    "87": 6972,
    "Ġsiglos": 3190,
    "Ġace": 5798,
    "Q": 41,
    "tÃ©": 3969,
    "Ġ1856": 8664,
    "nidad": 4307,
    "ĠFer": 3428,
    "¼": 105,
    "ĠHa": 996,
    "Ġprotesta": 9463,
    "ĠGranada": 4059,
    "pren": 2921,
    "Ġrealizadas": 3763,
    "Ġofre": 2789,
    "dent": 2192,
    "Ġamplia": 4125,
    "ĠganÃ³": 4169,
    "Ġprimer": 1035,
    "ĠGon": 2505,
    "Ġmodern": 4538,
    "Ġaparecen": 3344,
    "Ġpresentado": 6927,
    "labora": 1653,
    "ĠManuscri": 9906,
    "manca": 6834,
    "ĠISBN": 4153,
    "dio": 1849,
    "ĠKen": 8376,
    "ÃŃas": 819,
    "Ġaudi": 9311,
    "Ġpuente": 7301,
    "Ġrevolucion": 7140,
    "Ġpaleo": 9263,
    "ĠJacques": 5653,
    "ĠatmÃ³sfera": 6414,
    "ciaciÃ³n": 1824,
    "Ġvar": 711,
    "Ġnaturalista": 6922,
    "Ġvivo": 7144,
    "ĠGali": 7488,
    "istro": 6333,
    "ĠNuevo": 3064,
    "Ġ1989": 3810,
    "ĠGros": 9033,
    "Ġfres": 1575,
    "Ġ35": 6977,
    "uerte": 5559,
    "Ġperu": 7432,
    "į": 165,
    "ĠmÃºs": 2180,
    "dea": 6742,
    "la": 189,
    "Ġtreinta": 5383,
    "ĠGau": 3250,
    "ĠDar": 6777,
    "minas": 6791,
    "ĠSiena": 6653,
    "Ġgira": 7789,
    "untas": 8392,
    "Ġgre": 8075,
    "ĠRich": 4050,
    "vidu": 1422,
    "onor": 1973,
    "Ġplante": 6069,
    "²": 95,
    "rica": 2331,
    "ctoria": 2743,
    "Ġgra": 693,
    "Ġanterior": 2402,
    "Ġnegro": 2514,
    "Ġcorpo": 7225,
    "Ġsuyas": 7269,
    "ĠnÃºmero": 1995,
    "ĠtÃºnica": 7280,
    "Ġlatino": 7470,
    "ĠPÃ¡": 9972,
    "ĠCÃ¡diz": 6309,
    "Ġmencionado": 8159,
    "Ġtu": 2720,
    "emente": 2124,
    "cristo": 9479,
    "ĠCristo": 1480,
    "Ġmaterial": 3889,
    "ub": 541,
    "ĠPalmas": 8965,
    "lum": 6875,
    "Ġsistema": 4138,
    "Ġcambio": 3173,
    "Ġestren": 9160,
    "Ġmanierista": 7937,
    "Museo": 3448,
    "Ġnuestro": 7546,
    "Ġfiesta": 7887,
    "Ġpensar": 8650,
    "ÃŃnguez": 6104,
    "Ġservicio": 4522,
    "Ġadminist": 6131,
    "Ãºblica": 2466,
    "ĠÃºnica": 3453,
    "Ġcualquier": 3407,
    "ĠPad": 5626,
    "ĠEyck": 5331,
    "Ġdigital": 9282,
    "onias": 9363,
    "useo": 415,
    "video": 4735,
    "Ġpersonaje": 3948,
    "Ġentonces": 1470,
    "Ġprograma": 5113,
    "ĠHall": 8093,
    "Ġcusto": 9075,
    "relli": 9572,
    "ĠGro": 6304,
    "Ã§": 2559,
    "ĠDel": 2376,
    "Ġmerca": 8736,
    "Ġcuel": 4478,
    "ĠDegas": 6754,
    "Ã£o": 4031,
    "ge": 721,
    "Ġjam": 9534,
    "ĠEcu": 4647,
    "ĠBrasil": 3927,
    "Ġincluida": 7841,
    "Ġencargado": 5638,
    "Ġhebre": 9505,
    "Ġotro": 1387,
    "ĠMichel": 5852,
    "Ġposteriormente": 2450,
    "Ġfallecimiento": 6063,
    "ĠPadua": 8145,
    "iden": 6457,
    "Ġadmi": 2552,
    "Ġanun": 6507,
    "ĠÃ¡ngeles": 3613,
    "bados": 8933,
    "Ġdej": 2863,
    "..": 6086,
    "ĠBor": 2380,
    "Ġconocidos": 4711,
    "ĠPeÃ±a": 9010,
    "Ġdetalles": 3039,
    "ĠC": 242,
    "Ġotorgado": 9850,
    "Ġpor": 278,
    "Ġexplo": 4197,
    "Ġcuader": 9899,
    "ĠCompaÃ±": 8620,
    "imientos": 3288,
    "sche": 9427,
    "sel": 2970,
    "ĠfÃ¡brica": 8718,
    "Ġconvierte": 6338,
    "lando": 2929,
    "ĠFiladelfia": 6720,
    "Ġencontraron": 8444,
    "Ġlim": 2678,
    "ĠgeometrÃŃa": 9995,
    "Ġc": 192,
    "ola": 6516,
    "ĠFem": 8550,
    "ĠLe": 667,
    "ĠLuisa": 6640,
    "Ġcie": 2986,
    "ward": 4041,
    "dito": 6857,
    "rar": 847,
    "jara": 7033,
    "ĠDela": 5270,
    "Ġprodu": 932,
    "grÃ¡ficas": 6617,
    "uscri": 1711,
    "ĠMayor": 6064,
    "dore": 8454,
    "Ġsuperv": 9395,
    "ĠejecutÃ³": 7318,
    "Ġenterrado": 5242,
    "lidos": 8575,
    "Ġpa": 281,
    "ĠUN": 7188,
    "Ġhumanos": 6291,
    "paciÃ³n": 4470,
    "ĠSantander": 7011,
    "Ġcampos": 7075,
    "ĠcomenzÃ³": 1726,
    "cripciones": 6494,
    "nta": 1011,
    "il": 283,
    "ĠMural": 6228,
    "Ġenmar": 5039,
    "ĠhabÃŃan": 2540,
    "ĠfundaciÃ³n": 5730,
    "Ġprivadas": 4932,
    "hoy": 9955,
    "Ġtej": 6267,
    "Ġvolunt": 6251,
    "ĠAh": 4833,
    "Ġcartones": 9478,
    "grado": 3278,
    "ĠBa": 1264,
    "ciones": 374,
    "ĠDiputaciÃ³n": 4931,
    "Ġinstrumentos": 8384,
    "Ġsesenta": 6650,
    "Ġ1860": 6028,
    "cidad": 3361,
    "ĠEsp": 5788,
    "Ã¡poles": 3652,
    "ĠMary": 4584,
    "ĠFres": 8027,
    "ci": 201,
    "hl": 7240,
    "ĠsueÃ±o": 7050,
    "Ġ2021": 5592,
    "cito": 3884,
    "ĠimaginaciÃ³n": 8467,
    "Ġcolum": 3222,
    "zados": 6010,
    "Ġsignifica": 3333,
    "ĠPara": 1564,
    "rabe": 6652,
    "Ġcelebra": 5795,
    "centes": 7683,
    "ĠcrÃŃticas": 6241,
    "Ġprimeros": 1663,
    "ĠFamilia": 5922,
    "Ġcalavera": 7040,
    "ĠW": 491,
    "ĠOriente": 6736,
    "ĠVega": 9790,
    "Ġpublicada": 6588,
    "ĠperiÃ³dico": 6254,
    "ĠpreparaciÃ³n": 9247,
    "att": 6848,
    "Ġintens": 8152,
    "ĠCentro": 1781,
    "ĠCÃ©zanne": 6854,
    "Ġ2007": 3137,
    "ĠAlm": 7126,
    "Ġcristal": 7885,
    "tico": 762,
    "bir": 2699,
    "Ġcotidiana": 5974,
    "Ġ1850": 7076,
    "Ġfueran": 7997,
    "29": 5774,
    "lig": 3206,
    "ĠhistÃ³r": 1837,
    "ĠAgos": 9866,
    "hal": 9614,
    "Ġlos": 259,
    "ĠXII": 5454,
    "Ġfinalmente": 3283,
    "Ġconect": 9686,
    "exo": 7815,
    "ĠRoma": 1151,
    "Ãºrpura": 6787,
    "Ġreal": 1368,
    "Ġatribuido": 6212,
    "ement": 4238,
    "ĠFrancesco": 4294,
    "ĠAntigua": 8049,
    "ntemente": 5449,
    "ĠJohn": 1993,
    "ĠVic": 1818,
    "vierno": 6541,
    "Ġmismos": 5639,
    "ĠprÃ¡ctica": 4954,
    "Ã¡tica": 2673,
    "igu": 770,
    "Ġasoci": 3816,
    "Ġfab": 4662,
    "ombre": 779,
    "Ã³ricos": 9875,
    "ĠubicaciÃ³n": 7816,
    "Ġdispon": 5295,
    "Ġquer": 3671,
    "pul": 3906,
    "Ġmartirio": 9480,
    "Ġsitu": 1857,
    "Ġ1997": 3858,
    "rence": 8660,
    "ĠEstÃ¡": 3423,
    "Ġcons": 646,
    "Ġarre": 8486,
    "ĠMagdal": 3805,
    "Na": 9913,
    "ull": 7062,
    "ctic": 4876,
    "vimiento": 9447,
    "Ġsiguientes": 3447,
    "ĠQu": 2651,
    "Ġalumnos": 4615,
    "Ne": 9521,
    "Ġnubes": 7696,
    "Ġdeter": 3199,
    "ror": 5875,
    "Ġvenera": 9557,
    "Ġles": 2715,
    "Ġconj": 1871,
    "ko": 1536,
    "Ġofrece": 7262,
    "ĠsintiÃ³": 9442,
    "unta": 2773,
    "rag": 1512,
    "logÃŃa": 1629,
    "Ġescla": 7348,
    "ĠWik": 7114,
    "onios": 8568,
    "urado": 4640,
    "bur": 1424,
    "dela": 4114,
    "rillo": 3951,
    "ud": 1101,
    "ĠcientÃŃfico": 9575,
    "Ġrecuerdo": 9419,
    "ĠZe": 5651,
    "lidad": 3398,
    "Ġcuyos": 5621,
    "ĠreciÃ©n": 7275,
    "Ġrelaciones": 5978,
    "Ġtestig": 8911,
    "ÃŃvar": 9832,
    "Ġdestaca": 3225,
    "uero": 9806,
    "Ġvic": 5299,
    "re": 195,
    "Ġhermano": 2183,
    "ĠromÃ¡ntico": 7234,
    "ticamente": 7501,
    "siones": 1885,
    "Ġdestacan": 3324,
    "uel": 618,
    "ĠcasÃ³": 2697,
    "tones": 7467,
    "Ġconservados": 8413,
    "T": 44,
    "rir": 8455,
    "ib": 406,
    "ĠFacultad": 5835,
    "th": 1438,
    "Ġventana": 5398,
    "ĠFinal": 8582,
    "ĠGran": 1283,
    "ick": 4084,
    "Ġbuscando": 9280,
    "vista": 4820,
    "ĠHolanda": 7192,
    "Ġcoinci": 4677,
    "Ġcompositor": 8530,
    "ĠVisuales": 7133,
    "Ġno": 379,
    "ĠLond": 1399,
    "ĠallÃŃ": 2248,
    "ĠInternacional": 2356,
    "Ġespecialmente": 1735,
    "ĠBadajoz": 6710,
    "Ġcampes": 4797,
    "Ġmomentos": 6865,
    "Ġfech": 3065,
    "ĠHen": 2223,
    "Ġfiel": 7414,
    "Ġforman": 6077,
    "Ġmira": 6221,
    "ĠAyuntamiento": 3409,
    "radas": 3263,
    "unda": 1428,
    "ĠUrbino": 9687,
    "ĠallÃ¡": 5065,
    "Ġespacio": 1894,
    "str": 1461,
    "Ġoctubre": 1860,
    "Ġaquellas": 9646,
    "atura": 809,
    "Ġcolonial": 8643,
    "erie": 2835,
    "Ġro": 583,
    "entando": 7428,
    "minist": 4817,
    "Ġmil": 2042,
    "ĠFreder": 8319,
    "Ġrepresentaban": 8958,
    "entre": 8935,
    "lada": 1262,
    "ĠFrancesca": 9651,
    "uenca": 7823,
    "45": 4951,
    "itÃ³": 2903,
    "ĠCatal": 2270,
    "Ġ186": 1430,
    "vÃ³": 9223,
    "ismo": 434,
    "reno": 3188,
    "Ġgrave": 9728,
    "ciana": 9829,
    "ĠbÃ¡s": 6218,
    "Ġinvi": 7908,
    "Ġrespecto": 5042,
    "Ġdaba": 9235,
    "Ġgru": 1046,
    "ancias": 4195,
    "ĠCont": 1448,
    "Ġdescono": 6728,
    "ĠdescubriÃ³": 6675,
    "Ġcapit": 5893,
    "ĠSto": 9228,
    "Ġ194": 894,
    "Ġextrem": 6930,
    "yst": 6244,
    "ĠprÃŃncipe": 5165,
    "lecciÃ³n": 4459,
    "Ġayuda": 3125,
    "Ġabierto": 6294,
    "Ġlibertad": 4827,
    "Ġ1840": 9935,
    "Ġcristiano": 8001,
    "Ġorigin": 1253,
    "Ġdescu": 2087,
    "ĠVila": 9884,
    "Ġejecu": 1913,
    "undamente": 8443,
    "tura": 437,
    "Ġabsor": 7975,
    "Ġobten": 2894,
    "Ġazul": 2009,
    "Ġingen": 4429,
    "Ġseguidor": 9993,
    "ĠSÃŃ": 8429,
    "Ġoportunidad": 7220,
    "ĠS": 245,
    "Ġpresentan": 6549,
    "lio": 1534,
    "ag": 3377,
    "Ġfundamental": 7264,
    "mem": 4338,
    "ĠMartin": 5439,
    "ticos": 1538,
    "ĠAlonso": 5627,
    "ĠOli": 5150,
    "Ġsuma": 8837,
    "Ġtales": 4428,
    "75": 3860,
    "Ġcaballete": 9358,
    "mond": 6515,
    "ľ": 180,
    "dy": 7222,
    "ĠMÃ©xico": 1247,
    "rido": 4849,
    "Ġ1913": 4445,
    "Ġtron": 4763,
    "ĠSala": 1799,
    "ĠejÃ©rcito": 6290,
    "Ġdistribu": 8380,
    "ĠFin": 2888,
    "Ġconceptual": 8491,
    "Ġimpar": 7688,
    "Ġaltura": 4237,
    "cos": 789,
    "fera": 4226,
    "Ġrespectivamente": 8385,
    "ĠWillem": 6758,
    "Äģ": 8255,
    "mento": 2728,
    "Ġpelo": 7809,
    "bier": 1116,
    "uiÃ³": 4061,
    "Valencia": 9741,
    "tis": 2149,
    "deres": 7097,
    "OS": 5691,
    "ĠJuan": 851,
    "Ġavent": 7765,
    "Ġenem": 9916,
    "Ġimportantes": 1959,
    "Ġnovi": 1880,
    "Ġ1949": 5002,
    "ver": 464,
    "Ġrealidad": 2529,
    "ticu": 1432,
    "mel": 7095,
    "ĠJavier": 7560,
    "zÃ³n": 2805,
    "Ġdelic": 6229,
    "Ġestudiosos": 8315,
    "ionales": 6422,
    "Ġaprender": 9733,
    "ĠenseÃ±anza": 5565,
    "nti": 1729,
    "razo": 7647,
    "ianos": 5664,
    "Ġexpone": 4432,
    "Ġcolocar": 8894,
    "Ġmenor": 3703,
    "Ġconfe": 5059,
    "ĠMoreno": 7201,
    "terna": 5222,
    "Ġtrazos": 8112,
    "Ġaten": 2420,
    "Ġromana": 5356,
    "ĠUrb": 7800,
    "ionista": 4230,
    "rum": 4439,
    "ĠpolÃŃticos": 6745,
    "ionismo": 2947,
    "ĠSargent": 6852,
    "ond": 1055,
    "Ãº": 338,
    "ĠmadrileÃ±a": 9911,
    "etro": 2917,
    "Ġfrescos": 2751,
    "ÃŃda": 5033,
    "teres": 9668,
    "Ġmes": 1728,
    "Ġfebrero": 2035,
    "ĠviviÃ³": 3046,
    "inas": 1180,
    "Ġesencia": 9896,
    "Ġincom": 9295,
    "ĠDo": 2081,
    "Ġtradicionales": 5473,
    "ĠPinacoteca": 5474,
    "Ġpredomin": 6205,
    "Ġbasado": 6987,
    "rinco": 9193,
    "Ġdeno": 7359,
    "urch": 5597,
    "Ã©c": 633,
    "Ġcubierta": 6605,
    "Ġensa": 6468,
    "ĠParis": 4983,
    "Ġotra": 1588,
    "dis": 5582,
    "id": 3883,
    "Ġconse": 2330,
    "ĠPres": 3037,
    "Ġ2002": 3756,
    "ĠAndrÃ©s": 4457,
    "ad": 209,
    "Ġ1919": 4935,
    "ctubre": 1792,
    "ĠGab": 3257,
    "ĠEnlaces": 4300,
    "del": 1844,
    "ĠGil": 4920,
    "ĠarquitectÃ³n": 3414,
    "Ġpion": 6321,
    "istas": 920,
    "pli": 2620,
    "vila": 7406,
    "ĠTras": 2077,
    "Ġher": 944,
    "è": 142,
    "ĠTri": 4648,
    "gorÃŃas": 7180,
    "Ġimagin": 5364,
    "Ġexhib": 4345,
    "Ġcrist": 2145,
    "ĠPala": 2696,
    "ĠeducaciÃ³n": 3909,
    "Ġfavor": 4822,
    "ĠJaco": 3360,
    "ĠEs": 421,
    "Ĥ": 154,
    "ĠpÃºrpura": 7328,
    "ĠLos": 635,
    "Ġintelectual": 6838,
    "Ã¨": 1780,
    "ĠMen": 2547,
    "Ġurbanos": 9443,
    "Ġnueve": 6046,
    "Ġcompon": 4611,
    "Ã³ve": 5124,
    "taf": 7805,
    "ĠBea": 6346,
    "Ã§ois": 5243,
    "clar": 5754,
    "ĠDire": 5675,
    "ĠUcrania": 9327,
    "ficos": 8788,
    "ĠfantÃ¡st": 7219,
    "urbarÃ¡n": 7293,
    "35": 5025,
    "tal": 722,
    "Ġcapas": 7517,
    "Ġregistros": 8900,
    "ĠAntiguo": 5580,
    "ĠTÃ©cn": 6372,
    "Ġdesarrollado": 6539,
    "Ġfa": 1228,
    "tÃ¡": 3147,
    "Ġidenti": 2196,
    "ĠRÃŃo": 4595,
    "21": 5705,
    "Ġdu": 1503,
    "Ġtuvo": 1302,
    "Ġpalabra": 5679,
    "Ã¡ndez": 3013,
    "ĠAs": 1140,
    "Ġbus": 2249,
    "Ġmientras": 1287,
    "Ġ1900": 4343,
    "ĠOx": 4814,
    "ĠVelÃ¡zquez": 3017,
    "ĠintentÃ³": 9096,
    ".).": 8146,
    "Ġgolpe": 8523,
    "Ġplantas": 5767,
    "ev": 4165,
    "Ãª": 7764,
    "urez": 7096,
    "IC": 8994,
    "Ġhere": 6410,
    "sin": 5032,
    "Ġdesta": 904,
    "Ġrespe": 6148,
    "Ġobra": 426,
    "ĠotorgÃ³": 8629,
    "Ġqu": 1852,
    "cra": 3057,
    "Ġdios": 3760,
    "ĠYu": 7226,
    "americana": 5506,
    "ĠMÃ¡": 3567,
    "ĠMÃºnich": 3172,
    "K": 35,
    "Ġ(-)": 9820,
    "ggio": 3248,
    "bal": 3378,
    "je": 547,
    "Ġretor": 5603,
    "tuna": 8497,
    "192": 3027,
    "ĠDr": 7703,
    "itaria": 6816,
    "ĠelaboraciÃ³n": 7550,
    "irse": 5256,
    "Ġfamiliares": 6450,
    "Ġhacerse": 9760,
    "Ġencontraban": 7366,
    "ser": 8722,
    "ĠÃģlvarez": 6514,
    "tores": 1559,
    "Ġescrito": 2838,
    "Ġfuertemente": 7446,
    "cuencia": 3316,
    "14": 1677,
    "47": 6825,
    "igrafÃŃa": 5973,
    "Ġel": 218,
    "erio": 1160,
    "Ġnota": 8768,
    "ug": 2202,
    "aga": 9329,
    "Ġhonora": 9515,
    "Ġsatis": 6978,
    "ĠmÃ¡scaras": 9499,
    "AC": 4488,
    "gli": 4604,
    "ĠdedicÃ³": 2809,
    "Ã£": 3812,
    "Ġ2017": 3798,
    "Ġej": 980,
    "Į": 164,
    "jada": 7597,
    "Ġconvertirse": 7054,
    "ĠTrayectoria": 4791,
    "uta": 7858,
    "Ġlev": 4585,
    "ĠmÃ©todos": 7796,
    "ĠMÃ©rito": 9811,
    "ĠYork": 1077,
    "Ġfuerzas": 9234,
    "ĠVan": 1695,
    "ĠIlustraciÃ³n": 8783,
    "Ġtra": 370,
    "enda": 7361,
    "dil": 3195,
    "Ġfechas": 8032,
    "posiciones": 882,
    "Ġ28": 3531,
    "ĠBri": 4982,
    "nacional": 1557,
    "ä": 138,
    "quier": 1171,
    "ĠCertamen": 8739,
    "ĠWit": 9477,
    "Ñģ": 5508,
    "iros": 7294,
    "Ġperspectivas": 8730,
    "ĠcÃºpula": 7183,
    "Ġpiedra": 3355,
    "ĥ": 155,
    "Ġ1874": 6942,
    "ĠDiseÃ±o": 5874,
    "Ġ1912": 4485,
    "ĠtemÃ¡tica": 3385,
    "urÃ³": 3643,
    "Ġcontemp": 4494,
    "tiro": 6439,
    "Ġemperador": 4427,
    "ĠcolaborÃ³": 5205,
    "Ġmonta": 3924,
    "za": 409,
    "Ġcuerpo": 1805,
    "Î": 120,
    "ĩ": 159,
    "Ġilustrador": 4635,
    "ĠArt": 901,
    "Ġcapaz": 7415,
    "Ġresto": 3249,
    "Ġempera": 3657,
    ".]": 7464,
    "Ġsig": 446,
    "ĠDuque": 7761,
    "ctivo": 6065,
    "ĠKo": 3898,
    "ĠtÃ©r": 2645,
    "Ġagu": 4211,
    "ĠGallery": 1718,
    "ja": 592,
    "in": 217,
    "Ġsimples": 8621,
    "ĠDante": 9532,
    "ĠintenciÃ³n": 5416,
    "grafÃŃas": 2512,
    "ĠPero": 2623,
    "inta": 1943,
    "Ġexcepcional": 8929,
    "dellÃŃn": 8490,
    "zamiento": 8742,
    "ĠenseÃ±": 2414,
    "gidos": 7745,
    "ĠGrande": 5430,
    "gieron": 8097,
    "Ġdescub": 3818,
    "Ġprestig": 5037,
    "Ġeru": 7400,
    "posiciÃ³n": 528,
    "Ġbarrio": 5093,
    "ĠCommon": 6768,
    "ĠVista": 7315,
    "Ġrostros": 5920,
    "Ġ2004": 3486,
    "Ġ6": 1347,
    "ĠmÃ¡": 3876,
    "ĠatribuciÃ³n": 7577,
    "ĠDal": 4360,
    "Ĺ": 175,
    "Ġsimil": 8728,
    "ĠPra": 3766,
    "é": 143,
    "Ġescas": 4973,
    "ĠManet": 5035,
    "Ġluz": 1201,
    "ĠArch": 6909,
    "Ġacabado": 9178,
    "ĠÃģfrica": 5542,
    "Ġpaz": 7161,
    "ĠJosef": 9044,
    "Se": 6080,
    "Ġintegra": 4241,
    "Ġsurg": 9394,
    "Ġja": 4222,
    "Ġmov": 1389,
    "cesa": 6400,
    "ĠÃ©x": 2388,
    "Ġinf": 577,
    "Ġdurante": 772,
    "tidas": 9746,
    "Ġretom": 9286,
    "Ã¡ndole": 7037,
    "digo": 8978,
    "po": 356,
    "ĠSh": 2849,
    "Ġmencionar": 8627,
    "onia": 1654,
    "IS": 5308,
    "Ġrevistas": 5020,
    "Ġplomo": 9682,
    "Ġsacerdo": 5908,
    "ĠAb": 2243,
    "inger": 8844,
    "ĠquizÃ¡s": 6035,
    "Ġescudos": 9512,
    "ĠMun": 1376,
    "Ġsolici": 5486,
    "ĠJohannes": 6979,
    "ĠMiguel": 1556,
    "Ġref": 1062,
    "piz": 5692,
    "Ġidentidad": 5226,
    "Ġbusca": 6019,
    "Ġarena": 8234,
    "Ġ1992": 3575,
    "85": 5736,
    "Ġmoral": 6299,
    "Ġprest": 3431,
    "ĠImp": 6717,
    "inato": 8612,
    "zan": 3024,
    "encias": 5946,
    "mientos": 2445,
    "ĠPalomino": 6021,
    "180": 7189,
    "ĠNew": 2437,
    "Val": 6482,
    "cht": 4403,
    "forman": 5117,
    "ĠcampaÃ±a": 8513,
    "Ġtest": 4740,
    "chada": 4764,
    "arse": 1123,
    "Ġfrecuente": 8202,
    "Ġpintados": 4391,
    "caban": 9049,
    "ĠReg": 4854,
    "Ġjud": 4571,
    "urg": 5757,
    "rencias": 2971,
    "ĠSociedad": 3208,
    "ĠStu": 5924,
    "ĠcombinaciÃ³n": 8475,
    "Ġconjunto": 2259,
    "sti": 2459,
    "ĠtamaÃ±o": 2822,
    "atic": 4825,
    "2000": 9176,
    "van": 959,
    "Ġmens": 4984,
    "iblioteca": 2171,
    "Ġsan": 1678,
    "pular": 8172,
    "Ã±": 273,
    "Ġayudar": 9134,
    "Ġ180": 2995,
    "ĠGrupo": 4709,
    "Ġparque": 7662,
    "ĠMerce": 9939,
    "aria": 1782,
    "Ġlet": 3516,
    "ĠCom": 813,
    "Ġson": 651,
    "Î¿Ïħ": 9608,
    "Ġrefle": 1601,
    "Ġban": 2313,
    "by": 5434,
    "ĠinglÃ©s": 2932,
    "yen": 2607,
    "ĠfirmÃ³": 7230,
    "Ġcum": 3990,
    "ĠrococÃ³": 8642,
    "ĠBo": 979,
    "bri": 2041,
    "ĠPraga": 7395,
    "Ġemig": 8436,
    "pare": 855,
    "Ġlleg": 3779,
    "Ġsala": 2729,
    "Ġsuperficie": 3801,
    "less": 8769,
    "Ġfama": 4191,
    "Ġpiernas": 8242,
    "ĠbÃ³ve": 5311,
    "Ġhechos": 5951,
    "ridad": 2748,
    "Ġextremo": 7356,
    "Ġ1918": 5192,
    "Ġ20": 413,
    "Ġesenci": 9032,
    "ner": 2392,
    "Ġast": 7818,
    "Ġafro": 9644,
    "cch": 5716,
    "Ġinusual": 9469,
    "ĠJohann": 5972,
    "ĠTemp": 5452,
    "Ġtonos": 3577,
    "Ġhel": 7822,
    "ç": 141,
    "ĠBerlÃŃn": 2264,
    "ĠRay": 8578,
    "Ġduque": 3025,
    "Ġcabal": 2366,
    "Ġhay": 1379,
    "Ġmuertas": 7477,
    "Ġprop": 775,
    "ĠEdu": 2870,
    "ÃŃan": 750,
    "unciaciÃ³n": 4007,
    "Ã©ct": 7121,
    "cientes": 6797,
    "Ã±as": 1886,
    "Ġpasaron": 8511,
    "ĠJoven": 5007,
    "Ġimportancia": 3234,
    "Ġdetal": 1838,
    "ĠÅ": 7382,
    "ructura": 2592,
    "ES": 4965,
    "Ġexpuesta": 6129,
    "gios": 6873,
    "aliza": 5673,
    "ĠMuchos": 6757,
    "Ġatributos": 9788,
    "etts": 8983,
    "ĠLuna": 9015,
    "ĠLudo": 9412,
    "ĠVilla": 2714,
    "ĠtÃ©rmino": 3345,
    "ĠpropÃ³sito": 7266,
    "ĠcontinuaciÃ³n": 7365,
    "ĠPeter": 4805,
    "Ġclara": 3473,
    "rael": 6830,
    "gl": 1970,
    "ĠWil": 1568,
    "ico": 336,
    "gando": 6741,
    "ĠContin": 7812,
    "ĠRecibiÃ³": 7019,
    "Ġcant": 2470,
    "ĠAmerican": 6020,
    "ostra": 2354,
    "Ġretablos": 4420,
    "Ġ1884": 5871,
    "ĠBerm": 9236,
    "ĠRepresenta": 7853,
    "ĠAdoraciÃ³n": 4857,
    "Ġextraordin": 6377,
    "Ġlog": 3754,
    "ĠKon": 7705,
    "Ġatribuyen": 8101,
    "Ġrosa": 6988,
    "ilar": 2197,
    "Ġext": 2580,
    "ture": 6560,
    "Ġal": 284,
    "Ġtomar": 7288,
    "tem": 6190,
    "Ġcrea": 2574,
    "Ġpanel": 4163,
    "Ġprogres": 6331,
    "ĠdÃ©cada": 1545,
    "ĠMurcia": 6582,
    "ĠGuar": 9843,
    "ester": 6569,
    "ĠComisiÃ³n": 8439,
    "Ġ1867": 7621,
    "ĠEscocia": 9766,
    "vent": 3033,
    "U": 45,
    "Ġtela": 2419,
    "Ġinclu": 2872,
    "Ġdesconoci": 4026,
    "Ġsoci": 1812,
    "irÃ¡": 8028,
    "ĠcelebrÃ³": 7106,
    "mal": 5207,
    "ĠVene": 1499,
    "dial": 2251,
    "Ġtampoco": 9888,
    "Ġigualmente": 5156,
    "cadas": 5593,
    "ĠNie": 7152,
    "Ġdiario": 5645,
    "Ġseleccion": 5178,
    "ĠbritÃ¡nico": 5773,
    "hara": 9880,
    "riÃ³": 991,
    "Ġhistoriador": 4111,
    "deo": 2325,
    "cido": 1057,
    "har": 7450,
    "Ġjunto": 1005,
    "ĠversiÃ³n": 2564,
    "ts": 1960,
    "Ġamigos": 3493,
    "Ġlugar": 1199,
    "ĠcaracterÃŃstica": 6007,
    "Ġpredela": 7284,
    "arlem": 7583,
    "Ġdocumentado": 9214,
    "Ġprimi": 5116,
    "ĠdevociÃ³n": 7951,
    "Ġbajo": 1453,
    "ume": 3956,
    "ionistas": 7706,
    "31": 6688,
    "ĠCl": 3765,
    "ĠinfluyÃ³": 6980,
    "ĠpÃºb": 1487,
    "ĠSmith": 6606,
    "Ġcaballos": 5455,
    "ctamente": 3055,
    "Ġ400": 9813,
    "Ġseis": 2565,
    "bu": 533,
    "Ġ1936": 4064,
    "ĠSuecia": 6893,
    "ĠDomÃŃnguez": 6203,
    "ĠmÃŃ": 7804,
    "Ġsali": 4605,
    "piros": 5628,
    "ĠmÃ¡ximo": 9465,
    "ĠCarlos": 1618,
    "Ġcabe": 1835,
    "ĠDona": 7072,
    "eren": 9997,
    "Ġtint": 7402,
    "inar": 4800,
    "Ġpintadas": 4741,
    "ĠMis": 5786,
    "puÃ©s": 708,
    "ĠEsteban": 6396,
    "vÃ¡n": 8121,
    "Ġqueda": 4526,
    "Ġposible": 2093,
    "Ġtrabajo": 903,
    "ĠAnn": 5750,
    "randt": 4011,
    "TE": 8350,
    "ĠPast": 8639,
    "Ġinfantil": 9632,
    "ĠartÃŃstica": 1296,
    "lim": 5904,
    "ĠBenjam": 9239,
    "Ġhaya": 7112,
    "Ġseguir": 6354,
    "rand": 3000,
    "ĠdesempeÃ±": 6226,
    "lu": 2534,
    "oso": 1380,
    "Ġafin": 9643,
    "ÃŃs": 490,
    "uvo": 844,
    "ieta": 9314,
    "gados": 4416,
    "uventud": 5258,
    "Ġvari": 6660,
    "Ġ1958": 4423,
    "Ġlej": 8434,
    "Ġciertos": 7341,
    "Ġherm": 1574,
    "Ġrecuerdan": 8602,
    "ston": 7701,
    "Ġideal": 5969,
    "Ġcuya": 2624,
    "Ġvuelve": 5884,
    "Ġexilio": 9495,
    "boa": 5168,
    "Ġcama": 8222,
    "Ġveneci": 3859,
    "É": 116,
    "ĠÃīcole": 9238,
    "Ġcli": 6073,
    "ige": 7270,
    "illas": 2837,
    "Ġretratos": 1108,
    "GalerÃŃa": 9087,
    "Ġdes": 347,
    "tti": 4994,
    "Ã¡ndolo": 7260,
    "Ġinvierno": 7751,
    "Ġtrabajando": 4028,
    "Ġconvir": 1675,
    "Ġcaracter": 1344,
    "Ġ1944": 5302,
    "Ġestablecido": 7104,
    "tiza": 6727,
    "caciÃ³n": 1999,
    "Ġmedalla": 3376,
    "Ã³lo": 1768,
    "penha": 6663,
    "ĠPadre": 7787,
    "ĠinformaciÃ³n": 5911,
    "Ãºn": 531,
    "ĠElla": 6886,
    "Ġconcre": 4359,
    "ĠveÃŃa": 9838,
    "ĠChil": 8095,
    "Ġrelacion": 2032,
    "Ġmar": 608,
    "Ġropa": 4949,
    "Ġamante": 7524,
    "ĠPasÃ³": 9761,
    "Û": 133,
    "ce": 351,
    "ĠAunque": 2252,
    "199": 2112,
    "ĠAg": 4004,
    "Ġconferencias": 9132,
    "Ġescritos": 5554,
    "Ġactivi": 4203,
    "terrÃ¡neo": 8163,
    "Ġmodernos": 7028,
    "Ġexiste": 5277,
    "Ġcausa": 4393,
    "Ġsoporte": 6559,
    "ī": 161,
    "Ġmont": 4765,
    "jeres": 1388,
    "ĠCiencias": 7821,
    "peraciÃ³n": 7712,
    "tino": 3069,
    "Ġdescubri": 7506,
    "Ġ1974": 4562,
    "scri": 9269,
    "ĠRic": 5399,
    "mentos": 2660,
    "ĠgeneraciÃ³n": 4224,
    "Ġtem": 580,
    "ĠerÃ³": 7785,
    "ĠÃģvila": 9755,
    "ĠmitologÃŃa": 7310,
    "ĠcontinÃºa": 8283,
    "Ġdistrito": 9188,
    "ĠArqueolÃ³gico": 9025,
    "ĠespecÃŃ": 5166,
    "Ġreprodu": 2746,
    "Ġllama": 5184,
    "dol": 8885,
    "ĠcompaÃ±eros": 7205,
    "am": 260,
    "Ġviaj": 5862,
    "Ġescuelas": 5164,
    "Ġbelga": 9191,
    "ĠtratÃ³": 9076,
    "ĠIndividu": 9943,
    "Ġcontra": 938,
    "ĠPos": 5136,
    "Ġcopa": 9094,
    "Ġperfeccion": 7654,
    "ĠfrÃŃ": 7499,
    "Ġandalu": 9622,
    "sey": 9451,
    "ĠFueron": 8944,
    "ĠPiero": 6202,
    "desa": 7649,
    "Ġproduce": 6492,
    "Ġcontraste": 5273,
    "Ġpoca": 8866,
    "Ġet": 1697,
    "ĠTim": 7542,
    "Ġataque": 9990,
    "Ġperio": 1821,
    "Ġconseg": 5515,
    "mÃ¡tico": 4366,
    "Ġnuevos": 4094,
    "ĠVerona": 9192,
    "Ġmilitar": 4376,
    "Ġcolab": 3535,
    "cto": 603,
    "50": 2358,
    "Ġ1904": 5175,
    "ĠSo": 1161,
    "Ġestam": 3059,
    "Lo": 5866,
    "Ġcontrastes": 9456,
    "Ġpintor": 477,
    "Ġme": 449,
    "cera": 3205,
    "Ã¡m": 3946,
    "Ġfiestas": 7920,
    "retto": 9051,
    "30": 2177,
    "ĠpoÃ©tica": 7974,
    "Ã´": 6022,
    "Ġtema": 1434,
    "udio": 4027,
    "pel": 1396,
    "Ïĥ": 5608,
    "Ġcantante": 9261,
    "ĠcaligrafÃŃa": 9845,
    "Ġlong": 7786,
    "ĠRena": 2670,
    "Ġconverti": 8018,
    "ĠpaÃŃs": 1586,
    "ĠtrÃŃptico": 6011,
    "Ð¸": 3347,
    "ĠBrueghel": 7196,
    "bach": 7385,
    "Ġdist": 1085,
    "Ġisla": 5251,
    "rano": 2159,
    "Ġ1876": 6170,
    "Ġcomienzo": 6955,
    "Ġcomp": 615,
    "uve": 7451,
    "Ġespiritual": 6111,
    "Ġgrue": 7487,
    "Ġrayos": 9983,
    "her": 3583,
    "Ġasuntos": 8555,
    "ĠJ": 320,
    "ĠBlan": 3441,
    "Ġcambios": 6213,
    "ĠMujeres": 5492,
    "Ġep": 3112,
    "Ġinvolu": 8223,
    "Ġer": 4176,
    "ĠraÃŃces": 8606,
    "Ġobjeto": 3175,
    "ĠdespuÃ©s": 885,
    "rse": 4003,
    "Ġ2012": 3402,
    "Ġlengua": 9066,
    "Ġsalida": 9487,
    "Ġmiembro": 1981,
    "ĠSer": 3280,
    "adamente": 2765,
    "Ġinvas": 9781,
    "ĠLÃ¡": 6445,
    "Ã¡lisis": 3315,
    "rim": 394,
    "udi": 481,
    "Ġevangel": 6367,
    "Ġsentada": 5713,
    "pectos": 4926,
    "Ġanat": 5749,
    "ĠJes": 1671,
    "ord": 2007,
    "Ġmuer": 872,
    "Ġinten": 2250,
    "ĠMagdalena": 3980,
    "licaciones": 6449,
    "Ġparale": 4958,
    "Ġdesarrol": 1135,
    "ĠseÃ±ala": 6132,
    "lÃ¡": 1133,
    "13": 2604,
    "Ġbodegones": 4096,
    "ĠNicolas": 7921,
    "pectivas": 6716,
    "Ġb": 302,
    "Ġampl": 2472,
    "Ġins": 963,
    "ferencia": 6421,
    "Ġ1945": 4293,
    "Ġsuya": 7702,
    "ĠÃŃ": 4210,
    "ĠMaest": 2974,
    "ĠRicardo": 7924,
    "Ġsecund": 5605,
    "sz": 9773,
    "ĠLi": 2114,
    "dores": 3885,
    "Ġenter": 4113,
    "ase": 1087,
    "eme": 5948,
    "ĠEdgar": 9738,
    "Ġu": 867,
    "Ġhuman": 4670,
    "ĠIncl": 6682,
    "ĠBus": 8588,
    "fia": 5123,
    "ĠseÃ±or": 6818,
    "alle": 766,
    "ĠRembrandt": 4443,
    "ĠpictÃ³rica": 2747,
    "Ġprueba": 8320,
    "rÃ¡n": 2172,
    "o": 67,
    "ĠpolÃŃtico": 4103,
    "Ġprivile": 9642,
    "Ġconstituye": 8477,
    "tela": 6265,
    "Ġ1939": 4553,
    "versi": 1126,
    "oston": 5491,
    "ali": 435,
    "Ġpergam": 7728,
    "ĠArque": 6598,
    "ĠDos": 3691,
    "Ġpensamiento": 7605,
    "Ġmadurez": 7692,
    "Ġgen": 3501,
    "ento": 375,
    "Ġpermiti": 6944,
    "Ġ1922": 4928,
    "Ġaum": 6336,
    "antas": 8151,
    "rimonio": 1915,
    "Ġprecio": 7200,
    "isp": 3049,
    "mÃ¡nt": 3822,
    "tional": 2353,
    "ĠpropÃ³": 6781,
    "ĠBue": 8915,
    "Ġcaza": 6231,
    "brero": 1963,
    "di": 234,
    "Ġrica": 7961,
    "Ġojo": 8074,
    "Ġros": 1741,
    "ĠNicolÃ¡s": 4383,
    "ĠAustria": 4409,
    "ª": 88,
    "Ġparecen": 4758,
    "Ġcuadros": 1154,
    "tud": 2732,
    "ĠTon": 9723,
    "Ġmanera": 1592,
    "elle": 5358,
    "Ġconcent": 5521,
    "Ġera": 653,
    "osas": 4295,
    "Ġvia": 1102,
    "ĠEstos": 3702,
    "ĠSy": 8587,
    "Ġfragmentos": 5443,
    "Ġhier": 4650,
    "ĠorganizÃ³": 6119,
    "Ġ1894": 6325,
    "Ġrupest": 6201,
    "ĠHerrera": 7723,
    "ĠGent": 6548,
    "Ġ200": 690,
    "ij": 5141,
    "oria": 678,
    "iÃ¡n": 8131,
    "cÃŃ": 1600,
    "quina": 4560,
    "ĠCuando": 2634,
    "Ġcomerciante": 7417,
    "Ġconstante": 7373,
    "inte": 2992,
    "ac": 2262,
    "ĠLetras": 8539,
    "be": 805,
    "Ġapreciar": 7565,
    "ĠOro": 3048,
    "Ġotor": 4099,
    "Ġbienes": 7732,
    "ĠvÃŃ": 4616,
    "Ġromanticismo": 8473,
    "ĠMontserrat": 9438,
    "Ãºr": 4518,
    "ĠGuadal": 8774,
    "ĠLuca": 6939,
    "ponÃ©s": 6118,
    "Ġfuertes": 7302,
    "nte": 324,
    "Ġtiene": 1288,
    "Ġimpul": 4831,
    "Ġmodelado": 9040,
    "Ġonce": 8246,
    "ĠÃ¡mbito": 5652,
    "Ġsalas": 5345,
    "diciÃ³n": 3085,
    "ÃŃrica": 9101,
    "Ġapre": 2320,
    "ĠFo": 2208,
    "\".": 1084,
    "uras": 2759,
    "quia": 3550,
    "ron": 1068,
    "ane": 4895,
    "Ġelevado": 9784,
    "Ġ2009": 3293,
    "Ġtercera": 4877,
    "En": 7041,
    "ĠPrado": 1660,
    "Ġaquellos": 5200,
    "presiÃ³n": 7243,
    "cer": 719,
    "ĠFrancia": 1241,
    "tori": 9125,
    "Ġromanos": 6804,
    "raje": 9691,
    "ĠSociety": 7311,
    "ĠFri": 3514,
    "ĠClo": 9803,
    "Ġedi": 983,
    "ĠValle": 4142,
    "viera": 5050,
    "Ã³venes": 3301,
    "Ġab": 572,
    "Ġmaest": 969,
    "ĠBruselas": 3757,
    "ĠRossetti": 9127,
    "cente": 3753,
    "Ġconocen": 7015,
    "cciÃ³n": 454,
    "rom": 2271,
    "ĠÃ¡n": 1834,
    "RA": 3534,
    "Ġexpresionismo": 4843,
    "Ġriqueza": 6405,
    "burgo": 2065,
    "ĠLeopol": 8023,
    "tarÃŃa": 7572,
    "Ġmedieval": 5656,
    "ĠespÃŃritu": 4471,
    "Ġpref": 5643,
    "retratos": 7948,
    "Ġconsideraba": 5910,
    "ĠAlice": 9501,
    "Ġsombra": 5872,
    "fa": 939,
    "anzas": 5945,
    "fael": 1687,
    "Ġsar": 7567,
    "ĠSÃ¡": 8764,
    "Ġimpresion": 1992,
    "teca": 1605,
    "Ġbrazo": 6343,
    "Ġreto": 9867,
    "Ġ1971": 4725,
    "ĠCongreso": 7960,
    "ĠOtra": 5301,
    "Ġmotivos": 3094,
    "Ġcollage": 8240,
    "dici": 4334,
    "leto": 8794,
    "ĠfundÃ³": 4818,
    "Ġpalab": 2823,
    "Ġexperim": 3016,
    "Ġhaberse": 9347,
    "ĠcÃ³": 2029,
    "Ġculturas": 6926,
    "ledad": 8610,
    "ĠpreocupaciÃ³n": 9764,
    "Ġdedicada": 4900,
    "Ġ1983": 4297,
    "ĠdÃŃa": 2039,
    "cÃ¡n": 4213,
    "Ġvivi": 4181,
    "Ġinspirado": 5989,
    "Ġ1975": 4272,
    "Ġci": 544,
    "Ġdiver": 8982,
    "Ġcom": 267,
    "æ": 140,
    "ĠrealizÃ³": 1270,
    "ĠIr": 6469,
    "Ġtrabajadores": 9837,
    "ĠCal": 2756,
    "Ġacom": 2639,
    "Ġgu": 1571,
    "Ġpis": 9525,
    "arios": 1619,
    "ĠTokio": 7449,
    "tÃŃa": 9689,
    "Ġconden": 7555,
    "Ġutilizan": 8033,
    "ĠanÃ³nimo": 9621,
    "Ġobispo": 5610,
    "Ġrepresentar": 3116,
    "gg": 5654,
    "ĠTrans": 6597,
    "ĠBrun": 8000,
    "cidas": 4548,
    "ĠExisten": 8423,
    "elles": 8410,
    "Ġlla": 3614,
    "Ġperforman": 6487,
    "vil": 1602,
    "ĠParticipÃ³": 6415,
    "ĠMus": 3735,
    "ĠlÃŃder": 8760,
    "Ġvib": 8795,
    "clasicismo": 9289,
    "Ġconci": 4461,
    "Ġsimpli": 8871,
    "ĠMÃºs": 8186,
    "Ġexpres": 1061,
    "Ã±o": 499,
    "Ġentero": 7769,
    "todos": 6669,
    "Ġteor": 3891,
    "ĠfenÃ³men": 8542,
    "Ġprincipio": 3892,
    "Ġemple": 2436,
    "ĠDyck": 6393,
    "ĠcaÃŃda": 7153,
    "Ġinteriores": 5197,
    "Ġcirc": 5068,
    "ĠPes": 9091,
    "Ġvene": 3204,
    "Ġsuave": 9045,
    "hard": 7698,
    "ĠasociaciÃ³n": 6809,
    "deras": 5944,
    "Ġoeste": 8260,
    "Ġextranjeros": 8248,
    "ĠcolaboraciÃ³n": 3881,
    "Ġtor": 1863,
    "Ġdecoraciones": 6953,
    "Ġbodeg": 3012,
    "vich": 4552,
    "pas": 1661,
    "ĠBla": 3807,
    "Ġinstalaciones": 8002,
    "Ġ187": 1273,
    "ves": 1714,
    "ĠFinalmente": 5807,
    "ĠInterna": 5147,
    "Ġ1914": 4790,
    "Ġjusto": 8651,
    "Ġsalud": 5794,
    "ĠMadrid": 757,
    "Ġaguafuer": 6540,
    "ĠBu": 3107,
    "ĠoraciÃ³n": 8839,
    "ster": 1752,
    "enta": 506,
    "venciÃ³n": 4101,
    "hat": 9071,
    "field": 9064,
    "Ġpudieron": 9513,
    "sito": 4143,
    "erta": 7471,
    "Ġpropiedades": 8905,
    "Ġarco": 4071,
    "Ġespecial": 2708,
    "Ġsup": 1643,
    "Ġtuvieron": 5004,
    "ĠHaya": 6095,
    "vir": 1251,
    "crip": 1323,
    "pres": 395,
    "ĠLuego": 5012,
    "rÃŃptico": 4187,
    "Ġdest": 2154,
    "amÃ¡": 7569,
    "ĠBarcelona": 1309,
    "Ġinferior": 3177,
    "usa": 1836,
    "ĠpÃ©r": 7360,
    "ual": 1644,
    "ĠCe": 3099,
    "ĠSagrada": 6920,
    "ĠSig": 3143,
    "Ġubicada": 6686,
    "Ġalber": 3857,
    "emato": 8518,
    "Ġmunicipal": 8516,
    "Ġescrita": 6782,
    "Ġir": 2507,
    "Ġeuropeas": 8851,
    "Ġredu": 3813,
    "Ã¢": 4806,
    "esor": 7685,
    "osc": 2941,
    "mana": 4136,
    "ĠpictÃ³rico": 3437,
    "Ġhu": 3737,
    "Ġvivos": 7244,
    "ficiente": 6601,
    "ĠMicha": 6378,
    "Ġpiezas": 2457,
    "ĠcolocÃ³": 9676,
    "Ġargentino": 6994,
    "cenas": 4419,
    "ĠTemplo": 7237,
    "enci": 2875,
    "let": 6330,
    "ero": 432,
    "Ġtestim": 6056,
    "ĠContra": 9375,
    "ĠApo": 3992,
    "Ġestuvo": 2201,
    "ĠpelÃŃculas": 7367,
    "teo": 3767,
    "uestos": 4000,
    "ĠGo": 1078,
    "ĠDon": 3695,
    "ĠcrÃŃ": 1327,
    "endor": 9745,
    "Ġcree": 4246,
    "Ġconserva": 1937,
    "doro": 6089,
    "Ġescritura": 5987,
    "Ġembargo": 1300,
    "ĠLenin": 8907,
    "Ġbandera": 8715,
    "ĠÃ¡b": 9435,
    "Ġsirvi": 9302,
    "Ġsurre": 3021
  },
  "itos": {
    "5770": "ling",
    "1103": "Ġ4",
    "5740": "Ġpermit",
    "5581": "Co",
    "3038": "ĠcreÃ³",
    "5262": "Ġencima",
    "2997": "Ġpoeta",
    "6376": "Ġparticulares",
    "799": "cel",
    "7615": "ĠKandin",
    "3340": "Ġeurope",
    "3736": "Ġneg",
    "1797": "Ġabstra",
    "8179": "ĠCatÃ³lica",
    "2307": "uri",
    "1415": "jÃ³",
    "7208": "alles",
    "8665": "quero",
    "8009": "entan",
    "7295": "Ãī",
    "5577": "Ġrecibe",
    "4795": "yendo",
    "1649": "land",
    "3237": "40",
    "8068": "Ġcomercio",
    "8318": "lyn",
    "4116": "Ġdiez",
    "1324": "terior",
    "1930": "ilidad",
    "9879": "Ġboda",
    "9248": "sachusetts",
    "3999": "onna",
    "4713": "Ġdestacado",
    "7579": "Ġsubasta",
    "3962": "ĠÃĵleo",
    "16": "4",
    "3291": "Ġrostro",
    "8611": "ĠpercepciÃ³n",
    "3071": "isa",
    "911": "Ãºlti",
    "6772": "ĠBretaÃ±a",
    "6183": "Ġbal",
    "8949": "Ġrecl",
    "227": "Ġf",
    "5755": "Ġtoma",
    "9974": "ĠDol",
    "5838": "Ġdificul",
    "8140": "Ġatribuida",
    "2374": "ĠCab",
    "9871": "ĠWang",
    "8841": "Ġjug",
    "8275": "Ġtraje",
    "2490": "berg",
    "5527": "Ġfuturo",
    "9620": "ĠdonaciÃ³n",
    "8852": "ĠinauguraciÃ³n",
    "3339": "eriormente",
    "2975": "Ġlienzos",
    "3270": "Ġ1990",
    "2955": "Ġmanuscrito",
    "5239": "iga",
    "3207": "Î¹",
    "3239": "ĠRod",
    "4695": "Ġps",
    "7474": "Ã±Ã³n",
    "9675": "tarios",
    "1056": "ctura",
    "3994": "Ġexcel",
    "1254": "porÃ¡n",
    "6622": "Ġais",
    "9873": "ĠCasta",
    "3158": "Ġcapital",
    "2812": "Ġpens",
    "8144": "cÃ¡ngel",
    "1427": "vÃ©s",
    "6784": "Ġviajar",
    "1751": "Ġexper",
    "7749": "89",
    "346": "ct",
    "6965": "ĠArn",
    "8971": "Ġmanifest",
    "2458": "ĠContemporÃ¡n",
    "7412": "Ġ146",
    "562": "qu",
    "238": "ri",
    "3731": "Ġantiguos",
    "589": "Ġap",
    "83": "¥",
    "7320": "Ġcosa",
    "7846": "ĠClara",
    "7941": "Ġza",
[...]
