{
  "version": "1.0",
  "truncation": null,
  "padding": null,
  "added_tokens": [
    {
      "id": 0,
      "content": "[PAD]",
      "single_word": false,
      "lstrip": false,
      "rstrip": false,
      "normalized": false,
      "special": true
    },
    {
      "id": 1,
      "content": "[UNK]",
      "single_word": false,
      "lstrip": false,
      "rstrip": false,
      "normalized": false,
      "special": true
    },
    {
      "id": 2,
      "content": "[BOS]",
      "single_word": false,
      "lstrip": false,
      "rstrip": false,
      "normalized": false,
      "special": true
    },
    {
      "id": 3,
      "content": "[EOS]",
      "single_word": false,
      "lstrip": false,
      "rstrip": false,
      "normalized": false,
      "special": true
    }
  ],
  "normalizer": null,
  "pre_tokenizer": {
    "type": "ByteLevel",
    "add_prefix_space": true,
    "trim_offsets": true,
    "use_regex": true
  },
  "post_processor": {
    "type": "ByteLevel",
    "add_prefix_space": true,
    "trim_offsets": true,
    "use_regex": true
  },
  "decoder": {
    "type": "ByteLevel",
    "add_prefix_space": true,
    "trim_offsets": true,
    "use_regex": true
  },
  "model": {
    "type": "BPE",
    "dropout": null,
    "unk_token": "[UNK]",
    "continuing_subword_prefix": null,
    "end_of_word_suffix": null,
    "fuse_unk": false,
    "byte_fallback": false,
    "ignore_merges": false,
    "vocab": {
      "[PAD]": 0,
      "[UNK]": 1,
      "[BOS]": 2,
      "[EOS]": 3,
      "!": 4,
      "\"": 5,
      "'": 6,
      "(": 7,
      ")": 8,
      ",": 9,
      "-": 10,
      ".": 11,
      "0": 12,
      "1": 13,
      "2": 14,
      "3": 15,
      "4": 16,
      "5": 17,
      "6": 18,
      "7": 19,
      "8": 20,
      "9": 21,
      ":": 22,
      ";": 23,
      "?": 24,
      "[": 25,
      "]": 26,
      "a": 27,
      "b": 28,
      "c": 29,
      "d": 30,
      "e": 31,
      "f": 32,
      "g": 33,
      "h": 34,
      "i": 35,
      "j": 36,
      "k": 37,
      "l": 38,
      "m": 39,
      "n": 40,
      "o": 41,
      "p": 42,
      "q": 43,
      "r": 44,
      "s": 45,
      "t": 46,
      "u": 47,
      "v": 48,
      "w": 49,
      "x": 50,
      "y": 51,
      "z": 52,
      "¡": 53,
      "¢": 54,
      "£": 55,
      "¤": 56,
      "¥": 57,
      "¦": 58,
      "§": 59,
      "¨": 60,
      "©": 61,
      "ª": 62,
      "«": 63,
      "¬": 64,
      "®": 65,
      "¯": 66,
      "°": 67,
      "±": 68,
      "²": 69,
      "³": 70,
      "´": 71,
      "µ": 72,
      "¶": 73,
      "·": 74,
      "¸": 75,
      "¹": 76,
      "º": 77,
      "»": 78,
      "¼": 79,
      "½": 80,
      "¾": 81,
      "¿": 82,
      "Â": 83,
      "Ã": 84,
      "Ä": 85,
      "Å": 86,
      "Æ": 87,
      "Ç": 88,
      "È": 89,
      "É": 90,
      "Ê": 91,
      "Ë": 92,
      "Ì": 93,
      "Í": 94,
      "Î": 95,
      "Ï": 96,
      "Ð": 97,
      "Ñ": 98,
      "Ò": 99,
      "Ó": 100,
      "Õ": 101,
      "Ö": 102,
      "×": 103,
      "Ø": 104,
      "Ù": 105,
      "Ú": 106,
      "Û": 107,
      "à": 108,
      "á": 109,
      "â": 110,
      "ã": 111,
      "ä": 112,
      "å": 113,
      "æ": 114,
      "ç": 115,
      "è": 116,
      "é": 117,
      "ê": 118,
      "ë": 119,
      "ì": 120,
      "í": 121,
      "ï": 122,
      "ð": 123,
      "Ċ": 124,
      "Ġ": 125,
      "Ģ": 126,
      "ģ": 127,
      "Ĥ": 128,
      "ĥ": 129,
      "Ħ": 130,
      "ħ": 131,
      "Ĩ": 132,
      "ĩ": 133,
      "Ī": 134,
      "ī": 135,
      "Ĭ": 136,
      "ĭ": 137,
      "Į": 138,
      "į": 139,
      "İ": 140,
      "ı": 141,
      "Ĳ": 142,
      "ĳ": 143,
      "Ĵ": 144,
      "ĵ": 145,
      "Ķ": 146,
      "ķ": 147,
      "ĸ": 148,
      "Ĺ": 149,
      "ĺ": 150,
      "Ļ": 151,
      "ļ": 152,
      "Ľ": 153,
      "ľ": 154,
      "Ŀ": 155,
      "ŀ": 156,
      "Ł": 157,
      "ł": 158,
      "Ń": 159,
      "Ġd": 160,
      "Ġe": 161,
      "Ġde": 162,
      "Ġl": 163,
      "Ġc": 164,
      "Ġp": 165,
      "Ġa": 166,
      "ra": 167,
      "Ġs": 168,
      "os": 169,
      "re": 170,
      "nt": 171,
      "Ġla": 172,
      "on": 173,
      "er": 174,
      "Ġm": 175,
      "ci": 176,
      "Ġen": 177,
      "st": 178,
      "Ã³": 179,
      "ue": 180,
      "or": 181,
      "ad": 182,
      "ar": 183,
      "al": 184,
      "as": 185,
      "an": 186,
      "Ġel": 187,
      "Ġy": 188,
      "es": 189,
      "un": 190,
      "Ġt": 191,
      "en": 192,
      "in": 193,
      "Ġf": 194,
      "ÃŃ": 195,
      "ic": 196,
      "ent": 197,
      "Ġun": 198,
      "que": 199,
      "ro": 200,
      "Ġco": 201,
      "Ġre": 202,
      "Ã³n": 203,
      "Ġsu": 204,
      "Ġh": 205,
      "do": 206,
      "Ã¡": 207,
      "Ġcon": 208,
      "Ġv": 209,
      "Ġb": 210,
      "ri": 211,
      "Ġque": 212,
      "Ġ1": 213,
      "Ġse": 214,
      "Ġn": 215,
      "Ġo": 216,
      "Ġg": 217,
      "Ã©": 218,
      "Ġdel": 219,
      "Ġes": 220,
      "le": 221,
      "ti": 222,
      "ciÃ³n": 223,
      "la": 224,
      "res": 225,
      "int": 226,
      "Ġlos": 227,
      "Ġest": 228,
      "ura": 229,
      "Ġar": 230,
      "id": 231,
      "mo": 232,
      "is": 233,
      "lo": 234,
      "te": 235,
      "am": 236,
      "Ġal": 237,
      "Ġpa": 238,
      "ig": 239,
      "ia": 240,
      "Ġ(": 241,
      "io": 242,
      "ÃŃa": 243,
      "ab": 244,
      "el": 245,
      "ado": 246,
      "to": 247,
      "Ġpor": 248,
      "Ã±": 249,
      "Ġuna": 250,
      "il": 251,
      "mp": 252,
      "Ġin": 253,
      "Ġlas": 254,
      "de": 255,
      "Ġpint": 256,
      "Ġj": 257,
      "us": 258,
      "Ġ19": 259,
      "ente": 260,
      "it": 261,
      "ran": 262,
      "sta": 263,
      "ul": 264,
      "ch": 265,
      "ica": 266,
      "cion": 267,
      "ras": 268,
      "ie": 269,
      "Ġcomo": 270,
      "ol": 271,
      "ma": 272,
      "Ġob": 273,
      "co": 274,
      "Ġex": 275,
      "mb": 276,
      "di": 277,
      "cia": 278,
      "iz": 279,
      "Ġdi": 280,
      "ada": 281,
      "nte": 282,
      "ta": 283,
      "Ġcu": 284,
      "Ġdes": 285,
      "da": 286,
      "Ġpro": 287,
      "Ġfue": 288,
      "Ġper": 289,
      "at": 290,
      "bi": 291,
      "Ġpara": 292,
      "era": 293,
      "Ã¡s": 294,
      "qu": 295,
      "aj": 296,
      "Ãº": 297,
      "ien": 298,
      "ico": 299,
      "Ġno": 300,
      "Ġso": 301,
      "pa": 302,
      "Ġi": 303,
      "ct": 304,
      "Ġpar": 305,
      "Ġesc": 306,
      "Ġha": 307,
      "Ġmu": 308,
      "Ġsus": 309,
      "ca": 310,
      "Ã¡n": 311,
      "ros": 312,
      "eo": 313,
      "ist": 314,
      "ce": 315,
      "Ġ2": 316,
      "go": 317,
      "Ġma": 318,
      "Ġpintura": 319,
      "Ġtra": 320,
      "Ġlo": 321,
      "Ġmo": 322,
      "Ġca": 323,
      "ir": 324,
      "cu": 325,
      "Ġmar": 326,
      "Ġexp": 327,
      "idad": 328,
      "bre": 329,
      "Ã©n": 330,
      "ru": 331,
      "Ġart": 332,
      "va": 333,
      "mente": 334,
      "Ġent": 335,
      "Ġle": 336,
      "ĠmÃ¡s": 337,
      "Ġme": 338,
      "Ġarte": 339,
      "ando": 340,
      "ento": 341,
      "ciones": 342,
      "Ġte": 343,
      "ales": 344,
      "ud": 345,
      "pe": 346,
      "po": 347,
      "Ġmus": 348,
      "Ġ18": 349,
      "um": 350,
      "ano": 351,
      "vo": 352,
      "im": 353,
      "ant": 354,
      "ados": 355,
      "osi": 356,
      "Ġpri": 357,
      "tra": 358,
      "Ġro": 359,
      "Ã©s": 360,
      "ĠaÃ±": 361,
      "se": 362,
      "les": 363,
      "Ġto": 364,
      "ern": 365,
      "Ġna": 366,
      "za": 367,
      "las": 368,
      "Ġtam": 369,
      "Ġpo": 370,
      "ici": 371,
      "),": 372,
      "Ġan": 373,
      "Ġreal": 374,
      "ina": 375,
      "Ġobra": 376,
      "Ġint": 377,
      "Ġ20": 378,
      "Ġac": 379,
      "iv": 380,
      "biÃ©n": 381,
      "Ġpre": 382,
      "Ġcar": 383,
      "ur": 384,
      "Ġsobre": 385,
      "ier": 386,
      "ĠtambiÃ©n": 387,
      "ido": 388,
      "Ġarti": 389,
      "jo": 390,
      "Ġprim": 391,
      "Ġmuseo": 392,
      "Ġor": 393,
      "Ġentre": 394,
      "ida": 395,
      "Ġas": 396,
      "resent": 397,
      "Ġrep": 398,
      "Ġant": 399,
      "uer": 400,
      "Ġsig": 401,
      "iÃ³n": 402,
      "Ġobras": 403,
      "ult": 404,
      "ismo": 405,
      "Ġcomp": 406,
      "Ġot": 407,
      "Ġsan": 408,
      "je": 409,
      "Ġfor": 410,
      "Ġser": 411,
      "gra": 412,
      "ib": 413,
      "ers": 414,
      "ero": 415,
      "est": 416,
      "Ġlu": 417,
      "ren": 418,
      "em": 419,
      "ios": 420,
      "ana": 421,
      "gu": 422,
      "icas": 423,
      "ino": 424,
      "Ġju": 425,
      "Ġpintor": 426,
      "Ġgran": 427,
      ").": 428,
      "Ġhab": 429,
      "ion": 430,
      "ces": 431,
      "Ġ\"": 432,
      "cciÃ³n": 433,
      "adas": 434,
      "Ġfran": 435,
      "du": 436,
      "Ġdon": 437,
      "baj": 438,
      "dos": 439,
      "Ġcont": 440,
      "Ġw": 441,
      "Ġx": 442,
      "tos": 443,
      "19": 444,
      "Ġgal": 445,
      "ista": 446,
      "Ġpe": 447,
      "Ġcons": 448,
      "amente": 449,
      "gen": 450,
      "aciÃ³n": 451,
      "bu": 452,
      "Ġk": 453,
      "aba": 454,
      "ÃŃs": 455,
      "Ġtrabaj": 456,
      "Ġimp": 457,
      "Ġman": 458,
      "mi": 459,
      "icos": 460,
      "dad": 461,
      "Ġcas": 462,
      "Ġch": 463,
      "Ġcom": 464,
      "ÃŃn": 465,
      "gun": 466,
      "Ġespa": 467,
      "Ġsal": 468,
      "Ġeste": 469,
      "eri": 470,
      "ĠaÃ±os": 471,
      "ĠÃ©": 472,
      "fe": 473,
      "Ġexposi": 474,
      "los": 475,
      "Ġmad": 476,
      "cional": 477,
      "Ã±o": 478,
      "ba": 479,
      "Ġnue": 480,
      "ual": 481,
      "Ġartes": 482,
      "Ġdo": 483,
      "man": 484,
      "Ġab": 485,
      "Ġcor": 486,
      "ga": 487,
      "Ġr": 488,
      "Ġdonde": 489,
      "mbre": 490,
      "Ġrepresent": 491,
      "Ġho": 492,
      "Ġap": 493,
      "Ãºn": 494,
      "Ġqu": 495,
      "zo": 496,
      "Ġpr": 497,
      "stra": 498,
      "Ġrealiz": 499,
      "oci": 500,
      "ens": 501,
      "Ġcol": 502,
      "ut": 503,
      "Ġretra": 504,
      "ÃŃst": 505,
      "Ġve": 506,
      "me": 507,
      "Ġbel": 508,
      "Ġesta": 509,
      "Ġpue": 510,
      "Ġcole": 511,
      "Ġsant": 512,
      "tiv": 513,
      "Ġenc": 514,
      "erÃŃa": 515,
      "Ġra": 516,
      "Ġdis": 517,
      "stas": 518,
      "cip": 519,
      "nto": 520,
      "encia": 521,
      "Ġinf": 522,
      "ve": 523,
      "ub": 524,
      "Ã±a": 525,
      "ultura": 526,
      "uen": 527,
      "pu": 528,
      "Ġam": 529,
      "Ġdos": 530,
      "iÃ³": 531,
      "ona": 532,
      "cl": 533,
      "Ġfig": 534,
      "ost": 535,
      "and": 536,
      "Ġcre": 537,
      "mas": 538,
      "Ġbar": 539,
      "graf": 540,
      "Ġci": 541,
      "no": 542,
      "sto": 543,
      "ac": 544,
      "aron": 545,
      "Ġgra": 546,
      "cio": 547,
      "Ġcuad": 548,
      "Ġpal": 549,
      "Ġfigura": 550,
      "Ġpero": 551,
      "Ġhist": 552,
      "Ġmi": 553,
      "Ġdura": 554,
      "ntes": 555,
      "Ġestu": 556,
      "rado": 557,
      "Ġres": 558,
      "00": 559,
      "ja": 560,
      "Ġ-": 561,
      "entos": 562,
      "Ġmed": 563,
      "min": 564,
      "cial": 565,
      "all": 566,
      "erior": 567,
      "Ġson": 568,
      "et": 569,
      "cho": 570,
      "Ġartista": 571,
      "if": 572,
      "ich": 573,
      "Ġcam": 574,
      "Ġsiglo": 575,
      "Ġespe": 576,
      "Ġmay": 577,
      "Ġera": 578,
      "Ġparte": 579,
      "Ġdesde": 580,
      "Ġpers": 581,
      "uel": 582,
      "Ġdurante": 583,
      "Ġ16": 584,
      "oria": 585,
      "Ġcent": 586,
      "ital": 587,
      "eros": 588,
      "Ġsi": 589,
      "ora": 590,
      "pi": 591,
      "ene": 592,
      "Ġjo": 593,
      "Ġdibu": 594,
      "Ã³r": 595,
      "Ġne": 596,
      "ĠexposiciÃ³n": 597,
      "ard": 598,
      "cri": 599,
      "Ġu": 600,
      "Ã©c": 601,
      "udad": 602,
      "Ġbo": 603,
      "Ġlle": 604,
      "18": 605,
      "Ġsin": 606,
      "Ġhi": 607,
      "den": 608,
      "uent": 609,
      "uela": 610,
      "cha": 611,
      "ÃŃt": 612,
      "Ġciudad": 613,
      "Ġfin": 614,
      "na": 615,
      "Ġfam": 616,
      "Ġvar": 617,
      "das": 618,
      "Ġale": 619,
      "Ġmen": 620,
      "ite": 621,
      "ario": 622,
      "Ġig": 623,
      "he": 624,
      "ador": 625,
      "Ġartistas": 626,
      "Ġfuer": 627,
      "Ġad": 628,
      "so": 629,
      "Ġnacional": 630,
      "rid": 631,
      "ven": 632,
      "au": 633,
      "Ġof": 634,
      "Ġpinturas": 635,
      "Ġforma": 636,
      "illa": 637,
      "cto": 638,
      "ilo": 639,
      "Ġparti": 640,
      "Ġgu": 641,
      "Ġalgun": 642,
      "ĠgalerÃŃa": 643,
      "Ġprin": 644,
      "con": 645,
      "ii": 646,
      "Ġprop": 647,
      "ert": 648,
      "Ġcal": 649,
      "Ġlib": 650,
      "ciÃ³": 651,
      "Ġat": 652,
      "ĠestÃ¡": 653,
      "Ġhasta": 654,
      "Ġbellas": 655,
      "itu": 656,
      "Ġpl": 657,
      "uso": 658,
      "Ġ200": 659,
      "ÃŃan": 660,
      "Ġconoci": 661,
      "gar": 662,
      "ĠartÃŃst": 663,
      "Ġprincip": 664,
      "ĠaÃ±o": 665,
      "Ġotros": 666,
      "Ġfun": 667,
      "Ġten": 668,
      "cel": 669,
      "Ġacad": 670,
      "Ġvida": 671,
      "Ġcab": 672,
      "Ġpas": 673,
      "Ġreg": 674,
      "Ġcolo": 675,
      "Ġ15": 676,
      "puÃ©s": 677,
      "able": 678,
      "Ġ199": 679,
      "ĠdespuÃ©s": 680,
      "ge": 681,
      "ĠparÃŃs": 682,
      "grafÃŃa": 683,
      "ias": 684,
      "iento": 685,
      "Ġestudi": 686,
      "Ġval": 687,
      "Ġtras": 688,
      "ores": 689,
      "Ġher": 690,
      "vid": 691,
      "aje": 692,
      "jos": 693,
      "li": 694,
      "ing": 695,
      "Ġver": 696,
      "ral": 697,
      "Ġpais": 698,
      "entes": 699,
      "ena": 700,
      "Ġ198": 701,
      "Ġescuela": 702,
      "cas": 703,
      "Ġmun": 704,
      "rit": 705,
      "Ġ17": 706,
      "Ġmon": 707,
      "mÃ¡": 708,
      "ĠÃ¡": 709,
      "ĠÃ³": 710,
      "iemp": 711,
      "Ġmadrid": 712,
      "Ġestilo": 713,
      "cias": 714,
      "Ġincl": 715,
      "Ġil": 716,
      "Ġmuy": 717,
      "Ġnat": 718,
      "lam": 719,
      "Ġhe": 720,
      "Ġprimera": 721,
      "tiva": 722,
      "tivo": 723,
      "Ġvan": 724,
      "des": 725,
      "Ġjos": 726,
      "Ġinst": 727,
      "Ġni": 728,
      "iendo": 729,
      "Ġya": 730,
      "Ġprem": 731,
      "Ġau": 732,
      "Ġ196": 733,
      "Ġ201": 734,
      "Ġtu": 735,
      "Ġfe": 736,
      "Ġgo": 737,
      "erio": 738,
      "Ġcri": 739,
      "cer": 740,
      "Ġmat": 741,
      "idos": 742,
      "Ġital": 743,
      "Ġmod": 744,
      "gel": 745,
      "Ġgen": 746,
      "miento": 747,
      "Ġvis": 748,
      "Ġuno": 749,
      "dor": 750,
      "cis": 751,
      "Ġperson": 752,
      "dic": 753,
      "ye": 754,
      "ble": 755,
      "cen": 756,
      "ular": 757,
      "ya": 758,
      "ÃŃas": 759,
      "lica": 760,
      "ĠhabÃŃa": 761,
      "Ġ197": 762,
      "Ã©r": 763,
      "Ġpla": 764,
      "cos": 765,
      "Ġpu": 766,
      "lic": 767,
      "Ġda": 768,
      "Ġsup": 769,
      "Ġpie": 770,
      "gos": 771,
      "leo": 772,
      "Ġinfl": 773,
      "Ġmayor": 774,
      "erv": 775,
      "raciÃ³n": 776,
      "Ġter": 777,
      "Ġcolor": 778,
      "endo": 779,
      "Ġpare": 780,
      "Ġencuent": 781,
      "rÃ¡": 782,
      "Ãºl": 783,
      "ĠmÃ©": 784,
      "Ġreci": 785,
      "osa": 786,
      "istas": 787,
      "almente": 788,
      "til": 789,
      "ĠasÃŃ": 790,
      "Ġconv": 791,
      "Ġfamil": 792,
      "Ġid": 793,
      "Ġaun": 794,
      "Ġ195": 795,
      "Ġ193": 796,
      "Ġmismo": 797,
      "Ġemp": 798,
      "rÃ³": 799,
      "ine": 800,
      "Ġcuando": 801,
      "Ġfueron": 802,
      "Ġacadem": 803,
      "Ġcultura": 804,
      "Ġret": 805,
      "Ġmue": 806,
      "Ġcap": 807,
      "Ġesp": 808,
      "Ġjuan": 809,
      "Ġmuer": 810,
      "Ġdesta": 811,
      "ural": 812,
      "biÃ³": 813,
      "Ġvir": 814,
      "ron": 815,
      "Ġ192": 816,
      "Ġnueva": 817,
      "Ġ3": 818,
      "ne": 819,
      "ajes": 820,
      "Ġprof": 821,
      "Ġmaest": 822,
      "Ġcer": 823,
      "lan": 824,
      "onio": 825,
      "pare": 826,
      "Ġigles": 827,
      "ita": 828,
      "Ġretrato": 829,
      "Ġcara": 830,
      "der": 831,
      "erna": 832,
      "Ãºlti": 833,
      "ivers": 834,
      "Ġba": 835,
      "Ġeje": 836,
      "mÃ¡s": 837,
      "ÃŃo": 838,
      "Ġcuadro": 839,
      "iones": 840,
      "Ġpol": 841,
      "iano": 842,
      "Ġquien": 843,
      "Ġaunque": 844,
      "igu": 845,
      "Ġade": 846,
      "Ġtrabajo": 847,
      "Ġz": 848,
      "Ġ194": 849,
      "aban": 850,
      "vi": 851,
      "Ġpad": 852,
      "be": 853,
      "ĠcolecciÃ³n": 854,
      "mos": 855,
      "rÃŃa": 856,
      "Ġcontra": 857,
      "Ġaut": 858,
      "Ġtres": 859,
      "Ġconsid": 860,
      "ter": 861,
      "Ġhistoria": 862,
      "Ġrela": 863,
      "eron": 864,
      "Ã©cn": 865,
      "Ġconte": 866,
      "Ġprodu": 867,
      "Ġamb": 868,
      "Ġcasa": 869,
      "Ġimpor": 870,
      "Ġcat": 871,
      "Ġtien": 872,
      "stru": 873,
      "ez": 874,
      "Ġunivers": 875,
      "tu": 876,
      "ĠÃ©po": 877,
      "Ġpresent": 878,
      "ĠmarÃŃa": 879,
      "Ġfo": 880,
      "ito": 881,
      "Ġtiemp": 882,
      "Ġdu": 883,
      "Ġfiguras": 884,
      "ĠÃ³leo": 885,
      "Ġlien": 886,
      "ill": 887,
      "ĠtÃ©cn": 888,
      "Ġflo": 889,
      "ck": 890,
      "Ġpost": 891,
      "Ġgrab": 892,
      "anto": 893,
      "Ġact": 894,
      "Ġmuch": 895,
      "ip": 896,
      "Ġgenera": 897,
      "Ġprimer": 898,
      "Ġescri": 899,
      "tas": 900,
      "ĠÃºlti": 901,
      "Ġbien": 902,
      "Ġorig": 903,
      "Ġand": 904,
      "Ġins": 905,
      "Ġref": 906,
      "Ġri": 907,
      "arro": 908,
      "Ġjunto": 909,
      "Ġacademia": 910,
      "Ġfamilia": 911,
      "ĠÃ©poca": 912,
      "Ġrev": 913,
      "Ġiglesia": 914,
      "gÃºn": 915,
      "Ġdiv": 916,
      "Ġpremio": 917,
      "Ġpintores": 918,
      "anos": 919,
      "Ġis": 920,
      "cep": 921,
      "Ġdeco": 922,
      "Ġpres": 923,
      "Ġpala": 924,
      "Ġgru": 925,
      "fici": 926,
      "uro": 927,
      "ĠjosÃ©": 928,
      "Ġpub": 929,
      "Ġinter": 930,
      "ones": 931,
      "arse": 932,
      "Ġemb": 933,
      "cie": 934,
      "Ġext": 935,
      "Ġcl": 936,
      "van": 937,
      "Ġinv": 938,
      "Ġespecial": 939,
      "Ġsa": 940,
      "Ġcolec": 941,
      "Ġbaj": 942,
      "tico": 943,
      "ict": 944,
      "Ġtodo": 945,
      "Ġdestac": 946,
      "sa": 947,
      "Ġbe": 948,
      "Ġbas": 949,
      "ĠÃ©l": 950,
      "Ġcual": 951,
      "Ġbio": 952,
      "rencia": 953,
      "Ġconsidera": 954,
      "Ġhacia": 955,
      "Ãºs": 956,
      "tica": 957,
      "tura": 958,
      "cter": 959,
      "ĠespaÃ±a": 960,
      "nta": 961,
      "Ġescultura": 962,
      "Ġarqu": 963,
      "ond": 964,
      "atro": 965,
      "Ġtiempo": 966,
      "mento": 967,
      "fa": 968,
      "ril": 969,
      "Ġhan": 970,
      "Ġrepresenta": 971,
      "Ġru": 972,
      "Ġce": 973,
      "men": 974,
      "alle": 975,
      "jer": 976,
      "ber": 977,
      "Ġsanta": 978,
      "Ġapare": 979,
      "rada": 980,
      "erno": 981,
      "rar": 982,
      "Ġing": 983,
      "riÃ³": 984,
      "Ġotras": 985,
      "Ġvia": 986,
      "izo": 987,
      "Ġarquite": 988,
      "Ġ14": 989,
      "ell": 990,
      "argo": 991,
      "ork": 992,
      "Ġinfluen": 993,
      "Ġmuerte": 994,
      "Ġutil": 995,
      "Ġexposiciones": 996,
      "tar": 997,
      "Ġsido": 998,
      "Ġmis": 999,
      "Ġdise": 1000,
      "Ġvirgen": 1001,
      "Ġros": 1002,
      "Ġsol": 1003,
      "Ġestud": 1004,
      "ĠÃ¡n": 1005,
      "Ġdist": 1006,
      "enas": 1007,
      "osiciÃ³n": 1008,
      "Ġvez": 1009,
      "art": 1010,
      "Ġexpres": 1011,
      "ll": 1012,
      "Ġinclu": 1013,
      "Ġutiliz": 1014,
      "Ġ191": 1015,
      "Ġsegun": 1016,
      "Ġja": 1017,
      "Ġcontemp": 1018,
      "Ġcm": 1019,
      "ĠademÃ¡s": 1020,
      "Ġedi": 1021,
      "Ġthe": 1022,
      "Ġ189": 1023,
      "Ġilu": 1024,
      "Ġ190": 1025,
      "Ã±ol": 1026,
      "Ġantigu": 1027,
      "Ġven": 1028,
      "cul": 1029,
      "Ġviv": 1030,
      "Ġtor": 1031,
      "Ġform": 1032,
      "Ġautor": 1033,
      "Ġguer": 1034,
      "Ãºb": 1035,
      "alla": 1036,
      "hi": 1037,
      "Ġllam": 1038,
      "cido": 1039,
      "ribu": 1040,
      "Ġalgunos": 1041,
      "Ġroma": 1042,
      "Ġdire": 1043,
      "gan": 1044,
      "Ġretratos": 1045,
      "Ġimporta": 1046,
      "Ġcr": 1047,
      "Ġyork": 1048,
      "cont": 1049,
      "rÃ¡f": 1050,
      "Ġ188": 1051,
      "Ġlienzo": 1052,
      "ctura": 1053,
      "ĠsegÃºn": 1054,
      "tes": 1055,
      "Ġvol": 1056,
      "\".": 1057,
      "Ġrel": 1058,
      "Ġretab": 1059,
      "Ġpuede": 1060,
      "ori": 1061,
      "cal": 1062,
      "Ġmin": 1063,
      "Ġdibujo": 1064,
      "Ġmuse": 1065,
      "cur": 1066,
      "Ġdesarro": 1067,
      "ĠespaÃ±ol": 1068,
      "for": 1069,
      "Ġtanto": 1070,
      "Ġsur": 1071,
      "ĠbiografÃŃa": 1072,
      "Ġgrupo": 1073,
      "Ġserie": 1074,
      "Ġ4": 1075,
      "Ġfre": 1076,
      "yo": 1077,
      "Ġtran": 1078,
      "ho": 1079,
      "enta": 1080,
      "tion": 1081,
      "Ġfrancis": 1082,
      "rio": 1083,
      "Ġfa": 1084,
      "Ġpadre": 1085,
      "Ġdescri": 1086,
      "Ġhum": 1087,
      "Ġtemp": 1088,
      "Ġcentro": 1089,
      "Ġbuen": 1090,
      "Ġ5": 1091,
      "ĠsalÃ³n": 1092,
      "ĠrealizÃ³": 1093,
      "Ġjul": 1094,
      "entras": 1095,
      "Ġmientras": 1096,
      "cÃŃa": 1097,
      "Ġdife": 1098,
      "ix": 1099,
      "Ġhay": 1100,
      "ental": 1101,
      "Ġsigu": 1102,
      "ler": 1103,
      "Ġencont": 1104,
      "Ġcuadros": 1105,
      "Ġluz": 1106,
      "Ġcomple": 1107,
      "Ġmuestra": 1108,
      "zÃ³": 1109,
      "ten": 1110,
      "16": 1111,
      "\",": 1112,
      "Ġprofes": 1113,
      "gÃ³": 1114,
      "bo": 1115,
      "Ã±os": 1116,
      "20": 1117,
      "ancia": 1118,
      "Ġrey": 1119,
      "Ġnombre": 1120,
      "ea": 1121,
      "tic": 1122,
      "Ġrecon": 1123,
      "Ġese": 1124,
      "Ġsent": 1125,
      "are": 1126,
      "tro": 1127,
      "quier": 1128,
      "amiento": 1129,
      "Ġhijo": 1130,
      "Ġobje": 1131,
      "Ġilustra": 1132,
      "Ġestado": 1133,
      "ific": 1134,
      "Ġencuentra": 1135,
      "Ġlugar": 1136,
      "Ġcolores": 1137,
      "Ġpeque": 1138,
      "oso": 1139,
      "Ġima": 1140,
      "tÃ³": 1141,
      "Ġvene": 1142,
      "Ġtiene": 1143,
      "Ġeuro": 1144,
      "Ġguerra": 1145,
      "ile": 1146,
      "ctor": 1147,
      "Ġli": 1148,
      "ĠÃ¡ngel": 1149,
      "Ġtrans": 1150,
      "xico": 1151,
      "Ã¼": 1152,
      "Ġagu": 1153,
      "Ġactual": 1154,
      "Ġorigin": 1155,
      "Ġtar": 1156,
      "Ġinterna": 1157,
      "Ġtall": 1158,
      "Ġmujer": 1159,
      "gue": 1160,
      "inas": 1161,
      "Ġgeneral": 1162,
      "Ġinici": 1163,
      "Ġnor": 1164,
      "Ġtuvo": 1165,
      "Ġpalacio": 1166,
      "idas": 1167,
      "idades": 1168,
      "Ġaf": 1169,
      "Ġejemp": 1170,
      "Ġdedic": 1171,
      "imiento": 1172,
      "ieron": 1173,
      "Ġinstitu": 1174,
      "tal": 1175,
      "ĠpintÃ³": 1176,
      "Ġhizo": 1177,
      "Ġcomen": 1178,
      "celona": 1179,
      "Ġconserv": 1180,
      "cimiento": 1181,
      "ste": 1182,
      "Ġindi": 1183,
      "diÃ³": 1184,
      "smo": 1185,
      "iente": 1186,
      "dose": 1187,
      "Ã¡st": 1188,
      "Ġtex": 1189,
      "Ġmil": 1190,
      "Ġlibro": 1191,
      "Ġotro": 1192,
      "rie": 1193,
      "Ġestudios": 1194,
      "orÃ¡n": 1195,
      "tr": 1196,
      "Ġfrancia": 1197,
      "Ġdivers": 1198,
      "ĠartÃŃstica": 1199,
      "ini": 1200,
      "ĠestÃ¡n": 1201,
      "rera": 1202,
      "15": 1203,
      "ĠmÃ©xico": 1204,
      "car": 1205,
      "Ġretablo": 1206,
      "Ġcla": 1207,
      "Ġcan": 1208,
      "leza": 1209,
      "can": 1210,
      "uego": 1211,
      "Ġti": 1212,
      "ria": 1213,
      "Ġmov": 1214,
      "cor": 1215,
      "Ġmundo": 1216,
      "ĠcontemporÃ¡n": 1217,
      "Ġfrancisco": 1218,
      "Ġfon": 1219,
      "Ġtab": 1220,
      "dro": 1221,
      "Ġblan": 1222,
      "pon": 1223,
      "ĠpaÃŃs": 1224,
      "Ġdere": 1225,
      "Ġlar": 1226,
      "qui": 1227,
      "Ġacu": 1228,
      "Ġestos": 1229,
      "Ġ187": 1230,
      "Ġpaisaje": 1231,
      "Ġantonio": 1232,
      "Ġimpres": 1233,
      "Ġnuevo": 1234,
      "che": 1235,
      "Ġuniversidad": 1236,
      "Ġay": 1237,
      "Ġai": 1238,
      "Ġconstru": 1239,
      "Ġall": 1240,
      "ctos": 1241,
      "Ġantes": 1242,
      "Ġcast": 1243,
      "cre": 1244,
      "Ġcru": 1245,
      "Ġcaracter": 1246,
      "ha": 1247,
      "ĠcrÃŃt": 1248,
      "Ġvarios": 1249,
      "Ġaz": 1250,
      "gado": 1251,
      "Ġmie": 1252,
      "Ġmaestro": 1253,
      "tivos": 1254,
      "Ġembargo": 1255,
      "ĠsÃŃ": 1256,
      "Ġinte": 1257,
      "Ġtradi": 1258,
      "Ġestudio": 1259,
      "ĠdÃ©c": 1260,
      "Ġcontin": 1261,
      "Ġencar": 1262,
      "Ġbarcelona": 1263,
      "log": 1264,
      "Ġpes": 1265,
      "jas": 1266,
      "zas": 1267,
      "Ġestaba": 1268,
      "Ġposterior": 1269,
      "inos": 1270,
      "iza": 1271,
      "Ġalgunas": 1272,
      "zos": 1273,
      "illo": 1274,
      "Ġber": 1275,
      "Ġta": 1276,
      "dia": 1277,
      "ton": 1278,
      "ĠtÃ©cnica": 1279,
      "Ġllev": 1280,
      "olu": 1281,
      "Ġgre": 1282,
      "ian": 1283,
      "ala": 1284,
      "pec": 1285,
      "Ġtoda": 1286,
      "gio": 1287,
      "lio": 1288,
      "Ġsolo": 1289,
      "ĠmÃ¡": 1290,
      "tiÃ³": 1291,
      "udo": 1292,
      "Ġsim": 1293,
      "Ġgrandes": 1294,
      "mar": 1295,
      "Ġele": 1296,
      "blo": 1297,
      "Ġus": 1298,
      "Ġherm": 1299,
      "Ġxv": 1300,
      "Ġpublic": 1301,
      "adores": 1302,
      "ju": 1303,
      "pen": 1304,
      "Ġescenas": 1305,
      "dÃ³": 1306,
      "vie": 1307,
      "ulo": 1308,
      "Ġ6": 1309,
      "uales": 1310,
      "Ġbajo": 1311,
      "Ġrelig": 1312,
      "Ġmiemb": 1313,
      "Ã³g": 1314,
      "Ġpod": 1315,
      "Ġclas": 1316,
      "Ġpan": 1317,
      "pol": 1318,
      "Ġtaller": 1319,
      "Ġlond": 1320,
      "tivas": 1321,
      "ono": 1322,
      "Ġpaisajes": 1323,
      "por": 1324,
      "Ġpartir": 1325,
      "ĠpÃºb": 1326,
      "Ġluis": 1327,
      "ase": 1328,
      "cil": 1329,
      "lares": 1330,
      "Ġtal": 1331,
      "Ġtema": 1332,
      "17": 1333,
      "Ġcate": 1334,
      "Ġcuatro": 1335,
      "Ġinfluencia": 1336,
      "jeres": 1337,
      "genes": 1338,
      "Ġfrances": 1339,
      "Ġet": 1340,
      "Ġmuchos": 1341,
      "Ġed": 1342,
      "erva": 1343,
      "gh": 1344,
      "Ġnatura": 1345,
      "Ġmujeres": 1346,
      "onces": 1347,
      "Ġella": 1348,
      "Ġestas": 1349,
      "Ġregres": 1350,
      "ban": 1351,
      "Ġotra": 1352,
      "bido": 1353,
      "Ġposi": 1354,
      "Ġpedro": 1355,
      "Ġcos": 1356,
      "taciÃ³n": 1357,
      "Ġdie": 1358,
      "Ġitalia": 1359,
      "jÃ³": 1360,
      "imo": 1361,
      "Ġbor": 1362,
      "Ġentonces": 1363,
      "Ġtrasl": 1364,
      "Ġtrav": 1365,
      "Ġjoven": 1366,
      "Ġ7": 1367,
      "Ġpict": 1368,
      "ver": 1369,
      "itar": 1370,
      "Ġfir": 1371,
      "Ġvers": 1372,
      "Ġindivid": 1373,
      "Ġpap": 1374,
      "ardo": 1375,
      "Ġiz": 1376,
      "Ġnum": 1377,
      "one": 1378,
      "Ġ9": 1379,
      "Ġ186": 1380,
      "Ġmes": 1381,
      "Ġ8": 1382,
      "Ġellos": 1383,
      "ĠgÃ©n": 1384,
      "Ġsala": 1385,
      "Ġfern": 1386,
      "ment": 1387,
      "Ġje": 1388,
      "Ġconocido": 1389,
      "ÃŃp": 1390,
      "Ġdibujos": 1391,
      "orn": 1392,
      "unt": 1393,
      "Ġcada": 1394,
      "Ġpos": 1395,
      "Ġjoh": 1396,
      "Ġtarde": 1397,
      "Ġfra": 1398,
      "Ġpartic": 1399,
      "Ġofici": 1400,
      "rez": 1401,
      "Ġtemas": 1402,
      "ua": 1403,
      "Ġlondres": 1404,
      "Ġcuer": 1405,
      "Ġag": 1406,
      "cÃ©s": 1407,
      "Ġmig": 1408,
      "Ġluego": 1409,
      "Ġvi": 1410,
      "Ġizquier": 1411,
      "Ġelem": 1412,
      "Ġvarias": 1413,
      "tado": 1414,
      "Ġfil": 1415,
      "Ġos": 1416,
      "Ġcristo": 1417,
      "igo": 1418,
      "ĠpictÃ³r": 1419,
      "rim": 1420,
      "bur": 1421,
      "pciÃ³n": 1422,
      "Ġdef": 1423,
      "Ġfres": 1424,
      "Ġhon": 1425,
      "Ġpoco": 1426,
      "Ġparticip": 1427,
      "Ġpi": 1428,
      "lico": 1429,
      "icamente": 1430,
      "gor": 1431,
      "Ġmag": 1432,
      "ĠtravÃ©s": 1433,
      "Ġreconoci": 1434,
      "Ġatribu": 1435,
      "Ġtri": 1436,
      "Ġarg": 1437,
      "Ġnatural": 1438,
      "Ġsiendo": 1439,
      "Ġmomento": 1440,
      "Ġcola": 1441,
      "ari": 1442,
      "aro": 1443,
      "eric": 1444,
      "Ġbu": 1445,
      "Ġmart": 1446,
      "mero": 1447,
      "Ġescena": 1448,
      "mica": 1449,
      "fo": 1450,
      "ĠniÃ±o": 1451,
      "tores": 1452,
      "Ġsep": 1453,
      "mÃ³": 1454,
      "Ġdocu": 1455,
      "Ġjulio": 1456,
      "Ġexist": 1457,
      "Ġtodos": 1458,
      "Ġfoto": 1459,
      "Ġimagen": 1460,
      "Ġproye": 1461,
      "Ġvas": 1462,
      "Ġgi": 1463,
      "Ġprimeros": 1464,
      "Ġcatal": 1465,
      "ĠcÃ¡": 1466,
      "cado": 1467,
      "grÃ¡f": 1468,
      "rodu": 1469,
      "Ġesto": 1470,
      "ĠdÃ©cada": 1471,
      "Ġedad": 1472,
      "Ġdifere": 1473,
      "ko": 1474,
      "ĠfrancÃ©s": 1475,
      "ĠnaciÃ³": 1476,
      "ÃŃf": 1477,
      "ĠnÃº": 1478,
      "ĠtenÃŃa": 1479,
      "Ġgaller": 1480,
      "Ġcier": 1481,
      "Ġdeci": 1482,
      "antes": 1483,
      "Ġsegunda": 1484,
      "ĠcomenzÃ³": 1485,
      "Ġcarrera": 1486,
      "Ġoro": 1487,
      "ĠplÃ¡st": 1488,
      "culo": 1489,
      "Ġestat": 1490,
      "vin": 1491,
      "Ġreligios": 1492,
      "ĠcomposiciÃ³n": 1493,
      "Ġado": 1494,
      "Ġmural": 1495,
      "Ġmiguel": 1496,
      "Ġcono": 1497,
      "Ġinternacional": 1498,
      "ale": 1499,
      "Ġtan": 1500,
      "aÃ±": 1501,
      "Ġmos": 1502,
      "ctu": 1503,
      "Ġcin": 1504,
      "Ġjes": 1505,
      "Ġmonum": 1506,
      "Ġeran": 1507,
      "Ġfondo": 1508,
      "Ġhecho": 1509,
      "eriores": 1510,
      "ĠÃºn": 1511,
      "Ġestados": 1512,
      "Ġapo": 1513,
      "ĠtrabajÃ³": 1514,
      "Ġdesarroll": 1515,
      "Ġrefle": 1516,
      "son": 1517,
      "Ġwil": 1518,
      "ĠrecibiÃ³": 1519,
      "Ġdomin": 1520,
      "Ġmovimiento": 1521,
      "Ġnumeros": 1522,
      "Ġunidos": 1523,
      "Ġii": 1524,
      "yÃ³": 1525,
      "Ġfinal": 1526,
      "Ġmedi": 1527,
      "Ġorgan": 1528,
      "Ġvest": 1529,
      "Ġneg": 1530,
      "Ġev": 1531,
      "Ġprob": 1532,
      "quel": 1533,
      "Ġmanera": 1534,
      "dido": 1535,
      "pos": 1536,
      "pre": 1537,
      "Ġfalle": 1538,
      "Ġsue": 1539,
      "Ġparticular": 1540,
      "Ġcrist": 1541,
      "Ġpuer": 1542,
      "cÃ³": 1543,
      "icaciÃ³n": 1544,
      "Ġdecora": 1545,
      "land": 1546,
      "Ġestable": 1547,
      "Ġamp": 1548,
      "Ġmano": 1549,
      "teca": 1550,
      "Ġmas": 1551,
      "Ġtrabajos": 1552,
      "rando": 1553,
      "Ġdent": 1554,
      "Ġhaber": 1555,
      "Ġnomb": 1556,
      "Ġescult": 1557,
      "ĠdÃŃa": 1558,
      "Ã¡ndose": 1559,
      "ĠallÃŃ": 1560,
      "Ġbib": 1561,
      "Ġcarlos": 1562,
      "logÃŃa": 1563,
      "ph": 1564,
      "Ġah": 1565,
      "Ġcabe": 1566,
      "Ġprado": 1567,
      "ĠestudiÃ³": 1568,
      "Ġsab": 1569,
      "Ġconf": 1570,
      "ÃŃr": 1571,
      "ĠartÃŃstico": 1572,
      "Ġdif": 1573,
      "ice": 1574,
      "Ġlou": 1575,
      "Ġop": 1576,
      "mÃ¡genes": 1577,
      "Ġtipo": 1578,
      "ĠimÃ¡genes": 1579,
      "Ġedu": 1580,
      "und": 1581,
      "Ġjun": 1582,
      "Ġmedio": 1583,
      "Ġpapel": 1584,
      "ni": 1585,
      "Ġaco": 1586,
      "Ġpintar": 1587,
      "Ġcontinu": 1588,
      "Ġxx": 1589,
      "eras": 1590,
      "eno": 1591,
      "Ġsign": 1592,
      "cios": 1593,
      "iago": 1594,
      "Ġmisma": 1595,
      "Ġsino": 1596,
      "Ġst": 1597,
      "mÃ¡n": 1598,
      "Ġsimb": 1599,
      "Ġmont": 1600,
      "Ġedifici": 1601,
      "Ġdentro": 1602,
      "dam": 1603,
      "Ġconvir": 1604,
      "Ġpat": 1605,
      "Ġanim": 1606,
      "ced": 1607,
      "Ġabstra": 1608,
      "Ġcomun": 1609,
      "14": 1610,
      "ĠhistÃ³r": 1611,
      "Ġga": 1612,
      "ĠpolÃŃt": 1613,
      "Ġperman": 1614,
      "fael": 1615,
      "Ġfunda": 1616,
      "Ġcultural": 1617,
      "Ġexper": 1618,
      "Ġcasi": 1619,
      "Ġmer": 1620,
      "Ġmedia": 1621,
      "Ġmant": 1622,
      "Ġimportante": 1623,
      "th": 1624,
      "Ġ185": 1625,
      "uscri": 1626,
      "onia": 1627,
      "ĠrepresentaciÃ³n": 1628,
      "Ġmanuscri": 1629,
      "Ġtraslad": 1630,
      "Ġban": 1631,
      "Ġorden": 1632,
      "Ġpert": 1633,
      "Ġsev": 1634,
      "Ġespecialmente": 1635,
      "mentos": 1636,
      "Ġgallery": 1637,
      "ĠlÃŃn": 1638,
      "Ġbr": 1639,
      "Ġcele": 1640,
      "Ġth": 1641,
      "arios": 1642,
      "eas": 1643,
      "Ġejemplo": 1644,
      "Ġizquierda": 1645,
      "Ġmode": 1646,
      "jar": 1647,
      "rig": 1648,
      "Ġfem": 1649,
      "Ġsegu": 1650,
      "sk": 1651,
      "Ġexhi": 1652,
      "Ġnaturaleza": 1653,
      "ign": 1654,
      "Ġprobable": 1655,
      "Ġmayo": 1656,
      "Ġuso": 1657,
      "iii": 1658,
      "Ġgrabado": 1659,
      "mit": 1660,
      "ĠperÃŃo": 1661,
      "Ġsantiago": 1662,
      "Ġmuchas": 1663,
      "ciedad": 1664,
      "Ġhombre": 1665,
      "Ġxix": 1666,
      "Ġident": 1667,
      "Ġperio": 1668,
      "Ġconcep": 1669,
      "Ġge": 1670,
      "ster": 1671,
      "Ġespacio": 1672,
      "val": 1673,
      "Ġlite": 1674,
      "Ġinspi": 1675,
      "Ġarquitectura": 1676,
      "Ġvio": 1677,
      "uda": 1678,
      "Ġpropio": 1679,
      "Ġaires": 1680,
      "cup": 1681,
      "Ġsociedad": 1682,
      "Ġpop": 1683,
      "ris": 1684,
      "Ġderecha": 1685,
      "Ġeuropa": 1686,
      "Ġcuerpo": 1687,
      "Ġalum": 1688,
      "Ã¨": 1689,
      "Ġmadre": 1690,
      "iana": 1691,
      "ric": 1692,
      "Ġposteriormente": 1693,
      "Ġnuev": 1694,
      "bier": 1695,
      "Ġmuseum": 1696,
      "cionales": 1697,
      "ves": 1698,
      "Ġpertene": 1699,
      "Ġcated": 1700,
      "Ġefe": 1701,
      "Ġcentral": 1702,
      "pectiva": 1703,
      "ima": 1704,
      "Ġdiferentes": 1705,
      "Ġur": 1706,
      "Ġargent": 1707,
      "eta": 1708,
      "Ġmal": 1709,
      "ff": 1710,
      "Ã³lo": 1711,
      "Ġ13": 1712,
      "Ġazul": 1713,
      "Ġmor": 1714,
      "aria": 1715,
      "tista": 1716,
      "Ġelementos": 1717,
      "tel": 1718,
      "Ġcapilla": 1719,
      "ctubre": 1720,
      "Ġva": 1721,
      "cta": 1722,
      "iso": 1723,
      "ĠseÃ±": 1724,
      "Ġbuenos": 1725,
      "ĠgÃ©nero": 1726,
      "ĠÎ": 1727,
      "Ġmodern": 1728,
      "Ġaquel": 1729,
      "Ġdebido": 1730,
      "bor": 1731,
      "Ġoctubre": 1732,
      "Ġitaliano": 1733,
      "Ġdesn": 1734,
      "Ġhol": 1735,
      "rede": 1736,
      "lu": 1737,
      "Ġhu": 1738,
      "Ġsitu": 1739,
      "Ġmateri": 1740,
      "Ġformas": 1741,
      "stante": 1742,
      "Ġlargo": 1743,
      "Ġactiv": 1744,
      "izaciÃ³n": 1745,
      "pas": 1746,
      "ciaciÃ³n": 1747,
      "bert": 1748,
      "mÃ©": 1749,
      "rea": 1750,
      "Ġobs": 1751,
      "Ġlado": 1752,
      "orio": 1753,
      "Ġresid": 1754,
      "stos": 1755,
      "Ġunos": 1756,
      "Ġoriginal": 1757,
      "viÃ³": 1758,
      "mina": 1759,
      "ĠcÃ³": 1760,
      "Ġpueden": 1761,
      "tros": 1762,
      "rales": 1763,
      "tie": 1764,
      "Ġante": 1765,
      "Ġvin": 1766,
      "anas": 1767,
      "Ġprincipal": 1768,
      "Ġfer": 1769,
      "Ġbra": 1770,
      "Ã±as": 1771,
      "Ġsac": 1772,
      "ĠperÃŃodo": 1773,
      "yen": 1774,
      "Ġlitera": 1775,
      "Ġmiembro": 1776,
      "Ġaleman": 1777,
      "ĠdiseÃ±o": 1778,
      "Ġmenos": 1779,
      "Ġgrie": 1780,
      "Ġprovin": 1781,
      "Ġhacer": 1782,
      "Ġfel": 1783,
      "gas": 1784,
      "ger": 1785,
      "ĠvÃ©": 1786,
      "ciembre": 1787,
      "Ġ[": 1788,
      "Ġbur": 1789,
      "Ġejecu": 1790,
      "Ġimpresion": 1791,
      "ĠfundaciÃ³n": 1792,
      "Ġconju": 1793,
      "Ġconserva": 1794,
      "Ġflorencia": 1795,
      "Ġlibros": 1796,
      "Ġtodas": 1797,
      "ĠpÃ¡": 1798,
      "ĠjesÃºs": 1799,
      "Ġdiciembre": 1800,
      "Ġpel": 1801,
      "Ã¡z": 1802,
      "Ġpriv": 1803,
      "Ġmarzo": 1804,
      "Ġconse": 1805,
      "mon": 1806,
      "Ġvel": 1807,
      "Ġinstituto": 1808,
      "Ġrafael": 1809,
      "Ġza": 1810,
      "Ġdan": 1811,
      "use": 1812,
      "ĠmuriÃ³": 1813,
      "Ġbau": 1814,
      "Ġmanuel": 1815,
      "Ġaparece": 1816,
      "ille": 1817,
      "Ġdescu": 1818,
      "Ġpersonajes": 1819,
      "viembre": 1820,
      "Ġhace": 1821,
      "Ġencuentran": 1822,
      "usa": 1823,
      "Ġtest": 1824,
      "Ġer": 1825,
      "Ġgan": 1826,
      "Ġjunio": 1827,
      "ilidad": 1828,
      "Ġcruz": 1829,
      "amento": 1830,
      "rimonio": 1831,
      "Ġgar": 1832,
      "ĠcaracterÃŃst": 1833,
      "Ġnoviembre": 1834,
      "Ġabril": 1835,
      "Ġenero": 1836,
      "Ġigual": 1837,
      "Ġbiblio": 1838,
      "Ġren": 1839,
      "olÃ³g": 1840,
      "Ġfinales": 1841,
      "Ġder": 1842,
      "arÃŃa": 1843,
      "Ġcolecciones": 1844,
      "Ġvalencia": 1845,
      "Ġbre": 1846,
      "Ġalrede": 1847,
      "Ġtabla": 1848,
      "Ġactualmente": 1849,
      "Ġ10": 1850,
      "inta": 1851,
      "ka": 1852,
      "Ġhija": 1853,
      "Ġespect": 1854,
      "Ġfernando": 1855,
      "Ġincluso": 1856,
      "ĠnÃºmero": 1857,
      "ĠvÃ©ase": 1858,
      "bio": 1859,
      "lÃŃn": 1860,
      "Ġpin": 1861,
      "Ġresta": 1862,
      "Ġmucho": 1863,
      "Ġcatedral": 1864,
      "gon": 1865,
      "Ġmoderno": 1866,
      "Ġimportantes": 1867,
      "Ġbarro": 1868,
      "Ġesa": 1869,
      "Ġpersonal": 1870,
      "cci": 1871,
      "Ġveces": 1872,
      "Ġencontra": 1873,
      "Ġceleb": 1874,
      "ĠmÃºs": 1875,
      "una": 1876,
      "via": 1877,
      "ĠcontemporÃ¡neo": 1878,
      "lia": 1879,
      "Ġtr": 1880,
      "Ġdeno": 1881,
      "Ġacuare": 1882,
      "Ġic": 1883,
      "Ġpens": 1884,
      "Ġescultor": 1885,
      "fer": 1886,
      "stitu": 1887,
      "Ġles": 1888,
      "ilar": 1889,
      "Ġestuvo": 1890,
      "Ġesposa": 1891,
      "ense": 1892,
      "Ġcuent": 1893,
      "Ġalber": 1894,
      "mÃ¡tica": 1895,
      "Ġjohn": 1896,
      "laciÃ³n": 1897,
      "brero": 1898,
      "Ġchile": 1899,
      "Ġsanto": 1900,
      "Ġmedalla": 1901,
      "arte": 1902,
      "caciÃ³n": 1903,
      "Ġparece": 1904,
      "Ġalf": 1905,
      "Ġmej": 1906,
      "Ġapro": 1907,
      "ĠdescripciÃ³n": 1908,
      "Ġem": 1909,
      "200": 1910,
      "Ġmadera": 1911,
      "Ġprofesor": 1912,
      "cla": 1913,
      "ĠdiseÃ±": 1914,
      "ry": 1915,
      "Ã±ola": 1916,
      "ĠformaciÃ³n": 1917,
      "ÃŃtulo": 1918,
      "Ġrealizado": 1919,
      "10": 1920,
      "ques": 1921,
      "Ġocas": 1922,
      "ama": 1923,
      "Ġsocial": 1924,
      "iempre": 1925,
      "Ġbus": 1926,
      "Ġrelacion": 1927,
      "Ġfebrero": 1928,
      "dio": 1929,
      "ciendo": 1930,
      "Ġposible": 1931,
      "Ġrefe": 1932,
      "Ġpintora": 1933,
      "ĠrelaciÃ³n": 1934,
      "orge": 1935,
      "gal": 1936,
      "Ġsiempre": 1937,
      "Ġadqui": 1938,
      "tud": 1939,
      "ĠespaÃ±ola": 1940,
      "Ġhoy": 1941,
      "Ġsuperior": 1942,
      "iedad": 1943,
      "izado": 1944,
      "ĠclÃ¡s": 1945,
      "real": 1946,
      "Ġsevilla": 1947,
      "ke": 1948,
      "Ġvie": 1949,
      "Ġjean": 1950,
      "Ġcorte": 1951,
      "Ġherman": 1952,
      "Ġobjetos": 1953,
      "Ġprobablemente": 1954,
      "tiembre": 1955,
      "ide": 1956,
      "Ã©rica": 1957,
      "Ġeg": 1958,
      "Ġlocal": 1959,
      "Ġllamado": 1960,
      "icio": 1961,
      "Ġblanco": 1962,
      "Ġpintado": 1963,
      "Ġsegundo": 1964,
      "Ġdisc": 1965,
      "ĠconvirtiÃ³": 1966,
      "cciones": 1967,
      "gua": 1968,
      "Ġol": 1969,
      "Ġleon": 1970,
      "Ġsch": 1971,
      "pal": 1972,
      "Ġprincipalmente": 1973,
      "Ġpaul": 1974,
      "Ġcalle": 1975,
      "Ġseptiembre": 1976,
      "bora": 1977,
      "Ġdest": 1978,
      "Ġaten": 1979,
      "Ġmodelo": 1980,
      "Ġvo": 1981,
      "Ġgio": 1982,
      "Ġprimeras": 1983,
      "Ġinflu": 1984,
      "Ġbat": 1985,
      "Ġdios": 1986,
      "ĠproducciÃ³n": 1987,
      "Ġalrededor": 1988,
      "Ġescrit": 1989,
      "Ġagua": 1990,
      "ĠpasÃ³": 1991,
      "Ġmenudo": 1992,
      "Ġpermi": 1993,
      "Ġtrat": 1994,
      "Ġpunto": 1995,
      "Ġdich": 1996,
      "vera": 1997,
      "Ġlat": 1998,
      "iene": 1999,
      "Ġ202": 2000,
      "Ġcur": 2001,
      "Ġhijos": 2002,
      "Ġcabeza": 2003,
      "Ġ12": 2004,
      "dez": 2005,
      "Ġinterpre": 2006,
      "para": 2007,
      "ĠacadÃ©": 2008,
      "Ġvenecia": 2009,
      "Ġpopular": 2010,
      "199": 2011,
      "ĠÃºltimo": 2012,
      "Ġconocida": 2013,
      "tis": 2014,
      "Ġnot": 2015,
      "Ġsub": 2016,
      "Ã¡l": 2017,
      "Ġapren": 2018,
      "ex": 2019,
      "Ġub": 2020,
      "ĠÃºltima": 2021,
      "Ġrestaura": 2022,
      "Ġton": 2023,
      "Ġjan": 2024,
      "Ġreco": 2025,
      "ĠparticipÃ³": 2026,
      "Ġhonor": 2027,
      "Ġense": 2028,
      "Ġmuseos": 2029,
      ");": 2030,
      "Ġ184": 2031,
      "Ġsuper": 2032,
      "Ġaso": 2033,
      "Ġcerca": 2034,
      "lamen": 2035,
      "Ġir": 2036,
      "Ġmejor": 2037,
      "urales": 2038,
      "Ġprincipios": 2039,
      "ientes": 2040,
      "Ġbal": 2041,
      "rano": 2042,
      "Ġvista": 2043,
      "Ġtermin": 2044,
      "ord": 2045,
      "Ġbol": 2046,
      "gosto": 2047,
      "bri": 2048,
      "sti": 2049,
      "elas": 2050,
      "Ġjose": 2051,
      "Ġcinco": 2052,
      "yendo": 2053,
      "Ġalemania": 2054,
      "nes": 2055,
      "Ġcomer": 2056,
      "Ġdesarrol": 2057,
      "Ġhermano": 2058,
      "Ġtit": 2059,
      "Ġdisp": 2060,
      "Ġingres": 2061,
      "Ġnorte": 2062,
      "Ġprincipales": 2063,
      "Ġcop": 2064,
      "ĠgÃ³": 2065,
      "Ġellas": 2066,
      "ĠdecoraciÃ³n": 2067,
      "Ġagosto": 2068,
      "Ġcost": 2069,
      "Ġamar": 2070,
      "Ġantiguo": 2071,
      "30": 2072,
      "dra": 2073,
      "Ġgrabados": 2074,
      "Ġfi": 2075,
      "gada": 2076,
      "bles": 2077,
      "Ġben": 2078,
      "Ġdirector": 2079,
      "Ġlan": 2080,
      "Ġpues": 2081,
      "Ġmona": 2082,
      "Ġpablo": 2083,
      "usiÃ³n": 2084,
      "tada": 2085,
      "Ġhen": 2086,
      "Ġproces": 2087,
      "dado": 2088,
      "Ġind": 2089,
      "Ġvid": 2090,
      "uras": 2091,
      "Ġrus": 2092,
      "dencia": 2093,
      "Ġsimbol": 2094,
      "Ġgeo": 2095,
      "Ġcomien": 2096,
      "Ġflamen": 2097,
      "cin": 2098,
      "Ġbiblioteca": 2099,
      "Ġinde": 2100,
      "Ġambos": 2101,
      "Ġinstal": 2102,
      "Ġconjunto": 2103,
      "dida": 2104,
      "izada": 2105,
      "Ġdesa": 2106,
      "uesta": 2107,
      "Ã©tica": 2108,
      "Ġaband": 2109,
      "Ġpremios": 2110,
      "ĠmartÃŃn": 2111,
      "Ġdirig": 2112,
      "Ġeta": 2113,
      "Ġdio": 2114,
      "Ġdistint": 2115,
      "ante": 2116,
      "mbres": 2117,
      "Ġdiversos": 2118,
      "Ġcuales": 2119,
      "bol": 2120,
      "ĠaÃºn": 2121,
      "Ġfrente": 2122,
      "Ġindividual": 2123,
      "Ġfemen": 2124,
      "Ġteatro": 2125,
      "itas": 2126,
      "Ġmundi": 2127,
      "Ġcul": 2128,
      "Ġfuera": 2129,
      "orial": 2130,
      "uri": 2131,
      "uesto": 2132,
      "198": 2133,
      "mana": 2134,
      "ara": 2135,
      "Ġtexto": 2136,
      "mico": 2137,
      "Ġdiversas": 2138,
      "rÃŃ": 2139,
      "Ġiv": 2140,
      "ĠberlÃŃn": 2141,
      "Ġbienal": 2142,
      "eles": 2143,
      "inado": 2144,
      "Ġesculturas": 2145,
      "Ġedit": 2146,
      "Ġdeb": 2147,
      "ĠenseÃ±": 2148,
      "Ġep": 2149,
      "par": 2150,
      "Ġrena": 2151,
      "Ġsimp": 2152,
      "mado": 2153,
      "Ġgaler": 2154,
      "ifica": 2155,
      "Ġperiodo": 2156,
      "Ġporque": 2157,
      "gura": 2158,
      "ure": 2159,
      "Ġsens": 2160,
      "iste": 2161,
      "burgo": 2162,
      "ĠtÃŃtulo": 2163,
      "Ġfrec": 2164,
      "mens": 2165,
      "Ġresult": 2166,
      "ts": 2167,
      "Ġinterior": 2168,
      "Ġserv": 2169,
      "Ġdra": 2170,
      "Ġpermane": 2171,
      "quez": 2172,
      "mad": 2173,
      "Ġpicas": 2174,
      "Ġalto": 2175,
      "ĠpaÃŃses": 2176,
      "vre": 2177,
      "Ġapre": 2178,
      "cida": 2179,
      "Ġgobi": 2180,
      "oluciÃ³n": 2181,
      "tir": 2182,
      "Ġcolomb": 2183,
      "ĠmayorÃŃa": 2184,
      "Ġalej": 2185,
      "jes": 2186,
      "Ġpesar": 2187,
      "Ġrevista": 2188,
      "Ġmuest": 2189,
      "ciales": 2190,
      "Ġnegro": 2191,
      "sen": 2192,
      "Ġorigen": 2193,
      "Ġdat": 2194,
      "Ġargentina": 2195,
      "Ġpresid": 2196,
      "Ġsir": 2197,
      "Ãł": 2198,
      "Ġpra": 2199,
      "Ġpier": 2200,
      "Ġmunici": 2201,
      "ĠÃ©x": 2202,
      "Ġtre": 2203,
      "Ġhor": 2204,
      "Ġfal": 2205,
      "mientos": 2206,
      "ierra": 2207,
      "000": 2208,
      "Ġmit": 2209,
      "Ġcampo": 2210,
      "Ġahora": 2211,
      "Ġwe": 2212,
      "Ġedificio": 2213,
      "Ġcir": 2214,
      "Ġmencion": 2215,
      "iena": 2216,
      "Ġhabit": 2217,
      "Ġpicasso": 2218,
      "Ġinvest": 2219,
      "ĠcÃŃr": 2220,
      "isiÃ³n": 2221,
      "Ġrojo": 2222,
      "yas": 2223,
      "Ġsiguiente": 2224,
      "Ġanterior": 2225,
      "Âº": 2226,
      "Ġreina": 2227,
      "erdo": 2228,
      "Ġexhibi": 2229,
      "arra": 2230,
      "Ġcomb": 2231,
      "Ġcant": 2232,
      "ĠllegÃ³": 2233,
      "iere": 2234,
      "ĠcreaciÃ³n": 2235,
      "ĠpÃºblico": 2236,
      "Ġmurales": 2237,
      "cipa": 2238,
      "org": 2239,
      "iera": 2240,
      "ĠgrÃ¡f": 2241,
      "cula": 2242,
      ".,": 2243,
      "Ġaqu": 2244,
      "Ġchar": 2245,
      "Ġpincel": 2246,
      "ĠcarÃ¡": 2247,
      "tional": 2248,
      "Ġsil": 2249,
      "ional": 2250,
      "chas": 2251,
      "ĠÃ¡ngeles": 2252,
      "Ġana": 2253,
      "ticas": 2254,
      "Ġrecu": 2255,
      "ientos": 2256,
      "ĠcompaÃ±": 2257,
      "50": 2258,
      "Ġcue": 2259,
      "Ġsantos": 2260,
      "Ġgobierno": 2261,
      "Ġmaestros": 2262,
      "Ġinvestig": 2263,
      "curso": 2264,
      "ticos": 2265,
      "Ġamigo": 2266,
      "Ġauto": 2267,
      "Ġmundial": 2268,
      "Ġestil": 2269,
      "ĠtÃ©cnicas": 2270,
      "ĠsÃ³lo": 2271,
      "Ġiii": 2272,
      "Ġgrande": 2273,
      "Ġpapi": 2274,
      "Ġcro": 2275,
      "Ġbern": 2276,
      "col": 2277,
      "ĠcarÃ¡cter": 2278,
      "Ġtama": 2279,
      "Ġflores": 2280,
      "Ġperspectiva": 2281,
      "Ã¶": 2282,
      "Ġdar": 2283,
      "Ġciv": 2284,
      "Ġgracias": 2285,
      "Ġproyecto": 2286,
      "Ġmatrimonio": 2287,
      "zado": 2288,
      "chi": 2289,
      "Ġmodel": 2290,
      "mbo": 2291,
      "unid": 2292,
      "Ġcomposi": 2293,
      "ible": 2294,
      "Ġnew": 2295,
      "igos": 2296,
      "Ġegip": 2297,
      "Ġemple": 2298,
      "Ġviaje": 2299,
      "zar": 2300,
      "Ġori": 2301,
      "Ġparticipa": 2302,
      "Ġextra": 2303,
      "fÃŃa": 2304,
      "pecto": 2305,
      "iar": 2306,
      "Ġloren": 2307,
      "Ġpoder": 2308,
      "Ġprote": 2309,
      "Ġexpuso": 2310,
      "Ġinfor": 2311,
      "Ġide": 2312,
      "ys": 2313,
      "icismo": 2314,
      "ĠescribiÃ³": 2315,
      "190": 2316,
      "Ġcrea": 2317,
      "Ġcabal": 2318,
      "ĠinterÃ©s": 2319,
      "ĠversiÃ³n": 2320,
      "lor": 2321,
      "Ġpueblo": 2322,
      "Ġmostra": 2323,
      "mino": 2324,
      "Ġtela": 2325,
      "xim": 2326,
      "Ġtrata": 2327,
      "197": 2328,
      "sterio": 2329,
      "Ġneces": 2330,
      "Ġcolabora": 2331,
      "Ġantigua": 2332,
      "Ġsalv": 2333,
      "iles": 2334,
      "Ġlibre": 2335,
      "Ġbode": 2336,
      "Ġhistori": 2337,
      "tismo": 2338,
      "Ġpen": 2339,
      "Ġram": 2340,
      "Ġpropia": 2341,
      "Ġlen": 2342,
      "Ġrecor": 2343,
      "Ġicono": 2344,
      "izÃ³": 2345,
      "Ġcorres": 2346,
      "Ġmodo": 2347,
      "Ġnun": 2348,
      "cent": 2349,
      "Ġseis": 2350,
      "ner": 2351,
      "rich": 2352,
      "Ã¡lo": 2353,
      "illas": 2354,
      "chos": 2355,
      "Ġindepen": 2356,
      "red": 2357,
      "Ġpiezas": 2358,
      "Ġobtu": 2359,
      "vent": 2360,
      "Ġamor": 2361,
      "vieron": 2362,
      "Ġneo": 2363,
      "Ġon": 2364,
      "Ġello": 2365,
      "196": 2366,
      "Ġjard": 2367,
      "ula": 2368,
      "Ġbro": 2369,
      "Ġfinalmente": 2370,
      "ĠleÃ³n": 2371,
      "Ġrealismo": 2372,
      "Ġcaso": 2373,
      "rist": 2374,
      "Ġvict": 2375,
      "Ġdavid": 2376,
      "Ġdep": 2377,
      "oni": 2378,
      "Ġelab": 2379,
      "ĠrÃŃo": 2380,
      "Ġadmi": 2381,
      "Ã³nimo": 2382,
      "Ġgon": 2383,
      "Ġcapa": 2384,
      "Ġmex": 2385,
      "ulos": 2386,
      "Ġrealidad": 2387,
      "Ġfrescos": 2388,
      "Ġ183": 2389,
      "Ġestadounid": 2390,
      "reg": 2391,
      "12": 2392,
      "Ġalcan": 2393,
      "pias": 2394,
      "Ġfecha": 2395,
      "rados": 2396,
      "Ġrealizada": 2397,
      "rero": 2398,
      "Ġasist": 2399,
      "ĠtrasladÃ³": 2400,
      "dÃŃa": 2401,
      "gin": 2402,
      "gorÃŃa": 2403,
      "Ġvilla": 2404,
      "acto": 2405,
      "lÃ©s": 2406,
      "Ġintrodu": 2407,
      "Ġcamp": 2408,
      "ĠmÃ¡r": 2409,
      "Ġdese": 2410,
      "grafÃŃas": 2411,
      "Ġalgo": 2412,
      "ĠtradiciÃ³n": 2413,
      "Ġdet": 2414,
      "Ã§": 2415,
      "Ġduque": 2416,
      "tamente": 2417,
      "Ġempez": 2418,
      "tido": 2419,
      "ĠhabÃŃan": 2420,
      "dal": 2421,
      "Ġgoya": 2422,
      "Ġmediante": 2423,
      "Ġtitul": 2424,
      "Ġlig": 2425,
      "Ġjer": 2426,
      "Ġrenacimiento": 2427,
      "lin": 2428,
      "Ã¡ct": 2429,
      "Ġevan": 2430,
      "Ġdin": 2431,
      "Ġprimero": 2432,
      "liam": 2433,
      "Ġbron": 2434,
      "rica": 2435,
      "inaciÃ³n": 2436,
      "ĠmÃºsica": 2437,
      "Ġabandon": 2438,
      "ret": 2439,
      "Ġunas": 2440,
      "rel": 2441,
      "Ã¡mica": 2442,
      "ĠpresentÃ³": 2443,
      "Ġobtuvo": 2444,
      "Ġestam": 2445,
      "Ã¡ndo": 2446,
      "Ġplano": 2447,
      "Ġreno": 2448,
      "ipe": 2449,
      "Ġpudo": 2450,
      "Ġeu": 2451,
      "ĠalemÃ¡n": 2452,
      "Ġinteres": 2453,
      "ĠpelÃŃ": 2454,
      "ĠlÃ¡": 2455,
      "Ġtur": 2456,
      "Ġnunca": 2457,
      "Ġsh": 2458,
      "ĠconociÃ³": 2459,
      "Ġverde": 2460,
      "terra": 2461,
      "Ġpersonas": 2462,
      "ĠÐ": 2463,
      "Ġnic": 2464,
      "iencia": 2465,
      "Ġtienen": 2466,
      "Ġanimales": 2467,
      "Ã¡zquez": 2468,
      "nas": 2469,
      "Ġbrit": 2470,
      "Ġanun": 2471,
      "culos": 2472,
      "Ġmexic": 2473,
      "retra": 2474,
      "Ġtrabajar": 2475,
      "Ġadquiri": 2476,
      "Ġmonte": 2477,
      "ĠÃ©xito": 2478,
      "ĠÃºltimos": 2479,
      "Ġpresenta": 2480,
      "Ġinscri": 2481,
      "Ġvisit": 2482,
      "Ġpublica": 2483,
      "abel": 2484,
      "Ġcuenta": 2485,
      "Ġvuel": 2486,
      "bar": 2487,
      "Ġmonasterio": 2488,
      "Ġetapa": 2489,
      "Ġmich": 2490,
      "Ġrod": 2491,
      "Ġmito": 2492,
      "Ġmonumento": 2493,
      "esa": 2494,
      "Ġestudia": 2495,
      "ĠÃ¡r": 2496,
      "ccion": 2497,
      "Ġcie": 2498,
      "Ġbodeg": 2499,
      "13": 2500,
      "ĠpequeÃ±o": 2501,
      "Ġlouvre": 2502,
      "ington": 2503,
      "Ġfuerte": 2504,
      "fi": 2505,
      "ĠtÃ©r": 2506,
      "Ġcuya": 2507,
      "Ġmaria": 2508,
      "Ġencargo": 2509,
      "yos": 2510,
      "rÃ©": 2511,
      "unst": 2512,
      "Ġmanos": 2513,
      "Ġconsiderado": 2514,
      "Î¿": 2515,
      "Ġsor": 2516,
      "Ġ25": 2517,
      "diz": 2518,
      "ĠfalleciÃ³": 2519,
      "Ġcine": 2520,
      "Ġregist": 2521,
      "Ġnumerosas": 2522,
      "Ġbarroco": 2523,
      "Ġsen": 2524,
      "lante": 2525,
      "tivamente": 2526,
      "ĠbritÃ¡n": 2527,
      "Ġmem": 2528,
      "Ġjap": 2529,
      "Ġ182": 2530,
      "Ġtumb": 2531,
      "Ġatra": 2532,
      "Ġvent": 2533,
      "ccid": 2534,
      "Ġverdad": 2535,
      "Ġminia": 2536,
      "onso": 2537,
      "bir": 2538,
      "ĠcrÃŃtica": 2539,
      "ley": 2540,
      "mus": 2541,
      "unda": 2542,
      "laterra": 2543,
      "ĠserÃŃa": 2544,
      "Ġconsta": 2545,
      "Ġoficial": 2546,
      "Ġwilliam": 2547,
      "Ġmotivo": 2548,
      "Ġsurreal": 2549,
      "maciÃ³n": 2550,
      "Ġameric": 2551,
      "Ġinau": 2552,
      "ĠplÃ¡sticas": 2553,
      "entales": 2554,
      "Ġreprodu": 2555,
      "Ġocup": 2556,
      "ĠcasÃ³": 2557,
      "ĠcÃŃrculo": 2558,
      "Ġindu": 2559,
      "Ġmez": 2560,
      "Ġsentido": 2561,
      "Ġgiovan": 2562,
      "Ġidentific": 2563,
      "Ġoccid": 2564,
      "Ġmanuscrito": 2565,
      "ĠÃ¡rbol": 2566,
      "189": 2567,
      "ĠviviÃ³": 2568,
      "Ġpose": 2569,
      "Ġacomp": 2570,
      "vÃŃa": 2571,
      "Ġestru": 2572,
      "ade": 2573,
      "hib": 2574,
      "iete": 2575,
      "Ġdesp": 2576,
      "ĠviajÃ³": 2577,
      "ĠpictÃ³rica": 2578,
      "Ġtro": 2579,
      "tan": 2580,
      "Ġfrancesa": 2581,
      "Ġfelipe": 2582,
      "americ": 2583,
      "Ġilum": 2584,
      "ciente": 2585,
      "Ġara": 2586,
      "stro": 2587,
      "ĠpodrÃŃa": 2588,
      "Ġpalab": 2589,
      "Ġpropor": 2590,
      "Ġcuyo": 2591,
      "ello": 2592,
      "itos": 2593,
      "Ġbril": 2594,
      "mal": 2595,
      "Ġfresco": 2596,
      "adora": 2597,
      "Ġdescon": 2598,
      "Ġlleva": 2599,
      "Ġinglaterra": 2600,
      "ĠregresÃ³": 2601,
      "ĠexpresiÃ³n": 2602,
      "Ġvic": 2603,
      "Ġexpon": 2604,
      "ĠprÃ¡ct": 2605,
      "Ġrub": 2606,
      "Ġden": 2607,
      "Ġdestru": 2608,
      "Ġjorge": 2609,
      "ines": 2610,
      "ctoria": 2611,
      "ĠpublicÃ³": 2612,
      "Ġll": 2613,
      "rent": 2614,
      "Ġtraye": 2615,
      "Ġetc": 2616,
      "ĠgarcÃŃa": 2617,
      "ĠeducaciÃ³n": 2618,
      "Ġconten": 2619,
      "Ãºblica": 2620,
      "Ã©l": 2621,
      "itado": 2622,
      "Ġofre": 2623,
      "Ġnumerosos": 2624,
      "fra": 2625,
      "Ġnombrado": 2626,
      "ĠdedicÃ³": 2627,
      "Ġvangu": 2628,
      "Ġpresencia": 2629,
      "Ġobserv": 2630,
      "Ġespectador": 2631,
      "Ġmejo": 2632,
      "Ġtierra": 2633,
      "Ġproced": 2634,
      "Ġ30": 2635,
      "ĠllevÃ³": 2636,
      "Ġdocument": 2637,
      "Ġintens": 2638,
      "Ġrealizar": 2639,
      "Ġcivil": 2640,
      "Ġfru": 2641,
      "stria": 2642,
      "tio": 2643,
      "Ġacer": 2644,
      "Ġfut": 2645,
      "Ġhabana": 2646,
      "Ġxvi": 2647,
      "rand": 2648,
      "tor": 2649,
      "Ġfro": 2650,
      "Ġescrito": 2651,
      "Ġ'": 2652,
      "Ġvenez": 2653,
      "titud": 2654,
      "188": 2655,
      "Ġhomen": 2656,
      "Ġplan": 2657,
      "Ġleonardo": 2658,
      "ĠrepÃºblica": 2659,
      "ĠtamaÃ±o": 2660,
      "Ġmul": 2661,
      "Ã³s": 2662,
      "mol": 2663,
      "Ġbase": 2664,
      "Ġclases": 2665,
      "Ġdej": 2666,
      "icado": 2667,
      "Ġconoce": 2668,
      "Ġevangel": 2669,
      "Ġconver": 2670,
      "ĠdesarrollÃ³": 2671,
      "Ġbelleza": 2672,
      "Ġarquitecto": 2673,
      "ĠlÃŃneas": 2674,
      "diente": 2675,
      "ĠinglÃ©s": 2676,
      "Ġexperim": 2677,
      "vel": 2678,
      "Ġestaban": 2679,
      "Ã¡logo": 2680,
      "ernos": 2681,
      "ÃŃptico": 2682,
      "Ġsuperfici": 2683,
      "ĠconstrucciÃ³n": 2684,
      "Ġoscu": 2685,
      "ĠasociaciÃ³n": 2686,
      "Ġclara": 2687,
      "tÃ¡": 2688,
      "zÃ³n": 2689,
      "Ġxviii": 2690,
      "mada": 2691,
      "Ġdestaca": 2692,
      "ĠlÃŃnea": 2693,
      "Ġactividad": 2694,
      "Ġnatal": 2695,
      "ki": 2696,
      "Ġnacido": 2697,
      "Ġafir": 2698,
      "Ġmunicipal": 2699,
      "sos": 2700,
      "Ġmol": 2701,
      "ntos": 2702,
      "Ġjud": 2703,
      "Ġtrayectoria": 2704,
      "Ġplaza": 2705,
      "icia": 2706,
      "Ġrepresentaciones": 2707,
      "Ġexpresion": 2708,
      "Ġurb": 2709,
      "Ġdimens": 2710,
      "ise": 2711,
      "mano": 2712,
      "rique": 2713,
      "ĠaquÃŃ": 2714,
      "Ġobten": 2715,
      "Ġayunt": 2716,
      "Ġhombres": 2717,
      "Ġestructura": 2718,
      "gres": 2719,
      "ĠcreÃ³": 2720,
      "Ġplata": 2721,
      "Ġbras": 2722,
      "gi": 2723,
      "Ġescul": 2724,
      "Ġmarco": 2725,
      "Ġsele": 2726,
      "dico": 2727,
      "si": 2728,
      "media": 2729,
      "Ġtradicional": 2730,
      "orno": 2731,
      "60": 2732,
      "ĠdejÃ³": 2733,
      "Ġsomb": 2734,
      "ables": 2735,
      "per": 2736,
      "Ġcub": 2737,
      "Ġtener": 2738,
      "Ġmateriales": 2739,
      "Ġfrag": 2740,
      "lar": 2741,
      "Ġperfe": 2742,
      "Ġka": 2743,
      "ham": 2744,
      "Ġconvento": 2745,
      "isa": 2746,
      "Ġdesarrollo": 2747,
      "Ġisabel": 2748,
      "Ã©ndose": 2749,
      "Ġpoeta": 2750,
      "ĠvisiÃ³n": 2751,
      "Ġmost": 2752,
      "Ġmiembros": 2753,
      "arca": 2754,
      "Ġcostu": 2755,
      "Ġgiovanni": 2756,
      "tt": 2757,
      "isp": 2758,
      "eraciÃ³n": 2759,
      "Ġlienzos": 2760,
      "Ġllamada": 2761,
      "mer": 2762,
      "Ġconven": 2763,
      "ĠpÃ¡g": 2764,
      "ĠdÃŃas": 2765,
      "Ġayuntamiento": 2766,
      "Ġ24": 2767,
      "radas": 2768,
      "ÃŃpu": 2769,
      "Ġhub": 2770,
      "Ã³st": 2771,
      "rios": 2772,
      "Ġlorenzo": 2773,
      "Ġbronce": 2774,
      "eos": 2775,
      "Ġcalidad": 2776,
      "ĠacompaÃ±": 2777,
      "Ġxvii": 2778,
      "ĠÃ¡l": 2779,
      "Ġdecir": 2780,
      "ĠcaracterÃŃsticas": 2781,
      "Ġcuba": 2782,
      "Ġevid": 2783,
      "allado": 2784,
      "Ġeurope": 2785,
      "rÃ¡n": 2786,
      "Ġpoes": 2787,
      "ĠfotografÃŃa": 2788,
      "inte": 2789,
      "Ġarque": 2790,
      "turas": 2791,
      "Ġnin": 2792,
      "izar": 2793,
      "Ġama": 2794,
      "Ġcomposiciones": 2795,
      "zan": 2796,
      "Ġimport": 2797,
      "iciÃ³n": 2798,
      "Ġcapital": 2799,
      "Ġbru": 2800,
      "Ġ1960": 2801,
      "guez": 2802,
      "sel": 2803,
      "talles": 2804,
      "wa": 2805,
      "ash": 2806,
      "Ġcha": 2807,
      "Ġindividuales": 2808,
      "Ġdistin": 2809,
      "rencias": 2810,
      "Ġamigos": 2811,
      "Ġcopia": 2812,
      "Ġconstitu": 2813,
      "Ġalejand": 2814,
      "Ġdenomin": 2815,
      "Ġgest": 2816,
      "Ġrealiza": 2817,
      "Ġreun": 2818,
      "Ġhar": 2819,
      "Ġminist": 2820,
      "Ġsob": 2821,
      "Ġpropiedad": 2822,
      "Ġestudiar": 2823,
      "Ġvenus": 2824,
      "Ġecon": 2825,
      "don": 2826,
      "Ġmel": 2827,
      "Ġestadounidense": 2828,
      "Ġdetalles": 2829,
      "lez": 2830,
      "yn": 2831,
      "Ġbos": 2832,
      "ang": 2833,
      "Î±": 2834,
      "Ġlla": 2835,
      "ĠartÃŃsticas": 2836,
      "Ġtestamento": 2837,
      "Ġhermanos": 2838,
      "Ã³nica": 2839,
      "Ġ180": 2840,
      "11": 2841,
      "Ã¡b": 2842,
      "ĠdiscÃŃpu": 2843,
      "Ġdestacan": 2844,
      "Ġgab": 2845,
      "Ġpet": 2846,
      "Åį": 2847,
      "stre": 2848,
      "Ã¡ndez": 2849,
      "Ġcrear": 2850,
      "grafo": 2851,
      "ĠvelÃ¡zquez": 2852,
      "Ġfech": 2853,
      "ĠvolviÃ³": 2854,
      "adamente": 2855,
      "Ġclar": 2856,
      "Ġacep": 2857,
      "Ġsiete": 2858,
      "Ã©e": 2859,
      "alo": 2860,
      "Ġhos": 2861,
      "Ġviena": 2862,
      "Ġautorretra": 2863,
      "Ġrelie": 2864,
      "ranj": 2865,
      "192": 2866,
      "Ġcorrespon": 2867,
      "erar": 2868,
      "Ġcastillo": 2869,
      "ks": 2870,
      "amp": 2871,
      "Ġmotivos": 2872,
      "Ġhomenaje": 2873,
      "ime": 2874,
      "Ġste": 2875,
      "mara": 2876,
      "ze": 2877,
      "ĠformÃ³": 2878,
      "Ġestatua": 2879,
      "Ġpon": 2880,
      "Ġjoa": 2881,
      "berg": 2882,
      "Ġescritor": 2883,
      "Ġproceso": 2884,
      "Î¹": 2885,
      "ĠcÃ©": 2886,
      "Ġmitad": 2887,
      "ctamente": 2888,
      "anza": 2889,
      "xto": 2890,
      "irÃ³": 2891,
      "Ġexhib": 2892,
      "Ãºnich": 2893,
      "ski": 2894,
      "jante": 2895,
      "cada": 2896,
      "Ġgriego": 2897,
      "tiene": 2898,
      "Ġnational": 2899,
      "rana": 2900,
      "Ġrode": 2901,
      "Ġsagra": 2902,
      "Ġtemplo": 2903,
      "Ġcolombia": 2904,
      "nos": 2905,
      "Ġextre": 2906,
      "Ġmanuscritos": 2907,
      "diciÃ³n": 2908,
      "Ġamarillo": 2909,
      "Ġcambio": 2910,
      "Ġrecuer": 2911,
      "var": 2912,
      "Ã¤": 2913,
      "Ġger": 2914,
      "Ġ1930": 2915,
      "rito": 2916,
      "Ġ179": 2917,
      "ĠatenciÃ³n": 2918,
      "ĠcerÃ¡mica": 2919,
      "Ġsuf": 2920,
      "Ġcerc": 2921,
      "Ġilustraciones": 2922,
      "Ġestar": 2923,
      "Ġacab": 2924,
      "Ġpapiro": 2925,
      "Ġcorri": 2926,
      "uencia": 2927,
      "Ġrepresentar": 2928,
      "ong": 2929,
      "Ġpapa": 2930,
      "Ġocasiones": 2931,
      "Ġreferencia": 2932,
      "Ġjohan": 2933,
      "Ġ2000": 2934,
      "gre": 2935,
      "Ġfest": 2936,
      "Ġfuente": 2937,
      "Ġboce": 2938,
      "Ġsar": 2939,
      "mÃŃa": 2940,
      "lem": 2941,
      "Ġ2010": 2942,
      "Ġ2007": 2943,
      "Ġcaball": 2944,
      "Ġras": 2945,
      "Ġnuevas": 2946,
      "Ġalta": 2947,
      "Ġincor": 2948,
      "Ġpiedra": 2949,
      "zi": 2950,
      "Ġsiglos": 2951,
      "193": 2952,
      "Ġobjeto": 2953,
      "ianos": 2954,
      "Ġpast": 2955,
      "195": 2956,
      "Ġrepresentan": 2957,
      "ĠdiscÃŃpulo": 2958,
      "Ġlog": 2959,
      "Ã³rdo": 2960,
      "Ġprivada": 2961,
      "eres": 2962,
      "Ġarco": 2963,
      "reno": 2964,
      "Ġinferior": 2965,
      "pint": 2966,
      "Ġdebe": 2967,
      "Ġlum": 2968,
      "ĠpoesÃŃa": 2969,
      "Ġcolum": 2970,
      "ĠdirecciÃ³n": 2971,
      "Ġdiego": 2972,
      "enci": 2973,
      "Ġaire": 2974,
      "Ġmuestran": 2975,
      "'s": 2976,
      "bal": 2977,
      "Ġmate": 2978,
      "ĠmÃºnich": 2979,
      "Ġnacimiento": 2980,
      "Ġimportancia": 2981,
      "Ġfu": 2982,
      "ĠjÃ³": 2983,
      "Ġidea": 2984,
      "ical": 2985,
      "ĠniÃ±os": 2986,
      "Ġenfer": 2987,
      "Ġmeses": 2988,
      "Ã³rdoba": 2989,
      "aja": 2990,
      "cidad": 2991,
      "Ġnie": 2992,
      "Ġnove": 2993,
      "Ġchica": 2994,
      "ĠediciÃ³n": 2995,
      "ĠÃºnico": 2996,
      "Ġtiz": 2997,
      "Ġaltar": 2998,
      "Ġaplic": 2999,
      "Ġconde": 3000,
      "diendo": 3001,
      "Ġprest": 3002,
      "Ġcuar": 3003,
      "78": 3004,
      "Ġacuarela": 3005,
      "Ġmodelos": 3006,
      "edad": 3007,
      "Ġgonz": 3008,
      "Ġayuda": 3009,
      "Ġgreco": 3010,
      "Ġnicol": 3011,
      "Ġholand": 3012,
      "Ġtole": 3013,
      "ĠseÃ±o": 3014,
      "ĠcrÃŃtico": 3015,
      "Ġ1970": 3016,
      "resa": 3017,
      "Ġmonta": 3018,
      "Ġcielo": 3019,
      "ĠpÃ©": 3020,
      "Ġportu": 3021,
      "Ġaparecen": 3022,
      "her": 3023,
      "licas": 3024,
      "uÃ±a": 3025,
      "Ġestancia": 3026,
      "Ġvisual": 3027,
      "ival": 3028,
      "Ġcosta": 3029,
      "Ġesco": 3030,
      "ĠcontinuÃ³": 3031,
      "Ġviejo": 3032,
      "vas": 3033,
      "Ġ11": 3034,
      "isis": 3035,
      "Ġpartes": 3036,
      "Ġresto": 3037,
      "Ġsignific": 3038,
      "ĠpelÃŃcula": 3039,
      "ĠespÃŃ": 3040,
      "iva": 3041,
      "gares": 3042,
      "ĠtodavÃŃa": 3043,
      "Ġpuerto": 3044,
      "Ġpresidente": 3045,
      "ĠnÃ¡": 3046,
      "bajo": 3047,
      "Ġclase": 3048,
      "Î½": 3049,
      "Ġjaco": 3050,
      "40": 3051,
      "gido": 3052,
      "bra": 3053,
      "dan": 3054,
      "rÃ³n": 3055,
      "Ġchina": 3056,
      "Ġfab": 3057,
      "Ġbil": 3058,
      "tun": 3059,
      "Ġhel": 3060,
      "Ġconce": 3061,
      "cera": 3062,
      "70": 3063,
      "Ġquiz": 3064,
      "Ġ1980": 3065,
      "Ġparis": 3066,
      "Ġ26": 3067,
      "ĠvÃŃ": 3068,
      "Ġrostro": 3069,
      "sterdam": 3070,
      "siÃ³n": 3071,
      "ĠtemÃ¡tica": 3072,
      "bierto": 3073,
      "Ġ0": 3074,
      "isto": 3075,
      "Ġtom": 3076,
      "Ġala": 3077,
      "Ġ22": 3078,
      "Ġ1990": 3079,
      "ĠseÃ±al": 3080,
      "dica": 3081,
      "Ġciudades": 3082,
      "ĠespÃŃrit": 3083,
      "vis": 3084,
      "ĠÂ": 3085,
      "quis": 3086,
      "Ġefecto": 3087,
      "Ġcoron": 3088,
      "Ġelabora": 3089,
      "Ġcolle": 3090,
      "Ġdefini": 3091,
      "mpe": 3092,
      "ultad": 3093,
      "ĠamÃ©rica": 3094,
      "venes": 3095,
      "Ġniv": 3096,
      "Ġ2006": 3097,
      "Ġ150": 3098,
      "Ġbon": 3099,
      "Ġsea": 3100,
      "Ġgeneralmente": 3101,
      "ĠcomÃºn": 3102,
      "Ġ163": 3103,
      "Ġ2011": 3104,
      "Ġ23": 3105,
      "Ġvon": 3106,
      "tagon": 3107,
      "imientos": 3108,
      "fil": 3109,
      "Ġsos": 3110,
      "Ġ2009": 3111,
      "Ãºa": 3112,
      "Ð¾": 3113,
      "Ġamberes": 3114,
      "Ġsignifica": 3115,
      "yck": 3116,
      "Ġcabo": 3117,
      "Ġempera": 3118,
      "Ġpaisaj": 3119,
      "ĠjÃ³venes": 3120,
      "del": 3121,
      "Ġ)": 3122,
      "Ġarts": 3123,
      "Ġ162": 3124,
      "Ġcolegio": 3125,
      "Ġcit": 3126,
      "Ġpareja": 3127,
      "ĠhistÃ³rico": 3128,
      "Ã¡lisis": 3129,
      "Ġjoaqu": 3130,
      "entÃ³": 3131,
      "ĠcatÃ¡logo": 3132,
      "Ġdimensiones": 3133,
      "ĠartÃŃsticos": 3134,
      "Ġenrique": 3135,
      "Ġnuestra": 3136,
      "museo": 3137,
      "rago": 3138,
      "alu": 3139,
      "Ġprotagon": 3140,
      "ĠconcepciÃ³n": 3141,
      "oro": 3142,
      "Ġreyes": 3143,
      "Ġib": 3144,
      "Ġderecho": 3145,
      "cir": 3146,
      "ĠtÃ©rmino": 3147,
      "fuer": 3148,
      "Ġsec": 3149,
      "quil": 3150,
      "Ġayud": 3151,
      "Ġprovincia": 3152,
      "Ġarquitect": 3153,
      "quer": 3154,
      "Ġkunst": 3155,
      "Ð¸": 3156,
      "Ġpob": 3157,
      "Ġcontribu": 3158,
      "Ġsimilar": 3159,
      "lid": 3160,
      "Ġalumno": 3161,
      "Ġgeorg": 3162,
      "80": 3163,
      "ntemente": 3164,
      "Ġtho": 3165,
      "Ġactivo": 3166,
      "Ġlucas": 3167,
      "Ġmenor": 3168,
      "zada": 3169,
      "Ġnos": 3170,
      "Ġpadres": 3171,
      "Ġreti": 3172,
      "Ġpintada": 3173,
      "Ġko": 3174,
      "Ġ2005": 3175,
      "licos": 3176,
      "Ġliteratura": 3177,
      "dieron": 3178,
      "ĠpolÃŃtica": 3179,
      "Ġmill": 3180,
      "ĠpequeÃ±a": 3181,
      "Ġlim": 3182,
      "udos": 3183,
      "Ġmaterial": 3184,
      "Ġcharles": 3185,
      "Ġcorre": 3186,
      "Ġapreci": 3187,
      "cad": 3188,
      "Ġprogra": 3189,
      "Ġcargo": 3190,
      "ĠcÃ³rdoba": 3191,
      "Ġpig": 3192,
      "Ġarch": 3193,
      "Ġejer": 3194,
      "Ġgris": 3195,
      "Ġcualquier": 3196,
      "bierta": 3197,
      "Ġbatalla": 3198,
      "lÃ³g": 3199,
      "cupa": 3200,
      "Ġlibert": 3201,
      "ik": 3202,
      "Ġ1920": 3203,
      "olucion": 3204,
      "ĠjardÃŃn": 3205,
      "Ã©tico": 3206,
      "ies": 3207,
      "Ġproble": 3208,
      "Ġfund": 3209,
      "ĠlÃŃ": 3210,
      "ĠprÃŃn": 3211,
      "Ġhermana": 3212,
      "tando": 3213,
      "Ð°": 3214,
      "Ġlet": 3215,
      "Ġwal": 3216,
      "Ġincluyendo": 3217,
      "mÃ©tr": 3218,
      "Ġfant": 3219,
      "Ġideal": 3220,
      "Ġ1950": 3221,
      "Ġmediados": 3222,
      "Ġvicente": 3223,
      "Ġcarta": 3224,
      "Ġzona": 3225,
      "ges": 3226,
      "Ġ2012": 3227,
      "ĠpictÃ³rico": 3228,
      "ashington": 3229,
      "Ġtotal": 3230,
      "ificaciÃ³n": 3231,
      "ĠÏ": 3232,
      "Ġdice": 3233,
      "ĠeconÃ³": 3234,
      "ardia": 3235,
      "Ġph": 3236,
      "Ġhistor": 3237,
      "Ġautores": 3238,
      "Ġcolectivas": 3239,
      "msterdam": 3240,
      "Îµ": 3241,
      "este": 3242,
      "Ġcontiene": 3243,
      "Ġvalle": 3244,
      "Ġasim": 3245,
      "Ġflor": 3246,
      "Ġenter": 3247,
      "Ġbrus": 3248,
      "eral": 3249,
      "Ġmanif": 3250,
      "cif": 3251,
      "Ġcambi": 3252,
      "Ġfac": 3253,
      "Ġlugares": 3254,
      "guna": 3255,
      "Ġintegra": 3256,
      "Ġcoti": 3257,
      "Ġpaso": 3258,
      "ĠÃºnica": 3259,
      "ĠempezÃ³": 3260,
      "cro": 3261,
      "Ġtumba": 3262,
      "ira": 3263,
      "ung": 3264,
      "ĠtÃŃp": 3265,
      "Ġpromo": 3266,
      "Ġedificios": 3267,
      "Ġhici": 3268,
      "Ġfol": 3269,
      "Ġsiguientes": 3270,
      "ÃŃfico": 3271,
      "ĠseÃ±ora": 3272,
      "Ġrubens": 3273,
      "Ġcoleccion": 3274,
      "riz": 3275,
      "Ġ2008": 3276,
      "Ġalma": 3277,
      "194": 3278,
      "Ġmanten": 3279,
      "Ġdeter": 3280,
      "Ġ27": 3281,
      "stri": 3282,
      "ĠespÃŃritu": 3283,
      "lig": 3284,
      "Ġencontrar": 3285,
      "Ġdem": 3286,
      "Ġyo": 3287,
      "Ġmejores": 3288,
      "Ġast": 3289,
      ".)": 3290,
      "ĠmilÃ¡n": 3291,
      "ag": 3292,
      "ĠcÃ¡mara": 3293,
      "Ġamist": 3294,
      "Ġsaint": 3295,
      "Ġseba": 3296,
      "Ġprecis": 3297,
      "Ġenla": 3298,
      "Ġ2004": 3299,
      "Ġvestido": 3300,
      "gica": 3301,
      "Ġfie": 3302,
      "Ġgrabador": 3303,
      "Ġalex": 3304,
      "Ġpaz": 3305,
      "Ġpieza": 3306,
      "cidos": 3307,
      "cÃº": 3308,
      "Ġjam": 3309,
      "mann": 3310,
      "ĠcatÃ³": 3311,
      "Ġsurg": 3312,
      "ivo": 3313,
      "Ġinstru": 3314,
      "Ġgogh": 3315,
      "Ġcaballo": 3316,
      "Ġpina": 3317,
      "Ġ165": 3318,
      "iro": 3319,
      "ĠaÃ±ad": 3320,
      "Ġregreso": 3321,
      "Ġreino": 3322,
      "Ġespi": 3323,
      "Ġquienes": 3324,
      "ragoza": 3325,
      "bil": 3326,
      "mbolo": 3327,
      "Ġjac": 3328,
      "augu": 3329,
      "Ġantiguos": 3330,
      "ices": 3331,
      "itud": 3332,
      "Ġ28": 3333,
      "Ġhumana": 3334,
      "the": 3335,
      "pez": 3336,
      "trÃ¡s": 3337,
      "Ġwashington": 3338,
      "Ġreales": 3339,
      "Ġocho": 3340,
      "ĠanÃ¡lisis": 3341,
      "Ġjoan": 3342,
      "Ġinfluencias": 3343,
      "Ġroman": 3344,
      "mÃ¡tico": 3345,
      "ĠrestauraciÃ³n": 3346,
      "gando": 3347,
      "cina": 3348,
      "igra": 3349,
      "uelo": 3350,
      "Ġmetros": 3351,
      "ĠrÃ¡": 3352,
      "Ġtiziano": 3353,
      "Ġmetro": 3354,
      "Ġmono": 3355,
      "Ġbajos": 3356,
      "ĠgeomÃ©tr": 3357,
      "alladolid": 3358,
      "ds": 3359,
      "ire": 3360,
      "ardi": 3361,
      "quia": 3362,
      "emas": 3363,
      "Ġ2014": 3364,
      "Ġtablas": 3365,
      "vag": 3366,
      "Ġimperio": 3367,
      "Ġconservado": 3368,
      "Ġtonos": 3369,
      "ĠdetrÃ¡s": 3370,
      "Ġdibujante": 3371,
      "Ġpuerta": 3372,
      "Ġchicago": 3373,
      "Ġarro": 3374,
      "igÃ¼": 3375,
      "Ġruso": 3376,
      "ĠmÃ¡rmol": 3377,
      "Ġcontacto": 3378,
      "Ġ1992": 3379,
      "Ġinvent": 3380,
      "Ġteor": 3381,
      "Ġpresente": 3382,
      "Ġsalvador": 3383,
      "Ġtextos": 3384,
      "uestas": 3385,
      "Ġsp": 3386,
      "ins": 3387,
      "Ġ2013": 3388,
      "Ġec": 3389,
      "Ġpuesto": 3390,
      "Ġvenezuela": 3391,
      "erg": 3392,
      "clu": 3393,
      "bel": 3394,
      "iado": 3395,
      "mes": 3396,
      "Ġexcep": 3397,
      "Ġadop": 3398,
      "ntas": 3399,
      "aux": 3400,
      "Ġcamino": 3401,
      "Ġprodujo": 3402,
      "Ġandrea": 3403,
      "Ġrosa": 3404,
      "ĠcontemporÃ¡neos": 3405,
      "Ġvasos": 3406,
      "Ġvalor": 3407,
      "Ġcaracas": 3408,
      "ĠsÃŃmbolo": 3409,
      "Ġdomingo": 3410,
      "Ġamistad": 3411,
      "viv": 3412,
      "Ġconcurso": 3413,
      "Ġvit": 3414,
      "Ġalberto": 3415,
      "Ġegipto": 3416,
      "todo": 3417,
      "Ġformato": 3418,
      "Ġ2015": 3419,
      "Ġposteriores": 3420,
      "Ġbautista": 3421,
      "Ġaproxim": 3422,
      "Ġinaugura": 3423,
      "ux": 3424,
      "ĠestÃ©tica": 3425,
      "Ġotor": 3426,
      "Ġejemplos": 3427,
      "Ġtap": 3428,
      "tto": 3429,
      "Ġprima": 3430,
      "grÃ¡fico": 3431,
      "Ġprovincial": 3432,
      "Ġtradu": 3433,
      "udio": 3434,
      "Ġcasas": 3435,
      "poles": 3436,
      "Ġconservan": 3437,
      "Ġambas": 3438,
      "igÃ¼edad": 3439,
      "Ġmucha": 3440,
      "Ġrobert": 3441,
      "Ġasoci": 3442,
      "urÃ³": 3443,
      "enario": 3444,
      "rugua": 3445,
      "rÃ©s": 3446,
      "ĠartÃŃ": 3447,
      "ĠhabrÃŃa": 3448,
      "Ġextranj": 3449,
      "Ġcolectiva": 3450,
      "ĠlÃ³": 3451,
      "Ġestre": 3452,
      "Ġparro": 3453,
      "ĠÃŃ": 3454,
      "Ġham": 3455,
      "Ġsecre": 3456,
      "Ġromano": 3457,
      "Ġfundam": 3458,
      "Ġretros": 3459,
      "Ġrusia": 3460,
      "ĠÃ¡msterdam": 3461,
      "ĠiniciÃ³": 3462,
      "Ġtoledo": 3463,
      "Ġdiez": 3464,
      "cieron": 3465,
      "Ġgranada": 3466,
      "lect": 3467,
      "dador": 3468,
      "Ġtorno": 3469,
      "ĠramÃ³n": 3470,
      "Ġ21": 3471,
      "Ġ2003": 3472,
      "Ġmosa": 3473,
      "Ġrepresentado": 3474,
      "ĠgeneraciÃ³n": 3475,
      "Ġcierto": 3476,
      "Ġfrecue": 3477,
      "Ġexcel": 3478,
      "Ġaspecto": 3479,
      "Ġnotable": 3480,
      "aciones": 3481,
      "rat": 3482,
      "Ġresur": 3483,
      "Ġ166": 3484,
      "ĠmoscÃº": 3485,
      "Ġplas": 3486,
      "Ġlabor": 3487,
      "ander": 3488,
      "Ġ2016": 3489,
      "Ġlouis": 3490,
      "nam": 3491,
      "Ðµ": 3492,
      "ĠrevoluciÃ³n": 3493,
      "cÃŃan": 3494,
      "Ġecu": 3495,
      "Ġcopias": 3496,
      "Ġnoche": 3497,
      "Ġ1999": 3498,
      "Ġhuman": 3499,
      "Ġrecha": 3500,
      "Ġmoderna": 3501,
      "Ġabs": 3502,
      "Ġbeca": 3503,
      "ĠpequeÃ±os": 3504,
      "ĠencargÃ³": 3505,
      "ĠalgÃºn": 3506,
      "Ġcierta": 3507,
      "ĠdecidiÃ³": 3508,
      "pera": 3509,
      "Ġhue": 3510,
      "Ġbot": 3511,
      "bn": 3512,
      "ug": 3513,
      "Ġpren": 3514,
      "ione": 3515,
      "ĠregiÃ³n": 3516,
      "Ġreflej": 3517,
      "Ġoccidental": 3518,
      "Ġtorres": 3519,
      "Ġcotidi": 3520,
      "Ġuniversal": 3521,
      "Ġhosp": 3522,
      "ĠuniÃ³n": 3523,
      "su": 3524,
      "Ġchil": 3525,
      "Ġfamoso": 3526,
      "Ġpros": 3527,
      "Ġconci": 3528,
      "Ġcuanto": 3529,
      "vers": 3530,
      "Ġredu": 3531,
      "Ġrealizadas": 3532,
      "mÃ¡nt": 3533,
      "Ġestatu": 3534,
      "ĠgonzÃ¡": 3535,
      "Ġbruselas": 3536,
      "Ġbla": 3537,
      "ĠquedÃ³": 3538,
      "Ġfuentes": 3539,
      "Ġabstracto": 3540,
      "Ġ160": 3541,
      "Ġpublicado": 3542,
      "Ġlengu": 3543,
      "rente": 3544,
      "recciÃ³n": 3545,
      "ick": 3546,
      "Ġ2002": 3547,
      "vor": 3548,
      "Ġderi": 3549,
      "Ġpocos": 3550,
      "ĠjoaquÃŃn": 3551,
      "acent": 3552,
      "Ġveneci": 3553,
      "ĠganÃ³": 3554,
      "Ġrico": 3555,
      "Ġpalo": 3556,
      "Ġiglesias": 3557,
      "ĠgalerÃŃas": 3558,
      "uelas": 3559,
      "elli": 3560,
      "ilio": 3561,
      "ĠpequeÃ±as": 3562,
      "Ġrealista": 3563,
      "Ġdiferencia": 3564,
      "grÃ¡fica": 3565,
      "Ġdesnudo": 3566,
      "cados": 3567,
      "cipe": 3568,
      "Ġlogra": 3569,
      "Ġutiliza": 3570,
      "ĠgonzÃ¡lez": 3571,
      "ritual": 3572,
      "Ġ178": 3573,
      "Ġmagdal": 3574,
      "Ġexisten": 3575,
      "Ġresidencia": 3576,
      "Ġindustri": 3577,
      "Ġoto": 3578,
      "Ġbastante": 3579,
      "Ġagust": 3580,
      "Ġsuperficie": 3581,
      "od": 3582,
      "Ġexpone": 3583,
      "Ġnav": 3584,
      "zzo": 3585,
      "Ġ1984": 3586,
      "Ġ1985": 3587,
      "Ġaugu": 3588,
      "Ġencontraba": 3589,
      "ĠnÃ¡poles": 3590,
      "Ġ2017": 3591,
      "polit": 3592,
      "ĠlÃ³pez": 3593,
      "Ġdal": 3594,
      "Ġrecur": 3595,
      "Ã£": 3596,
      "Ġ1989": 3597,
      "Ġresultado": 3598,
      "Ġprincipio": 3599,
      "Ġojos": 3600,
      "Ġautorretrato": 3601,
      "Ġthomas": 3602,
      "Ġ1998": 3603,
      "Ġ1986": 3604,
      "ĠcolaboraciÃ³n": 3605,
      "laga": 3606,
      "Ġgusto": 3607,
      "Ġdescubri": 3608,
      "Ġdesapare": 3609,
      "Ġdicho": 3610,
      "ĠpÃ©rez": 3611,
      "etas": 3612,
      "ude": 3613,
      "san": 3614,
      "Ġdado": 3615,
      "bao": 3616,
      "Ġpierre": 3617,
      "ĠantigÃ¼edad": 3618,
      "Ġ2001": 3619,
      "Ġmilitar": 3620,
      "Ġreconocimiento": 3621,
      "Ġnuevos": 3622,
      "istema": 3623,
      "Ġ1997": 3624,
      "Ġfamiliar": 3625,
      "Ġnivel": 3626,
      "75": 3627,
      "Ġsel": 3628,
      "Ġalguna": 3629,
      "Ġ1994": 3630,
      "Ġ1995": 3631,
      "Ġparedes": 3632,
      "Ġtransfor": 3633,
      "ed": 3634,
      "cito": 3635,
      "ierro": 3636,
      "Ġ1991": 3637,
      "Ġ1987": 3638,
      "Ġbrasil": 3639,
      "ume": 3640,
      "Ġcere": 3641,
      "Ġtard": 3642,
      "Ġata": 3643,
      "Ġnar": 3644,
      "Ġverano": 3645,
      "ĠsiguiÃ³": 3646,
      "Ġletras": 3647,
      "entaciÃ³n": 3648,
      "Ġhall": 3649,
      "Ġefectos": 3650,
      "Ġrenacent": 3651,
      "madrid": 3652,
      "Ġinfant": 3653,
      "Ġaustria": 3654,
      "Ġpersonaje": 3655,
      "ĠbasÃŃ": 3656,
      "icidad": 3657,
      "Ġbuena": 3658,
      "Ġpaneles": 3659,
      "Ġroy": 3660,
      "ĠmenciÃ³n": 3661,
      "Ġflamenco": 3662,
      "cando": 3663,
      "ĠperiÃ³": 3664,
      "Ġalt": 3665,
      "Ã¡r": 3666,
      "Ġlima": 3667,
      "ĠcrÃŃticos": 3668,
      "Ġwo": 3669,
      "Ġcontexto": 3670,
      "ĠrÃ¡p": 3671,
      "Ġcort": 3672,
      "Ġproporcion": 3673,
      "ÃŃstica": 3674,
      "tividad": 3675,
      "Ġmedida": 3676,
      "Ġenci": 3677,
      "irse": 3678,
      "mez": 3679,
      "bas": 3680,
      "Ġemo": 3681,
      "Ġitaliana": 3682,
      "Ġincluye": 3683,
      "Ġespacios": 3684,
      "hol": 3685,
      "Ġhumano": 3686,
      "Ġsistema": 3687,
      "Ġzaragoza": 3688,
      "Ġreligiosa": 3689,
      "Ġconocer": 3690,
      "ward": 3691,
      "Ġsuces": 3692,
      "Ġvalladolid": 3693,
      "Ġ29": 3694,
      "Ġ50": 3695,
      "Ġfar": 3696,
      "ÃŃos": 3697,
      "Ġdella": 3698,
      "Ġdom": 3699,
      "Ġvictoria": 3700,
      "Ġtercera": 3701,
      "Ġcaravag": 3702,
      "Ġintelect": 3703,
      "Ġcompren": 3704,
      "Ġ1996": 3705,
      "Ġ1940": 3706,
      "Ġsuel": 3707,
      "Ġmantu": 3708,
      "ĠprÃŃncipe": 3709,
      "eria": 3710,
      "Ġmanier": 3711,
      "ĠarquitectÃ³n": 3712,
      "Ġrefor": 3713,
      "Ġacuerdo": 3714,
      "Ġemperador": 3715,
      "Ġps": 3716,
      "inidad": 3717,
      "dores": 3718,
      "ĠfernÃ¡ndez": 3719,
      "rillo": 3720,
      "Ġactualidad": 3721,
      "ĠinspiraciÃ³n": 3722,
      "25": 3723,
      "Ãºr": 3724,
      "Ġdedicado": 3725,
      "Ġhaya": 3726,
      "Ġpared": 3727,
      "Ġpeters": 3728,
      "Ġmagdalena": 3729,
      "Ġcic": 3730,
      "arias": 3731,
      "Ġtrabajando": 3732,
      "ĠrealizaciÃ³n": 3733,
      "Ġinfluenci": 3734,
      "up": 3735,
      "cita": 3736,
      "ualmente": 3737,
      "Ġ164": 3738,
      "ĠdifÃŃ": 3739,
      "randt": 3740,
      "iencias": 3741,
      "rena": 3742,
      "Ġpalabras": 3743,
      "rista": 3744,
      "Ġgol": 3745,
      "Ġdefin": 3746,
      "Ġdesconoci": 3747,
      "dir": 3748,
      "heim": 3749,
      "Ġ1993": 3750,
      "ĠpodÃŃa": 3751,
      "uestos": 3752,
      "Ġdijo": 3753,
      "Ġsimple": 3754,
      "onna": 3755,
      "icada": 3756,
      "Ġprofund": 3757,
      "we": 3758,
      "Ġingen": 3759,
      "Ġcirc": 3760,
      "osas": 3761,
      "Ġbene": 3762,
      "Ġox": 3763,
      "teles": 3764,
      "Ġpanel": 3765,
      "Ġentrada": 3766,
      "Ġbodegones": 3767,
      "Ġsost": 3768,
      "Ġvig": 3769,
      "Ġsabe": 3770,
      "Ġjoseph": 3771,
      "):": 3772,
      "cra": 3773,
      "ĠromÃ¡nt": 3774,
      "Ġamplia": 3775,
      "Ã£o": 3776,
      "ĠrÃ©": 3777,
      "ĠespaÃ±oles": 3778,
      "Ġdicha": 3779,
      "Ġlis": 3780,
      "Ġrich": 3781,
      "Ġvisuales": 3782,
      "ĠcompaÃ±ÃŃa": 3783,
      "Ġconcre": 3784,
      "iel": 3785,
      "Ġ1982": 3786,
      "gues": 3787,
      "ĠpolÃŃtico": 3788,
      "ly": 3789,
      "ispo": 3790,
      "Ġexplo": 3791,
      "ensa": 3792,
      "186": 3793,
      "Ġvaria": 3794,
      "ĠcÃ³mo": 3795,
      "sis": 3796,
      "Ġfri": 3797,
      "Ġnarra": 3798,
      "Ã¡nch": 3799,
      "ĠadoraciÃ³n": 3800,
      "Ġalejandro": 3801,
      "Ġrespon": 3802,
      "Ġfama": 3803,
      "Ġ1936": 3804,
      "Ġcosas": 3805,
      "ese": 3806,
      "ÃŃm": 3807,
      "Ġrecup": 3808,
      "Ġideas": 3809,
      "rono": 3810,
      "ĠestableciÃ³": 3811,
      "Ġhistoriador": 3812,
      "Ġhospital": 3813,
      "Ġlito": 3814,
      "Ġavan": 3815,
      "dientes": 3816,
      "Ġfavor": 3817,
      "Ġlibertad": 3818,
      "Ġsex": 3819,
      "Ġfuerza": 3820,
      "Ġej": 3821,
      "gotÃ¡": 3822,
      "Ġinfancia": 3823,
      "ĠjapÃ³n": 3824,
      "Ġalbert": 3825,
      "Ġdivid": 3826,
      "Ġpies": 3827,
      "ĠposiciÃ³n": 3828,
      "Ġtorre": 3829,
      "Ġdecla": 3830,
      "Ġtip": 3831,
      "Ġqued": 3832,
      "let": 3833,
      "Ġjuvent": 3834,
      "Ġmedie": 3835,
      "Ġ1988": 3836,
      "fig": 3837,
      "Ġdia": 3838,
      "osos": 3839,
      "Ġbiz": 3840,
      "Ġcompa": 3841,
      "Ġmarie": 3842,
      "Ġurugua": 3843,
      "mora": 3844,
      "olÃ³gico": 3845,
      "Ġlate": 3846,
      "itz": 3847,
      "Ġcontro": 3848,
      "Ġenlaces": 3849,
      "ancias": 3850,
      "ĠmostrÃ³": 3851,
      "Ġcaballero": 3852,
      "Ġari": 3853,
      "Ġinten": 3854,
      "uma": 3855,
      "Ġtales": 3856,
      "Ġ1964": 3857,
      "ĠpermaneciÃ³": 3858,
      "arÃ¡": 3859,
      "Ġconsigu": 3860,
      "Ġcomienza": 3861,
      "Ġnada": 3862,
      "Ġley": 3863,
      "Ġ1910": 3864,
      "ĠilustraciÃ³n": 3865,
      "ĠbritÃ¡nico": 3866,
      "Ġincorpo": 3867,
      "Ġbilbao": 3868,
      "Ġcompro": 3869,
      "Ġambiente": 3870,
      "ĠresurrecciÃ³n": 3871,
      "Ġjuventud": 3872,
      "Ġ2018": 3873,
      "ĠanunciaciÃ³n": 3874,
      "Ġplanta": 3875,
      "ĠacadÃ©mico": 3876,
      "rue": 3877,
      "tados": 3878,
      "Ġinvit": 3879,
      "vil": 3880,
      "Ġretablos": 3881,
      "Ġtempora": 3882,
      "fran": 3883,
      "guer": 3884,
      "Ġpasado": 3885,
      "Ġsebasti": 3886,
      "eso": 3887,
      "Ġanna": 3888,
      "Ġisbn": 3889,
      "Ġ1890": 3890,
      "Ġaprendiz": 3891,
      "Ġenvi": 3892,
      "Ġaltura": 3893,
      "Ġoblig": 3894,
      "Ġcree": 3895,
      "Ġdig": 3896,
      "ford": 3897,
      "tera": 3898,
      "Ġgradu": 3899,
      "Ġviajes": 3900,
      "ĠfotografÃŃas": 3901,
      "Ġcle": 3902,
      "Ġjue": 3903,
      "entemente": 3904,
      "ivos": 3905,
      "Ġcient": 3906,
      "ĠbasÃŃlica": 3907,
      "Ġprovo": 3908,
      "Ġmarch": 3909,
      "Ġchrist": 3910,
      "ĠexhibiciÃ³n": 3911,
      "Ġphil": 3912,
      "undo": 3913,
      "iter": 3914,
      "Ġ1965": 3915,
      "Ġincluyen": 3916,
      "ĠimpresiÃ³n": 3917,
      "ÏĤ": 3918,
      "Ġlic": 3919,
      "anda": 3920,
      "Ġobserva": 3921,
      "Ġservicio": 3922,
      "len": 3923,
      "Ġmedios": 3924,
      "cher": 3925,
      "Ġleg": 3926,
      "mÃ¡ticas": 3927,
      "Ġche": 3928,
      "Ġdibuj": 3929,
      "Ġmesa": 3930,
      "tadas": 3931,
      "Ġsopor": 3932,
      "Ġern": 3933,
      "Ġigualmente": 3934,
      "Ġconfe": 3935,
      "Ġpintando": 3936,
      "Ġses": 3937,
      "Ġhoras": 3938,
      "Ġhenri": 3939,
      "Ġclaro": 3940,
      "ĠmartÃŃnez": 3941,
      "Ġpronto": 3942,
      "Ġcausa": 3943,
      "Ġcorn": 3944,
      "ertas": 3945,
      "ĠcategorÃŃa": 3946,
      "Ġsola": 3947,
      "Ġmet": 3948,
      "Ġ1959": 3949,
      "Ġsit": 3950,
      "ermo": 3951,
      "inada": 3952,
      "vaciÃ³n": 3953,
      "Ġ1968": 3954,
      "Ġexternos": 3955,
      "ĠmÃ¡laga": 3956,
      "gn": 3957,
      "Ġnacionales": 3958,
      "Ġ149": 3959,
      "vio": 3960,
      "cole": 3961,
      "venciÃ³n": 3962,
      "ĠmitolÃ³g": 3963,
      "yeron": 3964,
      "Ġmirada": 3965,
      "Ġsug": 3966,
      "ĠejecuciÃ³n": 3967,
      "ĠjerÃ³nimo": 3968,
      "Ġdetermin": 3969,
      "Ġpul": 3970,
      "Ġmax": 3971,
      "Ġmira": 3972,
      "Ġviol": 3973,
      "Ġpetersburgo": 3974,
      "micas": 3975,
      "Ġsuba": 3976,
      "Ġgaugu": 3977,
      "Ġmoda": 3978,
      "erial": 3979,
      "Ġtinta": 3980,
      "tida": 3981,
      "Ġconocimiento": 3982,
      "Ġdistintas": 3983,
      "ĠejÃ©r": 3984,
      "Ġgauguin": 3985,
      "stres": 3986,
      "Ġmarcos": 3987,
      "Ġaleg": 3988,
      "Ġgrupos": 3989,
      "Ġsuje": 3990,
      "Ġparale": 3991,
      "Ġ1928": 3992,
      "ĠcataluÃ±a": 3993,
      "Ġninguna": 3994,
      "Ġdor": 3995,
      "Ġpersona": 3996,
      "ĠbogotÃ¡": 3997,
      "Ġlegado": 3998,
      "Ġ1975": 3999,
      "Ġcad": 4000,
      "Ġprofesional": 4001,
      "Ġdocum": 4002,
      "Ġeditorial": 4003,
      "ĠsebastiÃ¡n": 4004,
      "ĠpasiÃ³n": 4005,
      "Ġ1957": 4006,
      "Ġfrancesco": 4007,
      "Ġexiste": 4008,
      "Ġvanguardia": 4009,
      "Ġremb": 4010,
      "ĠtrÃŃptico": 4011,
      "Ġoriental": 4012,
      "gÃ³n": 4013,
      "ÑĢ": 4014,
      "coteca": 4015,
      "Ġclub": 4016,
      "artamento": 4017,
      "cura": 4018,
      "Ð½": 4019,
      "Ġesque": 4020,
      "Ġ1945": 4021,
      "Ġexterior": 4022,
      "Ġposiblemente": 4023,
      "ĠclÃ¡sica": 4024,
      "ĠinvestigaciÃ³n": 4025,
      "Ġmulti": 4026,
      "Ġsosten": 4027,
      "Ġelo": 4028,
      "Ġ1983": 4029,
      "Ġretrospectiva": 4030,
      "Ġinno": 4031,
      "Ġ2019": 4032,
      "Ġfestival": 4033,
      "met": 4034,
      "Ġfeder": 4035,
      "kov": 4036,
      "Ġ100": 4037,
      "guir": 4038,
      "Ã¡nchez": 4039,
      "Ġaus": 4040,
      "ĠtomÃ³": 4041,
      "dice": 4042,
      "Ġisla": 4043,
      "Ġfirma": 4044,
      "ĠabstracciÃ³n": 4045,
      "Ġacuarelas": 4046,
      "Ã³stol": 4047,
      "tario": 4048,
      "Ġ1976": 4049,
      "ĠsÃ¡nchez": 4050,
      "Ġtes": 4051,
      "Ġpintados": 4052,
      "Ġbell": 4053,
      "Ġencargos": 4054,
      "Ġreligioso": 4055,
      "vier": 4056,
      "Ġsede": 4057,
      "Ġblanca": 4058,
      "Ġbanco": 4059,
      "Ġasimismo": 4060,
      ".\"": 4061,
      "mont": 4062,
      "Ġabad": 4063,
      "Ġministerio": 4064,
      "Ġ1900": 4065,
      "Ġdiario": 4066,
      "encias": 4067,
      "Ġconst": 4068,
      "cht": 4069,
      "ker": 4070,
      "orme": 4071,
      "ind": 4072,
      "Ġproce": 4073,
      "Ġ1978": 4074,
      "Ġ1929": 4075,
      "Ġdol": 4076,
      "ÃŃstico": 4077,
      "187": 4078,
      "Ġimpresionismo": 4079,
      "Ġvivir": 4080,
      "Ġtalento": 4081,
      "Ġcomunidad": 4082,
      "Ã§o": 4083,
      "Ġcontenido": 4084,
      "tual": 4085,
      "Ã©nt": 4086,
      "Ã³rico": 4087,
      "ij": 4088,
      "inast": 4089,
      "Ġpueb": 4090,
      "Ġ1937": 4091,
      "Ġtriun": 4092,
      "ĠingresÃ³": 4093,
      "Ġsimbolismo": 4094,
      "rÃŃan": 4095,
      "Ġscho": 4096,
      "Ġescal": 4097,
      "Ġaproximadamente": 4098,
      "cÃ¡n": 4099,
      "vado": 4100,
      "tolo": 4101,
      "emos": 4102,
      "ement": 4103,
      "ĠapÃ³stol": 4104,
      "Ġ1967": 4105,
      "Ġmercado": 4106,
      "Ġexpresionismo": 4107,
      "ĠnicolÃ¡s": 4108,
      "ches": 4109,
      "Ġwh": 4110,
      "Ġllegar": 4111,
      "Ġ1981": 4112,
      "ĠsimbÃ³": 4113,
      "dados": 4114,
      "Ġgusta": 4115,
      "Ġ1979": 4116,
      "Ġpolic": 4117,
      "Ġrequer": 4118,
      "dela": 4119,
      "Ġsalas": 4120,
      "Ġ1963": 4121,
      "erland": 4122,
      "ĠalegorÃŃa": 4123,
      "Ġversiones": 4124,
      "zando": 4125,
      "Ġsobreviv": 4126,
      "Ġhicieron": 4127,
      "cente": 4128,
      "ÃŃb": 4129,
      "ĠtenÃŃan": 4130,
      "Ġ1962": 4131,
      "Ġvisita": 4132,
      "Ġbocetos": 4133,
      "Ġrasgos": 4134,
      "bell": 4135,
      "Ġapor": 4136,
      "Ġtendencia": 4137,
      "Ġlatino": 4138,
      "Ġindic": 4139,
      "Ġdesign": 4140,
      "Ġ1958": 4141,
      "Ġrelieve": 4142,
      "Ġcuel": 4143,
      "Ġpredo": 4144,
      "Ġflorent": 4145,
      "Ġcatalina": 4146,
      "ĠgÃ³mez": 4147,
      "Ġsencil": 4148,
      "Ġrembrandt": 4149,
      "Ġrele": 4150,
      "Ġteat": 4151,
      "Ġhojas": 4152,
      "Ġalumnos": 4153,
      "ĠinterpretaciÃ³n": 4154,
      "Ġmarc": 4155,
      "pole": 4156,
      "Ġsigue": 4157,
      "Ġtratamiento": 4158,
      "dente": 4159,
      "Ġit": 4160,
      "como": 4161,
      "Ġfederico": 4162,
      "ĠpÃºblica": 4163,
      "Ġ1961": 4164,
      "Ġprogres": 4165,
      "Ġrica": 4166,
      "Ġ1913": 4167,
      "Ġdescribe": 4168,
      "Ġestilos": 4169,
      "mio": 4170,
      "Ġabra": 4171,
      "ĠandrÃ©s": 4172,
      "borÃ³": 4173,
      "Ġkar": 4174,
      "ĠfundÃ³": 4175,
      "Ġcampes": 4176,
      "Ġada": 4177,
      "Ġanteriores": 4178,
      "gados": 4179,
      "Ġul": 4180,
      "Ġhalla": 4181,
      "Ġhisp": 4182,
      "Ġinmedia": 4183,
      "dios": 4184,
      "inci": 4185,
      "Ġ1972": 4186,
      "Ġmemoria": 4187,
      "Ñģ": 4188,
      "Ġsta": 4189,
      "Ġsuiza": 4190,
      "Ġbarrio": 4191,
      "ĠdÃ©cadas": 4192,
      "ĠfÃŃs": 4193,
      "ridad": 4194,
      "Ġrespecto": 4195,
      "ĠcolaborÃ³": 4196,
      "ĠotoÃ±o": 4197,
      "Ġdinast": 4198,
      "Ġornam": 4199,
      "Ġ1912": 4200,
      "Ġconcepto": 4201,
      "Ġcaja": 4202,
      "leta": 4203,
      "ame": 4204,
      "Ġfondos": 4205,
      "lado": 4206,
      "vich": 4207,
      "Ġtele": 4208,
      "Ġgob": 4209,
      "Ġsostiene": 4210,
      "Ġocur": 4211,
      "ensiÃ³n": 4212,
      "Ġmetropolit": 4213,
      "Ġcompar": 4214,
      "Ġtuvieron": 4215,
      "ĠdestacÃ³": 4216,
      "Ġampli": 4217,
      "Ġcantidad": 4218,
      "Ġentorno": 4219,
      "Ġalfonso": 4220,
      "gl": 4221,
      "erÃ³": 4222,
      "leos": 4223,
      "Ġescuelas": 4224,
      "vant": 4225,
      "rones": 4226,
      "ĠseÃ±or": 4227,
      "olÃ³gica": 4228,
      "Ġmur": 4229,
      "Ġcli": 4230,
      "ĠperÃº": 4231,
      "Ġ1973": 4232,
      "ĠinstituciÃ³n": 4233,
      "ĠiconografÃŃa": 4234,
      "ĠagustÃŃn": 4235,
      "Ġobjetivo": 4236,
      "ĠejÃ©rcito": 4237,
      "mor": 4238,
      "Ġhaciendo": 4239,
      "Ġ176": 4240,
      "into": 4241,
      "Ġpatr": 4242,
      "Ġanton": 4243,
      "Ġdispon": 4244,
      "iforn": 4245,
      "menes": 4246,
      "Ġdirectamente": 4247,
      "rin": 4248,
      "ĠlÃ©": 4249,
      "Ġsociales": 4250,
      "Ġquer": 4251,
      "Ġ1966": 4252,
      "Ġilustrador": 4253,
      "ariciÃ³n": 4254,
      "ila": 4255,
      "ok": 4256,
      "Ġcoinci": 4257,
      "hu": 4258,
      "hel": 4259,
      "onas": 4260,
      "lot": 4261,
      "ĠmudÃ³": 4262,
      "Ġactitud": 4263,
      "Ã¢": 4264,
      "Ġnoble": 4265,
      "ĠdiseÃ±os": 4266,
      "Ġdatos": 4267,
      "fera": 4268,
      "sion": 4269,
      "ĠsecciÃ³n": 4270,
      "Ġformado": 4271,
      "Ġpinacoteca": 4272,
      "cidas": 4273,
      "clus": 4274,
      "ĠgÃ³tico": 4275,
      "Ġepiso": 4276,
      "Ġtipos": 4277,
      "Ġdip": 4278,
      "ĠprÃ³": 4279,
      "Ġgua": 4280,
      "Ġ1939": 4281,
      "Ġprograma": 4282,
      "Ġmantuvo": 4283,
      "lag": 4284,
      "quina": 4285,
      "Ġmetal": 4286,
      "Ġ1974": 4287,
      "Ġoscuro": 4288,
      "Ġmarido": 4289,
      "Ġcarb": 4290,
      "Ġcompon": 4291,
      "Ġxiv": 4292,
      "Ġmuerto": 4293,
      "Ġ40": 4294,
      "ivamente": 4295,
      "micos": 4296,
      "ĠclÃ¡sico": 4297,
      "Ġacerca": 4298,
      "uario": 4299,
      "Ġmary": 4300,
      "Ġrepresentada": 4301,
      "Ġmanifie": 4302,
      "rino": 4303,
      "Ġvisto": 4304,
      "Ġfirmado": 4305,
      "Ġcump": 4306,
      "Ġ1925": 4307,
      "ÃŃfica": 4308,
      "Ġenf": 4309,
      "ctores": 4310,
      "Ġfundador": 4311,
      "Ġaquella": 4312,
      "Ġbizant": 4313,
      "Ġconme": 4314,
      "Ġoc": 4315,
      "erado": 4316,
      "Ġ1954": 4317,
      "ĠutilizÃ³": 4318,
      "dencias": 4319,
      "ĠparticipaciÃ³n": 4320,
      "Ġlenguaje": 4321,
      "Ġrealizados": 4322,
      "Ġ1955": 4323,
      "Ġ1927": 4324,
      "Ġinicia": 4325,
      "ĠraÃŃ": 4326,
      "ĠÃ¡mb": 4327,
      "Ġgalerie": 4328,
      "Ġhorizo": 4329,
      "Ġcuest": 4330,
      "ĠdifÃŃcil": 4331,
      "Ġning": 4332,
      "ibles": 4333,
      "Ġ159": 4334,
      "ĠrodrÃŃ": 4335,
      "Ġcondu": 4336,
      "Ġ1977": 4337,
      "Ġrenacentista": 4338,
      "Ġmens": 4339,
      "dera": 4340,
      "ĠrodrÃŃguez": 4341,
      "Ð²": 4342,
      "riel": 4343,
      "Ġpont": 4344,
      "Ġ60": 4345,
      "Ġtono": 4346,
      "Ġprepara": 4347,
      "Ġ1947": 4348,
      "Ġdestacado": 4349,
      "Ġoriginales": 4350,
      "Ġreligiosos": 4351,
      "Ġjames": 4352,
      "Ġvistas": 4353,
      "Ġgil": 4354,
      "ami": 4355,
      "cant": 4356,
      "umen": 4357,
      "Ġlarga": 4358,
      "haus": 4359,
      "ornos": 4360,
      "ifornia": 4361,
      "gia": 4362,
      "Ġgente": 4363,
      "Ġarri": 4364,
      "mbol": 4365,
      "Ġrojas": 4366,
      "Ġcarden": 4367,
      "Ġprimi": 4368,
      "Ġcolumnas": 4369,
      "amb": 4370,
      "Ġnov": 4371,
      "Ġimpul": 4372,
      "Ġ1969": 4373,
      "ĠningÃºn": 4374,
      "Ġdevo": 4375,
      "ani": 4376,
      "ĠbÃ©l": 4377,
      "ĠtomÃ¡s": 4378,
      "Ġwar": 4379,
      "Ãºltip": 4380,
      "stein": 4381,
      "Ġpermanente": 4382,
      "Ġesos": 4383,
      "Ġmara": 4384,
      "Ġcarmen": 4385,
      "Ġpieter": 4386,
      "Ġtreinta": 4387,
      "Ġhubo": 4388,
      "amos": 4389,
      "eth": 4390,
      "ĠandrÃ©": 4391,
      "Ġconvirti": 4392,
      "Ġconsejo": 4393,
      "Ġpermite": 4394,
      "Ġestudiantes": 4395,
      "Ġclaros": 4396,
      "Ġprimavera": 4397,
      "sin": 4398,
      "Ġconsiderada": 4399,
      "Ġgeorge": 4400,
      "Ġsat": 4401,
      "ĠmÃºltip": 4402,
      "Ġconocidos": 4403,
      "Ġ1956": 4404,
      "Ġsua": 4405,
      "Ġpintadas": 4406,
      "Ġcorona": 4407,
      "Ġparecen": 4408,
      "Ġ1948": 4409,
      "Ġreligiosas": 4410,
      "ĠinscripciÃ³n": 4411,
      "unciÃ³n": 4412,
      "ith": 4413,
      "Ġfach": 4414,
      "Ġvincul": 4415,
      "Ġproblemas": 4416,
      "din": 4417,
      "Ġ),": 4418,
      "ĠentrÃ³": 4419,
      "Ġdorado": 4420,
      "Ġaplica": 4421,
      "Ġconocidas": 4422,
      "video": 4423,
      "ĠplÃ¡stica": 4424,
      "Ġmonumental": 4425,
      "Ġrefleja": 4426,
      "ĠdemÃ¡s": 4427,
      "Ġ156": 4428,
      "Ġfranceses": 4429,
      "Ġelemento": 4430,
      "Ġapoy": 4431,
      "Ġcreado": 4432,
      "Ġbartolo": 4433,
      "Ġ1971": 4434,
      "Ġdistintos": 4435,
      "Ġjacob": 4436,
      "garon": 4437,
      "ans": 4438,
      "urado": 4439,
      "Ġpietro": 4440,
      "ÏĦ": 4441,
      "tien": 4442,
      "Ġacces": 4443,
      "Ġcolonia": 4444,
      "minist": 4445,
      "ĠencontrÃ³": 4446,
      "ser": 4447,
      "Ġreconocido": 4448,
      "Ã¨re": 4449,
      "Ġretratista": 4450,
      "Ġ1953": 4451,
      "Ġlocalidad": 4452,
      "Ġmexicano": 4453,
      "dy": 4454,
      "Ġ1931": 4455,
      "Ġtiempos": 4456,
      "Ġparticularmente": 4457,
      "Ġdesnudos": 4458,
      "ben": 4459,
      "pti": 4460,
      "Ġgregor": 4461,
      "Ġtitulado": 4462,
      "Ġseleccion": 4463,
      "Ġlista": 4464,
      "Ġbri": 4465,
      "grÃ¡ficos": 4466,
      "Ġespiritual": 4467,
      "Ġpis": 4468,
      "cuent": 4469,
      "Ġconfor": 4470,
      "ĠhacÃŃa": 4471,
      "Ġpoe": 4472,
      "Ġaspe": 4473,
      "putaciÃ³n": 4474,
      "Ġcolorido": 4475,
      "Ġ1934": 4476,
      "Ġsuelo": 4477,
      "Ġroyal": 4478,
      "cales": 4479,
      "Ġ1942": 4480,
      "Ġmagn": 4481,
      "Ġ1914": 4482,
      "Ġocupa": 4483,
      "Ġparque": 4484,
      "ĠmÃ©di": 4485,
      "Ġmovimientos": 4486,
      "Ġpaulo": 4487,
      "biendo": 4488,
      "Ġleyen": 4489,
      "Ġromana": 4490,
      "Ġconsist": 4491,
      "Ġimperial": 4492,
      "Ġpasto": 4493,
      "diciones": 4494,
      "Ġcaus": 4495,
      "Ã³sito": 4496,
      "yer": 4497,
      "Ġsem": 4498,
      "ulta": 4499,
      "paÃ±a": 4500,
      "Ġexten": 4501,
      "Ġcompleto": 4502,
      "Ġdedicada": 4503,
      "burg": 4504,
      "ĠteorÃŃa": 4505,
      "23": 4506,
      "wn": 4507,
      "Ġmist": 4508,
      "Ġmall": 4509,
      "Ġases": 4510,
      "Ġguill": 4511,
      "ĠpermitiÃ³": 4512,
      "ĠpÃ¡gina": 4513,
      "Ġpalma": 4514,
      "ĠcontemporÃ¡nea": 4515,
      "amen": 4516,
      "Ġobstante": 4517,
      "ĠacciÃ³n": 4518,
      "Ġpreten": 4519,
      "Ġpeter": 4520,
      "Ġapenas": 4521,
      "Ġ1932": 4522,
      "Ġ1946": 4523,
      "Ġtitulada": 4524,
      "Ġadap": 4525,
      "ty": 4526,
      "Ġunido": 4527,
      "Ġhacen": 4528,
      "Ġmadonna": 4529,
      "Ġcrucif": 4530,
      "ĠexhibiÃ³": 4531,
      "ĠenseÃ±anza": 4532,
      "sch": 4533,
      "Ġsint": 4534,
      "ĠdiputaciÃ³n": 4535,
      "Ġtej": 4536,
      "Ġnombres": 4537,
      "Ġneerland": 4538,
      "frica": 4539,
      "raron": 4540,
      "Ġmostrar": 4541,
      "Ġace": 4542,
      "ĠÃºltimas": 4543,
      "Ġfacultad": 4544,
      "ĠbÃ³": 4545,
      "Ġconclu": 4546,
      "Ġperdido": 4547,
      "Ġespec": 4548,
      "Ġ1926": 4549,
      "ĠprÃ¡ctica": 4550,
      "22": 4551,
      "orca": 4552,
      "quÃ©s": 4553,
      "Ġenten": 4554,
      "Ġtercer": 4555,
      "Ġsiguiendo": 4556,
      "Ġvasari": 4557,
      "Ġsignificado": 4558,
      "ius": 4559,
      "Ġafe": 4560,
      "Ġgl": 4561,
      "Ġbreve": 4562,
      "ĠÂ¿": 4563,
      "Ïħ": 4564,
      "Ġprivadas": 4565,
      "ĠcÃ©le": 4566,
      "Ġlit": 4567,
      "Ġescas": 4568,
      "Ġguad": 4569,
      "Ġcapit": 4570,
      "ĠallÃ¡": 4571,
      "pla": 4572,
      "Ġcrit": 4573,
      "Ġase": 4574,
      "raciones": 4575,
      "Ġgro": 4576,
      "Ġpoemas": 4577,
      "Ġhans": 4578,
      "Ġdrama": 4579,
      "Ġee": 4580,
      "entar": 4581,
      "Ġvii": 4582,
      "Ġopor": 4583,
      "Ġalcal": 4584,
      "igh": 4585,
      "Ġtemple": 4586,
      "Ġmezcla": 4587,
      "ot": 4588,
      "pÃ³": 4589,
      "Ġnapole": 4590,
      "Ġdoce": 4591,
      "cialmente": 4592,
      "Ġcala": 4593,
      "Ġ1922": 4594,
      "Ġembaj": 4595,
      "Ġactividades": 4596,
      "Ġescultores": 4597,
      "Ġnoti": 4598,
      "Ġvalenci": 4599,
      "Ġinicialmente": 4600,
      "Ġluna": 4601,
      "Ġ1919": 4602,
      "Ġ1908": 4603,
      "Ġusa": 4604,
      "Ġpublicaciones": 4605,
      "Ġmichel": 4606,
      "Ġcaravaggio": 4607,
      "Ġrestos": 4608,
      "Ġancho": 4609,
      "minaciÃ³n": 4610,
      "Ġalberga": 4611,
      "Ġaspectos": 4612,
      "tÃ³n": 4613,
      "Ġrosario": 4614,
      "Ġizquierdo": 4615,
      "Ġferia": 4616,
      "ĠbodegÃ³n": 4617,
      "Ġnovela": 4618,
      "inio": 4619,
      "cenas": 4620,
      "ĠdinastÃŃa": 4621,
      "45": 4622,
      "fic": 4623,
      "Ġsam": 4624,
      "Ġvat": 4625,
      "Ġrivera": 4626,
      "Ġsustitu": 4627,
      "ĠbÃŃb": 4628,
      "Ġxiii": 4629,
      "metros": 4630,
      "Ġ1933": 4631,
      "Ġrevistas": 4632,
      "Ġ1880": 4633,
      "Ġestampas": 4634,
      "ps": 4635,
      "Ġenmar": 4636,
      "tiz": 4637,
      "Ġescritores": 4638,
      "Ġ80": 4639,
      "Ġcement": 4640,
      "inados": 4641,
      "Ġexpuesto": 4642,
      "Ġdata": 4643,
      "alleres": 4644,
      "Ġproyectos": 4645,
      "Ġllama": 4646,
      "ÃŃdo": 4647,
      "izados": 4648,
      "Ġrecibe": 4649,
      "Ġvidrio": 4650,
      "26": 4651,
      "Ġdurero": 4652,
      "Ġtemprana": 4653,
      "fica": 4654,
      "Ġvac": 4655,
      "Ġcalifornia": 4656,
      "Ġly": 4657,
      "Ġblo": 4658,
      "Ġpopu": 4659,
      "Ġadelante": 4660,
      "Ġanimal": 4661,
      "ĠgrÃ¡fico": 4662,
      "ĠmusÃ©e": 4663,
      "Ġanto": 4664,
      "Ġ1949": 4665,
      "Ġ1911": 4666,
      "Ġpract": 4667,
      "Ġprestig": 4668,
      "Ġradic": 4669,
      "Ġvariedad": 4670,
      "Ġpubl": 4671,
      "Ġrecuerda": 4672,
      "Ġutilizado": 4673,
      "Ġfalta": 4674,
      "ĠmÃºltiples": 4675,
      "24": 4676,
      "pro": 4677,
      "resion": 4678,
      "itario": 4679,
      "Ġinteriores": 4680,
      "Ġpuntos": 4681,
      "inar": 4682,
      "Ġarmon": 4683,
      "Ġmanet": 4684,
      "Ġcabez": 4685,
      "Ġeduardo": 4686,
      "ĠinstalÃ³": 4687,
      "Ġestatuas": 4688,
      "35": 4689,
      "stes": 4690,
      "Ġflu": 4691,
      "Ġpropios": 4692,
      "ĠfunciÃ³n": 4693,
      "Ġ1924": 4694,
      "Ġfemenina": 4695,
      "Ġevo": 4696,
      "rey": 4697,
      "ÃŃda": 4698,
      "Ã©ndo": 4699,
      "Ġuc": 4700,
      "Ġpaint": 4701,
      "Ġcome": 4702,
      "Ġculturales": 4703,
      "Ġ1909": 4704,
      "Ġimpresionista": 4705,
      "raba": 4706,
      "Ġsoci": 4707,
      "Ġcostumb": 4708,
      "Ġdama": 4709,
      "uno": 4710,
      "iga": 4711,
      "Ġquin": 4712,
      "Ġ1951": 4713,
      "Ġpertenece": 4714,
      "Ġenferme": 4715,
      "Ġencima": 4716,
      "ĠbÃ©lgica": 4717,
      "Ġenv": 4718,
      "cencia": 4719,
      "dar": 4720,
      "enÃ³": 4721,
      "Ġdestacados": 4722,
      "boa": 4723,
      "viera": 4724,
      "adel": 4725,
      "Ġtratado": 4726,
      "Ġconsec": 4727,
      "Ġhenry": 4728,
      "Ġpopulares": 4729,
      "ilares": 4730,
      "ĠfÃ¡": 4731,
      "Ġreconocimientos": 4732,
      "Ġfragmentos": 4733,
      "Ġsalud": 4734,
      "rarse": 4735,
      "Ġ1917": 4736,
      "dicos": 4737,
      "fia": 4738,
      "ust": 4739,
      "Ġgas": 4740,
      "ĠniÃ±a": 4741,
      "Ġ1905": 4742,
      "Ġhabitual": 4743,
      "Ġcardenal": 4744,
      "Ġke": 4745,
      "Ġidentidad": 4746,
      "Ġaquellos": 4747,
      "Ġminiaturas": 4748,
      "Ġut": 4749,
      "taciones": 4750,
      "Ġpreo": 4751,
      "Ġprepa": 4752,
      "Ġsorp": 4753,
      "ctas": 4754,
      "Ġdestacar": 4755,
      "ction": 4756,
      "izan": 4757,
      "Ġ1935": 4758,
      "ried": 4759,
      "Ġpuertas": 4760,
      "Ġindependiente": 4761,
      "Ġcra": 4762,
      "eramente": 4763,
      "Ġqui": 4764,
      "Ġformar": 4765,
      "Ġoriginalmente": 4766,
      "ĠevoluciÃ³n": 4767,
      "Ġenfermedad": 4768,
      "84": 4769,
      "rer": 4770,
      "idamente": 4771,
      "emia": 4772,
      "ĠÃ¡rboles": 4773,
      "Ġecuador": 4774,
      "Ġgobern": 4775,
      "vos": 4776,
      "rante": 4777,
      "Ġvert": 4778,
      "Ġventa": 4779,
      "Ġvatic": 4780,
      "ĠquÃ©": 4781,
      "Ġimagin": 4782,
      "Ġexperiencia": 4783,
      "ĠabandonÃ³": 4784,
      "ĠdÃ©": 4785,
      "Ġjuicio": 4786,
      "Ġwa": 4787,
      "Ġ175": 4788,
      "ĠhistÃ³rica": 4789,
      "ĠadquiriÃ³": 4790,
      "ĠbÃ³ve": 4791,
      "Ġpinta": 4792,
      "izadas": 4793,
      "ĠserÃ¡": 4794,
      "Ã³rica": 4795,
      "Ġ1915": 4796,
      "culas": 4797,
      "Ġsimilares": 4798,
      "bum": 4799,
      "ft": 4800,
      "Ġaum": 4801,
      "entas": 4802,
      "rido": 4803,
      "Ġescala": 4804,
      "Ġabri": 4805,
      "Ġveinte": 4806,
      "cepciÃ³n": 4807,
      "Ġgabriel": 4808,
      "Ġrequerida": 4809,
      "Ġmonet": 4810,
      "Ġhechos": 4811,
      "Ġdepen": 4812,
      "oli": 4813,
      "Ġang": 4814,
      "Ġprue": 4815,
      "Ġ1943": 4816,
      "ĠcatÃ³lica": 4817,
      "Ġdescen": 4818,
      "Ġasign": 4819,
      "Ġseries": 4820,
      "Ġcomis": 4821,
      "Ġtrabaja": 4822,
      "Ġ1938": 4823,
      "Ġ1904": 4824,
      "Ġ1906": 4825,
      "Ġmuestras": 4826,
      "Ġbrillante": 4827,
      "Ġangel": 4828,
      "Ġpaleta": 4829,
      "Ġplanos": 4830,
      "Ġfilip": 4831,
      "Ġpiel": 4832,
      "Ġtheo": 4833,
      "Ġhora": 4834,
      "Ġllegada": 4835,
      "Ġconvers": 4836,
      "Ġ1952": 4837,
      "Ġandalu": 4838,
      "Ġcuarto": 4839,
      "Ġcementerio": 4840,
      "olo": 4841,
      "Ġtalleres": 4842,
      "Ġ1918": 4843,
      "Ġcortes": 4844,
      "Ġ1921": 4845,
      "Ġescritos": 4846,
      "Ġestatal": 4847,
      "Ġbernard": 4848,
      "Ġgeorges": 4849,
      "Ġcora": 4850,
      "Ġduda": 4851,
      "Ġrevel": 4852,
      "mu": 4853,
      "tti": 4854,
      "umb": 4855,
      "Ġeyck": 4856,
      "gadas": 4857,
      "ĠdÃŃaz": 4858,
      "Ġbrazos": 4859,
      "Ġleo": 4860,
      "Ġsepa": 4861,
      "Ġresp": 4862,
      "185": 4863,
      "Ã§ois": 4864,
      "Ġtoma": 4865,
      "Ġpode": 4866,
      "Ġediciones": 4867,
      "ĠdebÃŃa": 4868,
      "Ġmillones": 4869,
      "Ġenterrado": 4870,
      "Ġmide": 4871,
      "chen": 4872,
      "Ġpropias": 4873,
      "muse": 4874,
      "Ġdetalle": 4875,
      "ĠvisitÃ³": 4876,
      "bia": 4877,
      "ĠÃ³r": 4878,
      "ĠsÃ³": 4879,
      "ieren": 4880,
      "Ġobispo": 4881,
      "Ġexclus": 4882,
      "Ġcontraste": 4883,
      "Ġantiguas": 4884,
      "Ġopin": 4885,
      "Ġsecund": 4886,
      "Ġprensa": 4887,
      "allas": 4888,
      "Ġtecho": 4889,
      "Ġbaja": 4890,
      "Ġcultiv": 4891,
      "gent": 4892,
      "cien": 4893,
      "eses": 4894,
      "ĠÃ³leos": 4895,
      "ĠasistiÃ³": 4896,
      "zaron": 4897,
      "Ïģ": 4898,
      "icales": 4899,
      "ĠapariciÃ³n": 4900,
      "Ġterrit": 4901,
      "Ġcompletamente": 4902,
      "Ġdiferente": 4903,
      "ĠhistÃ³ricos": 4904,
      "ĠocasiÃ³n": 4905,
      "Ġdepartamento": 4906,
      "Ġcubismo": 4907,
      "Ġmani": 4908,
      "Ġcastilla": 4909,
      "Ġenfo": 4910,
      "enses": 4911,
      "Ġsitio": 4912,
      "Ġbou": 4913,
      "Ġbeaux": 4914,
      "Ġinstituciones": 4915,
      "ĠlÃ¡p": 4916,
      "Ġventana": 4917,
      "Ġllu": 4918,
      "Ġ(-": 4919,
      "Ġcaballos": 4920,
      "colo": 4921,
      "ienen": 4922,
      "urt": 4923,
      "Ġinsp": 4924,
      "Ġseguido": 4925,
      "oce": 4926,
      "idor": 4927,
      "Ġmarti": 4928,
      "Ġapar": 4929,
      "Ġ1907": 4930,
      "Ġindustrial": 4931,
      "Ġran": 4932,
      "Ġeso": 4933,
      "sky": 4934,
      "Ġjapones": 4935,
      "Ġlong": 4936,
      "reza": 4937,
      "Ġreto": 4938,
      "elle": 4939,
      "ntera": 4940,
      "Ġric": 4941,
      "Ġuu": 4942,
      "Ġingles": 4943,
      "polis": 4944,
      "Ġpatrimonio": 4945,
      "ĠsituaciÃ³n": 4946,
      "Ġqueda": 4947,
      "Ġ1923": 4948,
      "Ġoficios": 4949,
      "Ã³logo": 4950,
      "Ġconstant": 4951,
      "ximo": 4952,
      "ioso": 4953,
      "Ġ1944": 4954,
      "Ġrelaciones": 4955,
      "Ġampl": 4956,
      "dis": 4957,
      "Ġcarica": 4958,
      "ionales": 4959,
      "Ġ177": 4960,
      "Ġindica": 4961,
      "ĠinformaciÃ³n": 4962,
      "Ġcorriente": 4963,
      "Ġlaterales": 4964,
      "zco": 4965,
      "ĠdebiÃ³": 4966,
      "Ġalba": 4967,
      "ĠfotÃ³": 4968,
      "mbolos": 4969,
      "Ġguillermo": 4970,
      "ciano": 4971,
      "Ġpatio": 4972,
      "Ġimit": 4973,
      "say": 4974,
      "Ġ70": 4975,
      "Ġdesempe": 4976,
      "Ġfas": 4977,
      "Ġ(\"": 4978,
      "Ġprol": 4979,
      "cuad": 4980,
      "ive": 4981,
      "ĠmÃ©todo": 4982,
      "Ġ1941": 4983,
      "Ġviaj": 4984,
      "Ġcastell": 4985,
      "sal": 4986,
      "Ġpic": 4987,
      "osofÃŃa": 4988,
      "Ġvictor": 4989,
      "ĠsÃ¡": 4990,
      "Ġmayores": 4991,
      "arts": 4992,
      "Ġcompleta": 4993,
      "kin": 4994,
      "rador": 4995,
      "Ġarmas": 4996,
      "ella": 4997,
      "Ġ169": 4998,
      "ĠsÃŃmbolos": 4999,
      "ov": 5000,
      "arlo": 5001,
      "Ġhuel": 5002,
      "Ġrol": 5003,
      "ĠrazÃ³n": 5004,
      "Ġapoyo": 5005,
      "ĠnapoleÃ³n": 5006,
      "by": 5007,
      "Ġfuncion": 5008,
      "Ġconsiderar": 5009,
      "Ġ1889": 5010,
      "Ġmascul": 5011,
      "Ġposee": 5012,
      "americana": 5013,
      "Ġrepresentando": 5014,
      "Ġhotel": 5015,
      "Ġcolla": 5016,
      "Ġmartin": 5017,
      "ĠplÃ¡stico": 5018,
      "ĠconsiguiÃ³": 5019,
      "Ġequi": 5020,
      "Ġreve": 5021,
      "ĠpresentaciÃ³n": 5022,
      "Ġinicios": 5023,
      "ĠpÃºblicas": 5024,
      "Ġportugal": 5025,
      "28": 5026,
      "Ãºsque": 5027,
      "ÃŃpulos": 5028,
      "Ġsuele": 5029,
      "Ġsombras": 5030,
      "ity": 5031,
      "icios": 5032,
      "Ġrepresentados": 5033,
      "Ġbea": 5034,
      "Ġinternacionales": 5035,
      "Ġjosep": 5036,
      "Ġcomienzos": 5037,
      "ueva": 5038,
      "Ġconqu": 5039,
      "Ġ31": 5040,
      "Ġdinam": 5041,
      "ĠÃ¡lbum": 5042,
      "Ġcel": 5043,
      "Ġagra": 5044,
      "ĠbÃºsque": 5045,
      "uraciÃ³n": 5046,
      "Ġ1901": 5047,
      "Ġvanguardi": 5048,
      "ĠquizÃ¡s": 5049,
      "Ġfantas": 5050,
      "ÃŃgen": 5051,
      "Ġ2020": 5052,
      "Ġaustra": 5053,
      "Ġconvier": 5054,
      "Ġformal": 5055,
      "Ġindependencia": 5056,
      "Ġadquirido": 5057,
      "Ġvuelta": 5058,
      "Ġfuturo": 5059,
      "Ġmedieval": 5060,
      "Ġdemas": 5061,
      "ĠmirÃ³": 5062,
      "Ġgent": 5063,
      "Ġperd": 5064,
      "ĠsofÃŃa": 5065,
      "urgo": 5066,
      "Ġxii": 5067,
      "Ġpalabra": 5068,
      "ĠintenciÃ³n": 5069,
      "Ġsolici": 5070,
      "Ġextranjero": 5071,
      "Ġnub": 5072,
      "lantes": 5073,
      "Ġexplica": 5074,
      "Ġevolucion": 5075,
      "Ġmontevideo": 5076,
      "Ġconvertir": 5077,
      "Ġobtener": 5078,
      "Ġcercano": 5079,
      "xima": 5080,
      "Ġarm": 5081,
      "Ġcarre": 5082,
      "Ġadminist": 5083,
      "Ġhabilidad": 5084,
      "Ġfamosa": 5085,
      "Ġtradicionales": 5086,
      "Ġcomercia": 5087,
      "Ġcollege": 5088,
      "Ġdolor": 5089,
      "ulas": 5090,
      "Ġlocales": 5091,
      "Ġnave": 5092,
      "Ġcartel": 5093,
      "Ġilustrado": 5094,
      "Ġvinci": 5095,
      "Ġpoema": 5096,
      "cam": 5097,
      "get": 5098,
      "mis": 5099,
      "Ġ000": 5100,
      "illos": 5101,
      "ĠmarquÃ©s": 5102,
      "Ġexplic": 5103,
      "Ġann": 5104,
      "ĠasunciÃ³n": 5105,
      "Ġdestacadas": 5106,
      "Ġexistencia": 5107,
      "Ġcabezas": 5108,
      "Ġhal": 5109,
      "Ġmuro": 5110,
      "imos": 5111,
      "Ġraz": 5112,
      "Ġrib": 5113,
      "Ġmonumentos": 5114,
      "Ġrelacionado": 5115,
      "Ġsurrealismo": 5116,
      "27": 5117,
      "cti": 5118,
      "Ġpit": 5119,
      "ĠfÃ¡b": 5120,
      "Ġvil": 5121,
      "Ġmoral": 5122,
      "Ġespecie": 5123,
      "Ġcalles": 5124,
      "Ġatenas": 5125,
      "Ġactu": 5126,
      "Ġelegido": 5127,
      "fÃ©": 5128,
      "Ġdecl": 5129,
      "Ġdejar": 5130,
      "ĠhÃ©": 5131,
      "Ġconcent": 5132,
      "ibilidad": 5133,
      "Ġtenido": 5134,
      "Ġtransmi": 5135,
      "ele": 5136,
      "Ġrit": 5137,
      "Ġhogar": 5138,
      "oston": 5139,
      "ĠsensaciÃ³n": 5140,
      "Ġrenoir": 5141,
      "Ġconstante": 5142,
      "Ġseme": 5143,
      "Ġencargado": 5144,
      "Ġseguir": 5145,
      "Ġfemenino": 5146,
      "ĠquizÃ¡": 5147,
      "Ġpuso": 5148,
      "ald": 5149,
      "Ġhern": 5150,
      "ili": 5151,
      "Ġindia": 5152,
      "Ġdeseo": 5153,
      "ĠÃ©ste": 5154,
      "Ġpiedad": 5155,
      "Ġcaracteriza": 5156,
      "Ġcincuent": 5157,
      "Ġfallecimiento": 5158,
      "Ġdestino": 5159,
      "Ġcapacidad": 5160,
      "Ġperfor": 5161,
      "Ġadol": 5162,
      "ĠpublicaciÃ³n": 5163,
      "ĠlogrÃ³": 5164,
      "Ġuruguay": 5165,
      "cat": 5166,
      "Ġpuente": 5167,
      "Ġhermos": 5168,
      "Ġencuentro": 5169,
      "Ġconservada": 5170,
      "ĠfilosofÃŃa": 5171,
      "ĠdiscÃŃpulos": 5172,
      "Ġciclo": 5173,
      "sh": 5174,
      "ane": 5175,
      "Ġtendencias": 5176,
      "dorf": 5177,
      "Ġfront": 5178,
      "Ġrepe": 5179,
      "anta": 5180,
      "ĠÃ¡frica": 5181,
      "Ġ1892": 5182,
      "ĠÃ¡mbito": 5183,
      "gico": 5184,
      "Ġlados": 5185,
      "Ġinci": 5186,
      "Ġtec": 5187,
      "Ġ170": 5188,
      "Ġmateo": 5189,
      "fas": 5190,
      "Ġnueve": 5191,
      "Ġ1893": 5192,
      "Ġ1897": 5193,
      "ĠdiseÃ±ador": 5194,
      "Ġ2022": 5195,
      "Ġbolonia": 5196,
      "Ġtos": 5197,
      "entado": 5198,
      "Ġgriega": 5199,
      ".[": 5200,
      "comp": 5201,
      "Ġmarcha": 5202,
      "grado": 5203,
      "museum": 5204,
      "ulares": 5205,
      "Ġdebajo": 5206,
      "Ġhid": 5207,
      "ĠtÃºn": 5208,
      "laz": 5209,
      "Ġesca": 5210,
      "urch": 5211,
      "ĠcomisiÃ³n": 5212,
      "Ġimpresionistas": 5213,
      "Ġ2021": 5214,
      "Ġdinero": 5215,
      "Ġfechado": 5216,
      "tte": 5217,
      "Ġ).": 5218,
      "iev": 5219,
      "Ġnegra": 5220,
      "Ġinstala": 5221,
      "Ġitalianos": 5222,
      "Ġacademy": 5223,
      "Ġsacerdo": 5224,
      "Ġfachada": 5225,
      "hon": 5226,
      "eld": 5227,
      "cara": 5228,
      "Ġsentada": 5229,
      "Ġjesu": 5230,
      "ĠÃºnicamente": 5231,
      "mita": 5232,
      "Ġpid": 5233,
      "Ġcopi": 5234,
      "Ã±ez": 5235,
      "Ġcuyos": 5236,
      "Ġdescan": 5237,
      "Ġproven": 5238,
      "Ġpincelada": 5239,
      "Ġcert": 5240,
      "rismo": 5241,
      "Ġalonso": 5242,
      "Ġhered": 5243,
      "Ġilust": 5244,
      "Ġaconte": 5245,
      "ĠcÃ³dice": 5246,
      "ordin": 5247,
      "Ġvuelve": 5248,
      "reo": 5249,
      "Ġfase": 5250,
      "ĠestÃ©": 5251,
      "Ġespejo": 5252,
      "Ġ1870": 5253,
      "Ġcuerpos": 5254,
      "ĠgrÃ¡fica": 5255,
      "Ġeugen": 5256,
      "Ġurbano": 5257,
      "Ġschool": 5258,
      "Ġesen": 5259,
      "Ġtrabajaba": 5260,
      "ĠapÃ³stoles": 5261,
      "fos": 5262,
      "Ġdando": 5263,
      "gante": 5264,
      "Ġmismos": 5265,
      "Ġromant": 5266,
      "hist": 5267,
      "Ġtare": 5268,
      "Ġcampos": 5269,
      "Ġterra": 5270,
      "ĠmÃ©rito": 5271,
      "Ġvolumen": 5272,
      "Ġamplio": 5273,
      "Ġmodernismo": 5274,
      "Ġminiatura": 5275,
      "Ġsombra": 5276,
      "Ġmariano": 5277,
      "ualidad": 5278,
      "Ġinspirado": 5279,
      "Ġescritura": 5280,
      "Ġjacques": 5281,
      "ÑĤ": 5282,
      "Ġcano": 5283,
      "tora": 5284,
      "ĠrepresentÃ³": 5285,
      "ÃŃtico": 5286,
      "Ġdocumento": 5287,
      "Ġsituado": 5288,
      "Ġprofundidad": 5289,
      "ĠdiseÃ±Ã³": 5290,
      "exp": 5291,
      "zanne": 5292,
      "Âª": 5293,
      "ania": 5294,
      "Ġrea": 5295,
      "Ġdelante": 5296,
      "Ġroja": 5297,
      "Ġpeti": 5298,
      "Ġrue": 5299,
      "mÃ³s": 5300,
      "Ġtestim": 5301,
      "Ġclaramente": 5302,
      "Ġoportun": 5303,
      "unto": 5304,
      "Ġcobre": 5305,
      "Ġreconstru": 5306,
      "Ã¨ne": 5307,
      "Ġsagrada": 5308,
      "Ġpigmentos": 5309,
      "Ġdemue": 5310,
      "lad": 5311,
      "Ġtelas": 5312,
      "Ġteresa": 5313,
      "Ġdomen": 5314,
      "Ġmaestra": 5315,
      "Ġ1888": 5316,
      "Ġdirigida": 5317,
      "Ġexponer": 5318,
      "gida": 5319,
      "lÃ¡": 5320,
      "Ġjuego": 5321,
      "ernas": 5322,
      "Ġgalard": 5323,
      "Ġveint": 5324,
      "ney": 5325,
      "Ġpalazzo": 5326,
      "ĠterminÃ³": 5327,
      "ĠhabitaciÃ³n": 5328,
      "Ġleyenda": 5329,
      "ĠdÃ³": 5330,
      "anci": 5331,
      "Ġmuerta": 5332,
      "Ġutilizando": 5333,
      "Ġnegras": 5334,
      "Ġcurso": 5335,
      "21": 5336,
      "Ðº": 5337,
      "Ġpud": 5338,
      "Ġboston": 5339,
      "Ġcasos": 5340,
      "ctora": 5341,
      "Ġ155": 5342,
      "Ġplantas": 5343,
      "Ġinicio": 5344,
      "Ġlin": 5345,
      "Ġport": 5346,
      "Ġdific": 5347,
      "Ġmezcl": 5348,
      "Ġfau": 5349,
      "amientos": 5350,
      "Ġpermit": 5351,
      "Ġmac": 5352,
      "iosa": 5353,
      "ĠatmÃ³s": 5354,
      "Ġdistribu": 5355,
      "Ġexhibe": 5356,
      "85": 5357,
      "uo": 5358,
      "redo": 5359,
      "deo": 5360,
      "ĠabriÃ³": 5361,
      "Ġminu": 5362,
      "Ġlisboa": 5363,
      "Ġabajo": 5364,
      "Ġanteriormente": 5365,
      "om": 5366,
      "Ġalim": 5367,
      "Ġlevant": 5368,
      "ĠacadÃ©mica": 5369,
      "quilib": 5370,
      "Ġcubi": 5371,
      "Ġcomercial": 5372,
      "Ġcoleccionista": 5373,
      "dras": 5374,
      "Ġred": 5375,
      "ings": 5376,
      "Ġconsideraba": 5377,
      "Ġphilip": 5378,
      "29": 5379,
      "bilidad": 5380,
      "Ġdecis": 5381,
      "Ġnaran": 5382,
      "Ġpasar": 5383,
      "Ġespal": 5384,
      "ĠapareciÃ³": 5385,
      "ĠcÃ¡l": 5386,
      "rile": 5387,
      "Ġrealizando": 5388,
      "Ġguard": 5389,
      "ĠbÃºsqueda": 5390,
      "dero": 5391,
      "ĠÃł": 5392,
      "inera": 5393,
      "dista": 5394,
      "Ġcuid": 5395,
      "Ġmilag": 5396,
      "Ġrique": 5397,
      "Ġevangelio": 5398,
      "ĠinspirÃ³": 5399,
      "Ġfis": 5400,
      "Ġsombre": 5401,
      "Ġsovi": 5402,
      "Ġcarteles": 5403,
      "Ġgrecia": 5404,
      "Ġnaturales": 5405,
      "Ġresist": 5406,
      "Ġnego": 5407,
      "Ġfirm": 5408,
      "Ġorganizada": 5409,
      "ĠholandÃ©s": 5410,
      "zio": 5411,
      "Ġcanad": 5412,
      "Ġnuevamente": 5413,
      "Ġmexicana": 5414,
      "Ġpueblos": 5415,
      "udas": 5416,
      "ĠcomprÃ³": 5417,
      "Ġcorpo": 5418,
      "Ġamerican": 5419,
      "Ġdiplo": 5420,
      "Ġzo": 5421,
      "Ġfla": 5422,
      "Ġcaza": 5423,
      "Ġcartas": 5424,
      "Ġjapon": 5425,
      "Ġ1903": 5426,
      "Ġdesnuda": 5427,
      "Ġpapiros": 5428,
      "ĠpÃ¡ginas": 5429,
      "Ġcumpl": 5430,
      "ror": 5431,
      "Ġeva": 5432,
      "Ġromero": 5433,
      "mith": 5434,
      "Ġhistorias": 5435,
      "cy": 5436,
      "tia": 5437,
      "Ġ1916": 5438,
      "33": 5439,
      "48": 5440,
      "icante": 5441,
      "Ġcuyas": 5442,
      "Ġperfil": 5443,
      "Ġforman": 5444,
      "Ġluces": 5445,
      "Ġwest": 5446,
      "Ġrin": 5447,
      "Ġestampa": 5448,
      "Ġcincuenta": 5449,
      "xa": 5450,
      "Ġdres": 5451,
      "dimiento": 5452,
      "adajo": 5453,
      "Ġcompos": 5454,
      "ĠpictÃ³ricas": 5455,
      "Ġargentino": 5456,
      "Ġdesarrolla": 5457,
      "Ġfrecuencia": 5458,
      "Ġsorpren": 5459,
      "Ġcera": 5460,
      "ĠÃ¡rea": 5461,
      "Ġvanitas": 5462,
      "Ġ1884": 5463,
      "quÃŃa": 5464,
      "Ġhabla": 5465,
      "ÃŃsima": 5466,
      "Ġ167": 5467,
      "Ġalemana": 5468,
      "Ġrupe": 5469,
      "quisiciÃ³n": 5470,
      "Ġvalores": 5471,
      "Ġrostros": 5472,
      "Ġperteneciente": 5473,
      "Ġbusca": 5474,
      "Ġnotables": 5475,
      "Ġhistoriadores": 5476,
      "Ġsurrealista": 5477,
      "ny": 5478,
      "anÃŃa": 5479,
      "gulo": 5480,
      "ĠindÃŃgen": 5481,
      "wo": 5482,
      "reas": 5483,
      "Ġnad": 5484,
      "Ġze": 5485,
      "Ġ1895": 5486,
      "ĠaprendiÃ³": 5487,
      "Ġdemasiado": 5488,
      "pio": 5489,
      "Ġkarl": 5490,
      "Ġromanticismo": 5491,
      "adajoz": 5492,
      "tiles": 5493,
      "ides": 5494,
      "ĠlatÃŃn": 5495,
      "Ġpaisajista": 5496,
      "ĠperiÃ³dico": 5497,
      "tz": 5498,
      "Ġtel": 5499,
      "Ġbac": 5500,
      "Ġboca": 5501,
      "Ġcristian": 5502,
      "Ġjohann": 5503,
      "torio": 5504,
      "visiÃ³n": 5505,
      "Ġlectura": 5506,
      "Ġanal": 5507,
      "Ġfunera": 5508,
      "Ġ1896": 5509,
      "ĠreligiÃ³n": 5510,
      "ĠcaracterÃŃstica": 5511,
      "Ġvideo": 5512,
      "Ġcotidiana": 5513,
      "Ġrichard": 5514,
      "Ã´": 5515,
      "Ã¸": 5516,
      "Ġadi": 5517,
      "Ġmargar": 5518,
      "Ġvolunt": 5519,
      "Ġhumanos": 5520,
      "Ġtrinidad": 5521,
      "Ġperforman": 5522,
      "ĠbÃ¡s": 5523,
      "Ġesfuer": 5524,
      "Ġzonas": 5525,
      "Ġdocumentos": 5526,
      "igrafÃŃa": 5527,
      "Î·": 5528,
      "amas": 5529,
      "mpresion": 5530,
      "Ġcoment": 5531,
      "Ġpartido": 5532,
      "Ġverse": 5533,
      "Ġbast": 5534,
      "ĠorganizÃ³": 5535,
      "Ġpastel": 5536,
      "Ġrob": 5537,
      "Ġpocas": 5538,
      "tisse": 5539,
      "Ġdistingu": 5540,
      "ĠartÃŃculo": 5541,
      "uard": 5542,
      "ĠcÃº": 5543,
      "Ġfrank": 5544,
      "Ġpere": 5545,
      "Ġdibujar": 5546,
      "Ġinvitado": 5547,
      "Ġ1886": 5548,
      "Ġ1887": 5549,
      "ĠcrÃŃticas": 5550,
      "Ġregresar": 5551,
      "parÃŃs": 5552,
      "americano": 5553,
      "cÃ³n": 5554,
      "Ġciencias": 5555,
      "Ġav": 5556,
      "Ġabre": 5557,
      "Ġenorme": 5558,
      "arÃ³": 5559,
      "Ġhierro": 5560,
      "ivas": 5561,
      "Ġvolver": 5562,
      "ĠorganizaciÃ³n": 5563,
      "Ġfemin": 5564,
      "Ġsituada": 5565,
      "caba": 5566,
      "Ġpabell": 5567,
      "Ġfines": 5568,
      "cke": 5569,
      "ĠvivÃŃa": 5570,
      "Ġimag": 5571,
      "nol": 5572,
      "Ġequ": 5573,
      "Ġballe": 5574,
      "lores": 5575,
      "Ġcarol": 5576,
      "Ġmadrile": 5577,
      "Ġpersonales": 5578,
      "Ġplante": 5579,
      "Ġ978": 5580,
      "Ġdecorativo": 5581,
      "Ġpalomino": 5582,
      "nal": 5583,
      "Ġabierto": 5584,
      "itor": 5585,
      "Ġmarcel": 5586,
      "Ġtot": 5587,
      "mostra": 5588,
      "Ġ1860": 5589,
      "ĠseÃ±ala": 5590,
      "ĠaragÃ³n": 5591,
      "yst": 5592,
      "Ġpano": 5593,
      "Ġrecre": 5594,
      "Ġchurch": 5595,
      "Ġ1885": 5596,
      "Ġhumor": 5597,
      "Ġbusto": 5598,
      "Ġinaug": 5599,
      "Ġpion": 5600,
      "cimientos": 5601,
      "Ġfried": 5602,
      "Ġbarco": 5603,
      "Ġresal": 5604,
      "ĠcatalÃ¡n": 5605,
      "Ġbrue": 5606,
      "Ġdocumental": 5607,
      "Ġcondiciones": 5608,
      "aman": 5609,
      "Ġfuego": 5610,
      "Ġwat": 5611,
      "Ġvisible": 5612,
      "hur": 5613,
      "Ġdict": 5614,
      "Ġequilib": 5615,
      "Ġconcur": 5616,
      "Ġset": 5617,
      "Ġmuros": 5618,
      "Ġprefe": 5619,
      "esto": 5620,
      "Ġwol": 5621,
      "Ġresulta": 5622,
      "ĠmÃ©dici": 5623,
      "ĠdesempeÃ±": 5624,
      "peo": 5625,
      "sÃ³": 5626,
      "Ġmaj": 5627,
      "Ġperu": 5628,
      "Ġperci": 5629,
      "Ġencontrado": 5630,
      "ĠconservaciÃ³n": 5631,
      "ĠÃŃnt": 5632,
      "helm": 5633,
      "34": 5634,
      "Ġredon": 5635,
      "Ġmatisse": 5636,
      "Ġexpuesta": 5637,
      "radores": 5638,
      "Ġrespe": 5639,
      "Ġrecibido": 5640,
      "Ġextraordin": 5641,
      "Ġrelieves": 5642,
      "gs": 5643,
      "gna": 5644,
      "hen": 5645,
      "Ġsuce": 5646,
      "Ġhijas": 5647,
      "Ġcontrario": 5648,
      "..": 5649,
      "taron": 5650,
      "Ġtrono": 5651,
      "Ġalc": 5652,
      "ÃŃnguez": 5653,
      "Ġgracia": 5654,
      "Ġllegado": 5655,
      "Ïĥ": 5656,
      "Ġoriente": 5657,
      "enso": 5658,
      "Ġigna": 5659,
      "Ġ1891": 5660,
      "Ġsentimiento": 5661,
      "ĠsueÃ±o": 5662,
      "Ġubicado": 5663,
      "onial": 5664,
      "Ġcrucifix": 5665,
      "jeron": 5666,
      "ling": 5667,
      "Ġglo": 5668,
      "mÃ¡ticos": 5669,
      "ĠvendiÃ³": 5670,
      "Ġdescub": 5671,
      "ĠinstalaciÃ³n": 5672,
      "Ġparroquia": 5673,
      "ĠfÃ¡cil": 5674,
      "han": 5675,
      "ville": 5676,
      "Ġremo": 5677,
      "loj": 5678,
      "ieza": 5679,
      "Ġrespec": 5680,
      "Ġconfir": 5681,
      "ĠiluminaciÃ³n": 5682,
      "46": 5683,
      "igue": 5684,
      "Ġorg": 5685,
      "ÃŃso": 5686,
      "ĠalcanzÃ³": 5687,
      "cano": 5688,
      "erse": 5689,
      "Ġ1902": 5690,
      "Ġflamenca": 5691,
      "icista": 5692,
      "Ġjunta": 5693,
      "ethe": 5694,
      "Ġmone": 5695,
      "Ġcambios": 5696,
      "vada": 5697,
      "yle": 5698,
      "orgio": 5699,
      "Ġwor": 5700,
      "Ġabo": 5701,
      "Ġatribuido": 5702,
      "Ġucran": 5703,
      "rina": 5704,
      "Ġcura": 5705,
      "Ġensa": 5706,
      "une": 5707,
      "Ġmagos": 5708,
      "Ġcarlo": 5709,
      "Ġmateria": 5710,
      "sticia": 5711,
      "Ġmosaico": 5712,
      "miso": 5713,
      "inete": 5714,
      "Ġescribir": 5715,
      "Ġ1898": 5716,
      "Ġ1876": 5717,
      "Ġdaniel": 5718,
      "bro": 5719,
      "Ġdemostra": 5720,
      "Ġyu": 5721,
      "Ġregular": 5722,
      "Ġrecib": 5723,
      "Ġjane": 5724,
      "Ġmetropolitano": 5725,
      "act": 5726,
      "pciones": 5727,
      "Ġfle": 5728,
      "ieta": 5729,
      "ĠdomÃŃnguez": 5730,
      "Ġribera": 5731,
      "ĠdÃ³lares": 5732,
      "reros": 5733,
      "Ġcreada": 5734,
      "Ġmuertos": 5735,
      "ficio": 5736,
      "ĠahÃŃ": 5737,
      "Ġprocedente": 5738,
      "Ġprocedencia": 5739,
      "Ġarriba": 5740,
      "Ã¯": 5741,
      "Ġdeja": 5742,
      "Ã¡culo": 5743,
      "Ġinma": 5744,
      "Ġsoldados": 5745,
      "Ġvive": 5746,
      "Ġpiero": 5747,
      "Ġpinceladas": 5748,
      "Ġanato": 5749,
      "pes": 5750,
      "Ġree": 5751,
      "ĠautorÃŃa": 5752,
      "Ġcomercio": 5753,
      "Ġsugiere": 5754,
      "ku": 5755,
      "rest": 5756,
      "rida": 5757,
      "Ġesas": 5758,
      "Ġincon": 5759,
      "Ġaguafuer": 5760,
      "Ġlimit": 5761,
      "Ġinfluenciado": 5762,
      "ĠcrucifixiÃ³n": 5763,
      "Ġsegura": 5764,
      "Ġjim": 5765,
      "Ġesceno": 5766,
      "Ġotto": 5767,
      "Ġcomit": 5768,
      "Ġrap": 5769,
      "Ġcama": 5770,
      "Ġ157": 5771,
      "ĠllamÃ³": 5772,
      "Ġ1881": 5773,
      "ÃŃficos": 5774,
      "Ġdada": 5775,
      "end": 5776,
      "ÃŃsimo": 5777,
      "pula": 5778,
      "Ġarquitectos": 5779,
      "Ġcelebrada": 5780,
      "anes": 5781,
      "Ġelim": 5782,
      "Ã¡i": 5783,
      "Ġviuda": 5784,
      "Ġeuropea": 5785,
      "Ġcuello": 5786,
      "gam": 5787,
      "mel": 5788,
      "rama": 5789,
      "idez": 5790,
      "ĠcafÃ©": 5791,
      "Ġesposo": 5792,
      "Ġnaturalismo": 5793,
      "Ġinfluido": 5794,
      "Ġdejando": 5795,
      "Ġluminos": 5796,
      "Ġpodemos": 5797,
      "ĠjaponÃ©s": 5798,
      "36": 5799,
      "Ġpaolo": 5800,
      "Ġfranco": 5801,
      "Ġcabello": 5802,
      "Ġcanal": 5803,
      "ĠcorazÃ³n": 5804,
      "Ġcena": 5805,
      "Ġincen": 5806,
      "char": 5807,
      "Ġmodi": 5808,
      "vantes": 5809,
      "festa": 5810,
      "ĠquerÃŃa": 5811,
      "Ġ1899": 5812,
      "Ġmicha": 5813,
      "ĠmontaÃ±as": 5814,
      "ĠartÃŃculos": 5815,
      "Ġrespons": 5816,
      "Ġmartirio": 5817,
      "ji": 5818,
      "tina": 5819,
      "Ġdei": 5820,
      "onado": 5821,
      "ĠtÃŃo": 5822,
      "Ġinvi": 5823,
      "Ġacto": 5824,
      "ÃŃtulos": 5825,
      "Ã¼s": 5826,
      "Ġinicial": 5827,
      "Ġconsecuencia": 5828,
      "zgo": 5829,
      "Ġmediter": 5830,
      "Ġpese": 5831,
      "ĠcÃ¡diz": 5832,
      "Ġevidente": 5833,
      "mond": 5834,
      "zz": 5835,
      "Ġteo": 5836,
      "Ġnico": 5837,
      "bara": 5838,
      "Ġregional": 5839,
      "Ġrevolucion": 5840,
      "Ġutilizar": 5841,
      "Ġbrazo": 5842,
      "Ġdioses": 5843,
      "Ġingenier": 5844,
      "Ġcornel": 5845,
      "Ġmallorca": 5846,
      "39": 5847,
      "Ġinm": 5848,
      "Ġoficio": 5849,
      "Ġreflex": 5850,
      "Ġfallecido": 5851,
      "Ġasturi": 5852,
      "Ġtapices": 5853,
      "Ġconvierte": 5854,
      "Ġriqueza": 5855,
      "cero": 5856,
      "Ġcuare": 5857,
      "Ġ1894": 5858,
      "Ġtonal": 5859,
      "Ġcombin": 5860,
      "meo": 5861,
      "taba": 5862,
      "unci": 5863,
      "ctur": 5864,
      "Ġfort": 5865,
      "Ġadorn": 5866,
      "Ġeuropeo": 5867,
      "ĠÎµ": 5868,
      "Ġbosque": 5869,
      "Ġsepara": 5870,
      "Ġmecenas": 5871,
      "ĠÃ¡ra": 5872,
      "berto": 5873,
      "Ġdresde": 5874,
      "Ġpatro": 5875,
      "varez": 5876,
      "Ġjusto": 5877,
      "Ġkle": 5878,
      "ĠincluyÃ³": 5879,
      "Ġdominio": 5880,
      "Ġsimpl": 5881,
      "Ġpastores": 5882,
      "38": 5883,
      "Ġoch": 5884,
      "Ġesteban": 5885,
      "ÃŃsticos": 5886,
      "Ġcreando": 5887,
      "Ġfamiliares": 5888,
      "Ġ1878": 5889,
      "Ġparticulares": 5890,
      "ĠeconÃ³mica": 5891,
      "Ġinventario": 5892,
      "ĠbÃ³veda": 5893,
      "ĠlÃ¡piz": 5894,
      "ĠatmÃ³sfera": 5895,
      "clo": 5896,
      "wer": 5897,
      "ranza": 5898,
      "Ġdiosa": 5899,
      "Ġlucha": 5900,
      "ĠcompletÃ³": 5901,
      "Ġbauti": 5902,
      "Ġlumin": 5903,
      "Ġmanifesta": 5904,
      "Ġmargarita": 5905,
      "ĠpÃ©r": 5906,
      "Ġlab": 5907,
      "leg": 5908,
      "Ġsalones": 5909,
      "minante": 5910,
      "Ġromanos": 5911,
      "vista": 5912,
      "Ġdyck": 5913,
      "Ġdoble": 5914,
      "Ġcenter": 5915,
      "Ġcontrajo": 5916,
      "Ġgremio": 5917,
      "Ġdetall": 5918,
      "Ġais": 5919,
      "erto": 5920,
      "Ġpremi": 5921,
      "Ġpropie": 5922,
      "Ġpiedras": 5923,
      "yssen": 5924,
      "Ġcand": 5925,
      "Ġexpe": 5926,
      "urg": 5927,
      "Ġproduce": 5928,
      "Ġfirmada": 5929,
      "Ġgiorgio": 5930,
      "ĠcÃ©lebre": 5931,
      "88": 5932,
      "Ð»": 5933,
      "Ġcongres": 5934,
      "Ġmusical": 5935,
      "Ġborde": 5936,
      "Ġreferencias": 5937,
      "Ġsobres": 5938,
      "Ġequipo": 5939,
      "fora": 5940,
      "izi": 5941,
      "Ġjuntos": 5942,
      "Ġfavo": 5943,
      "ghel": 5944,
      "Ġparticipar": 5945,
      "Ġindustria": 5946,
      "ĠprÃ¡cticamente": 5947,
      "Ġfiesta": 5948,
      "Ġdescubrimiento": 5949,
      "Ġdificultad": 5950,
      "clas": 5951,
      "Ġdic": 5952,
      "Ġsiena": 5953,
      "Ġbul": 5954,
      "Ġambi": 5955,
      "Ġpresentan": 5956,
      "untos": 5957,
      "ĠdalÃŃ": 5958,
      "Ġpolicro": 5959,
      "adelfia": 5960,
      "rÃ¡s": 5961,
      "Ġpiso": 5962,
      "Ġmanz": 5963,
      "Ġnuestro": 5964,
      "Ġconside": 5965,
      "Ãºrp": 5966,
      "Ġtriunfo": 5967,
      "sula": 5968,
      "ristas": 5969,
      "taÃ±a": 5970,
      "Ġnoctur": 5971,
      "Ġbomb": 5972,
      "Ġllega": 5973,
      "Ġ1882": 5974,
      "Ġconstruc": 5975,
      "Ġagru": 5976,
      "Ġthyssen": 5977,
      "Ġeuropeos": 5978,
      "Ġdev": 5979,
      "Ġlie": 5980,
      "ĠenviÃ³": 5981,
      "anzas": 5982,
      "Ġperug": 5983,
      "Ġmud": 5984,
      "Ġpobre": 5985,
      "Ġjust": 5986,
      "Ġplen": 5987,
      "Ġpasa": 5988,
      "Ġregistro": 5989,
      "Ġsoporte": 5990,
      "Ġepisodio": 5991,
      "bs": 5992,
      "Ġline": 5993,
      "Ġaprendizaje": 5994,
      "Ġwarhol": 5995,
      "ĠdescubriÃ³": 5996,
      "Ġcuarenta": 5997,
      "iss": 5998,
      "Ġnaz": 5999,
      "Ġrepresentante": 6000,
      "Ġllevar": 6001,
      "Ġapolo": 6002,
      "Ġdominic": 6003,
      "Ġestablecer": 6004,
      "Ġconseguir": 6005,
      "Ġnecesidad": 6006,
      "Ġamericano": 6007,
      "ĠpabellÃ³n": 6008,
      "Ġcour": 6009,
      "Ġviii": 6010,
      "ieran": 6011,
      "cesa": 6012,
      "Ġ1883": 6013,
      "Ġpublicada": 6014,
      "ĠÃ¡lvarez": 6015,
      "fal": 6016,
      "ĠpodÃŃan": 6017,
      "Ġsho": 6018,
      "Ġestrel": 6019,
      "Ġmurillo": 6020,
      "Ġropa": 6021,
      "Ġanex": 6022,
      "etti": 6023,
      "Ġemble": 6024,
      "Ġtradiciones": 6025,
      "Ġaprecia": 6026,
      "Ġdul": 6027,
      "onÃŃa": 6028,
      "timo": 6029,
      "ticelli": 6030,
      "ĠthÃ©": 6031,
      "Ġliteraria": 6032,
      "Ġculto": 6033,
      "Ġciencia": 6034,
      "Ġpilar": 6035,
      "esco": 6036,
      "ĠuniÃ³": 6037,
      "Ġvino": 6038,
      "todos": 6039,
      "Ġportada": 6040,
      "Ġjar": 6041,
      "matismo": 6042,
      "Ġllevado": 6043,
      "Ġvincent": 6044,
      "ĠdirigiÃ³": 6045,
      "Ġgloria": 6046,
      "lezas": 6047,
      "att": 6048,
      "Ġcompuesto": 6049,
      "ĠpÃºblicos": 6050,
      "Ġsacri": 6051,
      "Ġdenominado": 6052,
      "ĠsurgiÃ³": 6053,
      "Ġintelectual": 6054,
      "Ġpredomin": 6055,
      "ĠmediterrÃ¡n": 6056,
      "49": 6057,
      "bieron": 6058,
      "Ġquito": 6059,
      "Ġpalacios": 6060,
      "Ġhumanas": 6061,
      "Ġestablecido": 6062,
      "Ġmenciona": 6063,
      "32": 6064,
      "ĠpÃºrp": 6065,
      "chio": 6066,
      "Ġiba": 6067,
      "Ġcaprich": 6068,
      "Ġisra": 6069,
      "ĠgÃ©neros": 6070,
      "Ġflamencos": 6071,
      "ĠenseÃ±Ã³": 6072,
      "Ġadquirida": 6073,
      "Ġsesenta": 6074,
      "Ġmurcia": 6075,
      "Ġignacio": 6076,
      "Î»": 6077,
      "Ġcuen": 6078,
      "ĠsÃ£o": 6079,
      "erie": 6080,
      "orios": 6081,
      "arda": 6082,
      "Ġoeste": 6083,
      "Ġgri": 6084,
      "Ġnotas": 6085,
      "Ġanual": 6086,
      "Ġcho": 6087,
      "Ġvari": 6088,
      "Ġverme": 6089,
      "Ġclave": 6090,
      "Ġ90": 6091,
      "Ġcristal": 6092,
      "Ġgregorio": 6093,
      "hn": 6094,
      "ĠsÃ©": 6095,
      "Ġcubierta": 6096,
      "Ġprofe": 6097,
      "ĠcaÃŃda": 6098,
      "ester": 6099,
      "Ġsalon": 6100,
      "ĠbaÃ±": 6101,
      "Ġlimp": 6102,
      "Ġdesarrollado": 6103,
      "Ġcristiana": 6104,
      "Ġdecorativas": 6105,
      "Ġbernardo": 6106,
      "Ġcorrientes": 6107,
      "ĠfÃ¡brica": 6108,
      "37": 6109,
      "Ġmanto": 6110,
      "Ġbarb": 6111,
      "Ġhecha": 6112,
      "Ġsuperv": 6113,
      "Ġculturas": 6114,
      "Ġincluido": 6115,
      "ĠcomunicaciÃ³n": 6116,
      "Ġexpresionista": 6117,
      "Ġmichael": 6118,
      "giÃ³": 6119,
      "ken": 6120,
      "abe": 6121,
      "abilidad": 6122,
      "Ġprov": 6123,
      "Ġangu": 6124,
      "Ġmiami": 6125,
      "Ġclaude": 6126,
      "Ġpatri": 6127,
      "Ġburgos": 6128,
      "ĠsirviÃ³": 6129,
      "Ġinmacul": 6130,
      "dri": 6131,
      "tÃ©": 6132,
      "Ġllo": 6133,
      "Ġsmith": 6134,
      "Ġtomar": 6135,
      "Ġgrado": 6136,
      "Ġescrita": 6137,
      "Ġbasada": 6138,
      "grÃ¡ficas": 6139,
      "Ġjardines": 6140,
      "well": 6141,
      "Ġarca": 6142,
      "mato": 6143,
      "Ġfrans": 6144,
      "minas": 6145,
      "Ġluisa": 6146,
      "Ġproyect": 6147,
      "Ġmarina": 6148,
      "Ġzur": 6149,
      "Ġfacil": 6150,
      "Ġatribuye": 6151,
      "Ġubicada": 6152,
      "Ġpatrocin": 6153,
      "tre": 6154,
      "Ġeru": 6155,
      "Ġsum": 6156,
      "ĠcondiciÃ³n": 6157,
      "amÃ©rica": 6158,
      "usal": 6159,
      "Ġxi": 6160,
      "Ġtend": 6161,
      "Ġrecibir": 6162,
      "Ġmodernos": 6163,
      "Ġaprove": 6164,
      "Ġfuturi": 6165,
      "ĠpoblaciÃ³n": 6166,
      "Ġhumanidad": 6167,
      "pido": 6168,
      "stros": 6169,
      "Ġestim": 6170,
      "ish": 6171,
      "Ġcarra": 6172,
      "Ġrepresentaba": 6173,
      "ÃŃsticas": 6174,
      "Ġafric": 6175,
      "ĠpolÃŃticos": 6176,
      "ffizi": 6177,
      "Ġalfred": 6178,
      "Ġexcelente": 6179,
      "Ġmultimedia": 6180,
      "Ġconstantino": 6181,
      "Ġfland": 6182,
      "Ġrec": 6183,
      "Ġarchi": 6184,
      "Ġexca": 6185,
      "Ġcanta": 6186,
      "Ġromp": 6187,
      "ĠromÃ¡n": 6188,
      "Ġadecu": 6189,
      "penha": 6190,
      "Ġboceto": 6191,
      "Ġdigital": 6192,
      "Ġconmemora": 6193,
      "cadas": 6194,
      "gro": 6195,
      "Ġvill": 6196,
      "Ãºmenes": 6197,
      "irÃ¡": 6198,
      "Ġwik": 6199,
      "ĠÃ³pera": 6200,
      "ĠdescribiÃ³": 6201,
      "Ġafro": 6202,
      "mons": 6203,
      "Ġdefinitivamente": 6204,
      "Ġsimplemente": 6205,
      "Ġinvierno": 6206,
      "pond": 6207,
      "Ġtalla": 6208,
      "Ġix": 6209,
      "Ġtok": 6210,
      "Ġdestacando": 6211,
      "Ġweb": 6212,
      "Ġbrillantes": 6213,
      "Ġmosaicos": 6214,
      "Ġcalavera": 6215,
      "31": 6216,
      "tam": 6217,
      "Ġjusticia": 6218,
      "ĠhipÃ³": 6219,
      "Ġconsiderable": 6220,
      "itaria": 6221,
      "Ġdomenico": 6222,
      "Ġsufici": 6223,
      "Ġbadajoz": 6224,
      "rias": 6225,
      "Ġmach": 6226,
      "ĠpolÃŃptico": 6227,
      "Ġdecorar": 6228,
      "Ġevidencia": 6229,
      "lÃ³": 6230,
      "Ġtru": 6231,
      "bios": 6232,
      "Ġentra": 6233,
      "ierras": 6234,
      "ionado": 6235,
      "clÃ¡s": 6236,
      "Ġrefiere": 6237,
      "Ġespecializado": 6238,
      "pectivas": 6239,
      "Ġfiladelfia": 6240,
      "ĠsufriÃ³": 6241,
      "Ġcolumna": 6242,
      "ĠÂ¡": 6243,
      "Ġdesconocido": 6244,
      "olla": 6245,
      "Ġprer": 6246,
      "Ġabunda": 6247,
      "Ġcentenario": 6248,
      "ĠmÃ©dico": 6249,
      "Ġpresentado": 6250,
      "Ġviajar": 6251,
      "fort": 6252,
      "Ġoficiales": 6253,
      "Ġwilhelm": 6254,
      "ĠinfluyÃ³": 6255,
      "Ġcorrespond": 6256,
      "Ġgesto": 6257,
      "Ġparroqui": 6258,
      "Ġsuelen": 6259,
      "rus": 6260,
      "Ġdegas": 6261,
      "atos": 6262,
      "Ġlee": 6263,
      "Ã³ricos": 6264,
      "lix": 6265,
      "Ġtoro": 6266,
      "ght": 6267,
      "Ġaluminio": 6268,
      "Ġmala": 6269,
      "tif": 6270,
      "Ġmomentos": 6271,
      "ĠintervenciÃ³n": 6272,
      "ller": 6273,
      "Ġdecoraciones": 6274,
      "Ġpersonalidad": 6275,
      "Ġ2023": 6276,
      "Ġescalera": 6277,
      "ĠneerlandÃ©s": 6278,
      "damente": 6279,
      "ule": 6280,
      "Ġrepu": 6281,
      "Ġfamosos": 6282,
      "Ġjefe": 6283,
      "Ġargum": 6284,
      "Ġconflic": 6285,
      "ĠbretaÃ±a": 6286,
      "ĠintroducciÃ³n": 6287,
      "90": 6288,
      "cena": 6289,
      "Ġisa": 6290,
      "Ġposes": 6291,
      "Ġabstracta": 6292,
      "sor": 6293,
      "Ġvul": 6294,
      "Ġesquina": 6295,
      "tela": 6296,
      "Ġperro": 6297,
      "Ġescorial": 6298,
      "Ġsangre": 6299,
      "Ġrusa": 6300,
      "Ġvivo": 6301,
      "Ġbuda": 6302,
      "Ġsepul": 6303,
      "Ġwillem": 6304,
      "Ġcristianos": 6305,
      "ĠdifusiÃ³n": 6306,
      "Ġfiel": 6307,
      "Ġmelan": 6308,
      "ram": 6309,
      "cientes": 6310,
      "Ġalm": 6311,
      "dito": 6312,
      "urs": 6313,
      "Ġproducir": 6314,
      "ĠvolÃºmenes": 6315,
      "Ġmanifiesto": 6316,
      "Ġlaure": 6317,
      "Ã³no": 6318,
      "monte": 6319,
      "Ġinus": 6320,
      "Ġ1875": 6321,
      "Ġelect": 6322,
      "Ġedward": 6323,
      "Ġateneo": 6324,
      "Ġubic": 6325,
      "Ġsufri": 6326,
      "lim": 6327,
      "lina": 6328,
      "Ġq": 6329,
      "Ã±ado": 6330,
      "Ġautodida": 6331,
      "Ġobservar": 6332,
      "Ġapariencia": 6333,
      "47": 6334,
      "Ġcron": 6335,
      "Ġpinto": 6336,
      "Ġobtiene": 6337,
      "Ġescenario": 6338,
      "vaciones": 6339,
      "Ġcasado": 6340,
      "andro": 6341,
      "Ġvirtud": 6342,
      "Ġcolectivo": 6343,
      "Ġbasado": 6344,
      "Ġmilita": 6345,
      "ampl": 6346,
      "Ġsargent": 6347,
      "Ġfiestas": 6348,
      "ĠtelevisiÃ³n": 6349,
      "ĠcÃºpula": 6350,
      "amanca": 6351,
      "crÃ¡": 6352,
      "zados": 6353,
      "Ġalicante": 6354,
      "cocÃ³": 6355,
      "Ã©nez": 6356,
      "Ġmenores": 6357,
      "ĠresidiÃ³": 6358,
      "Ġterminar": 6359,
      "Ġcomienzo": 6360,
      "Ġafirma": 6361,
      "ĠselecciÃ³n": 6362,
      "ĠcÃ©zanne": 6363,
      "Ġclemente": 6364,
      "Ġpractic": 6365,
      "Ġvermeer": 6366,
      "bÃ³n": 6367,
      "cru": 6368,
      "Ġsha": 6369,
      "Ġesmal": 6370,
      "tiza": 6371,
      "abil": 6372,
      "gelo": 6373,
      "Ġmath": 6374,
      "Ġdedicarse": 6375,
      "ĠdisposiciÃ³n": 6376,
      "Ġjerusal": 6377,
      "Ġcertamen": 6378,
      "stan": 6379,
      "Ġtint": 6380,
      "Ġvital": 6381,
      "Ġoli": 6382,
      "Ġasc": 6383,
      "Ġrefer": 6384,
      "Ġnaturalista": 6385,
      "Ġsuecia": 6386,
      "Ġgriegos": 6387,
      "ĠlÃ¡minas": 6388,
      "Ġfrutas": 6389,
      "Ġsociet": 6390,
      "ÃŃmetros": 6391,
      "Ġhero": 6392,
      "resiÃ³n": 6393,
      "Ġpintaba": 6394,
      "Ġvalora": 6395,
      "Ġfede": 6396,
      "Ġprofesora": 6397,
      "ĠfirmÃ³": 6398,
      "Ġbrujas": 6399,
      "bes": 6400,
      "Ġabierta": 6401,
      "Ġpredela": 6402,
      "ĠfranÃ§ois": 6403,
      "Ġabor": 6404,
      "Ġsantander": 6405,
      "Ġuffizi": 6406,
      "Ġsatis": 6407,
      "Ġruiz": 6408,
      "Ġinternational": 6409,
      "Ġcolabo": 6410,
      "ĠÎ±": 6411,
      "Ġrelacionados": 6412,
      "Ġverdadero": 6413,
      "Ġacceso": 6414,
      "Ġreinado": 6415,
      "itaciÃ³n": 6416,
      "Ġcare": 6417,
      "Ġku": 6418,
      "Ġdocente": 6419,
      "ĠrÃ¡pidamente": 6420,
      "Ġclaroscu": 6421,
      "44": 6422,
      "dest": 6423,
      "Ġluca": 6424,
      "ĠadquisiciÃ³n": 6425,
      "Ġparecer": 6426,
      "vania": 6427,
      "Ã¼r": 6428,
      "Ġpoderos": 6429,
      "Ġbotticelli": 6430,
      "ĠpÃºrpura": 6431,
      "gli": 6432,
      "Ġescla": 6433,
      "ĠfiguraciÃ³n": 6434,
      "Ġ1874": 6435,
      "Ġstre": 6436,
      "barcelona": 6437,
      "ĠbritÃ¡nica": 6438,
      "Ġmostrando": 6439,
      "seldorf": 6440,
      "Ġfrecuentemente": 6441,
      "Ġintelectuales": 6442,
      "Ġperformance": 6443,
      "Ġtotalmente": 6444,
      "Ġjurado": 6445,
      "Ġsole": 6446,
      "rosa": 6447,
      "Ġanivers": 6448,
      "Ġfragmento": 6449,
      "Ġampliamente": 6450,
      "Ġparroquial": 6451,
      "ĠcÃ¡n": 6452,
      "ons": 6453,
      "Ġseman": 6454,
      "ĠrococÃ³": 6455,
      "Ġpomp": 6456,
      "Ġpreced": 6457,
      "Ġcarl": 6458,
      "Ġcoro": 6459,
      "Ġespera": 6460,
      "Ġboliv": 6461,
      "Ã¡ndole": 6462,
      "ĠmitologÃŃa": 6463,
      "Ġcercana": 6464,
      "ĠfantÃ¡st": 6465,
      "Ġflorida": 6466,
      "87": 6467,
      "amor": 6468,
      "Ġmix": 6469,
      "Ã³ricas": 6470,
      "Ġ35": 6471,
      "Ġconstruir": 6472,
      "Ġjohannes": 6473,
      "Ġfuga": 6474,
      "ĠopiniÃ³n": 6475,
      "quet": 6476,
      "Ġcone": 6477,
      "Ġhomb": 6478,
      "Ġapell": 6479,
      "andin": 6480,
      "Ġfigurativo": 6481,
      "Ġdecorados": 6482,
      "ĠcelebrÃ³": 6483,
      "ĠclÃ¡sicos": 6484,
      "Ġcueva": 6485,
      "pintura": 6486,
      "Ġcondes": 6487,
      "Ġbl": 6488,
      "teau": 6489,
      "Ġalb": 6490,
      "Ġtrib": 6491,
      "Ġcomunes": 6492,
      "Ã¡ndolo": 6493,
      "Ġextremo": 6494,
      "Ġisrael": 6495,
      "ast": 6496,
      "bres": 6497,
      "hl": 6498,
      "mod": 6499,
      "Ġalar": 6500,
      "abeth": 6501,
      "Ġmaur": 6502,
      "Ġexpuestas": 6503,
      "ette": 6504,
      "ĠautÃ³no": 6505,
      "Ġcatalo": 6506,
      "Ġconocen": 6507,
      "ĠcristÃ³": 6508,
      "ĠejecutÃ³": 6509,
      "Ġcostumbres": 6510,
      "ĠcoronaciÃ³n": 6511,
      "sur": 6512,
      "onos": 6513,
      "Ã±e": 6514,
      "Ġescudo": 6515,
      "renci": 6516,
      "Ġcommons": 6517,
      "ĠmaestrÃŃa": 6518,
      "Ġpolonia": 6519,
      "Ġescribe": 6520,
      "ĠpolÃŃticas": 6521,
      "ĠpelÃŃculas": 6522,
      "ĠromÃ¡ntico": 6523,
      "Ġterritorio": 6524,
      "Ġchurchill": 6525,
      "Ġflandes": 6526,
      "amplona": 6527,
      "Ġdepor": 6528,
      "ĠcÃ©s": 6529,
      "Ġsing": 6530,
      "Ġnorm": 6531,
      "Ġcollection": 6532,
      "Ġconvertirse": 6533,
      "mie": 6534,
      "Ã³so": 6535,
      "Ġroca": 6536,
      "Ġfundado": 6537,
      "Ġpresentes": 6538,
      "ĠpodrÃŃan": 6539,
      "Ġarrod": 6540,
      ".-": 6541,
      "ĠdecÃŃa": 6542,
      "Ġunidad": 6543,
      "Ġby": 6544,
      "isco": 6545,
      "Ġmoreno": 6546,
      "Ġxilo": 6547,
      "Ġempres": 6548,
      "Ġcastro": 6549,
      "Ġbiblia": 6550,
      "Ã¡zar": 6551,
      "ĠreproducciÃ³n": 6552,
      "Ġafect": 6553,
      "ĠjerusalÃ©n": 6554,
      "41": 6555,
      "wig": 6556,
      "Ġapa": 6557,
      "Ġmir": 6558,
      "ort": 6559,
      "Ġconden": 6560,
      "Ġgama": 6561,
      "tiendo": 6562,
      "Ġino": 6563,
      "Ġmario": 6564,
      "Ġlejos": 6565,
      "Ġmere": 6566,
      "Ġprecios": 6567,
      "Ġasum": 6568,
      "Ġantro": 6569,
      "Ġkat": 6570,
      "Ġmadu": 6571,
      "Ġfuertes": 6572,
      "Ġdistancia": 6573,
      "Ġ1850": 6574,
      "ĠperteneciÃ³": 6575,
      "Ġpigmento": 6576,
      "Ġaniversario": 6577,
      "ou": 6578,
      "Ġef": 6579,
      "onis": 6580,
      "ĠrÃ³": 6581,
      "uth": 6582,
      "Ġprofun": 6583,
      "Ġernst": 6584,
      "ĠbartolomÃ©": 6585,
      ".),": 6586,
      "Ã²": 6587,
      "Ġfras": 6588,
      "ÃŃgenes": 6589,
      "Ã©ct": 6590,
      "Ġacus": 6591,
      "Ġartifici": 6592,
      "Ġasuntos": 6593,
      "guÃ©s": 6594,
      "Ġclasicismo": 6595,
      "Ġhispano": 6596,
      "83": 6597,
      "jado": 6598,
      "Ġlad": 6599,
      "Ġencuad": 6600,
      "douard": 6601,
      "inter": 6602,
      "Ġpant": 6603,
      "Ġcasta": 6604,
      "Ġpelo": 6605,
      "Ġdoctor": 6606,
      "ntesis": 6607,
      "Ġteniendo": 6608,
      "turista": 6609,
      "ĠconstruyÃ³": 6610,
      "Ġfray": 6611,
      "ĠatribuciÃ³n": 6612,
      "Ġurban": 6613,
      "Ġgiotto": 6614,
      "ĠinaugurÃ³": 6615,
      "42": 6616,
      "ccio": 6617,
      "Ġenfa": 6618,
      "Ġsuyo": 6619,
      "mburgo": 6620,
      "trait": 6621,
      "Ġprecio": 6622,
      "Ġorfe": 6623,
      "Ġcorto": 6624,
      "Ġpasando": 6625,
      "Ġhere": 6626,
      "Ġzar": 6627,
      "Ġdesarrollar": 6628,
      "Ġcorresponde": 6629,
      "Ġochenta": 6630,
      "fru": 6631,
      "gÃ©n": 6632,
      "Ġfranz": 6633,
      "ĠreciÃ©n": 6634,
      "Ġinstitute": 6635,
      "Ġ1879": 6636,
      "Ġciertos": 6637,
      "ĠarqueolÃ³gico": 6638,
      "ĠarmonÃŃa": 6639,
      "Ġvaticano": 6640,
      "ĠcristÃ³bal": 6641,
      "Ġsy": 6642,
      "ess": 6643,
      "dol": 6644,
      "Ġnich": 6645,
      "Ġgros": 6646,
      "tivismo": 6647,
      "Ġllegando": 6648,
      "Ġcontrato": 6649,
      "Ġtate": 6650,
      "Ġpensamiento": 6651,
      "ĠcompaÃ±eros": 6652,
      "Ġenfrent": 6653,
      "born": 6654,
      "usieron": 6655,
      "Ġbello": 6656,
      "Ġadri": 6657,
      "Ġregal": 6658,
      "itage": 6659,
      "Ġsensibilidad": 6660,
      "Ġofrece": 6661,
      "Ġpastor": 6662,
      "Ġfundamental": 6663,
      "Ġjuegos": 6664,
      "Ã¼sseldorf": 6665,
      "ĠfÃ©": 6666,
      "ĠacrÃŃ": 6667,
      "Ġascen": 6668,
      "Ġchino": 6669,
      "minos": 6670,
      "Ġcaptura": 6671,
      "itaciones": 6672,
      "ĠtÃ©cnicos": 6673,
      "Ã¼n": 6674,
      "gorÃŃas": 6675,
      "ĠplÃ¡sticos": 6676,
      "biertos": 6677,
      "Ġholanda": 6678,
      "ĠubicaciÃ³n": 6679,
      "Ġonce": 6680,
      "Ġaristo": 6681,
      "Ġhorizont": 6682,
      "Ġarchivo": 6683,
      "Ġsuyas": 6684,
      "Ġbert": 6685,
      "tol": 6686,
      "ienda": 6687,
      "Ġmarca": 6688,
      "180": 6689,
      "Ġviaja": 6690,
      "Ġvivos": 6691,
      "Ġhermanas": 6692,
      "Ġteatral": 6693,
      "Ġoportunidad": 6694,
      "Ġbrueghel": 6695,
      "pia": 6696,
      "Ġsemana": 6697,
      "lou": 6698,
      "Ġvalent": 6699,
      "ĠdataciÃ³n": 6700,
      "Ġ1866": 6701,
      "Ġazules": 6702,
      "Ġalexand": 6703,
      "ĠsitÃºa": 6704,
      "Ġautodidacta": 6705,
      "Ġtierras": 6706,
      "inadas": 6707,
      "Ġalas": 6708,
      "Ġartist": 6709,
      "Ġray": 6710,
      "Ġjoyas": 6711,
      "Ġdecorado": 6712,
      "Ġbasa": 6713,
      "ĠfilÃ³so": 6714,
      "ĠhistÃ³ricas": 6715,
      "barÃ¡n": 6716,
      "Ġministro": 6717,
      "ĠcanadÃ¡": 6718,
      "Ġmadurez": 6719,
      "villa": 6720,
      "Ġmorales": 6721,
      "Ġexpul": 6722,
      "ĠnaciÃ³n": 6723,
      "Ġsalamanca": 6724,
      "vila": 6725,
      "Ġagre": 6726,
      "Ġreconocida": 6727,
      "Ġgalleria": 6728,
      "Ġinfluy": 6729,
      "Ġecue": 6730,
      "Ġfriedrich": 6731,
      "\")": 6732,
      "Ġyeso": 6733,
      "mbra": 6734,
      "Ġcarne": 6735,
      "erso": 6736,
      "Ġimpar": 6737,
      "Ġgust": 6738,
      "ĠpropÃ³sito": 6739,
      "Ġidio": 6740,
      "mÃ©st": 6741,
      "Ġfemeninas": 6742,
      "Ġveneciana": 6743,
      "penhague": 6744,
      "bet": 6745,
      "icion": 6746,
      "Ġsierra": 6747,
      "cino": 6748,
      "roma": 6749,
      "ĠoraciÃ³n": 6750,
      "Ġconsa": 6751,
      "Ġapu": 6752,
      "imedia": 6753,
      "Ġabraham": 6754,
      "ĠtÃºnica": 6755,
      "Ġmaurice": 6756,
      "iden": 6757,
      "Ġdefen": 6758,
      "ĠelaboraciÃ³n": 6759,
      "ĠfotÃ³grafo": 6760,
      "Ġwikimedia": 6761,
      "ologÃŃa": 6762,
      "Ġdeba": 6763,
      "Ġrest": 6764,
      "ceta": 6765,
      "ĠdomÃ©st": 6766,
      "Ġdiscip": 6767,
      "Ġrelato": 6768,
      "Ġcomplement": 6769,
      "Ġviva": 6770,
      "ĠneoclÃ¡s": 6771,
      "Ġsubasta": 6772,
      "Ġsociety": 6773,
      "ĠdÃ¼sseldorf": 6774,
      "Ġpura": 6775,
      "ann": 6776,
      "Ġdelic": 6777,
      "150": 6778,
      "Ġconstruido": 6779,
      "Ġemil": 6780,
      "Ġintrodujo": 6781,
      "ĠraÃŃz": 6782,
      "Ġreemp": 6783,
      "Ġinmaculada": 6784,
      "Ġdemo": 6785,
      "Ġave": 6786,
      "Ġvall": 6787,
      "Ġdona": 6788,
      "Ġkon": 6789,
      "Ġaparte": 6790,
      "Ġpartida": 6791,
      "Ġherra": 6792,
      "landa": 6793,
      "Ġbienes": 6794,
      "Ġdispla": 6795,
      "Ġfuertemente": 6796,
      "Ġwalter": 6797,
      "Ġpreocupa": 6798,
      "Ġdedica": 6799,
      "Ġlud": 6800,
      "Ġmic": 6801,
      "Ġmane": 6802,
      "Ġvestida": 6803,
      "ĠcontinuaciÃ³n": 6804,
      "Ġfechada": 6805,
      "ova": 6806,
      "lant": 6807,
      "Ġalco": 6808,
      "Ġpergam": 6809,
      "Ġnobles": 6810,
      "Ġfinanci": 6811,
      "Ġnik": 6812,
      "Ġ1872": 6813,
      "Ġ1877": 6814,
      "Ġdecorativos": 6815,
      "Ġalfredo": 6816,
      "Ġprotagonista": 6817,
      "ĠejerciÃ³": 6818,
      "ĠprecisiÃ³n": 6819,
      "Ġchileno": 6820,
      "lie": 6821,
      "yÃ¡n": 6822,
      "ĠlÃ¡z": 6823,
      "Ġdieron": 6824,
      "Ġcartu": 6825,
      "ĠcentÃŃmetros": 6826,
      "ĠautÃ©nt": 6827,
      "Ġderechos": 6828,
      "Ġvelas": 6829,
      "ĠrenÃ©": 6830,
      "Ġencontraban": 6831,
      "Ġligeramente": 6832,
      "Ġmensaje": 6833,
      "Ġenfoque": 6834,
      "ĠhernÃ¡ndez": 6835,
      "Ġrepeti": 6836,
      "gran": 6837,
      "lut": 6838,
      "ĠtÃ©": 6839,
      "Ġhunt": 6840,
      "Ġjuana": 6841,
      "Ġgrave": 6842,
      "Ġprofesores": 6843,
      "ianas": 6844,
      "Ġdiecis": 6845,
      "ĠayudÃ³": 6846,
      "cerÃŃa": 6847,
      "Ġcosa": 6848,
      "Ġavent": 6849,
      "leto": 6850,
      "teo": 6851,
      "Ġim": 6852,
      "Ġcapi": 6853,
      "Ġpot": 6854,
      "Ġpola": 6855,
      "Ġconsol": 6856,
      "Ġhouse": 6857,
      "Ġbella": 6858,
      "Ġsolu": 6859,
      "Ġhermitage": 6860,
      "Ġcapaz": 6861,
      "ĠlÃ¡zaro": 6862,
      "Ġvera": 6863,
      "ige": 6864,
      "Ġporta": 6865,
      "erson": 6866,
      "ĠcampaÃ±a": 6867,
      "Ġprincesa": 6868,
      "Ġpunt": 6869,
      "Ġempresa": 6870,
      "Ġcontempora": 6871,
      "Ġferra": 6872,
      "Ġliterario": 6873,
      "Ġpraga": 6874,
      "Ġretiro": 6875,
      "Ġcomerciante": 6876,
      "43": 6877,
      "Ġlid": 6878,
      "alia": 6879,
      "Ġund": 6880,
      "Ġacent": 6881,
      "Ġconsiste": 6882,
      "Ġaust": 6883,
      "Ġsupone": 6884,
      "Ġterreno": 6885,
      "Ġprofundo": 6886,
      "Ġ146": 6887,
      "ĠutilizaciÃ³n": 6888,
      "Ġtraslada": 6889,
      "Ġamante": 6890,
      "ĠÏĦ": 6891,
      "Ġitinera": 6892,
      "Ġpamplona": 6893,
      "Ġhuer": 6894,
      "Ġgrue": 6895,
      "Ġnace": 6896,
      "emis": 6897,
      "Ġwill": 6898,
      "ificado": 6899,
      "Ġvaso": 6900,
      "Ġfrecuent": 6901,
      "Ġdemuestra": 6902,
      "Ġcongreso": 6903,
      "Ġtokio": 6904,
      "Ïī": 6905,
      "Ġaven": 6906,
      "Ġreda": 6907,
      "Ġarthur": 6908,
      "Ġpreci": 6909,
      "Ġrepresentantes": 6910,
      "utas": 6911,
      "Ġvelo": 6912,
      "Ġdisco": 6913,
      "Ġvirgin": 6914,
      "Ġexpresiones": 6915,
      "Ġ1871": 6916,
      "Ġconceptual": 6917,
      "Ġbenito": 6918,
      "Ġtumbas": 6919,
      "Ġcampesinos": 6920,
      "Ġrespuesta": 6921,
      "hua": 6922,
      "Ð´": 6923,
      "orias": 6924,
      "Ġmuertas": 6925,
      "Ġrealistas": 6926,
      "Ġexpresar": 6927,
      "Ġdiferencias": 6928,
      "Ġeleg": 6929,
      "Ġdinamarca": 6930,
      "ystyle": 6931,
      "cca": 6932,
      "Äĩ": 6933,
      "Ġost": 6934,
      "Ġdign": 6935,
      "Ġcau": 6936,
      "Ġcart": 6937,
      "Ġllegaron": 6938,
      "Ġprofunda": 6939,
      "ĠtÃ©rminos": 6940,
      "Ġidentificado": 6941,
      "Ġnaranja": 6942,
      "Ġsetenta": 6943,
      "Ġdisplaystyle": 6944,
      ".]": 6945,
      "bÃ³": 6946,
      "Ġliv": 6947,
      "Ġsist": 6948,
      "ass": 6949,
      "ĠestaciÃ³n": 6950,
      "Ã±Ã³n": 6951,
      "Ġcuidad": 6952,
      "Ã¡nica": 6953,
      "Ġrealizaron": 6954,
      "ridge": 6955,
      "ertura": 6956,
      "Ġisid": 6957,
      "Ġclau": 6958,
      "Ġevento": 6959,
      "Ġseguridad": 6960,
      "Ġlatina": 6961,
      "Ġindependientes": 6962,
      "Ġmanierismo": 6963,
      "Ġincendio": 6964,
      "ĠerÃ³": 6965,
      "Ġtim": 6966,
      "Ġny": 6967,
      "dile": 6968,
      "imas": 6969,
      "ĠpoÃ©tica": 6970,
      "bach": 6971,
      "ublic": 6972,
      "Ġdistrito": 6973,
      "ĠincluÃŃa": 6974,
      "Ġcanaria": 6975,
      "Ġusar": 6976,
      "Ġcristiano": 6977,
      "ĠocupÃ³": 6978,
      "Ġfruto": 6979,
      "mart": 6980,
      "ola": 6981,
      "Ġgor": 6982,
      "ĠcambiÃ³": 6983,
      "Ġtercio": 6984,
      "Ġcapas": 6985,
      "Ġsentado": 6986,
      "Ġcomenzaron": 6987,
      "viedo": 6988,
      "Ġinvestigaciones": 6989,
      "Ġperfeccion": 6990,
      "Ġconcreto": 6991,
      "',": 6992,
      "erios": 6993,
      "Ġcob": 6994,
      "Ġarcos": 6995,
      "Ġinac": 6996,
      "cate": 6997,
      "Ġintento": 6998,
      "olÃ³gicos": 6999,
      "Ġetapas": 7000,
      "ĠmontaÃ±a": 7001,
      "Ġaustralia": 7002,
      "Ġdr": 7003,
      "Ġcita": 7004,
      "Ġrealmente": 7005,
      "Ġfine": 7006,
      "Ġpunta": 7007,
      "Ġpanorama": 7008,
      "hard": 7009,
      "Ġcaj": 7010,
      "Ġstu": 7011,
      "ĠhÃ¡b": 7012,
      "Ġalte": 7013,
      "pont": 7014,
      "Ġrural": 7015,
      "Ġcreador": 7016,
      "Ġruinas": 7017,
      "Ġhumil": 7018,
      "trus": 7019,
      "gg": 7020,
      "pin": 7021,
      "ĠpÃ³st": 7022,
      "rafael": 7023,
      "amÃ¡": 7024,
      "Ġsome": 7025,
      "Ġplena": 7026,
      "Ġjavier": 7027,
      "Ġorozco": 7028,
      "Ġvestidos": 7029,
      "Ġestudiante": 7030,
      "Ġapreciar": 7031,
      "Ġalexander": 7032,
      "Ġinglesa": 7033,
      "Ġsombrero": 7034,
      "ctivo": 7035,
      "ĠserÃŃan": 7036,
      "zob": 7037,
      "Ġradio": 7038,
      "ĠmÃ©todos": 7039,
      "Ġvender": 7040,
      "jaros": 7041,
      "Ġeditor": 7042,
      "ĠgrÃ¡ficas": 7043,
      "Ġmultitud": 7044,
      "Ġmantener": 7045,
      "Ġtecno": 7046,
      "86": 7047,
      "didos": 7048,
      "ÅĤ": 7049,
      "Ġseno": 7050,
      "arlem": 7051,
      "igi": 7052,
      "olas": 7053,
      "pest": 7054,
      "Ġantoni": 7055,
      "Ġabuelo": 7056,
      "Ġhom": 7057,
      "Ġaguas": 7058,
      "Ġtemporal": 7059,
      "ismos": 7060,
      "govia": 7061,
      "Ġprev": 7062,
      "mile": 7063,
      "Ġmatric": 7064,
      "Ġmismas": 7065,
      "Ġahor": 7066,
      "ĠarquitectÃ³nico": 7067,
      "ĠcomparaciÃ³n": 7068,
      "ĠhÃ©ro": 7069,
      "iros": 7070,
      "Îº": 7071,
      "Ġple": 7072,
      "rag": 7073,
      "Ġhil": 7074,
      "Ġintern": 7075,
      "Ġkandin": 7076,
      "ĠretratÃ³": 7077,
      "Ġazer": 7078,
      "Ġ1867": 7079,
      "Ġcomba": 7080,
      "Ġconvertido": 7081,
      "Ġguadal": 7082,
      "Ġnubes": 7083,
      "ĠreputaciÃ³n": 7084,
      "Ġrese": 7085,
      "Ġgem": 7086,
      "izando": 7087,
      "Ãºan": 7088,
      "Ġimpacto": 7089,
      "Ġllevan": 7090,
      "Ġmunch": 7091,
      "Ġhonora": 7092,
      "Ġcatalana": 7093,
      "Ġllen": 7094,
      "Ġjack": 7095,
      "Ġpsico": 7096,
      "ĠsÃ³l": 7097,
      "orado": 7098,
      "Ġrebel": 7099,
      "Ġsuger": 7100,
      "Ġpaula": 7101,
      "Ġjor": 7102,
      "Ġmore": 7103,
      "Ġcolonial": 7104,
      "Ġfamosas": 7105,
      "Ġrecientemente": 7106,
      "Ġflore": 7107,
      "Ġtemprano": 7108,
      "Ġnaturalezas": 7109,
      "Ġestadounidenses": 7110,
      "Ġbrasile": 7111,
      "ĠilustrÃ³": 7112,
      "iÃ¡n": 7113,
      "ppe": 7114,
      "Ġsuya": 7115,
      "Ġdorada": 7116,
      "Ġcentra": 7117,
      "Ġderro": 7118,
      "Ġaceite": 7119,
      "Ġsemej": 7120,
      "Ġnormalmente": 7121,
      "Ġdeman": 7122,
      "Ġune": 7123,
      "Ġintent": 7124,
      "Ġgalle": 7125,
      "Ġquint": 7126,
      "Ġuniversity": 7127,
      "Ġtranspor": 7128,
      "Ġmuralista": 7129,
      "Ġbanda": 7130,
      "Ġabandonar": 7131,
      "Ġdesconoce": 7132,
      "ĠcapitÃ¡n": 7133,
      "ĠpidiÃ³": 7134,
      "ĠzurbarÃ¡n": 7135,
      "Ġfus": 7136,
      "Ã¡rez": 7137,
      "Ġojo": 7138,
      "Ġgig": 7139,
      "imen": 7140,
      "Ġrup": 7141,
      "Ġbrun": 7142,
      "Ġalemanes": 7143,
      "Ġarena": 7144,
      "Ġcopa": 7145,
      "Ġtraje": 7146,
      "Ġsigno": 7147,
      "Ġaleks": 7148,
      "ĠÃ¡tico": 7149,
      "Ġdirecta": 7150,
      "ĠpatrÃ³n": 7151,
      "ĠaplicaciÃ³n": 7152,
      "Ġapellido": 7153,
      "Ãª": 7154,
      "Ġdamas": 7155,
      "quÃ©": 7156,
      "Ġentero": 7157,
      "ĠmetÃ¡": 7158,
      "Ġcompara": 7159,
      "Ġherrera": 7160,
      "Ġterren": 7161,
      "Ġmaestras": 7162,
      "cker": 7163,
      "ĠmÃ¡ximo": 7164,
      "Ġevitar": 7165,
      "Ġcollage": 7166,
      "Ġaguafuerte": 7167,
      "mic": 7168,
      "rentes": 7169,
      "adura": 7170,
      "Ġfamilias": 7171,
      "Ġsara": 7172,
      "ĠtransiciÃ³n": 7173,
      "ĠcontinÃºa": 7174,
      "Ġadoles": 7175,
      "Ġbandera": 7176,
      "Ġexclusivamente": 7177,
      "Ġhals": 7178,
      "Ġarrodill": 7179,
      "Ġdil": 7180,
      "Ġdur": 7181,
      "alles": 7182,
      "Ġblas": 7183,
      "Ġcupido": 7184,
      "Ã¡nico": 7185,
      "utt": 7186,
      "Ġveget": 7187,
      "Ġdestacada": 7188,
      "Ġdisting": 7189,
      "Ġmagist": 7190,
      "Ġquince": 7191,
      "ĠdeclarÃ³": 7192,
      "89": 7193,
      "dÃ³n": 7194,
      "mig": 7195,
      "ĠmÃ³": 7196,
      "ulÃ³": 7197,
      "gara": 7198,
      "Ġpluma": 7199,
      "ianza": 7200,
      "cilla": 7201,
      "Ġ1862": 7202,
      "Ġperiodista": 7203,
      "Ġdescubierto": 7204,
      "Ġrelacionadas": 7205,
      "Ġcuevas": 7206,
      "Ġaugust": 7207,
      "Ġinmediatamente": 7208,
      "ĠquiÃ©n": 7209,
      "ĠanatomÃŃa": 7210,
      "cle": 7211,
      "rell": 7212,
      "Ġenerg": 7213,
      "Ġcopenhague": 7214,
      "Ġesbo": 7215,
      "Ġarzob": 7216,
      "ison": 7217,
      "quÃŃ": 7218,
      "ĠmarrÃ³n": 7219,
      "Ġasunto": 7220,
      "Ġtrabajado": 7221,
      "Ġhoja": 7222,
      "ĠsolÃŃa": 7223,
      "Ġincluida": 7224,
      "Ġclaudio": 7225,
      "Ġ1863": 7226,
      "Ġ1864": 7227,
      "ĠpictÃ³ricos": 7228,
      "Ġdefensa": 7229,
      "Ġpenit": 7230,
      "ĠperfecciÃ³n": 7231,
      "Ġfundada": 7232,
      "Ġausencia": 7233,
      "Ġinstalaciones": 7234,
      "82": 7235,
      "lando": 7236,
      "Ġmante": 7237,
      "Ġrock": 7238,
      "Ġempren": 7239,
      "Ġencargada": 7240,
      "ulouse": 7241,
      "Ġgiro": 7242,
      "Ġciertas": 7243,
      "Ġcuentos": 7244,
      "ethey": 7245,
      "Ġasturias": 7246,
      "Ġclaroscuro": 7247,
      "uve": 7248,
      "vico": 7249,
      "ĠÃº": 7250,
      "Ġrein": 7251,
      "atorio": 7252,
      "Ġgall": 7253,
      "Ġimposi": 7254,
      "acro": 7255,
      "Ġllamados": 7256,
      "Ġ45": 7257,
      "Ġlleno": 7258,
      "Ġhubiera": 7259,
      "Ġfundadores": 7260,
      "Ġprueba": 7261,
      "ĠjimÃ©nez": 7262,
      "Ġclaustro": 7263,
      "ctiva": 7264,
      "zzi": 7265,
      "Ġlago": 7266,
      "Ġtol": 7267,
      "Ġmois": 7268,
      "Ġhablar": 7269,
      "Ġbarn": 7270,
      "Ġcrisis": 7271,
      "Ġinvolu": 7272,
      "ĠmÃºsicos": 7273,
      "Ġabsor": 7274,
      "Ġpsic": 7275,
      "ĠgraduÃ³": 7276,
      "Ġsolamente": 7277,
      "ĠalcÃ¡zar": 7278,
      "Ġsingular": 7279,
      "Ġorfebre": 7280,
      "Å¡": 7281,
      "Ġdepos": 7282,
      "Ġaj": 7283,
      "Ġvlad": 7284,
      "ĠbÃ¡r": 7285,
      "idel": 7286,
      "Ã¡neo": 7287,
      "Ġpregu": 7288,
      "Ġgrand": 7289,
      "Ġwethey": 7290,
      "utre": 7291,
      "Ġjoy": 7292,
      "Ġvisitar": 7293,
      "Ġrecientes": 7294,
      "forma": 7295,
      "Ġsacra": 7296,
      "colomb": 7297,
      "Ġlongitud": 7298,
      "Ġjaneiro": 7299,
      "cana": 7300,
      "pp": 7301,
      "Ġfuese": 7302,
      "ĠadÃ¡n": 7303,
      "ĠÃ³p": 7304,
      "Ġsupre": 7305,
      "bein": 7306,
      "Ġutilizan": 7307,
      "ĠoposiciÃ³n": 7308,
      "Ġvaca": 7309,
      "Ġinformal": 7310,
      "Ġdenominada": 7311,
      "Ġrecursos": 7312,
      "Ġmanierista": 7313,
      "Ã«": 7314,
      "Ġcint": 7315,
      "Ġconex": 7316,
      "ulado": 7317,
      "com": 7318,
      "ĠmaÃ±": 7319,
      "Ġtrazos": 7320,
      "Ġcorreg": 7321,
      "ilea": 7322,
      "Ġcastel": 7323,
      "ĠusÃ³": 7324,
      "Ġbarroca": 7325,
      "ĠvocaciÃ³n": 7326,
      "Ġsuperficies": 7327,
      "Ġnicolas": 7328,
      "Ġabsolu": 7329,
      "Ġflorentino": 7330,
      "Ġcarbon": 7331,
      "ĠdevociÃ³n": 7332,
      "Ġricardo": 7333,
      "Ġanexo": 7334,
      "cento": 7335,
      "cular": 7336,
      "ial": 7337,
      "Ġtas": 7338,
      "amin": 7339,
      "Ġportrait": 7340,
      "Ġproto": 7341,
      "Ġprome": 7342,
      "ajara": 7343,
      "ceres": 7344,
      "Ġpoetas": 7345,
      "Ġboh": 7346,
      "Ġigno": 7347,
      "Ġproductos": 7348,
      "Ġfont": 7349,
      "ĠsimÃ³n": 7350,
      "ariamente": 7351,
      "Ġdanza": 7352,
      "Ġcursos": 7353,
      "Ġsecretario": 7354,
      "ĠlitografÃŃa": 7355,
      "Ġrevela": 7356,
      "Ġrect": 7357,
      "dea": 7358,
      "ull": 7359,
      "champ": 7360,
      "Ġlej": 7361,
      "Ġreciente": 7362,
      "ĠtÃ©cnico": 7363,
      "Ġrij": 7364,
      "Ġaficion": 7365,
      "ĠcÃ¡r": 7366,
      "Ġasociado": 7367,
      "Ġalterna": 7368,
      "Ġnobleza": 7369,
      "ight": 7370,
      "Ġludwig": 7371,
      "Ã³grafo": 7372,
      "Ġbest": 7373,
      "Ġdelacro": 7374,
      "ĠperdiÃ³": 7375,
      "quiera": 7376,
      "Ġmeta": 7377,
      "Ġcontornos": 7378,
      "Ġpeda": 7379,
      "Ġrepresentadas": 7380,
      "Ġesperanza": 7381,
      "Ġislas": 7382,
      "Ġaparentemente": 7383,
      "Ġversalles": 7384,
      "Ġbuscar": 7385,
      "Ġventanas": 7386,
      "Ġchilena": 7387,
      "Ġcomprome": 7388,
      "Ġdelacroix": 7389,
      "ique": 7390,
      "Ġseg": 7391,
      "Ġpago": 7392,
      "Ġdiri": 7393,
      "Ġlecciones": 7394,
      "poco": 7395,
      "Ġinterv": 7396,
      "ividad": 7397,
      "Ġsiguen": 7398,
      "Ġdisfru": 7399,
      "Ġcualidades": 7400,
      "Ġeventos": 7401,
      "Ġescritora": 7402,
      "Ġestrecha": 7403,
      "ĠrÃ©g": 7404,
      "Ġsuave": 7405,
      "Ġseguidores": 7406,
      "Ġpudiera": 7407,
      "Ġcuidado": 7408,
      "vÃ©": 7409,
      "Ġmirando": 7410,
      "tions": 7411,
      "Ġposibilidad": 7412,
      "Ġtraslado": 7413,
      "Ġmodernista": 7414,
      "ungrÃŃa": 7415,
      "Ġreforma": 7416,
      "Ġbizantino": 7417,
      "Ġmilitares": 7418,
      "ld": 7419,
      "Ġces": 7420,
      "iense": 7421,
      "Ġmadra": 7422,
      "lanos": 7423,
      "Ġandre": 7424,
      "Ġdivina": 7425,
      "Ġllevaron": 7426,
      "Ġsimon": 7427,
      "Ġoscura": 7428,
      "Ġinspirada": 7429,
      "Ã¨s": 7430,
      "ĠtÃŃpico": 7431,
      "ĠraÃŃces": 7432,
      "bado": 7433,
      "Ġvib": 7434,
      "tios": 7435,
      "Ġinqu": 7436,
      "erada": 7437,
      "Ġroberto": 7438,
      "Ġhabiendo": 7439,
      "Ġcentros": 7440,
      "Ġfechas": 7441,
      "Ġsiguieron": 7442,
      "Ġrecono": 7443,
      "Ġgira": 7444,
      "Ġbauhaus": 7445,
      "Ġprocedentes": 7446,
      "Ġconvencional": 7447,
      "ĠarquitectÃ³nicos": 7448,
      "ĠrÃ©p": 7449,
      "Ġnoticias": 7450,
      "Ġcien": 7451,
      "stad": 7452,
      "Ġfueran": 7453,
      "Ġmusicales": 7454,
      "Ġnacida": 7455,
      "Ġpaleo": 7456,
      "Ġborgo": 7457,
      "ĠpÃ¡jaros": 7458,
      "Ġpropiedades": 7459,
      "Ġenvuel": 7460,
      "Ġeugenio": 7461,
      "ple": 7462,
      "dora": 7463,
      "Ġacci": 7464,
      "gulares": 7465,
      "ÃŃsmo": 7466,
      "Ġsaber": 7467,
      "Ġburgues": 7468,
      "Ġmencionado": 7469,
      "Ġextranjeros": 7470,
      "Ġleopol": 7471,
      "Ġsto": 7472,
      "Ã³nicas": 7473,
      "Ã©is": 7474,
      "ilitud": 7475,
      "ulio": 7476,
      "Ġdolores": 7477,
      "Ġ36": 7478,
      "Ġpostura": 7479,
      "Ġexteriores": 7480,
      "Ġutilizada": 7481,
      "Ġ1873": 7482,
      "Ġusando": 7483,
      "ĠvÃŃcti": 7484,
      "cus": 7485,
      "ggen": 7486,
      "ĠvÃŃa": 7487,
      "Ġoviedo": 7488,
      "Ġmarcado": 7489,
      "Ġexpl": 7490,
      "Ġcass": 7491,
      "Ã±oz": 7492,
      "Ġatribuida": 7493,
      "Ġintensa": 7494,
      "Ġconstituye": 7495,
      "Ġhelen": 7496,
      "Ġreflejan": 7497,
      "Ġherrami": 7498,
      "Ġdeten": 7499,
      "Ġfr": 7500,
      "Ġgine": 7501,
      "Ġtoulouse": 7502,
      "Ġtampoco": 7503,
      "Ġcarro": 7504,
      "Ġrepar": 7505,
      "Ġestuvieron": 7506,
      "Ġumb": 7507,
      "Ġpropuesta": 7508,
      "Ġhechas": 7509,
      "Ġelegante": 7510,
      "Ġexperiencias": 7511,
      "Ġermita": 7512,
      "Ġsimboliza": 7513,
      "Ġgeomet": 7514,
      "emisza": 7515,
      "sig": 7516,
      "uta": 7517,
      "Ġye": 7518,
      "Ġrema": 7519,
      "ranos": 7520,
      "Ġsof": 7521,
      "Ġentrar": 7522,
      "ĠorÃŃgenes": 7523,
      "bai": 7524,
      "Ġorganiza": 7525,
      "Ġtrataba": 7526,
      "Ġ2024": 7527,
      "Ġpermanece": 7528,
      "ĠcÃŃrculos": 7529,
      "Ġstreet": 7530,
      "hal": 7531,
      "lyn": 7532,
      "ms": 7533,
      "tieron": 7534,
      "tea": 7535,
      "Ġinca": 7536,
      "Ġapart": 7537,
      "Ġempleo": 7538,
      "Ġatribuyen": 7539,
      "Ġapocal": 7540,
      "Ġdestinado": 7541,
      "Ġvoz": 7542,
      "ĠacompaÃ±ado": 7543,
      "Ġpainting": 7544,
      "Ġsacerdote": 7545,
      "ĠÃ¡rabe": 7546,
      "Ġarist": 7547,
      "rantes": 7548,
      "Ġmm": 7549,
      "Ġhier": 7550,
      "Ġalfa": 7551,
      "ilvania": 7552,
      "Ġperse": 7553,
      "ĠmuÃ±oz": 7554,
      "Ġmadame": 7555,
      "Ġcolore": 7556,
      "Ġverdes": 7557,
      "Ġ145": 7558,
      "tarÃŃa": 7559,
      "Ġusado": 7560,
      "Ġdistinciones": 7561,
      "Ġbellini": 7562,
      "Ġprestigio": 7563,
      "Ġsobresal": 7564,
      "Ġmc": 7565,
      "Ġnota": 7566,
      "Ġespada": 7567,
      "Ġpadua": 7568,
      "Ġexpresa": 7569,
      "Ġformando": 7570,
      "Ġcomplejo": 7571,
      "ĠprofesiÃ³n": 7572,
      "Ġejemplares": 7573,
      "ĠsÃŃntesis": 7574,
      "Ġ1865": 7575,
      "Ġorganizado": 7576,
      "Ġcontinuar": 7577,
      "Ġdeben": 7578,
      "ĠprotecciÃ³n": 7579,
      "Ġtradicionalmente": 7580,
      "ĠinauguraciÃ³n": 7581,
      "Ġcompositor": 7582,
      "81": 7583,
      "didas": 7584,
      "ÏĢ": 7585,
      "ades": 7586,
      "Ġcoo": 7587,
      "Ġdesen": 7588,
      "Ġprimo": 7589,
      "Ġmedicina": 7590,
      "Ġlengua": 7591,
      "Ġholandesa": 7592,
      "Ġmanifest": 7593,
      "Ġveneciano": 7594,
      "cÃ¡ngel": 7595,
      "Ġwolf": 7596,
      "Ġcuenca": 7597,
      ".).": 7598,
      "espe": 7599,
      "Ġ147": 7600,
      "Ġ1868": 7601,
      "Ġparticipado": 7602,
      "ĠgeomÃ©tricas": 7603,
      "Ġgolpe": 7604,
      "Ġconsagra": 7605,
      "Ġinacab": 7606,
      "].": 7607,
      "jÃ³n": 7608,
      "ring": 7609,
      "Ġentus": 7610,
      "Ġluch": 7611,
      "Ġactriz": 7612,
      "Ġfreder": 7613,
      "ĠelecciÃ³n": 7614,
      "Ð¾Ð²": 7615,
      "ĠcontribuyÃ³": 7616,
      "Ġfrecuente": 7617,
      "Ġreempla": 7618,
      "ak": 7619,
      "cador": 7620,
      "Äģ": 7621,
      "Î¼": 7622,
      "Ġvist": 7623,
      "riendo": 7624,
      "Ġestancias": 7625,
      "mberg": 7626,
      "Ġcubre": 7627,
      "cap": 7628,
      "grafos": 7629,
      "ĠconsiderÃ³": 7630,
      "Ġ500": 7631,
      "Ġreflejo": 7632,
      "Ġintenso": 7633,
      "Ġplo": 7634,
      "Ġredes": 7635,
      "Ã©d": 7636,
      "chus": 7637,
      "Ġrepublic": 7638,
      "Ġwit": 7639,
      "Ġpecho": 7640,
      "Ġguti": 7641,
      "Ġfemeninos": 7642,
      "Ġinstrumentos": 7643,
      "Ġrazones": 7644,
      "vales": 7645,
      "Ġdue": 7646,
      "ĠcÃŃ": 7647,
      "Ġaman": 7648,
      "Ġconvo": 7649,
      "Ġvos": 7650,
      "Ġexac": 7651,
      "Ġcusto": 7652,
      "Ġcaro": 7653,
      "Ġretrata": 7654,
      "Ġcalv": 7655,
      "Ġnorue": 7656,
      "Ġtabl": 7657,
      "Ġpiernas": 7658,
      "Ġoliv": 7659,
      "Ġwey": 7660,
      "colmo": 7661,
      "ĠdestrucciÃ³n": 7662,
      "Ġsobrino": 7663,
      "ĠtardÃŃo": 7664,
      "Ġinnov": 7665,
      "Ġentender": 7666,
      "ĠsÃ¡ti": 7667,
      "Ġaprovech": 7668,
      "Ġantropo": 7669,
      "mando": 7670,
      "pat": 7671,
      "Ġmy": 7672,
      "ĠfenÃ³": 7673,
      "ĠhungrÃŃa": 7674,
      "Ġbona": 7675,
      "ĠarcÃ¡ngel": 7676,
      "erales": 7677,
      "Ġhaarlem": 7678,
      "Ġprefer": 7679,
      "iers": 7680,
      "ĠatrÃ¡s": 7681,
      "Ġcercan": 7682,
      "ellÃŃn": 7683,
      "ĠespaÃ±olas": 7684,
      "Ġ1869": 7685,
      "Ġnegros": 7686,
      "Ġencontramos": 7687,
      "Ġacuarel": 7688,
      "Ġbattista": 7689,
      "eamente": 7690,
      "gaciÃ³n": 7691,
      "gaba": 7692,
      "menta": 7693,
      "orce": 7694,
      "Ġtren": 7695,
      "Ġreloj": 7696,
      "Ġescu": 7697,
      "Ġmarinas": 7698,
      "Ġcontaba": 7699,
      "Ġkv": 7700,
      "Ġpalmas": 7701,
      "Ġfuerzas": 7702,
      "Ġdescrito": 7703,
      "Ġtempera": 7704,
      "ĠcanciÃ³n": 7705,
      "Ġgiorg": 7706,
      "Ġdirigido": 7707,
      "Ġnecesario": 7708,
      "ĠabadÃŃa": 7709,
      "Ġjaponesa": 7710,
      "Ġequilibrio": 7711,
      "ĠrÃ©gimen": 7712,
      "ggenheim": 7713,
      "win": 7714,
      "Ġtant": 7715,
      "elos": 7716,
      "Ġwin": 7717,
      "Ġuniverso": 7718,
      "ĠespecializÃ³": 7719,
      "Ġdatan": 7720,
      "relie": 7721,
      "Ġviolencia": 7722,
      "bornemisza": 7723,
      "caron": 7724,
      "gall": 7725,
      "Ġak": 7726,
      "ramiento": 7727,
      "ĠtÃŃtulos": 7728,
      "deos": 7729,
      "ĠÃ©sta": 7730,
      "Ġquinta": 7731,
      "ĠcreciÃ³": 7732,
      "Ġgraf": 7733,
      "Ġpasaron": 7734,
      "Ġpresentar": 7735,
      "Ġdiferenci": 7736,
      "Ġconservados": 7737,
      "Ġconservador": 7738,
      "Ġestudiosos": 7739,
      "logÃŃas": 7740,
      "Ġmantiene": 7741,
      "Ġprivado": 7742,
      "ĠvÃŃctor": 7743,
      "Ġdesaparecido": 7744,
      "Ġnicola": 7745,
      "Ġpergamino": 7746,
      "95": 7747,
      "har": 7748,
      "meros": 7749,
      "toria": 7750,
      "zano": 7751,
      "Ġcen": 7752,
      "Ġaju": 7753,
      "Ġbis": 7754,
      "Ġporcel": 7755,
      "Ġasia": 7756,
      "ĠrÃŃos": 7757,
      "ĠcentrÃ³": 7758,
      "Ġguarda": 7759,
      "Ġguggenheim": 7760,
      "Ġ1861": 7761,
      "Ġsocialista": 7762,
      "Ġverdadera": 7763,
      "pintor": 7764,
      "Ġprecisamente": 7765,
      "ĠmarchÃ³": 7766,
      "Ġbudapest": 7767,
      "Ġalexandre": 7768,
      "mia": 7769,
      "vados": 7770,
      "Ġdecor": 7771,
      "Ġpone": 7772,
      "encio": 7773,
      "Ġseres": 7774,
      "Ġestren": 7775,
      "Ġanci": 7776,
      "Ġsique": 7777,
      "dices": 7778,
      "Ġbailar": 7779,
      "Ġactor": 7780,
      "Ġsoldado": 7781,
      "Ġconservadas": 7782,
      "Ġ1855": 7783,
      "Ġencontraron": 7784,
      "Ġmunicipio": 7785,
      "ĠtraducciÃ³n": 7786,
      "Ġcircunst": 7787,
      "Ġacontecimientos": 7788,
      "dig": 7789,
      "pan": 7790,
      "scri": 7791,
      "Ġcitado": 7792,
      "Ġsici": 7793,
      "Ġunif": 7794,
      "randa": 7795,
      "Ġdesier": 7796,
      "irÃŃa": 7797,
      "ernidad": 7798,
      "Ġadqu": 7799,
      "Ġmonar": 7800,
      "Ġaudi": 7801,
      "Ġrosas": 7802,
      "ĠborbÃ³n": 7803,
      "Ġsignos": 7804,
      "ĠmÃºsico": 7805,
      "Ġdenomina": 7806,
      "Ġterminado": 7807,
      "Ġsosteniendo": 7808,
      "Ġvertical": 7809,
      "Ġluminosidad": 7810,
      "Ġdominicana": 7811,
      "Ã³nico": 7812,
      "Ġsust": 7813,
      "Ġseda": 7814,
      "Ġgh": 7815,
      "Ġ1830": 7816,
      "Ġdiscurso": 7817,
      "Ġnega": 7818,
      "Ġproducto": 7819,
      "hire": 7820,
      "Ġinteg": 7821,
      "Ġeduca": 7822,
      "ĠcaracterÃŃstico": 7823,
      "Ġbreton": 7824,
      "galerÃŃa": 7825,
      "Ġcombina": 7826,
      "ĠcromÃ¡tica": 7827,
      "Ġmodelado": 7828,
      "Ġblake": 7829,
      "Ġgustave": 7830,
      "Ġantoine": 7831,
      "Ġvanguardias": 7832,
      "ĠimaginaciÃ³n": 7833,
      "Ġrespectivamente": 7834,
      "ĠpÃ©rdida": 7835,
      "ĠfenÃ³men": 7836,
      "gil": 7837,
      "nat": 7838,
      "zaba": 7839,
      "Ġparcialmente": 7840,
      "rump": 7841,
      "Ġken": 7842,
      "Ġsantuario": 7843,
      "denes": 7844,
      "ĠÃ¡reas": 7845,
      "Ġjules": 7846,
      "Ġimpresiones": 7847,
      "Ġmasac": 7848,
      "Ġemig": 7849,
      "galerie": 7850,
      "ĠacadÃ©mie": 7851,
      "Ġllena": 7852,
      "Ġesculp": 7853,
      "Ġsecundaria": 7854,
      "ĠcultivÃ³": 7855,
      "ky": 7856,
      "uci": 7857,
      "erta": 7858,
      "Ġcofra": 7859,
      "Ġsegovia": 7860,
      "Ġgr": 7861,
      "Ġexal": 7862,
      "Ġcompuesta": 7863,
      "Ġsolar": 7864,
      "ĠpanamÃ¡": 7865,
      "Ġsorolla": 7866,
      "Ġidentificar": 7867,
      "colecciÃ³n": 7868,
      "Ġdificultades": 7869,
      "Ġsiqueiros": 7870,
      "hisp": 7871,
      "sÃ©s": 7872,
      "Ġfic": 7873,
      "Ġarra": 7874,
      "Ã©rrez": 7875,
      "Ġtriste": 7876,
      "ĠcombinaciÃ³n": 7877,
      "Ġlograr": 7878,
      "Ġocult": 7879,
      "Ġasegura": 7880,
      "Ġecuestre": 7881,
      "ĠmoisÃ©s": 7882,
      "ĠmaÃ±ana": 7883,
      "iÃ©ndose": 7884,
      "my": 7885,
      "sca": 7886,
      "erte": 7887,
      "espaÃ±a": 7888,
      "Ġbad": 7889,
      "deras": 7890,
      "Ġmarfil": 7891,
      "Ġparecido": 7892,
      "Ġcompletar": 7893,
      "Ġvioleta": 7894,
      "ĠdenominaciÃ³n": 7895,
      "Ġhamburgo": 7896,
      "Ġdorm": 7897,
      "centes": 7898,
      "tta": 7899,
      "vard": 7900,
      "Ġtin": 7901,
      "enz": 7902,
      "Ã¡tico": 7903,
      "ĠpercepciÃ³n": 7904,
      "Ġvieja": 7905,
      "Ġevangelios": 7906,
      "Ð¸Ñ": 7907,
      "Ġdocumenta": 7908,
      "Ġresistencia": 7909,
      "ĠcÃ©sar": 7910,
      "ĠgutiÃ©rrez": 7911,
      "buen": 7912,
      "gano": 7913,
      "ss": 7914,
      "vido": 7915,
      "Ġelig": 7916,
      "icorn": 7917,
      "entre": 7918,
      "Ġmarta": 7919,
      "Ġmarga": 7920,
      "Ġantic": 7921,
      "Ġblancos": 7922,
      "ĠindÃŃgenas": 7923,
      "Ġcristianismo": 7924,
      "Ġvoluntad": 7925,
      "tambiÃ©n": 7926,
      "Ġazerbai": 7927,
      "Ġmantegna": 7928,
      "Ġclo": 7929,
      "Ġcof": 7930,
      "tidos": 7931,
      "uran": 7932,
      "Ġcorta": 7933,
      "cristo": 7934,
      "Ġcalific": 7935,
      "Ġduchamp": 7936,
      "Ġsentimientos": 7937,
      "Ġencarn": 7938,
      "Ġ1857": 7939,
      "Ġconceptos": 7940,
      "Ġproporciones": 7941,
      "Ġoscuros": 7942,
      "Ġcity": 7943,
      "ĠotorgÃ³": 7944,
      "Ġnavarra": 7945,
      "Ġlyon": 7946,
      "Ġconsideran": 7947,
      "Ġerig": 7948,
      "Ġate": 7949,
      "Ġgia": 7950,
      "stant": 7951,
      "ĠcoruÃ±a": 7952,
      "ĠespecÃŃf": 7953,
      "Ġtestimonio": 7954,
      "Ġsoledad": 7955,
      "-,": 7956,
      "umo": 7957,
      "Ġsco": 7958,
      "Ġtene": 7959,
      "Ġbir": 7960,
      "Ġquiso": 7961,
      "Ġperspectivas": 7962,
      "Ġsix": 7963,
      "Ġmuebles": 7964,
      "Ġformada": 7965,
      "ĠgÃ³tica": 7966,
      "Ġfrontera": 7967,
      "Ġesquema": 7968,
      "Ġconquista": 7969,
      "Ġmajest": 7970,
      "Ġtub": 7971,
      "Ġore": 7972,
      "Ġocre": 7973,
      "Ġletra": 7974,
      "Ġserpi": 7975,
      "Ġcontienen": 7976,
      "ĠzÃº": 7977,
      "Ġrelativamente": 7978,
      "Ġautoridades": 7979,
      "Ġiniciales": 7980,
      "Ġsimult": 7981,
      "cilia": 7982,
      "ĠgÃ©nova": 7983,
      "Ġgante": 7984,
      "ĠdiseÃ±ado": 7985,
      "Ġrecomen": 7986,
      "Ġmencionar": 7987,
      "Ġrecuerdo": 7988,
      "Ġautorretratos": 7989,
      "Ġrecuerdan": 7990,
      "Ġnieto": 7991,
      "ĠexcepciÃ³n": 7992,
      "Ġfortuna": 7993,
      "Ġguadalajara": 7994,
      "Ġgiorgione": 7995,
      "bit": 7996,
      "Ġdub": 7997,
      "any": 7998,
      "Ġincur": 7999
    },
    "merges": [
      [
        "Ġ",
        "d"
      ],
      [
        "Ġ",
        "e"
      ],
      [
        "Ġd",
        "e"
      ],
      [
        "Ġ",
        "l"
      ],
      [
        "Ġ",
        "c"
      ],
      [
        "Ġ",
        "p"
      ],
      [
        "Ġ",
        "a"
      ],
      [
        "r",
        "a"
      ],
      [
        "Ġ",
        "s"
      ],
      [
        "o",
        "s"
      ],
      [
        "r",
        "e"
      ],
      [
        "n",
        "t"
      ],
      [
        "Ġl",
        "a"
      ],
      [
        "o",
        "n"
      ],
      [
        "e",
        "r"
      ],
      [
        "Ġ",
        "m"
      ],
      [
        "c",
        "i"
      ],
      [
        "Ġe",
        "n"
      ],
      [
        "s",
        "t"
      ],
      [
        "Ã",
        "³"
      ],
      [
        "u",
        "e"
      ],
      [
        "o",
        "r"
      ],
      [
        "a",
        "d"
      ],
      [
        "a",
        "r"
      ],
      [
        "a",
        "l"
      ],
      [
        "a",
        "s"
      ],
      [
        "a",
        "n"
      ],
      [
        "Ġe",
        "l"
      ],
      [
        "Ġ",
        "y"
      ],
      [
        "e",
        "s"
      ],
      [
        "u",
        "n"
      ],
      [
        "Ġ",
        "t"
      ],
      [
        "e",
        "n"
      ],
      [
        "i",
        "n"
      ],
      [
        "Ġ",
        "f"
      ],
      [
        "Ã",
        "Ń"
      ],
      [
        "i",
        "c"
      ],
      [
        "e",
        "nt"
      ],
      [
        "Ġ",
        "un"
      ],
      [
        "q",
        "ue"
      ],
      [
        "r",
        "o"
      ],
      [
        "Ġc",
        "o"
      ],
      [
        "Ġ",
        "re"
      ],
      [
        "Ã³",
        "n"
      ],
      [
        "Ġs",
        "u"
      ],
      [
        "Ġ",
        "h"
      ],
      [
        "d",
        "o"
      ],
      [
        "Ã",
        "¡"
      ],
      [
        "Ġc",
        "on"
      ],
      [
        "Ġ",
        "v"
      ],
      [
        "Ġ",
        "b"
      ],
      [
        "r",
        "i"
      ],
      [
        "Ġ",
        "que"
      ],
      [
        "Ġ",
        "1"
      ],
      [
        "Ġs",
        "e"
      ],
      [
        "Ġ",
        "n"
      ],
      [
        "Ġ",
        "o"
      ],
      [
        "Ġ",
        "g"
      ],
      [
        "Ã",
        "©"
      ],
      [
        "Ġde",
        "l"
      ],
      [
        "Ġe",
        "s"
      ],
      [
        "l",
        "e"
      ],
      [
        "t",
        "i"
      ],
      [
        "ci",
        "Ã³n"
      ],
      [
        "l",
        "a"
      ],
      [
        "re",
        "s"
      ],
      [
        "i",
        "nt"
      ],
      [
        "Ġl",
        "os"
      ],
      [
        "Ġe",
        "st"
      ],
      [
        "u",
        "ra"
      ],
      [
        "Ġa",
        "r"
      ],
      [
        "i",
        "d"
      ],
      [
        "m",
        "o"
      ],
      [
        "i",
        "s"
      ],
      [
        "l",
        "o"
      ],
      [
        "t",
        "e"
      ],
      [
        "a",
        "m"
      ],
      [
        "Ġa",
        "l"
      ],
      [
        "Ġp",
        "a"
      ],
      [
        "i",
        "g"
      ],
      [
        "i",
        "a"
      ],
      [
        "Ġ",
        "("
      ],
      [
        "i",
        "o"
      ],
      [
        "ÃŃ",
        "a"
      ],
      [
        "a",
        "b"
      ],
      [
        "e",
        "l"
      ],
      [
        "ad",
        "o"
      ],
      [
        "t",
        "o"
      ],
      [
        "Ġp",
        "or"
      ],
      [
        "Ã",
        "±"
      ],
      [
        "Ġun",
        "a"
      ],
      [
        "i",
        "l"
      ],
      [
        "m",
        "p"
      ],
      [
        "Ġ",
        "in"
      ],
      [
        "Ġla",
        "s"
      ],
      [
        "d",
        "e"
      ],
      [
        "Ġp",
        "int"
      ],
      [
        "Ġ",
        "j"
      ],
      [
        "u",
        "s"
      ],
      [
        "Ġ1",
        "9"
      ],
      [
        "ent",
        "e"
      ],
      [
        "i",
        "t"
      ],
      [
        "ra",
        "n"
      ],
      [
        "st",
        "a"
      ],
      [
        "u",
        "l"
      ],
      [
        "c",
        "h"
      ],
      [
        "ic",
        "a"
      ],
      [
        "ci",
        "on"
      ],
      [
        "ra",
        "s"
      ],
      [
        "i",
        "e"
      ],
      [
        "Ġco",
        "mo"
      ],
      [
        "o",
        "l"
      ],
      [
        "m",
        "a"
      ],
      [
        "Ġo",
        "b"
      ],
      [
        "c",
        "o"
      ],
      [
        "Ġe",
        "x"
      ],
      [
        "m",
        "b"
      ],
      [
        "d",
        "i"
      ],
      [
        "ci",
        "a"
      ],
      [
        "i",
        "z"
      ],
      [
        "Ġd",
        "i"
      ],
      [
        "ad",
        "a"
      ],
      [
        "nt",
        "e"
      ],
      [
        "t",
        "a"
      ],
      [
        "Ġc",
        "u"
      ],
      [
        "Ġde",
        "s"
      ],
      [
        "d",
        "a"
      ],
      [
        "Ġp",
        "ro"
      ],
      [
        "Ġf",
        "ue"
      ],
      [
        "Ġp",
        "er"
      ],
      [
        "a",
        "t"
      ],
      [
        "b",
        "i"
      ],
      [
        "Ġpa",
        "ra"
      ],
      [
        "e",
        "ra"
      ],
      [
        "Ã¡",
        "s"
      ],
      [
        "q",
        "u"
      ],
      [
        "a",
        "j"
      ],
      [
        "Ã",
        "º"
      ],
      [
        "i",
        "en"
      ],
      [
        "ic",
        "o"
      ],
      [
        "Ġn",
        "o"
      ],
      [
        "Ġs",
        "o"
      ],
      [
        "p",
        "a"
      ],
      [
        "Ġ",
        "i"
      ],
      [
        "c",
        "t"
      ],
      [
        "Ġp",
        "ar"
      ],
      [
        "Ġes",
        "c"
      ],
      [
        "Ġh",
        "a"
      ],
      [
        "Ġm",
        "u"
      ],
      [
        "Ġsu",
        "s"
      ],
      [
        "c",
        "a"
      ],
      [
        "Ã¡",
        "n"
      ],
      [
        "r",
        "os"
      ],
      [
        "e",
        "o"
      ],
      [
        "i",
        "st"
      ],
      [
        "c",
        "e"
      ],
      [
        "Ġ",
        "2"
      ],
      [
        "g",
        "o"
      ],
      [
        "Ġm",
        "a"
      ],
      [
        "Ġpint",
        "ura"
      ],
      [
        "Ġt",
        "ra"
      ],
      [
        "Ġl",
        "o"
      ],
      [
        "Ġm",
        "o"
      ],
      [
        "Ġc",
        "a"
      ],
      [
        "i",
        "r"
      ],
      [
        "c",
        "u"
      ],
      [
        "Ġm",
        "ar"
      ],
      [
        "Ġex",
        "p"
      ],
      [
        "id",
        "ad"
      ],
      [
        "b",
        "re"
      ],
      [
        "Ã©",
        "n"
      ],
      [
        "r",
        "u"
      ],
      [
        "Ġar",
        "t"
      ],
      [
        "v",
        "a"
      ],
      [
        "m",
        "ente"
      ],
      [
        "Ġe",
        "nt"
      ],
      [
        "Ġl",
        "e"
      ],
      [
        "Ġm",
        "Ã¡s"
      ],
      [
        "Ġm",
        "e"
      ],
      [
        "Ġar",
        "te"
      ],
      [
        "an",
        "do"
      ],
      [
        "ent",
        "o"
      ],
      [
        "cion",
        "es"
      ],
      [
        "Ġt",
        "e"
      ],
      [
        "al",
        "es"
      ],
      [
        "u",
        "d"
      ],
      [
        "p",
        "e"
      ],
      [
        "p",
        "o"
      ],
      [
        "Ġm",
        "us"
      ],
      [
        "Ġ1",
        "8"
      ],
      [
        "u",
        "m"
      ],
      [
        "an",
        "o"
      ],
      [
        "v",
        "o"
      ],
      [
        "i",
        "m"
      ],
      [
        "a",
        "nt"
      ],
      [
        "ad",
        "os"
      ],
      [
        "os",
        "i"
      ],
      [
        "Ġp",
        "ri"
      ],
      [
        "t",
        "ra"
      ],
      [
        "Ġ",
        "ro"
      ],
      [
        "Ã©",
        "s"
      ],
      [
        "Ġa",
        "Ã±"
      ],
      [
        "s",
        "e"
      ],
      [
        "l",
        "es"
      ],
      [
        "Ġt",
        "o"
      ],
      [
        "er",
        "n"
      ],
      [
        "Ġn",
        "a"
      ],
      [
        "z",
        "a"
      ],
      [
        "l",
        "as"
      ],
      [
        "Ġt",
        "am"
      ],
      [
        "Ġp",
        "o"
      ],
      [
        "i",
        "ci"
      ],
      [
        ")",
        ","
      ],
      [
        "Ġa",
        "n"
      ],
      [
        "Ġre",
        "al"
      ],
      [
        "in",
        "a"
      ],
      [
        "Ġob",
        "ra"
      ],
      [
        "Ġ",
        "int"
      ],
      [
        "Ġ2",
        "0"
      ],
      [
        "Ġa",
        "c"
      ],
      [
        "i",
        "v"
      ],
      [
        "bi",
        "Ã©n"
      ],
      [
        "Ġp",
        "re"
      ],
      [
        "Ġc",
        "ar"
      ],
      [
        "u",
        "r"
      ],
      [
        "Ġso",
        "bre"
      ],
      [
        "i",
        "er"
      ],
      [
        "Ġtam",
        "biÃ©n"
      ],
      [
        "i",
        "do"
      ],
      [
        "Ġar",
        "ti"
      ],
      [
        "j",
        "o"
      ],
      [
        "Ġpri",
        "m"
      ],
      [
        "Ġmus",
        "eo"
      ],
      [
        "Ġ",
        "or"
      ],
      [
        "Ġent",
        "re"
      ],
      [
        "id",
        "a"
      ],
      [
        "Ġa",
        "s"
      ],
      [
        "res",
        "ent"
      ],
      [
        "Ġre",
        "p"
      ],
      [
        "Ġa",
        "nt"
      ],
      [
        "u",
        "er"
      ],
      [
        "Ġs",
        "ig"
      ],
      [
        "i",
        "Ã³n"
      ],
      [
        "Ġob",
        "ras"
      ],
      [
        "ul",
        "t"
      ],
      [
        "is",
        "mo"
      ],
      [
        "Ġco",
        "mp"
      ],
      [
        "Ġo",
        "t"
      ],
      [
        "Ġs",
        "an"
      ],
      [
        "j",
        "e"
      ],
      [
        "Ġf",
        "or"
      ],
      [
        "Ġs",
        "er"
      ],
      [
        "g",
        "ra"
      ],
      [
        "i",
        "b"
      ],
      [
        "er",
        "s"
      ],
      [
        "er",
        "o"
      ],
      [
        "e",
        "st"
      ],
      [
        "Ġl",
        "u"
      ],
      [
        "re",
        "n"
      ],
      [
        "e",
        "m"
      ],
      [
        "i",
        "os"
      ],
      [
        "an",
        "a"
      ],
      [
        "g",
        "u"
      ],
      [
        "ic",
        "as"
      ],
      [
        "in",
        "o"
      ],
      [
        "Ġj",
        "u"
      ],
      [
        "Ġpint",
        "or"
      ],
      [
        "Ġg",
        "ran"
      ],
      [
        ")",
        "."
      ],
      [
        "Ġh",
        "ab"
      ],
      [
        "i",
        "on"
      ],
      [
        "c",
        "es"
      ],
      [
        "Ġ",
        "\""
      ],
      [
        "c",
        "ciÃ³n"
      ],
      [
        "ad",
        "as"
      ],
      [
        "Ġf",
        "ran"
      ],
      [
        "d",
        "u"
      ],
      [
        "Ġd",
        "on"
      ],
      [
        "b",
        "aj"
      ],
      [
        "d",
        "os"
      ],
      [
        "Ġco",
        "nt"
      ],
      [
        "Ġ",
        "w"
      ],
      [
        "Ġ",
        "x"
      ],
      [
        "t",
        "os"
      ],
      [
        "1",
        "9"
      ],
      [
        "Ġg",
        "al"
      ],
      [
        "i",
        "sta"
      ],
      [
        "Ġp",
        "e"
      ],
      [
        "Ġcon",
        "s"
      ],
      [
        "am",
        "ente"
      ],
      [
        "g",
        "en"
      ],
      [
        "a",
        "ciÃ³n"
      ],
      [
        "b",
        "u"
      ],
      [
        "Ġ",
        "k"
      ],
      [
        "ab",
        "a"
      ],
      [
        "ÃŃ",
        "s"
      ],
      [
        "Ġtra",
        "baj"
      ],
      [
        "Ġi",
        "mp"
      ],
      [
        "Ġm",
        "an"
      ],
      [
        "m",
        "i"
      ],
      [
        "ic",
        "os"
      ],
      [
        "d",
        "ad"
      ],
      [
        "Ġc",
        "as"
      ],
      [
        "Ġc",
        "h"
      ],
      [
        "Ġco",
        "m"
      ],
      [
        "ÃŃ",
        "n"
      ],
      [
        "g",
        "un"
      ],
      [
        "Ġes",
        "pa"
      ],
      [
        "Ġs",
        "al"
      ],
      [
        "Ġest",
        "e"
      ],
      [
        "er",
        "i"
      ],
      [
        "ĠaÃ±",
        "os"
      ],
      [
        "Ġ",
        "Ã©"
      ],
      [
        "f",
        "e"
      ],
      [
        "Ġexp",
        "osi"
      ],
      [
        "l",
        "os"
      ],
      [
        "Ġm",
        "ad"
      ],
      [
        "cion",
        "al"
      ],
      [
        "Ã±",
        "o"
      ],
      [
        "b",
        "a"
      ],
      [
        "Ġn",
        "ue"
      ],
      [
        "u",
        "al"
      ],
      [
        "Ġart",
        "es"
      ],
      [
        "Ġd",
        "o"
      ],
      [
        "m",
        "an"
      ],
      [
        "Ġa",
        "b"
      ],
      [
        "Ġc",
        "or"
      ],
      [
        "g",
        "a"
      ],
      [
        "Ġ",
        "r"
      ],
      [
        "Ġdon",
        "de"
      ],
      [
        "mb",
        "re"
      ],
      [
        "Ġrep",
        "resent"
      ],
      [
        "Ġh",
        "o"
      ],
      [
        "Ġa",
        "p"
      ],
      [
        "Ãº",
        "n"
      ],
      [
        "Ġ",
        "qu"
      ],
      [
        "z",
        "o"
      ],
      [
        "Ġp",
        "r"
      ],
      [
        "st",
        "ra"
      ],
      [
        "Ġreal",
        "iz"
      ],
      [
        "o",
        "ci"
      ],
      [
        "en",
        "s"
      ],
      [
        "Ġco",
        "l"
      ],
      [
        "u",
        "t"
      ],
      [
        "Ġre",
        "tra"
      ],
      [
        "ÃŃ",
        "st"
      ],
      [
        "Ġv",
        "e"
      ],
      [
        "m",
        "e"
      ],
      [
        "Ġb",
        "el"
      ],
      [
        "Ġest",
        "a"
      ],
      [
        "Ġp",
        "ue"
      ],
      [
        "Ġco",
        "le"
      ],
      [
        "Ġs",
        "ant"
      ],
      [
        "ti",
        "v"
      ],
      [
        "Ġen",
        "c"
      ],
      [
        "er",
        "ÃŃa"
      ],
      [
        "Ġ",
        "ra"
      ],
      [
        "Ġd",
        "is"
      ],
      [
        "st",
        "as"
      ],
      [
        "ci",
        "p"
      ],
      [
        "nt",
        "o"
      ],
      [
        "en",
        "cia"
      ],
      [
        "Ġin",
        "f"
      ],
      [
        "v",
        "e"
      ],
      [
        "u",
        "b"
      ],
      [
        "Ã±",
        "a"
      ],
      [
        "ult",
        "ura"
      ],
      [
        "ue",
        "n"
      ],
      [
        "p",
        "u"
      ],
      [
        "Ġa",
        "m"
      ],
      [
        "Ġd",
        "os"
      ],
      [
        "i",
        "Ã³"
      ],
      [
        "on",
        "a"
      ],
      [
        "c",
        "l"
      ],
      [
        "Ġf",
        "ig"
      ],
      [
        "os",
        "t"
      ],
      [
        "an",
        "d"
      ],
      [
        "Ġc",
        "re"
      ],
      [
        "m",
        "as"
      ],
      [
        "Ġb",
        "ar"
      ],
      [
        "gra",
        "f"
      ],
      [
        "Ġc",
        "i"
      ],
      [
        "n",
        "o"
      ],
      [
        "st",
        "o"
      ],
      [
        "a",
        "c"
      ],
      [
        "ar",
        "on"
      ],
      [
        "Ġg",
        "ra"
      ],
      [
        "ci",
        "o"
      ],
      [
        "Ġcu",
        "ad"
      ],
      [
        "Ġp",
        "al"
      ],
      [
        "Ġfig",
        "ura"
      ],
      [
        "Ġper",
        "o"
      ],
      [
        "Ġh",
        "ist"
      ],
      [
        "Ġm",
        "i"
      ],
      [
        "Ġd",
        "ura"
      ],
      [
        "nt",
        "es"
      ],
      [
        "Ġest",
        "u"
      ],
      [
        "ra",
        "do"
      ],
      [
        "Ġre",
        "s"
      ],
      [
        "0",
        "0"
      ],
      [
        "j",
        "a"
      ],
      [
        "Ġ",
        "-"
      ],
      [
        "ent",
        "os"
      ],
      [
        "Ġme",
        "d"
      ],
      [
        "m",
        "in"
      ],
      [
        "ci",
        "al"
      ],
      [
        "al",
        "l"
      ],
      [
        "eri",
        "or"
      ],
      [
        "Ġs",
        "on"
      ],
      [
        "e",
        "t"
      ],
      [
        "ch",
        "o"
      ],
      [
        "Ġarti",
        "sta"
      ],
      [
        "i",
        "f"
      ],
      [
        "ic",
        "h"
      ],
      [
        "Ġc",
        "am"
      ],
      [
        "Ġsig",
        "lo"
      ],
      [
        "Ġes",
        "pe"
      ],
      [
        "Ġma",
        "y"
      ],
      [
        "Ġe",
        "ra"
      ],
      [
        "Ġpar",
        "te"
      ],
      [
        "Ġdes",
        "de"
      ],
      [
        "Ġper",
        "s"
      ],
      [
        "ue",
        "l"
      ],
      [
        "Ġdura",
        "nte"
      ],
      [
        "Ġ1",
        "6"
      ],
      [
        "or",
        "ia"
      ],
      [
        "Ġc",
        "ent"
      ],
      [
        "it",
        "al"
      ],
      [
        "er",
        "os"
      ],
      [
        "Ġs",
        "i"
      ],
      [
        "o",
        "ra"
      ],
      [
        "p",
        "i"
      ],
      [
        "en",
        "e"
      ],
      [
        "Ġj",
        "o"
      ],
      [
        "Ġdi",
        "bu"
      ],
      [
        "Ã³",
        "r"
      ],
      [
        "Ġn",
        "e"
      ],
      [
        "Ġexposi",
        "ciÃ³n"
      ],
      [
        "ar",
        "d"
      ],
      [
        "c",
        "ri"
      ],
      [
        "Ġ",
        "u"
      ],
      [
        "Ã©",
        "c"
      ],
      [
        "ud",
        "ad"
      ],
      [
        "Ġb",
        "o"
      ],
      [
        "Ġl",
        "le"
      ],
      [
        "1",
        "8"
      ],
      [
        "Ġs",
        "in"
      ],
      [
        "Ġh",
        "i"
      ],
      [
        "d",
        "en"
      ],
      [
        "ue",
        "nt"
      ],
      [
        "ue",
        "la"
      ],
      [
        "ch",
        "a"
      ],
      [
        "ÃŃ",
        "t"
      ],
      [
        "Ġci",
        "udad"
      ],
      [
        "Ġf",
        "in"
      ],
      [
        "n",
        "a"
      ],
      [
        "Ġf",
        "am"
      ],
      [
        "Ġv",
        "ar"
      ],
      [
        "d",
        "as"
      ],
      [
        "Ġa",
        "le"
      ],
      [
        "Ġm",
        "en"
      ],
      [
        "i",
        "te"
      ],
      [
        "ar",
        "io"
      ],
      [
        "Ġ",
        "ig"
      ],
      [
        "h",
        "e"
      ],
      [
        "ad",
        "or"
      ],
      [
        "Ġarti",
        "stas"
      ],
      [
        "Ġf",
        "uer"
      ],
      [
        "Ġa",
        "d"
      ],
      [
        "s",
        "o"
      ],
      [
        "Ġna",
        "cional"
      ],
      [
        "ri",
        "d"
      ],
      [
        "v",
        "en"
      ],
      [
        "a",
        "u"
      ],
      [
        "Ġo",
        "f"
      ],
      [
        "Ġpintura",
        "s"
      ],
      [
        "Ġfor",
        "ma"
      ],
      [
        "il",
        "la"
      ],
      [
        "c",
        "to"
      ],
      [
        "i",
        "lo"
      ],
      [
        "Ġpar",
        "ti"
      ],
      [
        "Ġg",
        "u"
      ],
      [
        "Ġal",
        "gun"
      ],
      [
        "Ġgal",
        "erÃŃa"
      ],
      [
        "Ġpr",
        "in"
      ],
      [
        "c",
        "on"
      ],
      [
        "i",
        "i"
      ],
      [
        "Ġpro",
        "p"
      ],
      [
        "er",
        "t"
      ],
      [
        "Ġc",
        "al"
      ],
      [
        "Ġl",
        "ib"
      ],
      [
        "ci",
        "Ã³"
      ],
      [
        "Ġa",
        "t"
      ],
      [
        "Ġest",
        "Ã¡"
      ],
      [
        "Ġha",
        "sta"
      ],
      [
        "Ġbel",
        "las"
      ],
      [
        "it",
        "u"
      ],
      [
        "Ġp",
        "l"
      ],
      [
        "us",
        "o"
      ],
      [
        "Ġ20",
        "0"
      ],
      [
        "ÃŃ",
        "an"
      ],
      [
        "Ġcon",
        "oci"
      ],
      [
        "g",
        "ar"
      ],
      [
        "Ġart",
        "ÃŃst"
      ],
      [
        "Ġprin",
        "cip"
      ],
      [
        "ĠaÃ±",
        "o"
      ],
      [
        "Ġot",
        "ros"
      ],
      [
        "Ġf",
        "un"
      ],
      [
        "Ġt",
        "en"
      ],
      [
        "c",
        "el"
      ],
      [
        "Ġac",
        "ad"
      ],
      [
        "Ġv",
        "ida"
      ],
      [
        "Ġc",
        "ab"
      ],
      [
        "Ġp",
        "as"
      ],
      [
        "Ġre",
        "g"
      ],
      [
        "Ġco",
        "lo"
      ],
      [
        "Ġ1",
        "5"
      ],
      [
        "pu",
        "Ã©s"
      ],
      [
        "ab",
        "le"
      ],
      [
        "Ġ19",
        "9"
      ],
      [
        "Ġdes",
        "puÃ©s"
      ],
      [
        "g",
        "e"
      ],
      [
        "Ġpar",
        "ÃŃs"
      ],
      [
        "graf",
        "ÃŃa"
      ],
      [
        "i",
        "as"
      ],
      [
        "i",
        "ento"
      ],
      [
        "Ġestu",
        "di"
      ],
      [
        "Ġv",
        "al"
      ],
      [
        "Ġt",
        "ras"
      ],
      [
        "o",
        "res"
      ],
      [
        "Ġh",
        "er"
      ],
      [
        "v",
        "id"
      ],
      [
        "aj",
        "e"
      ],
      [
        "j",
        "os"
      ],
      [
        "l",
        "i"
      ],
      [
        "in",
        "g"
      ],
      [
        "Ġv",
        "er"
      ],
      [
        "ra",
        "l"
      ],
      [
        "Ġpa",
        "is"
      ],
      [
        "ent",
        "es"
      ],
      [
        "en",
        "a"
      ],
      [
        "Ġ19",
        "8"
      ],
      [
        "Ġesc",
        "uela"
      ],
      [
        "c",
        "as"
      ],
      [
        "Ġm",
        "un"
      ],
      [
        "ri",
        "t"
      ],
      [
        "Ġ1",
        "7"
      ],
      [
        "Ġm",
        "on"
      ],
      [
        "m",
        "Ã¡"
      ],
      [
        "Ġ",
        "Ã¡"
      ],
      [
        "Ġ",
        "Ã³"
      ],
      [
        "ie",
        "mp"
      ],
      [
        "Ġmad",
        "rid"
      ],
      [
        "Ġest",
        "ilo"
      ],
      [
        "ci",
        "as"
      ],
      [
        "Ġin",
        "cl"
      ],
      [
        "Ġ",
        "il"
      ],
      [
        "Ġmu",
        "y"
      ],
      [
        "Ġn",
        "at"
      ],
      [
        "la",
        "m"
[...]
