{
  "version": "1.0",
  "truncation": null,
  "padding": null,
  "added_tokens": [
    {
      "id": 0,
      "content": "[PAD]",
      "single_word": false,
      "lstrip": false,
      "rstrip": false,
      "normalized": false,
      "special": true
    },
    {
      "id": 1,
      "content": "[UNK]",
      "single_word": false,
      "lstrip": false,
      "rstrip": false,
      "normalized": false,
      "special": true
    },
    {
      "id": 2,
      "content": "[BOS]",
      "single_word": false,
      "lstrip": false,
      "rstrip": false,
      "normalized": false,
      "special": true
    },
    {
      "id": 3,
      "content": "[EOS]",
      "single_word": false,
      "lstrip": false,
      "rstrip": false,
      "normalized": false,
      "special": true
    }
  ],
  "normalizer": null,
  "pre_tokenizer": {
    "type": "ByteLevel",
    "add_prefix_space": true,
    "trim_offsets": true,
    "use_regex": true
  },
  "post_processor": {
    "type": "ByteLevel",
    "add_prefix_space": true,
    "trim_offsets": true,
    "use_regex": true
  },
  "decoder": {
    "type": "ByteLevel",
    "add_prefix_space": true,
    "trim_offsets": true,
    "use_regex": true
  },
  "model": {
    "type": "BPE",
    "dropout": null,
    "unk_token": "[UNK]",
    "continuing_subword_prefix": null,
    "end_of_word_suffix": null,
    "fuse_unk": false,
    "byte_fallback": false,
    "ignore_merges": false,
    "vocab": {
      "[PAD]": 0,
      "[UNK]": 1,
      "[BOS]": 2,
      "[EOS]": 3,
      "!": 4,
      "\"": 5,
      "'": 6,
      "(": 7,
      ")": 8,
      ",": 9,
      "-": 10,
      ".": 11,
      "0": 12,
      "1": 13,
      "2": 14,
      "3": 15,
      "4": 16,
      "5": 17,
      "6": 18,
      "7": 19,
      "8": 20,
      "9": 21,
      ":": 22,
      ";": 23,
      "?": 24,
      "A": 25,
      "B": 26,
      "C": 27,
      "D": 28,
      "E": 29,
      "F": 30,
      "G": 31,
      "H": 32,
      "I": 33,
      "J": 34,
      "K": 35,
      "L": 36,
      "M": 37,
      "N": 38,
      "O": 39,
      "P": 40,
      "Q": 41,
      "R": 42,
      "S": 43,
      "T": 44,
      "U": 45,
      "V": 46,
      "W": 47,
      "X": 48,
      "Y": 49,
      "Z": 50,
      "[": 51,
      "]": 52,
      "a": 53,
      "b": 54,
      "c": 55,
      "d": 56,
      "e": 57,
      "f": 58,
      "g": 59,
      "h": 60,
      "i": 61,
      "j": 62,
      "k": 63,
      "l": 64,
      "m": 65,
      "n": 66,
      "o": 67,
      "p": 68,
      "q": 69,
      "r": 70,
      "s": 71,
      "t": 72,
      "u": 73,
      "v": 74,
      "w": 75,
      "x": 76,
      "y": 77,
      "z": 78,
      "¡": 79,
      "¢": 80,
      "£": 81,
      "¤": 82,
      "¥": 83,
      "¦": 84,
      "§": 85,
      "¨": 86,
      "©": 87,
      "ª": 88,
      "«": 89,
      "¬": 90,
      "®": 91,
      "¯": 92,
      "°": 93,
      "±": 94,
      "²": 95,
      "³": 96,
      "´": 97,
      "µ": 98,
      "¶": 99,
      "·": 100,
      "¸": 101,
      "¹": 102,
      "º": 103,
      "»": 104,
      "¼": 105,
      "½": 106,
      "¾": 107,
      "¿": 108,
      "Â": 109,
      "Ã": 110,
      "Ä": 111,
      "Å": 112,
      "Æ": 113,
      "Ç": 114,
      "È": 115,
      "É": 116,
      "Ê": 117,
      "Ë": 118,
      "Í": 119,
      "Î": 120,
      "Ï": 121,
      "Ð": 122,
      "Ñ": 123,
      "Ò": 124,
      "Ó": 125,
      "Ô": 126,
      "Õ": 127,
      "Ö": 128,
      "×": 129,
      "Ø": 130,
      "Ù": 131,
      "Ú": 132,
      "Û": 133,
      "à": 134,
      "á": 135,
      "â": 136,
      "ã": 137,
      "ä": 138,
      "å": 139,
      "æ": 140,
      "ç": 141,
      "è": 142,
      "é": 143,
      "ê": 144,
      "ë": 145,
      "ì": 146,
      "í": 147,
      "ï": 148,
      "ð": 149,
      "Ċ": 150,
      "Ġ": 151,
      "Ģ": 152,
      "ģ": 153,
      "Ĥ": 154,
      "ĥ": 155,
      "Ħ": 156,
      "ħ": 157,
      "Ĩ": 158,
      "ĩ": 159,
      "Ī": 160,
      "ī": 161,
      "Ĭ": 162,
      "ĭ": 163,
      "Į": 164,
      "į": 165,
      "İ": 166,
      "ı": 167,
      "Ĳ": 168,
      "ĳ": 169,
      "Ĵ": 170,
      "ĵ": 171,
      "Ķ": 172,
      "ķ": 173,
      "ĸ": 174,
      "Ĺ": 175,
      "ĺ": 176,
      "Ļ": 177,
      "ļ": 178,
      "Ľ": 179,
      "ľ": 180,
      "Ŀ": 181,
      "ŀ": 182,
      "Ł": 183,
      "ł": 184,
      "Ń": 185,
      "de": 186,
      "Ġde": 187,
      "Ġe": 188,
      "la": 189,
      "ra": 190,
      "os": 191,
      "Ġc": 192,
      "Ġp": 193,
      "nt": 194,
      "re": 195,
      "Ġa": 196,
      "Ġs": 197,
      "on": 198,
      "Ġla": 199,
      "er": 200,
      "ci": 201,
      "st": 202,
      "Ã³": 203,
      "ue": 204,
      "Ġen": 205,
      "or": 206,
      "ar": 207,
      "al": 208,
      "ad": 209,
      "as": 210,
      "an": 211,
      "es": 212,
      "Ġy": 213,
      "Ġm": 214,
      "un": 215,
      "en": 216,
      "in": 217,
      "Ġel": 218,
      "ÃŃ": 219,
      "ic": 220,
      "Ġl": 221,
      "Ġt": 222,
      "ent": 223,
      "que": 224,
      "Ġun": 225,
      "do": 226,
      "Ġf": 227,
      "ĠE": 228,
      "Ã³n": 229,
      "ro": 230,
      "ĠA": 231,
      "Ã¡": 232,
      "om": 233,
      "di": 234,
      "ĠM": 235,
      "Ġcon": 236,
      "Ġque": 237,
      "ri": 238,
      "Ġsu": 239,
      "Ġ1": 240,
      "Ġre": 241,
      "ĠC": 242,
      "Ã©": 243,
      "Ġdel": 244,
      "ĠS": 245,
      "ĠP": 246,
      "le": 247,
      "Ġse": 248,
      "Ġo": 249,
      "ti": 250,
      "ciÃ³n": 251,
      "Ġh": 252,
      "ĠL": 253,
      "res": 254,
      "ura": 255,
      "int": 256,
      "Ġes": 257,
      "Ġv": 258,
      "Ġlos": 259,
      "am": 260,
      "te": 261,
      "lo": 262,
      "Ġn": 263,
      "sta": 264,
      "ĠB": 265,
      "da": 266,
      "Ġcom": 267,
      "Ġ(": 268,
      "is": 269,
      "ÃŃa": 270,
      "ig": 271,
      "to": 272,
      "Ã±": 273,
      "ado": 274,
      "ia": 275,
      "Ġuna": 276,
      "us": 277,
      "Ġpor": 278,
      "io": 279,
      "el": 280,
      "Ġpa": 281,
      "ab": 282,
      "il": 283,
      "Ġal": 284,
      "Ġ19": 285,
      "ol": 286,
      "Ġg": 287,
      "Ġest": 288,
      "ĠG": 289,
      "Ġlas": 290,
      "Ġpint": 291,
      "ĠR": 292,
      "ente": 293,
      "Ġar": 294,
      "ran": 295,
      "Ġin": 296,
      "Ġd": 297,
      "im": 298,
      "ĠD": 299,
      "em": 300,
      "Ġdi": 301,
      "Ġb": 302,
      "ta": 303,
      "ĠF": 304,
      "ica": 305,
      "ch": 306,
      "cion": 307,
      "ras": 308,
      "ĠT": 309,
      "ĠV": 310,
      "Ġcomo": 311,
      "dad": 312,
      "Ġob": 313,
      "cia": 314,
      "bi": 315,
      "ui": 316,
      "co": 317,
      "cu": 318,
      "Ġco": 319,
      "ĠJ": 320,
      "Ġcu": 321,
      "it": 322,
      "pa": 323,
      "nte": 324,
      "iz": 325,
      "bre": 326,
      "ĠN": 327,
      "ca": 328,
      "ĠEn": 329,
      "ada": 330,
      "Ġex": 331,
      "Ã¡s": 332,
      "ĠI": 333,
      "Ġpro": 334,
      "ĠLa": 335,
      "ico": 336,
      "aj": 337,
      "Ãº": 338,
      "ĠH": 339,
      "at": 340,
      "Ġpara": 341,
      "Ġper": 342,
      "vi": 343,
      "ĠAr": 344,
      "Ġfue": 345,
      "ct": 346,
      "Ġdes": 347,
      "era": 348,
      "mo": 349,
      "ĠEl": 350,
      "ce": 351,
      "ie": 352,
      "ros": 353,
      "Ġ2": 354,
      "um": 355,
      "po": 356,
      "go": 357,
      "ant": 358,
      "ist": 359,
      "ien": 360,
      "Ġmu": 361,
      "Ã¡n": 362,
      "Ġso": 363,
      "Ġha": 364,
      "Ġsus": 365,
      "ma": 366,
      "eo": 367,
      "pe": 368,
      "Ã©n": 369,
      "Ġtra": 370,
      "se": 371,
      "pos": 372,
      "Ġpintura": 373,
      "ciones": 374,
      "ento": 375,
      "va": 376,
      "las": 377,
      "ĠmÃ¡s": 378,
      "Ġno": 379,
      "mente": 380,
      "ando": 381,
      "ales": 382,
      "et": 383,
      "ul": 384,
      "Ġ18": 385,
      "vo": 386,
      "dos": 387,
      "si": 388,
      "ir": 389,
      "ĠO": 390,
      "Ġpar": 391,
      "Ġent": 392,
      "Ġlo": 393,
      "rim": 394,
      "pres": 395,
      "les": 396,
      "Ã©s": 397,
      "qui": 398,
      "ano": 399,
      "ĠaÃ±": 400,
      "na": 401,
      "ados": 402,
      "jo": 403,
      "ru": 404,
      "uer": 405,
      "ib": 406,
      "),": 407,
      "ambi": 408,
      "za": 409,
      "ina": 410,
      "ĠU": 411,
      "ur": 412,
      "Ġ20": 413,
      "tra": 414,
      "useo": 415,
      "ambiÃ©n": 416,
      "Ġim": 417,
      "ici": 418,
      "Ġca": 419,
      "posi": 420,
      "ĠEs": 421,
      "Ġma": 422,
      "ĠMar": 423,
      "Ġsobre": 424,
      "est": 425,
      "Ġobra": 426,
      "du": 427,
      "Ġesc": 428,
      "Ġj": 429,
      "ba": 430,
      "Ġesta": 431,
      "ero": 432,
      "ĠSe": 433,
      "ismo": 434,
      "ali": 435,
      "tes": 436,
      "tura": 437,
      "Ġmo": 438,
      "gra": 439,
      "Ġle": 440,
      "lan": 441,
      "ios": 442,
      "Ġcont": 443,
      "Ġint": 444,
      "Ġarti": 445,
      "Ġsig": 446,
      "ren": 447,
      "Ġpo": 448,
      "Ġme": 449,
      "Ġprim": 450,
      "aliz": 451,
      "icas": 452,
      "eri": 453,
      "cciÃ³n": 454,
      "ino": 455,
      "Ġarte": 456,
      ").": 457,
      "Ġobras": 458,
      "ces": 459,
      "baj": 460,
      "ĠPa": 461,
      "ĠMuseo": 462,
      "Ġ\"": 463,
      "ver": 464,
      "ĠAl": 465,
      "Ġfor": 466,
      "ana": 467,
      "los": 468,
      "des": 469,
      "Ġser": 470,
      "Ġvi": 471,
      "ĠRe": 472,
      "mi": 473,
      "ĠtambiÃ©n": 474,
      "19": 475,
      "ĠSan": 476,
      "Ġpintor": 477,
      "Ġentre": 478,
      "Ġot": 479,
      "gen": 480,
      "udi": 481,
      "den": 482,
      "unt": 483,
      "amente": 484,
      "Ġto": 485,
      "ido": 486,
      "tu": 487,
      "Ġhab": 488,
      "Ġdon": 489,
      "ÃŃs": 490,
      "ĠW": 491,
      "das": 492,
      "icos": 493,
      "ĠEst": 494,
      "adas": 495,
      "oci": 496,
      "pu": 497,
      "tos": 498,
      "Ã±o": 499,
      "cue": 500,
      "gun": 501,
      "ni": 502,
      "no": 503,
      "por": 504,
      "Ġor": 505,
      "enta": 506,
      "Ġtrabaj": 507,
      "gu": 508,
      "tor": 509,
      "ntes": 510,
      "ĠK": 511,
      "ÃŃn": 512,
      "li": 513,
      "ĠaÃ±os": 514,
      "Ġpre": 515,
      "lar": 516,
      "fe": 517,
      "Ġas": 518,
      "ga": 519,
      "cional": 520,
      "ĠNa": 521,
      "Ġam": 522,
      "Ġac": 523,
      "Ġgran": 524,
      "iÃ³n": 525,
      "der": 526,
      "Ġdonde": 527,
      "posiciÃ³n": 528,
      "ion": 529,
      "zo": 530,
      "Ãºn": 531,
      "almente": 532,
      "bu": 533,
      "Ġrepres": 534,
      "pi": 535,
      "ve": 536,
      "stas": 537,
      "stra": 538,
      "man": 539,
      "Ã±a": 540,
      "ub": 541,
      "ÃŃst": 542,
      "ĠÃ©": 543,
      "Ġci": 544,
      "ĠX": 545,
      "rado": 546,
      "je": 547,
      "Ġrealiz": 548,
      "ona": 549,
      "cio": 550,
      "ĠGal": 551,
      "dem": 552,
      "ĠPar": 553,
      "Ġve": 554,
      "cip": 555,
      "Ġem": 556,
      "ĠMa": 557,
      "Ġcar": 558,
      "Ġpr": 559,
      "erÃŃa": 560,
      "ten": 561,
      "qu": 562,
      "so": 563,
      "Ġpue": 564,
      "ĠCh": 565,
      "Ġmi": 566,
      "ĠFran": 567,
      "aba": 568,
      "igura": 569,
      "ĠCo": 570,
      "sto": 571,
      "Ġab": 572,
      "graf": 573,
      "ĠArtes": 574,
      "itu": 575,
      "ĠSu": 576,
      "Ġinf": 577,
      "Ġestudi": 578,
      "cul": 579,
      "Ġtem": 580,
      "Ġcas": 581,
      "Ġeste": 582,
      "Ġro": 583,
      "ora": 584,
      "Ġdos": 585,
      "ĠArte": 586,
      "Ġpos": 587,
      "aron": 588,
      "Ġap": 589,
      "ĠIn": 590,
      "Ġan": 591,
      "ja": 592,
      "cri": 593,
      "Ġfigura": 594,
      "Ġcuad": 595,
      "ĠCa": 596,
      "00": 597,
      "ĠDe": 598,
      "Ġlu": 599,
      "Ġretra": 600,
      "Ġcre": 601,
      "Ġte": 602,
      "cto": 603,
      "Ġ-": 604,
      "Ġti": 605,
      "entos": 606,
      "cl": 607,
      "Ġmar": 608,
      "Ġman": 609,
      "ĠÃ": 610,
      "erior": 611,
      "cho": 612,
      "Ġcol": 613,
      "urante": 614,
      "Ġcomp": 615,
      "son": 616,
      "ich": 617,
      "uel": 618,
      "Ġdo": 619,
      "ter": 620,
      "Ġ16": 621,
      "ĠBel": 622,
      "Ġparte": 623,
      "ĠSant": 624,
      "Ġpres": 625,
      "Ġartista": 626,
      "uen": 627,
      "Ġsiglo": 628,
      "eron": 629,
      "Ġexp": 630,
      "Ã³r": 631,
      "Ġpero": 632,
      "Ã©c": 633,
      "Ġcor": 634,
      "ĠLos": 635,
      "ven": 636,
      "unto": 637,
      "Ġcole": 638,
      "Ġespe": 639,
      "ĠAn": 640,
      "18": 641,
      "car": 642,
      "au": 643,
      "tiv": 644,
      "ler": 645,
      "Ġcons": 646,
      "ĠCon": 647,
      "Ġart": 648,
      "he": 649,
      "cha": 650,
      "Ġson": 651,
      "ĠY": 652,
      "Ġera": 653,
      "Ġna": 654,
      "ĠMad": 655,
      "Ġhi": 656,
      "ĠMo": 657,
      "illa": 658,
      "Ġmay": 659,
      "Ġlle": 660,
      "ĠCar": 661,
      "ing": 662,
      "con": 663,
      "Ġau": 664,
      "ario": 665,
      "ena": 666,
      "ĠLe": 667,
      "dor": 668,
      "idad": 669,
      "ador": 670,
      "rid": 671,
      "ilo": 672,
      "Ġdibu": 673,
      "rÃŃ": 674,
      "Ġfam": 675,
      "Ġfuer": 676,
      "ide": 677,
      "oria": 678,
      "ble": 679,
      "ciÃ³": 680,
      "ber": 681,
      "udad": 682,
      "Ġespa": 683,
      "eros": 684,
      "ĠEx": 685,
      "me": 686,
      "gar": 687,
      "Ġver": 688,
      "II": 689,
      "Ġ200": 690,
      "uso": 691,
      "iento": 692,
      "Ġgra": 693,
      "Ġforma": 694,
      "aciÃ³n": 695,
      "Ġmedi": 696,
      "omb": 697,
      "fici": 698,
      "Ġpinturas": 699,
      "incip": 700,
      "ctu": 701,
      "Ġhasta": 702,
      "Ġconoci": 703,
      "ĠJu": 704,
      "endo": 705,
      "Ġant": 706,
      "Ġ15": 707,
      "puÃ©s": 708,
      "ĠaÃ±o": 709,
      "cen": 710,
      "Ġvar": 711,
      "Ġ199": 712,
      "ĠParÃŃs": 713,
      "grafÃŃa": 714,
      "ĠBellas": 715,
      "Ġprincip": 716,
      "ral": 717,
      "ĠUni": 718,
      "cer": 719,
      "Ġqui": 720,
      "ge": 721,
      "tal": 722,
      "Ġmen": 723,
      "Ġparti": 724,
      "Ġten": 725,
      "ores": 726,
      "cuent": 727,
      "ĠLu": 728,
      "ones": 729,
      "ĠDes": 730,
      "isaj": 731,
      "Ġdesde": 732,
      "Ġartistas": 733,
      "Ġnue": 734,
      "ĠartÃŃst": 735,
      "lam": 736,
      "Ġ198": 737,
      "Ġfin": 738,
      "Ġhist": 739,
      "ĠAnt": 740,
      "Ġinter": 741,
      "cas": 742,
      "ĠestÃ¡": 743,
      "Ġres": 744,
      "jos": 745,
      "Ġescul": 746,
      "ĠRo": 747,
      "Ġ17": 748,
      "Ġpe": 749,
      "ÃŃan": 750,
      "ĠNacional": 751,
      "tica": 752,
      "rÃ¡": 753,
      "sa": 754,
      "Ġotros": 755,
      "emp": 756,
      "ĠMadrid": 757,
      "encia": 758,
      "ĠGalerÃŃa": 759,
      "ĠLas": 760,
      "cias": 761,
      "tico": 762,
      "Ġalgun": 763,
      "ista": 764,
      "arro": 765,
      "alle": 766,
      "tiva": 767,
      "tivo": 768,
      "use": 769,
      "igu": 770,
      "Ġvida": 771,
      "Ġdurante": 772,
      "ya": 773,
      "Ġmuy": 774,
      "Ġprop": 775,
      "ĠJos": 776,
      "ene": 777,
      "ard": 778,
      "ombre": 779,
      "dera": 780,
      "rem": 781,
      "Ġ196": 782,
      "Ġ201": 783,
      "lti": 784,
      "alidad": 785,
      "Ġincl": 786,
      "ias": 787,
      "dic": 788,
      "cos": 789,
      "Ġestilo": 790,
      "ida": 791,
      "gos": 792,
      "Ġrepresenta": 793,
      "ĠLo": 794,
      "ern": 795,
      "mas": 796,
      "Ġdis": 797,
      "entes": 798,
      "cel": 799,
      "min": 800,
      "lica": 801,
      "Ġpaisaj": 802,
      "tas": 803,
      "ye": 804,
      "be": 805,
      "gel": 806,
      "Ġ197": 807,
      "Ã©r": 808,
      "atura": 809,
      "ĠBar": 810,
      "lic": 811,
      "Ġescri": 812,
      "ĠCom": 813,
      "Ġlib": 814,
      "ĠSal": 815,
      "leo": 816,
      "Ġperson": 817,
      "ĠJo": 818,
      "ÃŃas": 819,
      "rÃ³": 820,
      "Ġcab": 821,
      "ĠhabÃŃa": 822,
      "Ġpas": 823,
      "ĠPint": 824,
      "Ġya": 825,
      "anto": 826,
      "adre": 827,
      "ed": 828,
      "Ġ195": 829,
      "cadem": 830,
      "Ġne": 831,
      "Ġ193": 832,
      "ĠNue": 833,
      "Ġmismo": 834,
      "Ġprimera": 835,
      "Ġtal": 836,
      "Ġsin": 837,
      "ĠSa": 838,
      "ine": 839,
      "Ġreg": 840,
      "erv": 841,
      "raciÃ³n": 842,
      "Ġcolor": 843,
      "uvo": 844,
      "Ġencuent": 845,
      "Ġinfl": 846,
      "rar": 847,
      "oma": 848,
      "tar": 849,
      "Ġciudad": 850,
      "ĠJuan": 851,
      "ĠÃ³": 852,
      "miento": 853,
      "ĠEspa": 854,
      "pare": 855,
      "Ġrepresent": 856,
      "Ġcolo": 857,
      "til": 858,
      "Ġ192": 859,
      "Ġ3": 860,
      "Ġuno": 861,
      "Ġmayor": 862,
      "iv": 863,
      "onio": 864,
      "Ġsim": 865,
      "unque": 866,
      "Ġu": 867,
      "Ġfun": 868,
      "ĠAm": 869,
      "Ġfueron": 870,
      "for": 871,
      "Ġmuer": 872,
      "fic": 873,
      "Ġcent": 874,
      "Ġtras": 875,
      "Ġreci": 876,
      "Ġpare": 877,
      "per": 878,
      "ne": 879,
      "Ġcam": 880,
      "vers": 881,
      "posiciones": 882,
      "ck": 883,
      "Ġcuadro": 884,
      "ĠdespuÃ©s": 885,
      "embre": 886,
      "lab": 887,
      "Ġquien": 888,
      "Ġfamil": 889,
      "and": 890,
      "biÃ³": 891,
      "Ġad": 892,
      "Ġprof": 893,
      "Ġ194": 894,
      "rÃŃa": 895,
      "Ġmue": 896,
      "Ġsi": 897,
      "Ġil": 898,
      "iendo": 899,
      "ĠZ": 900,
      "ĠArt": 901,
      "Ġespeci": 902,
      "Ġtrabajo": 903,
      "Ġdesta": 904,
      "Ġvis": 905,
      "Ġof": 906,
      "ĠexposiciÃ³n": 907,
      "enera": 908,
      "hi": 909,
      "tab": 910,
      "Ãºlti": 911,
      "lado": 912,
      "Ġter": 913,
      "Ã©cn": 914,
      "Ġconsi": 915,
      "cis": 916,
      "cademia": 917,
      "ĠMarÃŃa": 918,
      "Ġimpor": 919,
      "istas": 920,
      "ĠFue": 921,
      "Ġhe": 922,
      "Ġide": 923,
      "ĠÃ©po": 924,
      "Ġmat": 925,
      "ens": 926,
      "Ġfiguras": 927,
      "empo": 928,
      "Ġrela": 929,
      "Ġlien": 930,
      "Ġra": 931,
      "Ġprodu": 932,
      "ĠasÃŃ": 933,
      "lesia": 934,
      "Ġcer": 935,
      "ĠÃģ": 936,
      "Ġnatura": 937,
      "Ġcontra": 938,
      "fa": 939,
      "Ġda": 940,
      "gi": 941,
      "gÃºn": 942,
      "cep": 943,
      "Ġher": 944,
      "ĠPor": 945,
      "ĠÃ©poca": 946,
      "iene": 947,
      "fica": 948,
      "dÃ³": 949,
      "stitu": 950,
      "Ġfran": 951,
      "Ġtres": 952,
      "ĠJosÃ©": 953,
      "bar": 954,
      "ĠVir": 955,
      "Ġpla": 956,
      "uro": 957,
      "pon": 958,
      "van": 959,
      "ĠtÃ©cn": 960,
      "ĠMan": 961,
      "Ġfe": 962,
      "Ġins": 963,
      "Ġorig": 964,
      "Ġcuando": 965,
      "ĠVal": 966,
      "tado": 967,
      "ĠÃºlti": 968,
      "Ġmaest": 969,
      "zÃ³": 970,
      "Ġcul": 971,
      "cter": 972,
      "Ãºs": 973,
      "rada": 974,
      "rencia": 975,
      "atro": 976,
      "ĠEspaÃ±a": 977,
      "tÃ³": 978,
      "ĠBo": 979,
      "Ġej": 980,
      "ril": 981,
      "Ġdeco": 982,
      "Ġedi": 983,
      "can": 984,
      "Ġfamilia": 985,
      "mos": 986,
      "ÃŃo": 987,
      "Ġsa": 988,
      "Ġvan": 989,
      "quite": 990,
      "riÃ³": 991,
      "Ġat": 992,
      "bo": 993,
      "ita": 994,
      "ĠAcademia": 995,
      "ĠHa": 996,
      "Ġ14": 997,
      "ork": 998,
      "tic": 999,
      "Ġmon": 1000,
      "ĠAle": 1001,
      "Ġmuch": 1002,
      "ĠMÃ©": 1003,
      "ĠÃ³leo": 1004,
      "Ġjunto": 1005,
      "Ġtiempo": 1006,
      "tiliz": 1007,
      "Ġsido": 1008,
      "Ġtodo": 1009,
      "ĠNo": 1010,
      "nta": 1011,
      "izo": 1012,
      "Ġcap": 1013,
      "dia": 1014,
      "Ġpintores": 1015,
      "Ġig": 1016,
      "Ġpub": 1017,
      "ĠGu": 1018,
      "ez": 1019,
      "atal": 1020,
      "Ġvez": 1021,
      "ier": 1022,
      "uela": 1023,
      "ĠÃ¡": 1024,
      "demÃ¡s": 1025,
      "Ġ191": 1026,
      "Ġapare": 1027,
      "cuela": 1028,
      "ĠPrem": 1029,
      "Ġho": 1030,
      "uy": 1031,
      "Ġcual": 1032,
      "Ġ189": 1033,
      "Ġr": 1034,
      "Ġprimer": 1035,
      "Ġ190": 1036,
      "Ġinfluen": 1037,
      "Ġgrab": 1038,
      "osa": 1039,
      "ĠCol": 1040,
      "ĠVirgen": 1041,
      "gan": 1042,
      "iografÃŃa": 1043,
      "Ġllam": 1044,
      "diÃ³": 1045,
      "Ġgru": 1046,
      "Ġpie": 1047,
      "Ġcm": 1048,
      "Ãºb": 1049,
      "Ġhacia": 1050,
      "Ġencar": 1051,
      "rio": 1052,
      "ini": 1053,
      "ĠEscuela": 1054,
      "ond": 1055,
      "ctura": 1056,
      "cido": 1057,
      "ĠTambiÃ©n": 1058,
      "Ġni": 1059,
      "siÃ³n": 1060,
      "Ġexpres": 1061,
      "Ġref": 1062,
      "ĠÃ©l": 1063,
      "Ġutiliz": 1064,
      "ustra": 1065,
      "Ġcla": 1066,
      "ost": 1067,
      "ron": 1068,
      "Ġgenera": 1069,
      "Ġcolec": 1070,
      "udo": 1071,
      "Ġmun": 1072,
      "Ġform": 1073,
      "Ġimporta": 1074,
      "uda": 1075,
      "Ġ188": 1076,
      "ĠYork": 1077,
      "ĠGo": 1078,
      "ĠNueva": 1079,
      "cont": 1080,
      "ban": 1081,
      "Ġmuerte": 1082,
      "Ġaunque": 1083,
      "\".": 1084,
      "Ġdist": 1085,
      "ĠSanta": 1086,
      "ase": 1087,
      "ĠJa": 1088,
      "Ġlienzo": 1089,
      "cur": 1090,
      "arrol": 1091,
      "emb": 1092,
      "Ġrel": 1093,
      "ĠXV": 1094,
      "Ġale": 1095,
      "Ã±ol": 1096,
      "ĠcolecciÃ³n": 1097,
      "Ġotras": 1098,
      "Ã±os": 1099,
      "Ġescen": 1100,
      "ud": 1101,
      "Ġvia": 1102,
      "Ġ4": 1103,
      "yo": 1104,
      "ĠCor": 1105,
      "ĠRa": 1106,
      "cÃŃa": 1107,
      "Ġretratos": 1108,
      "Ġli": 1109,
      "tion": 1110,
      "pera": 1111,
      "Ġpuede": 1112,
      "rist": 1113,
      "ĠPo": 1114,
      "ĠPro": 1115,
      "bier": 1116,
      "Ġcara": 1117,
      "Ġdise": 1118,
      "Ġ5": 1119,
      "Ġarquite": 1120,
      "ĠMe": 1121,
      "entras": 1122,
      "arse": 1123,
      "Ġpol": 1124,
      "ĠEnt": 1125,
      "versi": 1126,
      "Ġserie": 1127,
      "ctor": 1128,
      "anos": 1129,
      "Ġmis": 1130,
      "aban": 1131,
      "Ġdife": 1132,
      "lÃ¡": 1133,
      "Ġbo": 1134,
      "Ġdesarrol": 1135,
      "cial": 1136,
      "Ġtanto": 1137,
      "Ġescultura": 1138,
      "jer": 1139,
      "ĠAs": 1140,
      "uerra": 1141,
      "aje": 1142,
      "Ġencont": 1143,
      "16": 1144,
      "ele": 1145,
      "Ġdire": 1146,
      "ĠFrancis": 1147,
      "\",": 1148,
      "ĠTo": 1149,
      "Ġautor": 1150,
      "ĠRoma": 1151,
      "gÃ³": 1152,
      "ĠBiografÃŃa": 1153,
      "Ġcuadros": 1154,
      "Ġinv": 1155,
      "20": 1156,
      "ĠCas": 1157,
      "ĠCu": 1158,
      "Ġretrato": 1159,
      "erio": 1160,
      "ĠSo": 1161,
      "stru": 1162,
      "ancia": 1163,
      "ĠEsta": 1164,
      "par": 1165,
      "smo": 1166,
      "Ġpadre": 1167,
      "Ġnombre": 1168,
      "Ġit": 1169,
      "bra": 1170,
      "quier": 1171,
      "ĠHo": 1172,
      "cor": 1173,
      "Ġsigui": 1174,
      "Ġcomple": 1175,
      "able": 1176,
      "are": 1177,
      "amiento": 1178,
      "ple": 1179,
      "inas": 1180,
      "dal": 1181,
      "iones": 1182,
      "ĠEste": 1183,
      "lacio": 1184,
      "Ġbaj": 1185,
      "Ġencuentra": 1186,
      "ĠExposiciÃ³n": 1187,
      "olu": 1188,
      "Ġsent": 1189,
      "Ġhan": 1190,
      "ha": 1191,
      "ust": 1192,
      "Ġtran": 1193,
      "Ġcolores": 1194,
      "dencia": 1195,
      "xico": 1196,
      "ĠPremio": 1197,
      "bol": 1198,
      "Ġlugar": 1199,
      "gue": 1200,
      "Ġluz": 1201,
      "pl": 1202,
      "ĠMu": 1203,
      "Ġpri": 1204,
      "Ã¼": 1205,
      "ell": 1206,
      "Ġantigu": 1207,
      "ante": 1208,
      "Ġhum": 1209,
      "imiento": 1210,
      "Ġactu": 1211,
      "versidad": 1212,
      "ctos": 1213,
      "ĠBer": 1214,
      "ĠQ": 1215,
      "celona": 1216,
      "Ġx": 1217,
      "cimiento": 1218,
      "ale": 1219,
      "Ġprofes": 1220,
      "ĠSus": 1221,
      "Ġmuestra": 1222,
      "conoci": 1223,
      "Ġiglesia": 1224,
      "Ġdibujo": 1225,
      "Ġembar": 1226,
      "Ġgrupo": 1227,
      "Ġfa": 1228,
      "ria": 1229,
      "Ġmura": 1230,
      "ĠespaÃ±ol": 1231,
      "Ġdedic": 1232,
      "ĠSalÃ³n": 1233,
      "ĠUn": 1234,
      "Ġretab": 1235,
      "Ġindi": 1236,
      "Ġconsidera": 1237,
      "dose": 1238,
      "ĠCent": 1239,
      "men": 1240,
      "ĠFrancia": 1241,
      "Ġfo": 1242,
      "ile": 1243,
      "Ġalgunos": 1244,
      "Ġpeque": 1245,
      "15": 1246,
      "ĠMÃ©xico": 1247,
      "tÃ³r": 1248,
      "rera": 1249,
      "gua": 1250,
      "vir": 1251,
      "ĠPintura": 1252,
      "Ġorigin": 1253,
      "porÃ¡n": 1254,
      "leza": 1255,
      "uego": 1256,
      "viÃ³": 1257,
      "Ġconserv": 1258,
      "Ġejemp": 1259,
      "Ġcasa": 1260,
      "emporÃ¡n": 1261,
      "lada": 1262,
      "ĠFrancisco": 1263,
      "ĠBa": 1264,
      "inos": 1265,
      "iÃ³": 1266,
      "cado": 1267,
      "Ġima": 1268,
      "ĠEntre": 1269,
      "ĠrealizÃ³": 1270,
      "Ġhizo": 1271,
      "Ġitali": 1272,
      "Ġ187": 1273,
      "pen": 1274,
      "ton": 1275,
      "ĠestÃ¡n": 1276,
      "ĠAntonio": 1277,
      "Ġbien": 1278,
      "Ġmode": 1279,
      "Ġcultura": 1280,
      "Ġsegun": 1281,
      "ama": 1282,
      "ĠGran": 1283,
      "nos": 1284,
      "taciÃ³n": 1285,
      "risto": 1286,
      "Ġmientras": 1287,
      "Ġtiene": 1288,
      "ea": 1289,
      "tera": 1290,
      "ut": 1291,
      "cre": 1292,
      "gado": 1293,
      "gres": 1294,
      "Ġvol": 1295,
      "ĠartÃŃstica": 1296,
      "pec": 1297,
      "pol": 1298,
      "Ġilustra": 1299,
      "Ġembargo": 1300,
      "tivos": 1301,
      "Ġtuvo": 1302,
      "antes": 1303,
      "ĠRet": 1304,
      "che": 1305,
      "uido": 1306,
      "zos": 1307,
      "log": 1308,
      "ĠBarcelona": 1309,
      "Ġmom": 1310,
      "tr": 1311,
      "Ġestudios": 1312,
      "Ġsur": 1313,
      "Ġinici": 1314,
      "zas": 1315,
      "ill": 1316,
      "ĠdÃ©c": 1317,
      "Ġmundo": 1318,
      "imo": 1319,
      "mÃ¡": 1320,
      "tiÃ³": 1321,
      "ible": 1322,
      "crip": 1323,
      "terior": 1324,
      "jas": 1325,
      "gio": 1326,
      "ĠcrÃŃ": 1327,
      "ĠPer": 1328,
      "ĠpintÃ³": 1329,
      "Ġdere": 1330,
      "Ġtar": 1331,
      "Ġese": 1332,
      "Ġpresent": 1333,
      "Ġllev": 1334,
      "Ġhijo": 1335,
      "all": 1336,
      "Ġtradi": 1337,
      "Ġtab": 1338,
      "Ġvarios": 1339,
      "lÃŃ": 1340,
      "ĠUniversidad": 1341,
      "Ġcomen": 1342,
      "cum": 1343,
      "Ġcaracter": 1344,
      "Ġimpres": 1345,
      "Ġexposiciones": 1346,
      "Ġ6": 1347,
      "ste": 1348,
      "Ġba": 1349,
      "ĠInt": 1350,
      "dades": 1351,
      "Ã³g": 1352,
      "ima": 1353,
      "illo": 1354,
      "Ġaf": 1355,
      "Ġdivers": 1356,
      "rie": 1357,
      "pre": 1358,
      "Ġestaba": 1359,
      "ĠPed": 1360,
      "ori": 1361,
      "cil": 1362,
      "Ġtex": 1363,
      "talia": 1364,
      "ultura": 1365,
      "tivas": 1366,
      "Ġgrandes": 1367,
      "Ġreal": 1368,
      "cÃ³": 1369,
      "Ġhistoria": 1370,
      "Ġpartir": 1371,
      "Ġfon": 1372,
      "Ġescenas": 1373,
      "lares": 1374,
      "ĠsÃŃ": 1375,
      "ĠMun": 1376,
      "ĠLuis": 1377,
      "17": 1378,
      "Ġhay": 1379,
      "oso": 1380,
      "ĠXI": 1381,
      "Ġantes": 1382,
      "Ġrelig": 1383,
      "Ġmujer": 1384,
      "Ġsol": 1385,
      "ĠMi": 1386,
      "Ġotro": 1387,
      "jeres": 1388,
      "Ġmov": 1389,
      "Ġlar": 1390,
      "erva": 1391,
      "genes": 1392,
      "Ġpublic": 1393,
      "ĠNe": 1394,
      "irm": 1395,
      "pel": 1396,
      "ĠTe": 1397,
      "Ġescuela": 1398,
      "ĠLond": 1399,
      "Ġsal": 1400,
      "Ġtoda": 1401,
      "Ġestudio": 1402,
      "Ġcontin": 1403,
      "tro": 1404,
      "Ġpi": 1405,
      "onces": 1406,
      "Ġdeci": 1407,
      "Ġfre": 1408,
      "Ġtrans": 1409,
      "ĠTh": 1410,
      "bido": 1411,
      "ĠtÃ©cnica": 1412,
      "Ġpic": 1413,
      "Ġjo": 1414,
      "jÃ³": 1415,
      "Ġacu": 1416,
      "Ġinfluencia": 1417,
      "ĠItalia": 1418,
      "ulio": 1419,
      "ĠPedro": 1420,
      "Ġpaisajes": 1421,
      "vidu": 1422,
      "ĠCole": 1423,
      "bur": 1424,
      "Ġmiemb": 1425,
      "Ġ7": 1426,
      "vÃ©s": 1427,
      "unda": 1428,
      "Ġ9": 1429,
      "Ġ186": 1430,
      "Ġ8": 1431,
      "ticu": 1432,
      "ĠReal": 1433,
      "Ġtema": 1434,
      "Ġsolo": 1435,
      "Ġretablo": 1436,
      "ĠHist": 1437,
      "th": 1438,
      "gh": 1439,
      "ĠFern": 1440,
      "edad": 1441,
      "ĠMuse": 1442,
      "Ġven": 1443,
      "ĠAnd": 1444,
      "Ġpes": 1445,
      "Ġmoder": 1446,
      "ribu": 1447,
      "ĠCont": 1448,
      "ĠJoh": 1449,
      "Ġellos": 1450,
      "Ġcuer": 1451,
      "Ġgeneral": 1452,
      "Ġbajo": 1453,
      "Ġcue": 1454,
      "rÃ¡f": 1455,
      "rez": 1456,
      "Ġele": 1457,
      "ĠPe": 1458,
      "Ġmuseo": 1459,
      "ĠLondres": 1460,
      "str": 1461,
      "Ġconocido": 1462,
      "Ġtarde": 1463,
      "Ġnum": 1464,
      "Ġparticu": 1465,
      "vin": 1466,
      "cÃ©s": 1467,
      "Ġplan": 1468,
      "uir": 1469,
      "Ġentonces": 1470,
      "eno": 1471,
      "ental": 1472,
      "ĠBe": 1473,
      "Ġcuatro": 1474,
      "adores": 1475,
      "Ġestado": 1476,
      "ĠOr": 1477,
      "ĠSin": 1478,
      "lico": 1479,
      "ĠCristo": 1480,
      "ho": 1481,
      "Ġiz": 1482,
      "Ġtemas": 1483,
      "ĠpictÃ³r": 1484,
      "tivi": 1485,
      "ĠtÃŃ": 1486,
      "ĠpÃºb": 1487,
      "ĠThe": 1488,
      "ĠtravÃ©s": 1489,
      "zar": 1490,
      "Ġelem": 1491,
      "Ġizquier": 1492,
      "ito": 1493,
      "ĠCultura": 1494,
      "ĠUna": 1495,
      "ian": 1496,
      "ardo": 1497,
      "Ġmomento": 1498,
      "ĠVene": 1499,
      "cios": 1500,
      "ert": 1501,
      "Ġpaisaje": 1502,
      "Ġdu": 1503,
      "Ġindividu": 1504,
      "ris": 1505,
      "gor": 1506,
      "dido": 1507,
      "Ġtaller": 1508,
      "iano": 1509,
      "ĠMig": 1510,
      "mica": 1511,
      "rag": 1512,
      "Ġlibro": 1513,
      "ĠsegÃºn": 1514,
      "Ġvarias": 1515,
      "Ġmin": 1516,
      "eric": 1517,
      "ted": 1518,
      "Ġdibujos": 1519,
      "Ġpod": 1520,
      "Ġmuchos": 1521,
      "ĠDurante": 1522,
      "rodu": 1523,
      "ĠMart": 1524,
      "ĠFlo": 1525,
      "paÃ±": 1526,
      "Ġregres": 1527,
      "Ġflo": 1528,
      "ajes": 1529,
      "gent": 1530,
      "Ġella": 1531,
      "Ġalgunas": 1532,
      "Ġus": 1533,
      "lio": 1534,
      "Ġestos": 1535,
      "ko": 1536,
      "Ġdifere": 1537,
      "ticos": 1538,
      "Ġdef": 1539,
      "lÃ¡st": 1540,
      "Ġsiendo": 1541,
      "itar": 1542,
      "ono": 1543,
      "Ġblan": 1544,
      "ĠdÃ©cada": 1545,
      "ĠGaller": 1546,
      "culo": 1547,
      "Ġescena": 1548,
      "dam": 1549,
      "Ġpers": 1550,
      "ĠDa": 1551,
      "rato": 1552,
      "Ġreligios": 1553,
      "ĠademÃ¡s": 1554,
      "Ġmaestro": 1555,
      "ĠMiguel": 1556,
      "nacional": 1557,
      "cal": 1558,
      "tores": 1559,
      "Ġimagen": 1560,
      "ĠCam": 1561,
      "Ġartes": 1562,
      "one": 1563,
      "ĠPara": 1564,
      "cripciÃ³n": 1565,
      "Ġhecho": 1566,
      "Ġrey": 1567,
      "ĠWil": 1568,
      "Ġmujeres": 1569,
      "Ġcono": 1570,
      "Ġgu": 1571,
      "ĠpolÃŃ": 1572,
      "fo": 1573,
      "Ġherm": 1574,
      "Ġfres": 1575,
      "ĠGre": 1576,
      "ers": 1577,
      "Ġbas": 1578,
      "ĠDi": 1579,
      "Ġamig": 1580,
      "ĠÃģn": 1581,
      "ĠÃºn": 1582,
      "ĠII": 1583,
      "Ã¡r": 1584,
      "Ġdocum": 1585,
      "ĠpaÃŃs": 1586,
      "Ġeran": 1587,
      "Ġotra": 1588,
      "rede": 1589,
      "ĠgÃ©n": 1590,
      "ĠAi": 1591,
      "Ġmanera": 1592,
      "ĠEuro": 1593,
      "ĠNi": 1594,
      "tista": 1595,
      "ari": 1596,
      "ĠtenÃŃa": 1597,
      "Ġcada": 1598,
      "quel": 1599,
      "cÃŃ": 1600,
      "Ġrefle": 1601,
      "vil": 1602,
      "Ġprem": 1603,
      "ff": 1604,
      "teca": 1605,
      "Ġnumeros": 1606,
      "ph": 1607,
      "ĠJe": 1608,
      "Ġproye": 1609,
      "ĠCi": 1610,
      "ĠfrancÃ©s": 1611,
      "Ġreconoci": 1612,
      "jar": 1613,
      "pti": 1614,
      "Ġbar": 1615,
      "Ġch": 1616,
      "Ġhaber": 1617,
      "ĠCarlos": 1618,
      "arios": 1619,
      "Ã¡ndose": 1620,
      "ganiz": 1621,
      "ĠcomposiciÃ³n": 1622,
      "Ġfondo": 1623,
      "Ġposterior": 1624,
      "ĠUnidos": 1625,
      "Ġmet": 1626,
      "ric": 1627,
      "Ġbel": 1628,
      "logÃŃa": 1629,
      "rit": 1630,
      "uv": 1631,
      "Ġvest": 1632,
      "Ġpoco": 1633,
      "omin": 1634,
      "Ġcin": 1635,
      "Ġcl": 1636,
      "Ġparticip": 1637,
      "alista": 1638,
      "Ġtodos": 1639,
      "Ġcier": 1640,
      "Ġjoven": 1641,
      "ĠTra": 1642,
      "Ġsup": 1643,
      "ual": 1644,
      "alla": 1645,
      "ĠIs": 1646,
      "ĠEstados": 1647,
      "ablo": 1648,
      "land": 1649,
      "ĠInstitu": 1650,
      "ÃŃr": 1651,
      "Ġnuevo": 1652,
      "labora": 1653,
      "onia": 1654,
      "rando": 1655,
      "ĠInter": 1656,
      "volu": 1657,
      "Ġestable": 1658,
      "Ġparticular": 1659,
      "ĠPrado": 1660,
      "pas": 1661,
      "Ġmisma": 1662,
      "Ġprimeros": 1663,
      "Ġanim": 1664,
      "iago": 1665,
      "ĠÃģngel": 1666,
      "Ġpintar": 1667,
      "ĠCast": 1668,
      "Ġinte": 1669,
      "Ġgo": 1670,
      "ĠJes": 1671,
      "laciÃ³n": 1672,
      "Ġaz": 1673,
      "Ġmovimiento": 1674,
      "Ġconvir": 1675,
      "sk": 1676,
      "14": 1677,
      "Ġsan": 1678,
      "ure": 1679,
      "Ġnomb": 1680,
      "jet": 1681,
      "Ãºm": 1682,
      "Ã¡genes": 1683,
      "Ġespos": 1684,
      "Ġtrabajos": 1685,
      "Ġsino": 1686,
      "fael": 1687,
      "uenos": 1688,
      "bable": 1689,
      "Ġtipo": 1690,
      "Ġfoto": 1691,
      "ficio": 1692,
      "cta": 1693,
      "Ġ185": 1694,
      "ĠVan": 1695,
      "ĠimÃ¡genes": 1696,
      "Ġet": 1697,
      "Ġgal": 1698,
      "ticas": 1699,
      "ĠGra": 1700,
      "Ġluego": 1701,
      "Ġpapel": 1702,
      "ĠOb": 1703,
      "Ġimportante": 1704,
      "ĠHistoria": 1705,
      "ĠXX": 1706,
      "Ġconf": 1707,
      "omen": 1708,
      "dado": 1709,
      "icamente": 1710,
      "uscri": 1711,
      "Ġexhi": 1712,
      "Ġtrasla": 1713,
      "ves": 1714,
      "Ġden": 1715,
      "ĠPalacio": 1716,
      "eras": 1717,
      "ĠGallery": 1718,
      "ĠPrim": 1719,
      "Ġexist": 1720,
      "gro": 1721,
      "orm": 1722,
      "ital": 1723,
      "ĠrepresentaciÃ³n": 1724,
      "ara": 1725,
      "ĠcomenzÃ³": 1726,
      "Ġmano": 1727,
      "Ġmes": 1728,
      "nti": 1729,
      "ĠMon": 1730,
      "Ġizquierda": 1731,
      "Ġcontinu": 1732,
      "Ġestas": 1733,
      "ĠSantiago": 1734,
      "Ġespecialmente": 1735,
      "Ġdecora": 1736,
      "villa": 1737,
      "ntro": 1738,
      "Ġcasi": 1739,
      "ĠÎ": 1740,
      "Ġros": 1741,
      "Ġejemplo": 1742,
      "ĠlÃŃn": 1743,
      "ĠrecibiÃ³": 1744,
      "Ġcos": 1745,
      "Ġconstru": 1746,
      "Ġorganiz": 1747,
      "tene": 1748,
      "Ġpropio": 1749,
      "Ġcarrera": 1750,
      "Ġexper": 1751,
      "ster": 1752,
      "cciones": 1753,
      "Ġuso": 1754,
      "ĠVer": 1755,
      "Ġderecha": 1756,
      "Ġimp": 1757,
      "Ġmedio": 1758,
      "ĠEuropa": 1759,
      "III": 1760,
      "Ġperman": 1761,
      "cionales": 1762,
      "ĠAires": 1763,
      "ĠMuseum": 1764,
      "art": 1765,
      "Ġdici": 1766,
      "lÃŃn": 1767,
      "Ã³lo": 1768,
      "Ġtan": 1769,
      "ĠartÃŃstico": 1770,
      "dida": 1771,
      "pectiva": 1772,
      "quer": 1773,
      "Ġeje": 1774,
      "ruz": 1775,
      "ĠtrabajÃ³": 1776,
      "ĠXIX": 1777,
      "Ġamb": 1778,
      "ĠperÃŃo": 1779,
      "Ã¨": 1780,
      "ĠCentro": 1781,
      "aria": 1782,
      "ĠDesde": 1783,
      "Ġ13": 1784,
      "Ġval": 1785,
      "Ġdiferentes": 1786,
      "Ġtom": 1787,
      "erra": 1788,
      "bert": 1789,
      "dente": 1790,
      "iso": 1791,
      "ctubre": 1792,
      "tros": 1793,
      "Ġpan": 1794,
      "Ġmayo": 1795,
      "Ġay": 1796,
      "Ġabstra": 1797,
      "ĠIg": 1798,
      "ĠSala": 1799,
      "Ġnatural": 1800,
      "rea": 1801,
      "Ġinspi": 1802,
      "ili": 1803,
      "nto": 1804,
      "Ġcuerpo": 1805,
      "Ġefe": 1806,
      "Ġdentro": 1807,
      "ĠGi": 1808,
      "Ġalum": 1809,
      "rib": 1810,
      "mÃ¡n": 1811,
      "Ġsoci": 1812,
      "Ġelementos": 1813,
      "ĠcontemporÃ¡n": 1814,
      "Ġmanuscri": 1815,
      "ĠgÃ©nero": 1816,
      "Ġcele": 1817,
      "ĠVic": 1818,
      "ĠRetrato": 1819,
      "ĠHer": 1820,
      "Ġperio": 1821,
      "cent": 1822,
      "Ġincluy": 1823,
      "ciaciÃ³n": 1824,
      "ĠComo": 1825,
      "Ġva": 1826,
      "val": 1827,
      "tada": 1828,
      "ĠTor": 1829,
      "tel": 1830,
      "ĠnÃºm": 1831,
      "gas": 1832,
      "ice": 1833,
      "ĠÃ¡n": 1834,
      "Ġcabe": 1835,
      "usa": 1836,
      "ĠhistÃ³r": 1837,
      "Ġdetal": 1838,
      "Ġclas": 1839,
      "fi": 1840,
      "Ġrecu": 1841,
      "ĠAu": 1842,
      "ema": 1843,
      "del": 1844,
      "anas": 1845,
      "Ġformas": 1846,
      "Ġaquel": 1847,
      "Ġmateri": 1848,
      "dio": 1849,
      "Ġlado": 1850,
      "Ġnuev": 1851,
      "Ġqu": 1852,
      "Ġmant": 1853,
      "ĠPie": 1854,
      "Ġprobable": 1855,
      "ĠPal": 1856,
      "Ġsitu": 1857,
      "ĠSi": 1858,
      "Ġtemp": 1859,
      "Ġoctubre": 1860,
      "Ġitaliano": 1861,
      "Ġdestac": 1862,
      "Ġtor": 1863,
      "Ġ[": 1864,
      "ĠBr": 1865,
      "Ġhacer": 1866,
      "Ġpueden": 1867,
      "ĠCasa": 1868,
      "Ġhombre": 1869,
      "pal": 1870,
      "Ġconj": 1871,
      "dez": 1872,
      "Ġlargo": 1873,
      "Ġfem": 1874,
      "ka": 1875,
      "unio": 1876,
      "Ġadqui": 1877,
      "Ġsant": 1878,
      "ĠJesÃºs": 1879,
      "Ġnovi": 1880,
      "Ġmenos": 1881,
      "Ġprincipal": 1882,
      "Ġpopu": 1883,
      "Ã©ase": 1884,
      "siones": 1885,
      "Ã±as": 1886,
      "ĠFlorencia": 1887,
      "ĠGar": 1888,
      "Ġnaturaleza": 1889,
      "Ġdiciembre": 1890,
      "Ã¡l": 1891,
      "tedral": 1892,
      "ĠModer": 1893,
      "Ġespacio": 1894,
      "ĠDespuÃ©s": 1895,
      "ĠBuenos": 1896,
      "jetos": 1897,
      "amento": 1898,
      "Ġdescri": 1899,
      "Ġrevi": 1900,
      "Ġmadre": 1901,
      "Ġmonum": 1902,
      "Ġunos": 1903,
      "ĠCan": 1904,
      "ĠManuel": 1905,
      "Ġrep": 1906,
      "Ġobs": 1907,
      "Ġencuentran": 1908,
      "Ġri": 1909,
      "ĠperÃŃodo": 1910,
      "para": 1911,
      "Ġsuper": 1912,
      "Ġejecu": 1913,
      "cci": 1914,
      "rimonio": 1915,
      "stante": 1916,
      "cla": 1917,
      "olÃ³g": 1918,
      "Ġgrie": 1919,
      "ĠRafael": 1920,
      "ial": 1921,
      "Ġdesn": 1922,
      "Ġvio": 1923,
      "Ġmuchas": 1924,
      "Ġsue": 1925,
      "ĠGe": 1926,
      "Ġjunio": 1927,
      "Ġcal": 1928,
      "Ġmarzo": 1929,
      "ilidad": 1930,
      "iblio": 1931,
      "Ġi": 1932,
      "omo": 1933,
      "Ġpriv": 1934,
      "Ġmural": 1935,
      "Ġenero": 1936,
      "Ġconserva": 1937,
      "Ġfinales": 1938,
      "Ġcentro": 1939,
      "Ġpersonajes": 1940,
      "Ġ10": 1941,
      "Ġnoviembre": 1942,
      "inta": 1943,
      "ĠAdemÃ¡s": 1944,
      "ÃŃcu": 1945,
      "Ġguerra": 1946,
      "ĠPet": 1947,
      "ĠFernando": 1948,
      "ĠCiudad": 1949,
      "uida": 1950,
      "Ġdif": 1951,
      "Ġhace": 1952,
      "ĠValencia": 1953,
      "tre": 1954,
      "Ġresul": 1955,
      "ĠTa": 1956,
      "Ġveces": 1957,
      "tan": 1958,
      "Ġimportantes": 1959,
      "ts": 1960,
      "una": 1961,
      "Ġpertene": 1962,
      "brero": 1963,
      "Ġsigni": 1964,
      "Ġtabla": 1965,
      "orte": 1966,
      "Ġaparece": 1967,
      "Ġpl": 1968,
      "tividad": 1969,
      "gl": 1970,
      "Ġmucho": 1971,
      "ĠInstituto": 1972,
      "onor": 1973,
      "Ġcan": 1974,
      "Ġobje": 1975,
      "Ġabril": 1976,
      "chi": 1977,
      "vis": 1978,
      "Ġresi": 1979,
      "Ġescultor": 1980,
      "Ġmiembro": 1981,
      "ĠCara": 1982,
      "uni": 1983,
      "Ġoriginal": 1984,
      "Ġah": 1985,
      "inaciÃ³n": 1986,
      "mania": 1987,
      "org": 1988,
      "ĠRos": 1989,
      "Ġespect": 1990,
      "Ġesposa": 1991,
      "Ġimpresion": 1992,
      "ĠJohn": 1993,
      "ĠnaciÃ³": 1994,
      "ĠnÃºmero": 1995,
      "ĠArti": 1996,
      "eta": 1997,
      "ire": 1998,
      "caciÃ³n": 1999,
      "Ġedad": 2000,
      "ĠChile": 2001,
      "ĠLib": 2002,
      "Ġapo": 2003,
      "ĠBien": 2004,
      "mar": 2005,
      "200": 2006,
      "ord": 2007,
      "ĠÃī": 2008,
      "Ġazul": 2009,
      "rig": 2010,
      "tulo": 2011,
      "10": 2012,
      "iores": 2013,
      "Ã±ola": 2014,
      "empre": 2015,
      "ĠSevilla": 2016,
      "ques": 2017,
      "Ġsegunda": 2018,
      "Ġigu": 2019,
      "Ã©m": 2020,
      "ĠGuerra": 2021,
      "orge": 2022,
      "Ġsab": 2023,
      "lante": 2024,
      "Ġz": 2025,
      "Ġfirm": 2026,
      "Ġtodas": 2027,
      "ĠVÃ©ase": 2028,
      "ĠcÃ³": 2029,
      "Ġocu": 2030,
      "Ġocas": 2031,
      "Ġrelacion": 2032,
      "arÃŃa": 2033,
      "Ġrealizado": 2034,
      "Ġfebrero": 2035,
      "Ġhija": 2036,
      "ĠJean": 2037,
      "ĠRam": 2038,
      "ĠdÃŃa": 2039,
      "Ã©rica": 2040,
      "bri": 2041,
      "Ġmil": 2042,
      "Ġmadera": 2043,
      "rededor": 2044,
      "ptiembre": 2045,
      "Ġpintora": 2046,
      "dica": 2047,
      "Ġrom": 2048,
      "Ġante": 2049,
      "ĠconvirtiÃ³": 2050,
      "ign": 2051,
      "ĠFe": 2052,
      "Ġfalle": 2053,
      "Ġresta": 2054,
      "Ġrefe": 2055,
      "ĠHab": 2056,
      "ĠcaracterÃŃst": 2057,
      "Ġapro": 2058,
      "Ġllamado": 2059,
      "stos": 2060,
      "Ġesa": 2061,
      "Ġobjetos": 2062,
      "Ġseg": 2063,
      "Ġjulio": 2064,
      "burgo": 2065,
      "ĠMag": 2066,
      "Ġlibros": 2067,
      "Ġos": 2068,
      "chas": 2069,
      "Ġcomun": 2070,
      "lor": 2071,
      "nas": 2072,
      "ĠSoci": 2073,
      "Ġlitera": 2074,
      "Ġpermi": 2075,
      "ĠclÃ¡s": 2076,
      "ĠTras": 2077,
      "Ġseptiembre": 2078,
      "ĠrelaciÃ³n": 2079,
      "Ġnueva": 2080,
      "ĠDo": 2081,
      "Ġmenudo": 2082,
      "grÃ¡f": 2083,
      "Ġestatu": 2084,
      "Ġprincipalmente": 2085,
      "ĠdiseÃ±": 2086,
      "Ġdescu": 2087,
      "rel": 2088,
      "Ġprofesor": 2089,
      "via": 2090,
      "chos": 2091,
      "ĠPol": 2092,
      "Ġposible": 2093,
      "Ã¡g": 2094,
      "estig": 2095,
      "ĠPaul": 2096,
      "Ġgrabado": 2097,
      "Ġarquitectura": 2098,
      "Ġdebido": 2099,
      "jor": 2100,
      "ĠGio": 2101,
      "entaciÃ³n": 2102,
      "Ġ202": 2103,
      "Ġic": 2104,
      "Ġ12": 2105,
      "ua": 2106,
      "Ġpintado": 2107,
      "idades": 2108,
      "seÃ±": 2109,
      "ĠMont": 2110,
      "vÃŃa": 2111,
      "199": 2112,
      "Ġthe": 2113,
      "ĠLi": 2114,
      "Ġprimeras": 2115,
      "Ġuni": 2116,
      "dÃŃa": 2117,
      "ĠDu": 2118,
      "Ġfrances": 2119,
      "ille": 2120,
      "ĠVenecia": 2121,
      "ienen": 2122,
      "bio": 2123,
      "emente": 2124,
      "Ġcat": 2125,
      "Ġofici": 2126,
      "cepciÃ³n": 2127,
      "Ġmodelo": 2128,
      "var": 2129,
      ");": 2130,
      "ĠEm": 2131,
      "Ġ184": 2132,
      "Ġsiempre": 2133,
      "eli": 2134,
      "Ġhijos": 2135,
      "ger": 2136,
      "ĠSch": 2137,
      "Ġincluso": 2138,
      "ĠÃºltimo": 2139,
      "ap": 2140,
      "gon": 2141,
      "Ġloc": 2142,
      "Ġconocida": 2143,
      "ĠJan": 2144,
      "Ġcrist": 2145,
      "ry": 2146,
      "ĠFunda": 2147,
      "ĠformaciÃ³n": 2148,
      "tis": 2149,
      "tol": 2150,
      "Ġcentral": 2151,
      "Ġpunto": 2152,
      "ke": 2153,
      "Ġdest": 2154,
      "lamen": 2155,
      "gosto": 2156,
      "Ġpel": 2157,
      "ĠproducciÃ³n": 2158,
      "rano": 2159,
      "ĠJose": 2160,
      "ciendo": 2161,
      "nes": 2162,
      "ĠIm": 2163,
      "ĠAlemania": 2164,
      "Ġcolecciones": 2165,
      "Ġpueb": 2166,
      "La": 2167,
      "iciÃ³n": 2168,
      "ĠCla": 2169,
      "Ġprincipios": 2170,
      "iblioteca": 2171,
      "rÃ¡n": 2172,
      "ĠmÃ©": 2173,
      "ĠAlf": 2174,
      "Ã©tica": 2175,
      "ĠPla": 2176,
      "30": 2177,
      "Ġparece": 2178,
      "Ġagua": 2179,
      "ĠmÃºs": 2180,
      "Ġagosto": 2181,
      "Ġellas": 2182,
      "Ġhermano": 2183,
      "Ġgan": 2184,
      "ĠPablo": 2185,
      "usiÃ³n": 2186,
      "vieron": 2187,
      "ĠEstudi": 2188,
      "Ġacuare": 2189,
      "Ġru": 2190,
      "Ġcerca": 2191,
      "dent": 2192,
      "ĠestudiÃ³": 2193,
      "ĠObras": 2194,
      "jes": 2195,
      "Ġidenti": 2196,
      "ilar": 2197,
      "ise": 2198,
      "Ġmani": 2199,
      "rin": 2200,
      "Ġestuvo": 2201,
      "ug": 2202,
      "Ġencontra": 2203,
      "pia": 2204,
      "Ġder": 2205,
      "Ġpues": 2206,
      "uesto": 2207,
      "ĠFo": 2208,
      "ĠdiseÃ±o": 2209,
      "Ġpin": 2210,
      "lÃ³": 2211,
      "Ġapren": 2212,
      "gentina": 2213,
      "ĠAd": 2214,
      "iza": 2215,
      "ritu": 2216,
      "Ġand": 2217,
      "ĠMartÃŃn": 2218,
      "sen": 2219,
      "bles": 2220,
      "fer": 2221,
      "Ġcuales": 2222,
      "ĠHen": 2223,
      "Ġsen": 2224,
      "Ġconside": 2225,
      "Ġexhibi": 2226,
      "ĠHe": 2227,
      "Ġmejor": 2228,
      "Ġdistint": 2229,
      "ĠIglesia": 2230,
      "Ġprobablemente": 2231,
      "Ġalrededor": 2232,
      "Ġoro": 2233,
      "gre": 2234,
      "198": 2235,
      "ula": 2236,
      "ĠÐ": 2237,
      "ĠPas": 2238,
      "Ġcabeza": 2239,
      "ceso": 2240,
      "Ġprincipales": 2241,
      "ĠVi": 2242,
      "ĠAb": 2243,
      "tido": 2244,
      "ĠFundaciÃ³n": 2245,
      "Ġsos": 2246,
      "ĠdecoraciÃ³n": 2247,
      "ĠallÃŃ": 2248,
      "Ġbus": 2249,
      "Ġinten": 2250,
      "dial": 2251,
      "ĠAunque": 2252,
      "Ġdiversos": 2253,
      "Ġtermin": 2254,
      "uesta": 2255,
      "ĠSegÃºn": 2256,
      "turas": 2257,
      "Ġinterpre": 2258,
      "Ġconjunto": 2259,
      "Ġbe": 2260,
      "inado": 2261,
      "ac": 2262,
      "vier": 2263,
      "ĠBerlÃŃn": 2264,
      "Ġflamen": 2265,
      "Ġdich": 2266,
      "Ġdiversas": 2267,
      "ientos": 2268,
      "eas": 2269,
      "ĠCatal": 2270,
      "rom": 2271,
      "Ġesp": 2272,
      "Ġinsta": 2273,
      "ĠLeon": 2274,
      "Ġpuer": 2275,
      "Ġfu": 2276,
      "ĠpasÃ³": 2277,
      "Ġatribu": 2278,
      "ÃŃm": 2279,
      "vid": 2280,
      "cida": 2281,
      "yÃ³": 2282,
      "ĠplÃ¡st": 2283,
      "quez": 2284,
      "zado": 2285,
      "ĠmayorÃŃa": 2286,
      "ĠÃºltima": 2287,
      "Ġproce": 2288,
      "Ġsimbol": 2289,
      "icasso": 2290,
      "Ġcalle": 2291,
      "ĠBienal": 2292,
      "Ġpesar": 2293,
      "Ġcinco": 2294,
      "gada": 2295,
      "ex": 2296,
      "Ġaband": 2297,
      "ĠtÃŃtulo": 2298,
      "ĠMil": 2299,
      "ĠRom": 2300,
      "pÃ³": 2301,
      "Ġub": 2302,
      "Ġcapilla": 2303,
      "und": 2304,
      "Ġfemen": 2305,
      "ĠDie": 2306,
      "uri": 2307,
      "xim": 2308,
      "Ġblanco": 2309,
      "Ġgrabados": 2310,
      "Ġamar": 2311,
      "000": 2312,
      "Ġban": 2313,
      "Ġfuera": 2314,
      "ĠNiÃ±o": 2315,
      "Ġesto": 2316,
      "yas": 2317,
      "Ġbarro": 2318,
      "ficado": 2319,
      "Ġapre": 2320,
      "Ġporque": 2321,
      "curso": 2322,
      "ĠPicasso": 2323,
      "iena": 2324,
      "deo": 2325,
      "Âº": 2326,
      "ĠExposiciones": 2327,
      "Ġfinal": 2328,
      "Ġsiguiente": 2329,
      "Ġconse": 2330,
      "rica": 2331,
      "rÃ©": 2332,
      "ĠaÃºn": 2333,
      "Ġcomien": 2334,
      "Ġsegundo": 2335,
      "Ġeta": 2336,
      "cipa": 2337,
      "Ġmuest": 2338,
      "Ġperiodo": 2339,
      ".,": 2340,
      "Ġcomer": 2341,
      "Ġcorte": 2342,
      "eles": 2343,
      "deg": 2344,
      "ĠColecciÃ³n": 2345,
      "Ġmencion": 2346,
      "Ġdirector": 2347,
      "tir": 2348,
      "Ġtitu": 2349,
      "Ġhoy": 2350,
      "Ġado": 2351,
      "Ġhistori": 2352,
      "tional": 2353,
      "ostra": 2354,
      "ĠcarÃ¡": 2355,
      "ĠInternacional": 2356,
      "bierno": 2357,
      "50": 2358,
      "ĠmuriÃ³": 2359,
      "ĠBau": 2360,
      "gip": 2361,
      "Ġorden": 2362,
      "ĠHi": 2363,
      "iedad": 2364,
      "Ġpen": 2365,
      "Ġcabal": 2366,
      "ĠIII": 2367,
      "ĠAlgun": 2368,
      "col": 2369,
      "manos": 2370,
      "sos": 2371,
      "ĠObra": 2372,
      "quÃŃ": 2373,
      "ĠCab": 2374,
      "vento": 2375,
      "ĠDel": 2376,
      "tt": 2377,
      "tuvo": 2378,
      "ĠcarÃ¡cter": 2379,
      "ĠBor": 2380,
      "Ġpremio": 2381,
      "Ġvas": 2382,
      "Ġpermane": 2383,
      "rales": 2384,
      "Ġfrente": 2385,
      "Ġesculturas": 2386,
      "uniden": 2387,
      "ĠÃ©x": 2388,
      "pecto": 2389,
      "fÃŃa": 2390,
      "Ġtexto": 2391,
      "ner": 2392,
      "Ġtri": 2393,
      "ĠpÃºblico": 2394,
      "ficios": 2395,
      "Ġrestaura": 2396,
      "tto": 2397,
      "icismo": 2398,
      "190": 2399,
      "Ġamigo": 2400,
      "depen": 2401,
      "Ġanterior": 2402,
      "ĠdiscÃŃ": 2403,
      "Ġfi": 2404,
      "zÃ¡": 2405,
      "197": 2406,
      "Ġdem": 2407,
      "ĠDescripciÃ³n": 2408,
      "sterio": 2409,
      "Ġdesa": 2410,
      "respon": 2411,
      "untos": 2412,
      "Ġorigen": 2413,
      "ĠenseÃ±": 2414,
      "Ġconver": 2415,
      "Ġsub": 2416,
      "tivamente": 2417,
      "lin": 2418,
      "Ġtela": 2419,
      "Ġaten": 2420,
      "ĠespaÃ±ola": 2421,
      "omÃ©": 2422,
      "ĠChar": 2423,
      "Ġpropia": 2424,
      "dra": 2425,
      "tismo": 2426,
      "uis": 2427,
      "Ar": 2428,
      "don": 2429,
      "ĠCap": 2430,
      "ĠtÃ©cnicas": 2431,
      "Ġtrat": 2432,
      "ĠMat": 2433,
      "Ġpoder": 2434,
      "Ġton": 2435,
      "Ġemple": 2436,
      "ĠNew": 2437,
      "Ġhomb": 2438,
      "itas": 2439,
      "Ġneces": 2440,
      "Ġedificio": 2441,
      "Ġestil": 2442,
      "ĠGa": 2443,
      "ĠinterÃ©s": 2444,
      "mientos": 2445,
      "ĠRus": 2446,
      "Ġtrata": 2447,
      "Ġempe": 2448,
      "Ġperspectiva": 2449,
      "Ġposteriormente": 2450,
      "Ġpalacio": 2451,
      "guar": 2452,
      "ĠgalerÃŃa": 2453,
      "Ġop": 2454,
      "ĠIl": 2455,
      "196": 2456,
      "Ġpiezas": 2457,
      "ĠContemporÃ¡n": 2458,
      "sti": 2459,
      "Ġge": 2460,
      "ĠVen": 2461,
      "Ġambi": 2462,
      "pias": 2463,
      "gla": 2464,
      "ĠllegÃ³": 2465,
      "Ãºblica": 2466,
      "Ġce": 2467,
      "Ġahora": 2468,
      "rich": 2469,
      "Ġcant": 2470,
      "Ġmodo": 2471,
      "Ġampl": 2472,
      "ĠBern": 2473,
      "ĠFa": 2474,
      "Ġvista": 2475,
      "Ã¡lo": 2476,
      "Ġsocial": 2477,
      "Ã³nimo": 2478,
      "Ġmatrimonio": 2479,
      "maciÃ³n": 2480,
      "ĠMin": 2481,
      "ulos": 2482,
      "ĠFor": 2483,
      "Ġ183": 2484,
      "ĠDavid": 2485,
      "rent": 2486,
      "voluciÃ³n": 2487,
      "ĠBen": 2488,
      "ĠArgentina": 2489,
      "berg": 2490,
      "12": 2491,
      "ĠMed": 2492,
      "Ġmurales": 2493,
      "Ġdio": 2494,
      "uvre": 2495,
      "ladas": 2496,
      "Ġcur": 2497,
      "Ġextra": 2498,
      "gorÃŃa": 2499,
      "ĠÃ¡ngel": 2500,
      "Ġcolabora": 2501,
      "ĠtrasladÃ³": 2502,
      "ĠcreaciÃ³n": 2503,
      "Ġmostra": 2504,
      "ĠGon": 2505,
      "Ġviaje": 2506,
      "Ġir": 2507,
      "Ġdeb": 2508,
      "Ġcapa": 2509,
      "Ġinterior": 2510,
      "Ġprote": 2511,
      "grafÃŃas": 2512,
      "Ġrojo": 2513,
      "Ġnegro": 2514,
      "Ġceleb": 2515,
      "Ġcaso": 2516,
      "Ġactualmente": 2517,
      "ans": 2518,
      "ĠPintor": 2519,
      "Ġrevista": 2520,
      "xic": 2521,
      "ĠEdi": 2522,
      "ĠJul": 2523,
      "ĠFrances": 2524,
      "idos": 2525,
      "Ġcorrespon": 2526,
      "Ã¶": 2527,
      "unca": 2528,
      "Ġrealidad": 2529,
      "Ġfal": 2530,
      "ĠparticipÃ³": 2531,
      "bor": 2532,
      "ĠGoya": 2533,
      "lu": 2534,
      "Ġmaestros": 2535,
      "ĠIV": 2536,
      "Ġambos": 2537,
      "Ġmuse": 2538,
      "Ġfil": 2539,
      "ĠhabÃŃan": 2540,
      "ĠCos": 2541,
      "ĠFeli": 2542,
      "liam": 2543,
      "eria": 2544,
      "Ġrealizada": 2545,
      "ĠsÃ³lo": 2546,
      "ĠMen": 2547,
      "gin": 2548,
      "pla": 2549,
      "ulo": 2550,
      "Ã¡z": 2551,
      "Ġadmi": 2552,
      "Ġinstitu": 2553,
      "ĠescribiÃ³": 2554,
      "berto": 2555,
      "ĠRey": 2556,
      "ccion": 2557,
      "ĠtradiciÃ³n": 2558,
      "Ã§": 2559,
      "adÃ©m": 2560,
      "Ġasist": 2561,
      "Ġsuperior": 2562,
      "terra": 2563,
      "ĠversiÃ³n": 2564,
      "Ġseis": 2565,
      "Ġalcan": 2566,
      "ĠVel": 2567,
      "anza": 2568,
      "iencia": 2569,
      "onasterio": 2570,
      "ington": 2571,
      "Ġello": 2572,
      "Ġicono": 2573,
      "Ġcrea": 2574,
      "ĠsÃŃm": 2575,
      "abel": 2576,
      "Ġplano": 2577,
      "ÃŃrculo": 2578,
      "ĠSanto": 2579,
      "Ġext": 2580,
      "Ã¡zquez": 2581,
      "yos": 2582,
      "Ġtrabajar": 2583,
      "rÃ³n": 2584,
      "Ġproyecto": 2585,
      "bres": 2586,
      "Ġpersonal": 2587,
      "Ġalgo": 2588,
      "gust": 2589,
      "Ã¡ct": 2590,
      "Ġalto": 2591,
      "ructura": 2592,
      "Ġpersonas": 2593,
      "Ġunas": 2594,
      "ĠÃ©xito": 2595,
      "Ġmedal": 2596,
      "Ġvo": 2597,
      "mit": 2598,
      "Ġedu": 2599,
      "ĠSt": 2600,
      "Ġestadouniden": 2601,
      "Ã¡ndo": 2602,
      "ese": 2603,
      "13": 2604,
      "vera": 2605,
      "Ġmediante": 2606,
      "yen": 2607,
      "alismo": 2608,
      "mon": 2609,
      "Ġpudo": 2610,
      "Ġmas": 2611,
      "ĠLouvre": 2612,
      "cro": 2613,
      "Ġabandon": 2614,
      "ĠMich": 2615,
      "Ġanimales": 2616,
      "Ġinteres": 2617,
      "ĠVas": 2618,
      "El": 2619,
      "pli": 2620,
      "Ġtienen": 2621,
      "Ġ25": 2622,
      "ĠPero": 2623,
      "Ġcuya": 2624,
      "unst": 2625,
      "Ġrecor": 2626,
      "ĠJer": 2627,
      "uales": 2628,
      "Ġcir": 2629,
      "ira": 2630,
      "ĠBol": 2631,
      "Ġinvestig": 2632,
      "ciente": 2633,
      "ĠCuando": 2634,
      "gura": 2635,
      "ĠMundial": 2636,
      "ĠMaria": 2637,
      "ĠpelÃŃcu": 2638,
      "Ġacom": 2639,
      "rÃ¡fica": 2640,
      "ĠLoren": 2641,
      "ĠpresentÃ³": 2642,
      "Ġflores": 2643,
      "gal": 2644,
      "ĠtÃ©r": 2645,
      "Ġ182": 2646,
      "ritÃ¡n": 2647,
      "Ġencargo": 2648,
      "Ġadquiri": 2649,
      "Ġis": 2650,
      "ĠQu": 2651,
      "Ġeuro": 2652,
      "Ġfecha": 2653,
      "Ġmuseos": 2654,
      "ong": 2655,
      "torio": 2656,
      "onso": 2657,
      "landes": 2658,
      "Ġrealismo": 2659,
      "mentos": 2660,
      "Ġmit": 2661,
      "Ġbor": 2662,
      "ĠWilliam": 2663,
      "rbol": 2664,
      "Ġconcep": 2665,
      "Ġdomin": 2666,
      "glaterra": 2667,
      "rados": 2668,
      "ĠBas": 2669,
      "ĠRena": 2670,
      "Ġtama": 2671,
      "Ã¡mica": 2672,
      "Ã¡tica": 2673,
      "Ġnumerosas": 2674,
      "Ġpueblo": 2675,
      "ello": 2676,
      "ĠMor": 2677,
      "Ġlim": 2678,
      "diz": 2679,
      "Ġnotab": 2680,
      "Ġexten": 2681,
      "Ġmanos": 2682,
      "ĠArtistas": 2683,
      "Ġmotivo": 2684,
      "ptico": 2685,
      "189": 2686,
      "Ġsentido": 2687,
      "Ġindividual": 2688,
      "ham": 2689,
      "ani": 2690,
      "ĠcompaÃ±": 2691,
      "Ġprimero": 2692,
      "giÃ³": 2693,
      "Ġcuenta": 2694,
      "Ġtum": 2695,
      "ĠPala": 2696,
      "ĠcasÃ³": 2697,
      "ĠGiovan": 2698,
      "bir": 2699,
      "Ġingres": 2700,
      "ĠconociÃ³": 2701,
      "ostum": 2702,
      "Ġparticipa": 2703,
      "Ġconsiderado": 2704,
      "Ġfuerte": 2705,
      "Ġatra": 2706,
      "cin": 2707,
      "Ġespecial": 2708,
      "Ġsir": 2709,
      "iete": 2710,
      "ĠFelipe": 2711,
      "ĠcÃ¡": 2712,
      "ys": 2713,
      "ĠVilla": 2714,
      "Ġles": 2715,
      "ĠniÃ±o": 2716,
      "len": 2717,
      "ĠRep": 2718,
      "Ġori": 2719,
      "Ġtu": 2720,
      "Ġnunca": 2721,
      "Ġpresenta": 2722,
      "ĠBiblioteca": 2723,
      "Ġcatedral": 2724,
      "Ġcuyo": 2725,
      "ĠInglaterra": 2726,
      "Ġetapa": 2727,
      "mento": 2728,
      "Ġsala": 2729,
      "ĠModerno": 2730,
      "tamente": 2731,
      "tud": 2732,
      "ĠalemÃ¡n": 2733,
      "ĠCultural": 2734,
      "eos": 2735,
      "ĠAc": 2736,
      "ĠBaj": 2737,
      "Ġexpon": 2738,
      "ĠÃĵ": 2739,
      "arra": 2740,
      "ĠserÃŃa": 2741,
      "itado": 2742,
      "ctoria": 2743,
      "ines": 2744,
      "ĠJorge": 2745,
      "Ġreprodu": 2746,
      "ĠpictÃ³rica": 2747,
      "ridad": 2748,
      "Ġilum": 2749,
      "vangel": 2750,
      "Ġfrescos": 2751,
      "ĠGarcÃŃa": 2752,
      "Ġintrodu": 2753,
      "Ġatrib": 2754,
      "Ġetc": 2755,
      "ĠCal": 2756,
      "tados": 2757,
      "xto": 2758,
      "uras": 2759,
      "dust": 2760,
      "ĠpequeÃ±o": 2761,
      "entÃ³": 2762,
      "Ġantiguo": 2763,
      "oni": 2764,
      "adamente": 2765,
      "Ġregist": 2766,
      "ĠMas": 2767,
      "ĠVin": 2768,
      "Ġexpuso": 2769,
      "Ġ30": 2770,
      "glÃ©s": 2771,
      "entales": 2772,
      "unta": 2773,
      "ficaciÃ³n": 2774,
      "Ġrecuer": 2775,
      "ĠRub": 2776,
      "gn": 2777,
      "Ġga": 2778,
      "ĠMer": 2779,
      "Ġespectador": 2780,
      "Ġvuel": 2781,
      "ĠexpresiÃ³n": 2782,
      "ĠWe": 2783,
      "ĠColomb": 2784,
      "ki": 2785,
      "lem": 2786,
      "Ġrealizar": 2787,
      "Ġpropor": 2788,
      "Ġofre": 2789,
      "ĠHabana": 2790,
      "Ġ'": 2791,
      "Ġur": 2792,
      "ĠEr": 2793,
      "188": 2794,
      "tio": 2795,
      "americ": 2796,
      "Ġacer": 2797,
      "ĠpodrÃŃa": 2798,
      "retra": 2799,
      "iles": 2800,
      "ĠrÃŃ": 2801,
      "ĠEsto": 2802,
      "Ġcampo": 2803,
      "bas": 2804,
      "zÃ³n": 2805,
      "Ġmejo": 2806,
      "ĠContemporÃ¡neo": 2807,
      "ĠÃºltimos": 2808,
      "ĠdedicÃ³": 2809,
      "Ġfresco": 2810,
      "Ġigual": 2811,
      "Ġpens": 2812,
      "Ã³m": 2813,
      "omas": 2814,
      "Ġbril": 2815,
      "arte": 2816,
      "ĠDomin": 2817,
      "ĠllevÃ³": 2818,
      "Ġnacional": 2819,
      "Ġclases": 2820,
      "ĠLeonardo": 2821,
      "ĠtamaÃ±o": 2822,
      "Ġpalab": 2823,
      "Ġinau": 2824,
      "ĠprÃ¡ct": 2825,
      "Ġju": 2826,
      "ĠLeÃ³n": 2827,
      "diente": 2828,
      "iana": 2829,
      "Î¿": 2830,
      "Ġnumerosos": 2831,
      "ĠAdo": 2832,
      "ĠSim": 2833,
      "Ġminia": 2834,
      "erie": 2835,
      "ĠEd": 2836,
      "illas": 2837,
      "Ġescrito": 2838,
      "Ġnombrado": 2839,
      "Ġsuperfici": 2840,
      "Ġdefini": 2841,
      "aro": 2842,
      "ĠmÃ¡r": 2843,
      "yectoria": 2844,
      "Ġcultural": 2845,
      "bajo": 2846,
      "Ġpresencia": 2847,
      "undi": 2848,
      "ĠSh": 2849,
      "toria": 2850,
      "Ġantigua": 2851,
      "Ã¡logo": 2852,
      "Ġoscu": 2853,
      "ĠMÃ¡s": 2854,
      "ĠlÃŃneas": 2855,
      "alo": 2856,
      "Ġmad": 2857,
      "ĠlÃ¡": 2858,
      "Ġestructura": 2859,
      "lista": 2860,
      "ĠAy": 2861,
      "Ġamor": 2862,
      "Ġdej": 2863,
      "rique": 2864,
      "sion": 2865,
      "Ġestaban": 2866,
      "ĠcrÃŃtica": 2867,
      "alizÃ³": 2868,
      "ĠXVI": 2869,
      "ĠEdu": 2870,
      "Ġobtuvo": 2871,
      "Ġinclu": 2872,
      "Ġreco": 2873,
      "Ġencontrar": 2874,
      "enci": 2875,
      "Ġobserv": 2876,
      "Ġpose": 2877,
      "Ġlibre": 2878,
      "Ġarquitecto": 2879,
      "omenaje": 2880,
      "Ġbase": 2881,
      "Ġpopular": 2882,
      "com": 2883,
      "dico": 2884,
      "60": 2885,
      "Ġcambi": 2886,
      "Ġdar": 2887,
      "ĠFin": 2888,
      "ĠSegun": 2889,
      "Ġmez": 2890,
      "rios": 2891,
      "dar": 2892,
      "Ġnorte": 2893,
      "Ġobten": 2894,
      "Ġinternacional": 2895,
      "ĠBre": 2896,
      "Ġbelleza": 2897,
      "Ġevi": 2898,
      "Ã©ndose": 2899,
      "Ġneo": 2900,
      "ĠUnivers": 2901,
      "ĠRenacimiento": 2902,
      "itÃ³": 2903,
      "Ġtener": 2904,
      "ronce": 2905,
      "ĠBur": 2906,
      "Ġrepresentaciones": 2907,
      "pes": 2908,
      "ĠpublicÃ³": 2909,
      "ĠCat": 2910,
      "Ġmus": 2911,
      "Ġsociedad": 2912,
      "adora": 2913,
      "untamiento": 2914,
      "wa": 2915,
      "vel": 2916,
      "etro": 2917,
      "ĠXVIII": 2918,
      "vas": 2919,
      "Ġade": 2920,
      "pren": 2921,
      "jand": 2922,
      "Ġlleva": 2923,
      "Ġpat": 2924,
      "ĠGiovanni": 2925,
      "Ġcomb": 2926,
      "idente": 2927,
      "Ġ24": 2928,
      "lando": 2929,
      "cuen": 2930,
      "Ġverde": 2931,
      "ĠinglÃ©s": 2932,
      "ly": 2933,
      "ĠPlÃ¡st": 2934,
      "ĠconstrucciÃ³n": 2935,
      "Ġsuf": 2936,
      "ĠlÃŃnea": 2937,
      "ĠmÃºsica": 2938,
      "teriores": 2939,
      "Ġllamada": 2940,
      "osc": 2941,
      "Ġcri": 2942,
      "piro": 2943,
      "Ġmiembros": 2944,
      "ĠCruz": 2945,
      "Ġactividad": 2946,
      "ionismo": 2947,
      "Ġdecir": 2948,
      "ĠLorenzo": 2949,
      "Ġmateriales": 2950,
      "ĠIsabel": 2951,
      "Ġdra": 2952,
      "Ġperfe": 2953,
      "Ġgracias": 2954,
      "Ġmanuscrito": 2955,
      "lia": 2956,
      "Ġubic": 2957,
      "Ġ1960": 2958,
      "mina": 2959,
      "Ġmer": 2960,
      "Ġcalidad": 2961,
      "ĠÃ¡rbol": 2962,
      "irma": 2963,
      "Ãł": 2964,
      "ley": 2965,
      "Ġon": 2966,
      "ĠVe": 2967,
      "ps": 2968,
      "Ġvanguar": 2969,
      "sel": 2970,
      "rencias": 2971,
      "Ġsomb": 2972,
      "Ġhor": 2973,
      "ĠMaest": 2974,
      "Ġlienzos": 2975,
      "guez": 2976,
      "ĠacompaÃ±": 2977,
      "ix": 2978,
      "iro": 2979,
      "Ġconta": 2980,
      "iere": 2981,
      "Ġdenomin": 2982,
      "Ã©e": 2983,
      "ional": 2984,
      "Ġestudiar": 2985,
      "Ġcie": 2986,
      "Ġconsig": 2987,
      "ash": 2988,
      "estamento": 2989,
      "beres": 2990,
      "ze": 2991,
      "inte": 2992,
      "Ġpublica": 2993,
      "Ġhombres": 2994,
      "Ġ180": 2995,
      "11": 2996,
      "Ġpoeta": 2997,
      "Ġprovin": 2998,
      "Ġconoce": 2999,
      "rand": 3000,
      "Ġdirig": 3001,
      "ĠRepÃºblica": 3002,
      "dero": 3003,
      "lez": 3004,
      "grafo": 3005,
      "ĠviajÃ³": 3006,
      "ĠdesarrollÃ³": 3007,
      "ĠPre": 3008,
      "Ġvent": 3009,
      "lados": 3010,
      "ĠXVII": 3011,
      "Ġbodeg": 3012,
      "Ã¡ndez": 3013,
      "Ġcostum": 3014,
      "pulo": 3015,
      "Ġexperim": 3016,
      "ĠVelÃ¡zquez": 3017,
      "ĠdÃŃas": 3018,
      "Ġcrear": 3019,
      "Ġauto": 3020,
      "Ġsurre": 3021,
      "ĠViena": 3022,
      "ĠEscul": 3023,
      "zan": 3024,
      "Ġduque": 3025,
      "ranj": 3026,
      "192": 3027,
      "Ġtradicional": 3028,
      "Ġcomposiciones": 3029,
      "Ġconten": 3030,
      "ĠCuba": 3031,
      "Ġfrancesa": 3032,
      "vent": 3033,
      "Ġjard": 3034,
      "ĠKa": 3035,
      "Ã©l": 3036,
      "ĠPres": 3037,
      "ĠcreÃ³": 3038,
      "Ġdetalles": 3039,
      "mol": 3040,
      "ks": 3041,
      "ĠMal": 3042,
      "Ġmost": 3043,
      "Ġfru": 3044,
      "ĠFre": 3045,
      "ĠviviÃ³": 3046,
      "Ġk": 3047,
      "ĠOro": 3048,
      "isp": 3049,
      "isiÃ³n": 3050,
      "ĠJoa": 3051,
      "cada": 3052,
      "tando": 3053,
      "gui": 3054,
      "ctamente": 3055,
      "ĠAsÃŃ": 3056,
      "cra": 3057,
      "urre": 3058,
      "Ġestam": 3059,
      "Ġgobierno": 3060,
      "ski": 3061,
      "irÃ³": 3062,
      "ĠMonte": 3063,
      "ĠNuevo": 3064,
      "Ġfech": 3065,
      "Ġlig": 3066,
      "Ġnove": 3067,
      "Ãºnich": 3068,
      "tino": 3069,
      "ĠBra": 3070,
      "isa": 3071,
      "jante": 3072,
      "Ġsantos": 3073,
      "ĠartÃŃsticas": 3074,
      "Ġacep": 3075,
      "ĠNic": 3076,
      "ĠdejÃ³": 3077,
      "Ġcopia": 3078,
      "esÃŃa": 3079,
      "Ġrecon": 3080,
      "mara": 3081,
      "Ġconven": 3082,
      "tiene": 3083,
      "ÃŃf": 3084,
      "diciÃ³n": 3085,
      "vador": 3086,
      "rana": 3087,
      "dan": 3088,
      "ĠPost": 3089,
      "Ġ1930": 3090,
      "Î±": 3091,
      "rito": 3092,
      "Ġ179": 3093,
      "Ġmotivos": 3094,
      "ĠColombia": 3095,
      "ĠBal": 3096,
      "Ġbra": 3097,
      "Ġimport": 3098,
      "ĠCe": 3099,
      "fra": 3100,
      "ĠatenciÃ³n": 3101,
      "Ġmitad": 3102,
      "Ġabier": 3103,
      "Ġesca": 3104,
      "Ġconstr": 3105,
      "ĠSte": 3106,
      "ĠBu": 3107,
      "ĠVenus": 3108,
      "alidades": 3109,
      "Ġrelie": 3110,
      "Ġocasiones": 3111,
      "Ġep": 3112,
      "Ġvist": 3113,
      "Ġservi": 3114,
      "ĠregresÃ³": 3115,
      "Ġrepresentar": 3116,
      "dentes": 3117,
      "arca": 3118,
      "Ġ2000": 3119,
      "ĠAna": 3120,
      "Ġreferencia": 3121,
      "Ġfrag": 3122,
      "ĠTom": 3123,
      "Ġcast": 3124,
      "Ġayuda": 3125,
      "ung": 3126,
      "Ġescritor": 3127,
      "ĠpÃ¡g": 3128,
      "Ġlen": 3129,
      "ĠPat": 3130,
      "Ġvir": 3131,
      "Ġproceso": 3132,
      "Ġ2010": 3133,
      "Ġdesarrollo": 3134,
      "Ġhonor": 3135,
      "Ġnatal": 3136,
      "Ġ2007": 3137,
      "Ġindividuales": 3138,
      "ccident": 3139,
      "Ġestadounidense": 3140,
      "Ġestar": 3141,
      "Ã¤": 3142,
      "ĠSig": 3143,
      "ĠVie": 3144,
      "ĠJohan": 3145,
      "bÃ³": 3146,
      "tÃ¡": 3147,
      "193": 3148,
      "195": 3149,
      "ĠNational": 3150,
      "zuela": 3151,
      "ĠDios": 3152,
      "quis": 3153,
      "Ġpal": 3154,
      "ĠRes": 3155,
      "Ã³rdo": 3156,
      "we": 3157,
      "Ġcapital": 3158,
      "mÃ³": 3159,
      "ĠBan": 3160,
      "ibu": 3161,
      "ĠBro": 3162,
      "Ġpad": 3163,
      "Ġindepen": 3164,
      "Ġbronce": 3165,
      "icipal": 3166,
      "Ġrode": 3167,
      "Ġestatua": 3168,
      "Ġrena": 3169,
      "Ġgriego": 3170,
      "ĠseÃ±a": 3171,
      "ĠMÃºnich": 3172,
      "Ġcambio": 3173,
      "ĠDiego": 3174,
      "Ġobjeto": 3175,
      "dados": 3176,
      "Ġinferior": 3177,
      "ĠGenera": 3178,
      "uerto": 3179,
      "Ã³rdoba": 3180,
      "diendo": 3181,
      "Ġgest": 3182,
      "'s": 3183,
      "isis": 3184,
      "78": 3185,
      "Ġgrande": 3186,
      "Ġcorri": 3187,
      "reno": 3188,
      "mino": 3189,
      "Ġsiglos": 3190,
      "ĠvisiÃ³n": 3191,
      "ĠEstado": 3192,
      "ĠAlejand": 3193,
      "Ġcru": 3194,
      "dil": 3195,
      "Ġidea": 3196,
      "ĠProvin": 3197,
      "Ġmuestran": 3198,
      "Ġdeter": 3199,
      "Ġrepresentan": 3200,
      "Ġhermanos": 3201,
      "ĠvolviÃ³": 3202,
      "Ġconce": 3203,
      "Ġvene": 3204,
      "cera": 3205,
      "lig": 3206,
      "Î¹": 3207,
      "ĠSociedad": 3208,
      "Åį": 3209,
      "Ġincor": 3210,
      "Ġdimen": 3211,
      "Ġacab": 3212,
      "Ġ1970": 3213,
      "Ġag": 3214,
      "ang": 3215,
      "Ġmanuscritos": 3216,
      "ĠCÃ¡": 3217,
      "ime": 3218,
      "Ġmeses": 3219,
      "uÃ±a": 3220,
      "ĠTiz": 3221,
      "Ġcolum": 3222,
      "Ġmodelos": 3223,
      "vos": 3224,
      "Ġdestaca": 3225,
      "ĠMedalla": 3226,
      "Ġ11": 3227,
      "Ġsist": 3228,
      "orn": 3229,
      "aja": 3230,
      "gares": 3231,
      "ĠPi": 3232,
      "ĠcrÃŃtico": 3233,
      "Ġimportancia": 3234,
      "aciones": 3235,
      "Ġenfer": 3236,
      "40": 3237,
      "ĠRi": 3238,
      "ĠRod": 3239,
      "ĠÃºnico": 3240,
      "etas": 3241,
      "Ġboce": 3242,
      "Ġprivada": 3243,
      "Ġdin": 3244,
      "ĠformÃ³": 3245,
      "tina": 3246,
      "70": 3247,
      "ggio": 3248,
      "Ġresto": 3249,
      "ĠGau": 3250,
      "Ġpartes": 3251,
      "Ġ1980": 3252,
      "udades": 3253,
      "Ġnin": 3254,
      "ÃŃstica": 3255,
      "Ġ26": 3256,
      "ĠGab": 3257,
      "gido": 3258,
      "sterdam": 3259,
      "Ġ0": 3260,
      "riz": 3261,
      "Ġcivil": 3262,
      "radas": 3263,
      "ĠAten": 3264,
      "ĠPier": 3265,
      "Ġilustraciones": 3266,
      "ilip": 3267,
      "Ġ22": 3268,
      "ĠPaÃŃs": 3269,
      "Ġ1990": 3270,
      "ĠpelÃŃcula": 3271,
      "Ġcro": 3272,
      "venes": 3273,
      "Ġamarillo": 3274,
      "Ġcaracteriz": 3275,
      "ĠÂ": 3276,
      "ĠJulio": 3277,
      "grado": 3278,
      "mann": 3279,
      "ĠSer": 3280,
      "Ġ2006": 3281,
      "Ġ150": 3282,
      "Ġfinalmente": 3283,
      "Ġestancia": 3284,
      "Ġ163": 3285,
      "Ġ2011": 3286,
      "iar": 3287,
      "imientos": 3288,
      "Ġ23": 3289,
      "ĠfotografÃŃa": 3290,
      "Ġrostro": 3291,
      "tagon": 3292,
      "Ġ2009": 3293,
      "Ġnuevas": 3294,
      "Ãºa": 3295,
      "ĠHay": 3296,
      "Ġlum": 3297,
      "ĠTer": 3298,
      "ĠAmberes": 3299,
      "ĠAmÃ©rica": 3300,
      "Ã³venes": 3301,
      "stro": 3302,
      "ĠOs": 3303,
      "Ġ)": 3304,
      "orÃ³": 3305,
      "Ġ162": 3306,
      "cina": 3307,
      "dada": 3308,
      "Ġmexic": 3309,
      "Ð¾": 3310,
      "ĠJoaqu": 3311,
      "yck": 3312,
      "zi": 3313,
      "ĠVida": 3314,
      "Ã¡lisis": 3315,
      "cuencia": 3316,
      "Ġciudades": 3317,
      "ment": 3318,
      "pest": 3319,
      "Ġefecto": 3320,
      "oli": 3321,
      "ĠDibu": 3322,
      "ctÃ³n": 3323,
      "Ġdestacan": 3324,
      "atalla": 3325,
      "ĠcaracterÃŃsticas": 3326,
      "Ġidentific": 3327,
      "Ġdebe": 3328,
      "emas": 3329,
      "Ġaire": 3330,
      "erÃŃas": 3331,
      "Ġmulti": 3332,
      "Ġsignifica": 3333,
      "zada": 3334,
      "ĠGreco": 3335,
      "Ġelabora": 3336,
      "ĠcomÃºn": 3337,
      "damente": 3338,
      "eriormente": 3339,
      "Ġeurope": 3340,
      "Ġras": 3341,
      "Ġtierra": 3342,
      "80": 3343,
      "Ġaparecen": 3344,
      "ĠtÃ©rmino": 3345,
      "fuer": 3346,
      "Ð¸": 3347,
      "ĠdiscÃŃpulo": 3348,
      "Ġbur": 3349,
      "Ġprotagon": 3350,
      "ĠLucas": 3351,
      "Ġ2005": 3352,
      "Ġecon": 3353,
      "isterio": 3354,
      "Ġpiedra": 3355,
      "ĠgÃ³": 3356,
      "ĠbritÃ¡n": 3357,
      "licos": 3358,
      "landÃ©s": 3359,
      "ĠJaco": 3360,
      "cidad": 3361,
      "ĠNor": 3362,
      "Ã©tico": 3363,
      "ĠCharles": 3364,
      "Ġsiete": 3365,
      "cir": 3366,
      "Ġreina": 3367,
      "Ã³st": 3368,
      "Ġcargo": 3369,
      "este": 3370,
      "icia": 3371,
      "ĠCÃ³rdoba": 3372,
      "Ġsimilar": 3373,
      "Ġ1920": 3374,
      "Ġactual": 3375,
      "Ġmedalla": 3376,
      "ag": 3377,
      "bal": 3378,
      "Ġniv": 3379,
      "ĠUr": 3380,
      "ÃŃstico": 3381,
      "tad": 3382,
      "Î½": 3383,
      "ret": 3384,
      "ĠtemÃ¡tica": 3385,
      "ĠtodavÃŃa": 3386,
      "ĠVis": 3387,
      "volucion": 3388,
      "Ġaltar": 3389,
      "ĠKunst": 3390,
      "tun": 3391,
      "bado": 3392,
      "Ġhabitu": 3393,
      "Ġ1950": 3394,
      "ĠColle": 3395,
      "ĠVicente": 3396,
      "alÃ³": 3397,
      "lidad": 3398,
      "Ġapreci": 3399,
      "omÃ©tr": 3400,
      "Ġvid": 3401,
      "Ġ2012": 3402,
      "ux": 3403,
      "Ġmediados": 3404,
      "Ġclase": 3405,
      "Ġactivo": 3406,
      "Ġcualquier": 3407,
      "ĠniÃ±os": 3408,
      "ĠAyuntamiento": 3409,
      "ashington": 3410,
      "Ð°": 3411,
      "anta": 3412,
      "ĠWal": 3413,
      "ĠarquitectÃ³n": 3414,
      "Ġincluyendo": 3415,
      "msterdam": 3416,
      "Ġmor": 3417,
      "ĠPan": 3418,
      "uidos": 3419,
      "ĠArts": 3420,
      "ĠOt": 3421,
      "ude": 3422,
      "ĠEstÃ¡": 3423,
      "ĠacadÃ©m": 3424,
      "Ġhermana": 3425,
      "ĠAllÃŃ": 3426,
      "ĠmÃ¡rmol": 3427,
      "ĠFer": 3428,
      "Ã±ora": 3429,
      "guna": 3430,
      "Ġprest": 3431,
      "ledo": 3432,
      "putaciÃ³n": 3433,
      "bolo": 3434,
      "Ġbarroco": 3435,
      "ĠAz": 3436,
      "ĠpictÃ³rico": 3437,
      "Ã¡pol": 3438,
      "Ġaproxim": 3439,
      "Ġconvento": 3440,
      "ĠBlan": 3441,
      "Ġaco": 3442,
      "ÃŃritu": 3443,
      "licas": 3444,
      "orno": 3445,
      "Ġproble": 3446,
      "Ġsiguientes": 3447,
      "Museo": 3448,
      "Ġsele": 3449,
      "ĠQui": 3450,
      "Ġvon": 3451,
      "izaciÃ³n": 3452,
      "ĠÃºnica": 3453,
      "Ġoficial": 3454,
      "Ġ2008": 3455,
      "Ġhici": 3456,
      "194": 3457,
      "Ġmal": 3458,
      "Ġ27": 3459,
      "ĠpequeÃ±a": 3460,
      "Ġsea": 3461,
      "esa": 3462,
      "Ġdice": 3463,
      "lano": 3464,
      "Ġampli": 3465,
      "ĠartÃŃsticos": 3466,
      "Ġgeneralmente": 3467,
      "ĠRubens": 3468,
      ".)": 3469,
      "ĠEgip": 3470,
      "ĠChica": 3471,
      "perio": 3472,
      "Ġclara": 3473,
      "ĠLibro": 3474,
      "Ġnos": 3475,
      "usi": 3476,
      "Ġcoti": 3477,
      "Ġcuar": 3478,
      "Ġrealiza": 3479,
      "Ġmejores": 3480,
      "Ġpareja": 3481,
      "Ġedificios": 3482,
      "od": 3483,
      "gular": 3484,
      "ĠPrimera": 3485,
      "Ġ2004": 3486,
      "ĠPÃ©": 3487,
      "igra": 3488,
      "ĠSeba": 3489,
      "ĠHar": 3490,
      "eral": 3491,
      "lid": 3492,
      "Ġamigos": 3493,
      "ĠMilÃ¡n": 3494,
      "Ġpintada": 3495,
      "Ġmanten": 3496,
      "Ġinst": 3497,
      "ĠtÃŃp": 3498,
      "Ġalumno": 3499,
      "cidos": 3500,
      "Ġgen": 3501,
      "pez": 3502,
      "ĠAlex": 3503,
      "arago": 3504,
      "Ġsug": 3505,
      "sociaciÃ³n": 3506,
      "Ġcielo": 3507,
      "ĠGer": 3508,
      "Ġpince": 3509,
      "ÏĦ": 3510,
      "mÃ¡tica": 3511,
      "ĠpolÃŃtica": 3512,
      "Ã¡st": 3513,
      "ĠFri": 3514,
      "ĠGogh": 3515,
      "Ġlet": 3516,
      "Ġ165": 3517,
      "ĠConsta": 3518,
      "Ġgrabador": 3519,
      "ĠGeorg": 3520,
      "Ġlugares": 3521,
      "Ġpadres": 3522,
      "arias": 3523,
      "Ġindust": 3524,
      "ĠediciÃ³n": 3525,
      "Ġvestido": 3526,
      "grada": 3527,
      "Ġautores": 3528,
      "Ġcoleccion": 3529,
      "Ġmonumento": 3530,
      "Ġ28": 3531,
      "ĠRen": 3532,
      "Ġzona": 3533,
      "RA": 3534,
      "Ġcolab": 3535,
      "aragoza": 3536,
      "ĠSaint": 3537,
      "itaciÃ³n": 3538,
      "ĠPue": 3539,
      "Ġsens": 3540,
      "ĠFra": 3541,
      "ĠWashington": 3542,
      "retrato": 3543,
      "tadas": 3544,
      "Ġta": 3545,
      "quil": 3546,
      "Ġadop": 3547,
      "ĠTiziano": 3548,
      "bel": 3549,
      "quia": 3550,
      "ĠJoan": 3551,
      "uelo": 3552,
      "Ġbue": 3553,
      "Ġmetros": 3554,
      "Ġacuarela": 3555,
      "uselas": 3556,
      "Ġ2014": 3557,
      "Ġcruz": 3558,
      "pan": 3559,
      "Ġren": 3560,
      "ĠOri": 3561,
      "aux": 3562,
      "Ġcabo": 3563,
      "ladolid": 3564,
      "ĠChicago": 3565,
      "rena": 3566,
      "ĠMÃ¡": 3567,
      "ĠBil": 3568,
      "ĠcerÃ¡mica": 3569,
      "vor": 3570,
      "ĠLouis": 3571,
      "Ġinfluy": 3572,
      "ples": 3573,
      "igÃ¼": 3574,
      "Ġ1992": 3575,
      "Ġquienes": 3576,
      "Ġtonos": 3577,
      "turi": 3578,
      "Ġdesnu": 3579,
      "cano": 3580,
      "ĠfÃ¡": 3581,
      "Ġalta": 3582,
      "her": 3583,
      "ĠSol": 3584,
      "ĠgeomÃ©tr": 3585,
      "culos": 3586,
      "ĠPaisaj": 3587,
      "Ġaplic": 3588,
      "ĠAlgunos": 3589,
      "ĠBras": 3590,
      "Ġconservado": 3591,
      "Ġinaugura": 3592,
      "Ġ2013": 3593,
      "Ġdisting": 3594,
      "ĠgrÃ¡f": 3595,
      "Ġexter": 3596,
      "rÃŃan": 3597,
      "Ġpieza": 3598,
      "oscÃº": 3599,
      "Ġcontacto": 3600,
      "Ġdibujante": 3601,
      "uestas": 3602,
      "ĠjÃ³venes": 3603,
      "ĠVenezuela": 3604,
      "ural": 3605,
      "Ġcub": 3606,
      "umento": 3607,
      "ĠSegunda": 3608,
      "ins": 3609,
      "Ġreun": 3610,
      "Ġhumana": 3611,
      "ĠCaracas": 3612,
      "ĠÃ¡ngeles": 3613,
      "Ġlla": 3614,
      "Ġteatro": 3615,
      "ĠAntigu": 3616,
      "ĠSalvador": 3617,
      "Ġejer": 3618,
      "Ġreve": 3619,
      "Ġvin": 3620,
      "mer": 3621,
      "ĠcontinuÃ³": 3622,
      "Ġtumba": 3623,
      "tÃ³n": 3624,
      "uidas": 3625,
      "Ġnacimiento": 3626,
      "ĠAndrea": 3627,
      "erdo": 3628,
      "ĠAlberto": 3629,
      "Ġ2015": 3630,
      "ĠpaÃŃses": 3631,
      "Ġvasos": 3632,
      "eso": 3633,
      "ĠpoesÃŃa": 3634,
      "ĠPosteriormente": 3635,
      "Îµ": 3636,
      "Ġfra": 3637,
      "ĠPr": 3638,
      "elli": 3639,
      "Ġpresidente": 3640,
      "ĠPrimer": 3641,
      "Ġbu": 3642,
      "urÃ³": 3643,
      "grÃ¡fico": 3644,
      "ĠsÃŃmbolo": 3645,
      "Ġmem": 3646,
      "Ġescu": 3647,
      "Ġfuente": 3648,
      "Ġhistor": 3649,
      "uma": 3650,
      "Ġpremios": 3651,
      "Ã¡poles": 3652,
      "ĠOtros": 3653,
      "Ġposteriores": 3654,
      "ĠRobert": 3655,
      "Ġvisita": 3656,
      "Ġempera": 3657,
      "ĠEstudiÃ³": 3658,
      "ĠseÃ±": 3659,
      "Ġpresente": 3660,
      "Ġconservan": 3661,
      "rÃ©s": 3662,
      "Ġmonasterio": 3663,
      "rugua": 3664,
      "Ġconsist": 3665,
      "Ġinvent": 3666,
      "ĠBautista": 3667,
      "dador": 3668,
      "torial": 3669,
      "pint": 3670,
      "Ġquer": 3671,
      "osp": 3672,
      "fil": 3673,
      "yn": 3674,
      "ĠAsociaciÃ³n": 3675,
      "Ġconsta": 3676,
      "ĠCrist": 3677,
      "ĠÃģmsterdam": 3678,
      "ĠEgipto": 3679,
      "Mad": 3680,
      "cados": 3681,
      "ices": 3682,
      "ĠRusia": 3683,
      "Ġpig": 3684,
      "cieron": 3685,
      "ĠToledo": 3686,
      "ĠRamÃ³n": 3687,
      "cÃŃan": 3688,
      "Ġtre": 3689,
      "Ġoccident": 3690,
      "ĠDos": 3691,
      "ĠNaciÃ³": 3692,
      "Ġtorno": 3693,
      "Ġespi": 3694,
      "ĠDon": 3695,
      "Ġ21": 3696,
      "Ġ2003": 3697,
      "part": 3698,
      "nia": 3699,
      "Ġcubier": 3700,
      "estiv": 3701,
      "ĠEstos": 3702,
      "Ġmenor": 3703,
      "ĠMoscÃº": 3704,
      "Ġ166": 3705,
      "todo": 3706,
      "Ġ2016": 3707,
      "ĠPremios": 3708,
      "ĠPlÃ¡sticas": 3709,
      "ĠaÃ±ad": 3710,
      "Ġprogra": 3711,
      "Ġaspecto": 3712,
      "Ġ1999": 3713,
      "old": 3714,
      "lesias": 3715,
      "Ġrepresentado": 3716,
      "Ġcompa": 3717,
      "ĠHam": 3718,
      "Ġcolectivas": 3719,
      "Ġcierto": 3720,
      "gica": 3721,
      "Ðµ": 3722,
      "stÃŃa": 3723,
      "ĠEra": 3724,
      "ĠTen": 3725,
      "ĠdirecciÃ³n": 3726,
      "Ġcaballo": 3727,
      "SB": 3728,
      "Ġpuesto": 3729,
      "form": 3730,
      "Ġantiguos": 3731,
      "Ġdig": 3732,
      "icaciÃ³n": 3733,
      "Ġcierta": 3734,
      "ĠMus": 3735,
      "Ġneg": 3736,
      "Ġhu": 3737,
      "ĠencargÃ³": 3738,
      "Ġtextos": 3739,
      "Ġreflej": 3740,
      "Ġnotable": 3741,
      "rente": 3742,
      "ĠaquÃŃ": 3743,
      "ĠCali": 3744,
      "Ġpromo": 3745,
      "ĠempezÃ³": 3746,
      "ĠGonzÃ¡": 3747,
      "Ġpudi": 3748,
      "lana": 3749,
      "Ġfundam": 3750,
      "Ġcotidi": 3751,
      "Ġ160": 3752,
      "cente": 3753,
      "Ġlog": 3754,
      "Ġcorre": 3755,
      "Ġ2002": 3756,
      "ĠBruselas": 3757,
      "ĠJoaquÃŃn": 3758,
      "ĠCre": 3759,
      "Ġdios": 3760,
      "ĠEvangel": 3761,
      "emos": 3762,
      "Ġrealizadas": 3763,
      "Ġvalor": 3764,
      "ĠCl": 3765,
      "ĠPra": 3766,
      "teo": 3767,
      "ĠFi": 3768,
      "Ġprodujo": 3769,
      "Ġtablas": 3770,
      "nam": 3771,
      "cipe": 3772,
      "Ġdan": 3773,
      "Ġcuanto": 3774,
      "Ġfamoso": 3775,
      "grÃ¡fica": 3776,
      "Ġ178": 3777,
      "Ġextranj": 3778,
      "Ġlleg": 3779,
      "Ġverda": 3780,
      "Ġdiferencia": 3781,
      "ĠGonzÃ¡lez": 3782,
      "oro": 3783,
      "igo": 3784,
      "forma": 3785,
      "ĠLÃ³": 3786,
      "itos": 3787,
      "alizado": 3788,
      "manas": 3789,
      "Ġ1984": 3790,
      "Ġ1985": 3791,
      "Ġpaso": 3792,
      "Ġinfluencias": 3793,
      "ĠTeatro": 3794,
      "SBN": 3795,
      "ĠNÃ¡poles": 3796,
      "landa": 3797,
      "Ġ2017": 3798,
      "pone": 3799,
      "Ġencontraba": 3800,
      "Ġsuperficie": 3801,
      "cando": 3802,
      "Ġib": 3803,
      "amb": 3804,
      "ĠMagdal": 3805,
      "ĠEu": 3806,
      "ĠBla": 3807,
      "ĠrÃŃo": 3808,
      "ĠalgÃºn": 3809,
      "Ġ1989": 3810,
      "Ġbastante": 3811,
      "Ã£": 3812,
      "Ġredu": 3813,
      "ĠDom": 3814,
      "Ġcontiene": 3815,
      "Ġasoci": 3816,
      "ĠcontemporÃ¡neos": 3817,
      "Ġdescub": 3818,
      "laga": 3819,
      "ander": 3820,
      "ĠpequeÃ±as": 3821,
      "mÃ¡nt": 3822,
      "ĠLÃ³pez": 3823,
      "ik": 3824,
      "ubo": 3825,
      "Ġ1998": 3826,
      "Ġ1986": 3827,
      "ĠThomas": 3828,
      "Ġdimensiones": 3829,
      "Ġderi": 3830,
      "ĠestÃ©tica": 3831,
      "polit": 3832,
      "ĠdecidiÃ³": 3833,
      "ĠOrden": 3834,
      "Ġcontribu": 3835,
      "Ġplata": 3836,
      "Ġregreso": 3837,
      "ĠMaestro": 3838,
      "Ġrecha": 3839,
      "Ġformato": 3840,
      "Ġpublicado": 3841,
      "Ġenvi": 3842,
      "ĠSon": 3843,
      "Ġresultado": 3844,
      "Ġrealista": 3845,
      "ĠPÃ©rez": 3846,
      "omÃŃa": 3847,
      "ĠhabrÃŃa": 3848,
      "ĠEstas": 3849,
      "dieron": 3850,
      "ĠcatÃ¡logo": 3851,
      "hib": 3852,
      "Ġ2001": 3853,
      "eriores": 3854,
      "ĠDomingo": 3855,
      "Ġsegu": 3856,
      "Ġalber": 3857,
      "Ġ1997": 3858,
      "Ġveneci": 3859,
      "75": 3860,
      "ĠTal": 3861,
      "Ġcopias": 3862,
      "Ġ1994": 3863,
      "Ġ1995": 3864,
      "Ġmanif": 3865,
      "sor": 3866,
      "rero": 3867,
      "ĠAust": 3868,
      "Ġvie": 3869,
      "Ġdiri": 3870,
      "Ġ1991": 3871,
      "Ġ1987": 3872,
      "Ġlengu": 3873,
      "Ġgusto": 3874,
      "ses": 3875,
      "ĠmÃ¡": 3876,
      "ĠTestamento": 3877,
      "ĠOl": 3878,
      "Ġequi": 3879,
      "bao": 3880,
      "ĠcolaboraciÃ³n": 3881,
      "ĠPierre": 3882,
      "id": 3883,
      "cito": 3884,
      "dores": 3885,
      "istad": 3886,
      "Ġestu": 3887,
      "Ġtradu": 3888,
      "Ġmaterial": 3889,
      "pÃ³n": 3890,
      "Ġteor": 3891,
      "Ġprincipio": 3892,
      "Ġrecur": 3893,
      "ntexto": 3894,
      "rue": 3895,
      "vado": 3896,
      "zzo": 3897,
      "ĠKo": 3898,
      "Ġderecho": 3899,
      "Ġbuen": 3900,
      "ĠBajos": 3901,
      "entado": 3902,
      "ĠAmeric": 3903,
      "Ġefectos": 3904,
      "Madrid": 3905,
      "pul": 3906,
      "ĠPh": 3907,
      "ĠHol": 3908,
      "ĠeducaciÃ³n": 3909,
      "ĠEscultura": 3910,
      "Ġmono": 3911,
      "Ġnivel": 3912,
      "dÃŃ": 3913,
      "ĠChrist": 3914,
      "ĠGÃ³": 3915,
      "Ġmarco": 3916,
      "Ġconstitu": 3917,
      "Ġojos": 3918,
      "icidad": 3919,
      "ĠhistÃ³rico": 3920,
      "su": 3921,
      "ĠrÃ¡": 3922,
      "ĠTur": 3923,
      "Ġmonta": 3924,
      "ÃŃncipe": 3925,
      "Ġrespon": 3926,
      "ĠBrasil": 3927,
      "ĠquedÃ³": 3928,
      "Ġgris": 3929,
      "ctores": 3930,
      "media": 3931,
      "Ġfamiliar": 3932,
      "Ġconde": 3933,
      "Ġ29": 3934,
      "Ġmedida": 3935,
      "Ġalguna": 3936,
      "Ġ50": 3937,
      "ĠMunicipal": 3938,
      "Ġlabor": 3939,
      "ciado": 3940,
      "ĠLima": 3941,
      "Ġconocer": 3942,
      "Ġlan": 3943,
      "Ġpast": 3944,
      "Ġreligiosa": 3945,
      "Ã¡m": 3946,
      "Ġ1996": 3947,
      "Ġpersonaje": 3948,
      "Ġ1940": 3949,
      "ĠZaragoza": 3950,
      "rillo": 3951,
      "tario": 3952,
      "iss": 3953,
      "Ġpocos": 3954,
      "ĠActu": 3955,
      "ume": 3956,
      "ĠValladolid": 3957,
      "Ġrenacent": 3958,
      "ult": 3959,
      "guin": 3960,
      "Ġpropiedad": 3961,
      "ĠÃĵleo": 3962,
      "pido": 3963,
      "arÃ¡": 3964,
      "Ġpaneles": 3965,
      "ĠcontemporÃ¡neo": 3966,
      "mez": 3967,
      "25": 3968,
      "tÃ©": 3969,
      "dencias": 3970,
      "Ġvisual": 3971,
      "ĠFernÃ¡ndez": 3972,
      "Ġplas": 3973,
      "ity": 3974,
      "heim": 3975,
      "Ġproporcion": 3976,
      "Ġemo": 3977,
      "ĠRiv": 3978,
      "Ġinfor": 3979,
      "ĠMagdalena": 3980,
      "ilio": 3981,
      "iencias": 3982,
      "eth": 3983,
      "Ġintele": 3984,
      "Ġ164": 3985,
      "raron": 3986,
      "Ġcui": 3987,
      "turo": 3988,
      "cita": 3989,
      "Ġcum": 3990,
      "Ġenca": 3991,
      "ĠApo": 3992,
      "teles": 3993,
      "Ġexcel": 3994,
      "Ġ1993": 3995,
      "ĠRoy": 3996,
      "Ġflamenco": 3997,
      "ĠPaÃŃses": 3998,
      "onna": 3999,
      "uestos": 4000,
      "Ġarque": 4001,
      "Ġliteratura": 4002,
      "rse": 4003,
      "ĠAg": 4004,
      "ĠPeters": 4005,
      "Ġcine": 4006,
      "unciaciÃ³n": 4007,
      "Ġsimple": 4008,
      "ĠregiÃ³n": 4009,
      "Ġsabe": 4010,
      "randt": 4011,
      "ĠdifÃŃ": 4012,
      "ĠFalle": 4013,
      "ĠrestauraciÃ³n": 4014,
      "Ġacuerdo": 4015,
      "urrecciÃ³n": 4016,
      "br": 4017,
      "Ġpared": 4018,
      "Ġutiliza": 4019,
      "tolÃ³g": 4020,
      "ĠCer": 4021,
      "):": 4022,
      "IN": 4023,
      "Ġhon": 4024,
      "ĠBon": 4025,
      "Ġdesconoci": 4026,
      "udio": 4027,
      "Ġtrabajando": 4028,
      "allero": 4029,
      "ĠJoseph": 4030,
      "Ã£o": 4031,
      "ĠAgust": 4032,
      "ford": 4033,
      "Ġhumano": 4034,
      "Ġejemplos": 4035,
      "ĠpodÃŃa": 4036,
      "ite": 4037,
      "Ġfant": 4038,
      "Ġactualidad": 4039,
      "ĠinspiraciÃ³n": 4040,
      "ward": 4041,
      "Ġmosa": 4042,
      "ĠSil": 4043,
      "Ġhomenaje": 4044,
      "ĠperiÃ³": 4045,
      "Ġpreci": 4046,
      "eries": 4047,
      "Ġ1982": 4048,
      "ispo": 4049,
      "ĠRich": 4050,
      "Ġarro": 4051,
      "186": 4052,
      "ĠpequeÃ±os": 4053,
      "ges": 4054,
      "Ġocho": 4055,
      "Ġador": 4056,
      "Ġfro": 4057,
      "ĠCatedral": 4058,
      "ĠGranada": 4059,
      "ĠEdad": 4060,
      "uiÃ³": 4061,
      "ĠEnrique": 4062,
      "Ã¡nch": 4063,
      "Ġ1936": 4064,
      "Ġparedes": 4065,
      "ĠAlejandro": 4066,
      "Ġcate": 4067,
      "Ġmoderno": 4068,
      "ĠHonor": 4069,
      "Ġsuel": 4070,
      "Ġarco": 4071,
      "Ġcompren": 4072,
      "olÃ³gico": 4073,
      "Ġtemplo": 4074,
      "Ġpalabras": 4075,
      "Ġprovincia": 4076,
      "up": 4077,
      "gotÃ¡": 4078,
      "ĠrealizaciÃ³n": 4079,
      "Ġrecibi": 4080,
      "Ġabstracto": 4081,
      "laces": 4082,
      "ĠJapÃ³n": 4083,
      "ick": 4084,
      "Ġruso": 4085,
      "Ġpies": 4086,
      "onas": 4087,
      "ĠSar": 4088,
      "Ġamistad": 4089,
      "Ġ1988": 4090,
      "Ġrequer": 4091,
      "ĠVI": 4092,
      "ĠParti": 4093,
      "Ġnuevos": 4094,
      "Ġdesapare": 4095,
      "Ġbodegones": 4096,
      "vie": 4097,
      "ĠAlbert": 4098,
      "Ġotor": 4099,
      "ĠromÃ¡nt": 4100,
      "venciÃ³n": 4101,
      "Ġconcl": 4102,
      "ĠpolÃŃtico": 4103,
      "ĠposiciÃ³n": 4104,
      "ÃŃb": 4105,
      "dientes": 4106,
      "amo": 4107,
      "Ġdijo": 4108,
      "Ġiglesias": 4109,
      "Ġdicho": 4110,
      "Ġhistoriador": 4111,
      "ÃŃlica": 4112,
      "Ġenter": 4113,
      "dela": 4114,
      "Ġll": 4115,
      "Ġdiez": 4116,
      "ĠMarie": 4117,
      "Ġespacios": 4118,
      "Ġ1964": 4119,
      "ertad": 4120,
      "Ġcosas": 4121,
      "Ġintelectu": 4122,
      "ames": 4123,
      "Ġestre": 4124,
      "Ġamplia": 4125,
      "paÃ±a": 4126,
      "Ġ1910": 4127,
      "atos": 4128,
      "Ġnacido": 4129,
      "ĠSur": 4130,
      "tual": 4131,
      "ĠiniciÃ³": 4132,
      "Ġ2018": 4133,
      "Ġdedicado": 4134,
      "ĠNicol": 4135,
      "mana": 4136,
      "Ġtro": 4137,
      "Ġsistema": 4138,
      "uestra": 4139,
      "ĠSebasti": 4140,
      "ilia": 4141,
      "ĠValle": 4142,
      "sito": 4143,
      "ĠSeÃ±ora": 4144,
      "ĠTorres": 4145,
      "Ġresidencia": 4146,
      "Ġvincu": 4147,
      "ĠMetro": 4148,
      "cher": 4149,
      "ĠsiguiÃ³": 4150,
      "Ġitaliana": 4151,
      "ĠestableciÃ³": 4152,
      "ĠISBN": 4153,
      "ĠInf": 4154,
      "Ġideas": 4155,
      "Ġ1890": 4156,
      "Ġincluye": 4157,
      "ĠProvincial": 4158,
      "ĠBilbao": 4159,
      "zando": 4160,
      "Ġdivi": 4161,
      "ĠAnna": 4162,
      "Ġpanel": 4163,
      "osos": 4164,
      "ev": 4165,
      "Ġavan": 4166,
      "entar": 4167,
      "ĠPina": 4168,
      "ĠganÃ³": 4169,
      "alizaciÃ³n": 4170,
      "the": 4171,
      "Ġev": 4172,
      "undo": 4173,
      "itz": 4174,
      "ione": 4175,
      "Ġer": 4176,
      "Ġ1965": 4177,
      "ĠcrÃŃticos": 4178,
      "imismo": 4179,
      "ĠPaisaje": 4180,
      "Ġvivi": 4181,
      "IA": 4182,
      "ibles": 4183,
      "Ġtotal": 4184,
      "ical": 4185,
      "vaciÃ³n": 4186,
      "rÃŃptico": 4187,
      "Ġincorpo": 4188,
      "Ġalma": 4189,
      "Ġtempo": 4190,
      "Ġfama": 4191,
      "Ġcamino": 4192,
      "ĠTrabaj": 4193,
      "dro": 4194,
      "ancias": 4195,
      "enas": 4196,
      "Ġexplo": 4197,
      "trÃ¡s": 4198,
      "ĠcÃ³mo": 4199,
      "inada": 4200,
      "ĠHenri": 4201,
      "Ġtard": 4202,
      "Ġactivi": 4203,
      "Ġdefen": 4204,
      "porte": 4205,
      "ĠMartÃŃnez": 4206,
      "ok": 4207,
      "Ġprovo": 4208,
      "Ġincluyen": 4209,
      "ĠÃŃ": 4210,
      "Ġagu": 4211,
      "Ġ1959": 4212,
      "cÃ¡n": 4213,
      "zaron": 4214,
      "Ġ1968": 4215,
      "ĠErn": 4216,
      "Ġexternos": 4217,
      "Ġverano": 4218,
      "Ġreconocimiento": 4219,
      "ĠfalleciÃ³": 4220,
      "ches": 4221,
      "Ġja": 4222,
      "Ġ149": 4223,
      "ĠgeneraciÃ³n": 4224,
      "Ġaprendiz": 4225,
      "fera": 4226,
      "Ġdestr": 4227,
      "ĠMÃ¡laga": 4228,
      "Ġlocal": 4229,
      "ionista": 4230,
      "ĠMay": 4231,
      "Ġplaza": 4232,
      "strucciÃ³n": 4233,
      "pie": 4234,
      "ĠdetrÃ¡s": 4235,
      "red": 4236,
      "Ġaltura": 4237,
      "ement": 4238,
      "Ġfunda": 4239,
      "ĠZa": 4240,
      "Ġintegra": 4241,
      "ĠPetersburgo": 4242,
      "Ġdecla": 4243,
      "Ġbre": 4244,
      "ĠmitolÃ³g": 4245,
      "Ġcree": 4246,
      "ospital": 4247,
      "estival": 4248,
      "iva": 4249,
      "Ġsil": 4250,
      "Ġretros": 4251,
      "ĠHel": 4252,
      "tida": 4253,
      "ĠGru": 4254,
      "Ġpasado": 4255,
      "Ġobserva": 4256,
      "ĠejecuciÃ³n": 4257,
      "Ġambiente": 4258,
      "Ġdella": 4259,
      "ĠNuestra": 4260,
      "Ġ1928": 4261,
      "Ġdesnudo": 4262,
      "Ġdistintas": 4263,
      "ĠCataluÃ±a": 4264,
      "ĠGauguin": 4265,
      "Ġsor": 4266,
      "Ġoblig": 4267,
      "ĠBogotÃ¡": 4268,
      "Ġaleg": 4269,
      "ĠLes": 4270,
      "ĠDÃŃa": 4271,
      "Ġ1975": 4272,
      "ĠjardÃŃn": 4273,
      "Ġpintando": 4274,
      "Ġvaria": 4275,
      "Ġambas": 4276,
      "Ġdetermin": 4277,
      "Ġespiritu": 4278,
      "Ġnarra": 4279,
      "Ġ1957": 4280,
      "ĠRib": 4281,
      "Ġcarta": 4282,
      "Ġcompar": 4283,
      "ĠAnunciaciÃ³n": 4284,
      "Ġmedios": 4285,
      "ĠSebastiÃ¡n": 4286,
      "jado": 4287,
      "Ġfuerza": 4288,
      "Ġclaro": 4289,
      "laciones": 4290,
      "Ġparro": 4291,
      "ĠAmb": 4292,
      "Ġ1945": 4293,
      "ĠFrancesco": 4294,
      "osas": 4295,
      "Ġbatalla": 4296,
      "Ġ1983": 4297,
      "kov": 4298,
      "coteca": 4299,
      "ĠEnlaces": 4300,
      "Ġ2019": 4301,
      "Ġpuerta": 4302,
      "ĠcÃ©": 4303,
      "Ġata": 4304,
      "Ġentrada": 4305,
      "Ġcontro": 4306,
      "nidad": 4307,
      "dice": 4308,
      "ĠImperio": 4309,
      "hol": 4310,
      "Ġtap": 4311,
      "Ġviajes": 4312,
      "Ġdicha": 4313,
      "ĠJerÃ³nimo": 4314,
      "ĠmostrÃ³": 4315,
      "gia": 4316,
      "Ġ100": 4317,
      "Ġpob": 4318,
      "iller": 4319,
      "ĠArquite": 4320,
      "ologÃŃa": 4321,
      "ĠPri": 4322,
      "Ġ1976": 4323,
      "Ã¡nchez": 4324,
      "Ð½": 4325,
      "ĠPuerto": 4326,
      "ĠÃģl": 4327,
      "ciales": 4328,
      "Ġsex": 4329,
      "Ġpatr": 4330,
      "Ġgrupos": 4331,
      "ĠÃģngeles": 4332,
      "ĠViejo": 4333,
      "dici": 4334,
      "ĠSÃ¡nchez": 4335,
      "ĠColegio": 4336,
      ".\"": 4337,
      "mem": 4338,
      "ÏĤ": 4339,
      "ĠYa": 4340,
      "Ġpros": 4341,
      "igh": 4342,
      "Ġ1900": 4343,
      "Ġdado": 4344,
      "Ġexhib": 4345,
      "Ġsola": 4346,
      "Ġconocimiento": 4347,
      "Ġplanta": 4348,
      "ĠespaÃ±oles": 4349,
      "Ġsosten": 4350,
      "Ġreales": 4351,
      "xiÃ³n": 4352,
      "titud": 4353,
      "Ġ1978": 4354,
      "Ġ1929": 4355,
      "Ġencargos": 4356,
      "Ġpersona": 4357,
      "Ġfie": 4358,
      "Ġconcre": 4359,
      "ĠDal": 4360,
      "Ġmirada": 4361,
      "187": 4362,
      "ivo": 4363,
      "ĠMel": 4364,
      "derico": 4365,
      "mÃ¡tico": 4366,
      "Ġenci": 4367,
      "Ġesque": 4368,
      "ĠNico": 4369,
      "Ġ1937": 4370,
      "iado": 4371,
      "Ġpren": 4372,
      "ame": 4373,
      "embrandt": 4374,
      "visiÃ³n": 4375,
      "Ġmilitar": 4376,
      "igÃ¼edad": 4377,
      "Ġhalla": 4378,
      "Ġ1967": 4379,
      "Ġtalento": 4380,
      "ĠimpresiÃ³n": 4381,
      "ĠGeneral": 4382,
      "ĠNicolÃ¡s": 4383,
      "Ġw": 4384,
      "omet": 4385,
      "Ġsuces": 4386,
      "ĠHu": 4387,
      "mita": 4388,
      "Ġ1981": 4389,
      "ĠPieter": 4390,
      "Ġpintados": 4391,
      "pole": 4392,
      "Ġcausa": 4393,
      "Ġgradu": 4394,
      "Ġ1979": 4395,
      "ĠMientras": 4396,
      "Ġpon": 4397,
      "ĠSui": 4398,
      "Ġmoda": 4399,
      "Ġ1963": 4400,
      "uelas": 4401,
      "Ġnie": 4402,
      "cht": 4403,
      "ĠVol": 4404,
      "ĠCha": 4405,
      "itud": 4406,
      "ĠfotografÃŃas": 4407,
      "Ã§o": 4408,
      "ĠAustria": 4409,
      "Es": 4410,
      "gna": 4411,
      "dias": 4412,
      "Ġnoche": 4413,
      "Ġ1962": 4414,
      "ĠQue": 4415,
      "gados": 4416,
      "Ġreti": 4417,
      "Ġllegar": 4418,
      "cenas": 4419,
      "Ġretablos": 4420,
      "Ġreligioso": 4421,
      "ĠLan": 4422,
      "Ġ1958": 4423,
      "ĠclÃ¡sica": 4424,
      "ĠScho": 4425,
      "Ġcient": 4426,
      "Ġemperador": 4427,
      "Ġtales": 4428,
      "Ġingen": 4429,
      "Ġfirma": 4430,
      "erial": 4431,
      "Ġexpone": 4432,
      "ellÃ³n": 4433,
      "ĠFederico": 4434,
      "ĠCatalina": 4435,
      "ĠDibujo": 4436,
      "Ġhicieron": 4437,
      "ĠGÃ³mez": 4438,
      "rum": 4439,
      "inci": 4440,
      "Ġ1961": 4441,
      "Ġrasgos": 4442,
      "ĠRembrandt": 4443,
      "Ġtendencia": 4444,
      "Ġ1913": 4445,
      "Ġdesarrollar": 4446,
      "Ġocup": 4447,
      "Ġtinta": 4448,
      "oles": 4449,
      "ĠsimbÃ³": 4450,
      "Ġninguna": 4451,
      "dios": 4452,
      "toÃ±o": 4453,
      "Ġexcl": 4454,
      "Ġexterior": 4455,
      "Ġdesem": 4456,
      "ĠAndrÃ©s": 4457,
      "ĠcÃŃrculo": 4458,
      "lecciÃ³n": 4459,
      "ĠMax": 4460,
      "Ġconci": 4461,
      "Ġsobrevi": 4462,
      "Ġtratamiento": 4463,
      "ĠCosta": 4464,
      "Ġfol": 4465,
      "Ġanteriores": 4466,
      "Ġ1972": 4467,
      "if": 4468,
      "Ġnada": 4469,
      "paciÃ³n": 4470,
      "ĠespÃŃritu": 4471,
      "ntas": 4472,
      "Ġindic": 4473,
      "bito": 4474,
      "Ġmucha": 4475,
      "olÃ³gica": 4476,
      "ĠCapilla": 4477,
      "Ġcuel": 4478,
      "orio": 4479,
      "ĠKar": 4480,
      "ĠÃļ": 4481,
      "Ġsencil": 4482,
      "ĠpermaneciÃ³": 4483,
      "cÃ¡": 4484,
      "Ġ1912": 4485,
      "bia": 4486,
      "ĠRetablo": 4487,
      "AC": 4488,
      "Ġcali": 4489,
      "Ġrele": 4490,
      "hist": 4491,
      "tin": 4492,
      "Ġsuba": 4493,
      "Ġcontemp": 4494,
      "ĠMujer": 4495,
      "ĠtenÃŃan": 4496,
      "Ġestilos": 4497,
      "Ġaproximadamente": 4498,
      "Ġcantidad": 4499,
      "into": 4500,
      "Ã©rcito": 4501,
      "Ġbuena": 4502,
      "leos": 4503,
      "ĠAlfonso": 4504,
      "Ġacuarelas": 4505,
      "mat": 4506,
      "ueva": 4507,
      "riel": 4508,
      "Ġ1973": 4509,
      "ĠAgustÃŃn": 4510,
      "Ġpale": 4511,
      "Ġdie": 4512,
      "ĠPerÃº": 4513,
      "Ġbocetos": 4514,
      "pin": 4515,
      "adÃ¡": 4516,
      "Ġesco": 4517,
      "Ãºr": 4518,
      "ĠChina": 4519,
      "Ġ176": 4520,
      "Ġcomienza": 4521,
      "Ġservicio": 4522,
      "Ġhojas": 4523,
      "Ġcatal": 4524,
      "ĠlÃŃ": 4525,
      "Ġqueda": 4526,
      "Ġinci": 4527,
      "Ġ1966": 4528,
      "Ġlito": 4529,
      "ome": 4530,
      "ĠdÃ©cadas": 4531,
      "ĠgalerÃŃas": 4532,
      "ĠexhibiciÃ³n": 4533,
      "Ġcopi": 4534,
      "ĠmudÃ³": 4535,
      "Ġlogra": 4536,
      "menes": 4537,
      "Ġmodern": 4538,
      "Ġguar": 4539,
      "Ġrelieve": 4540,
      "ere": 4541,
      "Ġcic": 4542,
      "Ġmill": 4543,
      "Ġornam": 4544,
      "ty": 4545,
      "ense": 4546,
      "Ġoccidental": 4547,
      "cidas": 4548,
      "ĠRu": 4549,
      "ĠRealizÃ³": 4550,
      "Ġobjetivo": 4551,
      "vich": 4552,
      "Ġ1939": 4553,
      "Ġdirectamente": 4554,
      "Ġconcepto": 4555,
      "uario": 4556,
      "ĠEse": 4557,
      "Ġentorno": 4558,
      "verso": 4559,
      "quina": 4560,
      "ĠAnton": 4561,
      "Ġ1974": 4562,
      "Ġpermanente": 4563,
      "ĠMinisterio": 4564,
      "Ġdemos": 4565,
      "Ġpreten": 4566,
      "Ġversiones": 4567,
      "Ġ40": 4568,
      "Ġpincel": 4569,
      "ĠCÃŃrculo": 4570,
      "Ġjud": 4571,
      "Ġmarido": 4572,
      "Ġpropie": 4573,
      "Ġprofesional": 4574,
      "ĠtomÃ³": 4575,
      "Ġoscuro": 4576,
      "olo": 4577,
      "vio": 4578,
      "ĠfÃŃs": 4579,
      "ĠAlgunas": 4580,
      "Ġdic": 4581,
      "Ġbiz": 4582,
      "ĠUno": 4583,
      "ĠMary": 4584,
      "Ġlev": 4585,
      "Ġrepresentada": 4586,
      "Ġcolectiva": 4587,
      "icip": 4588,
      "Ġdescribe": 4589,
      "Ġocur": 4590,
      "Ġhaciendo": 4591,
      "ĠprÃ³": 4592,
      "Ġ1925": 4593,
      "cifi": 4594,
      "ĠRÃŃo": 4595,
      "ĠTre": 4596,
      "Ã³rico": 4597,
      "Ġprima": 4598,
      "uno": 4599,
      "Ã©mica": 4600,
      "ĠSup": 4601,
      "Ġ1954": 4602,
      "ĠActualmente": 4603,
      "gli": 4604,
      "Ġsali": 4605,
      "orca": 4606,
      "ĠAt": 4607,
      "Ġinno": 4608,
      "Ġempres": 4609,
      "ĠcÃ¡mara": 4610,
      "Ġcompon": 4611,
      "Ġ1955": 4612,
      "Ġ1927": 4613,
      "ĠPinturas": 4614,
      "Ġalumnos": 4615,
      "ĠvÃŃ": 4616,
      "daron": 4617,
      "Ġ159": 4618,
      "Ġmesa": 4619,
      "Ġmezcla": 4620,
      "ami": 4621,
      "umen": 4622,
      "Ġ1977": 4623,
      "Ġprofundi": 4624,
      "urero": 4625,
      "memora": 4626,
      "Ġpra": 4627,
      "taciones": 4628,
      "Ġfuentes": 4629,
      "Ġinfancia": 4630,
      "Ġvisto": 4631,
      "Ïħ": 4632,
      "ĠReina": 4633,
      "ĠdiseÃ±os": 4634,
      "Ġilustrador": 4635,
      "ĠCastillo": 4636,
      "ĠRodrÃŃ": 4637,
      "como": 4638,
      "unciÃ³n": 4639,
      "urado": 4640,
      "amos": 4641,
      "Ġrealizados": 4642,
      "Ġ60": 4643,
      "Ġafirm": 4644,
      "Ġsostiene": 4645,
      "ot": 4646,
      "ĠEcu": 4647,
      "ĠTri": 4648,
      "Ġpredo": 4649,
      "Ġhier": 4650,
      "ingÃºn": 4651,
      "Ġ1947": 4652,
      "ÑĢ": 4653,
      "empos": 4654,
      "Ġdiv": 4655,
      "ĠJames": 4656,
      "Ġsigue": 4657,
      "fornia": 4658,
      "Ġfondos": 4659,
      "ĠFalleciÃ³": 4660,
      "ĠRodrÃŃguez": 4661,
      "Ġfab": 4662,
      "Ã³nica": 4663,
      "ĠHum": 4664,
      "ĠXIV": 4665,
      "Ġaquella": 4666,
      "ĠdifÃŃcil": 4667,
      "stre": 4668,
      "Ġ1969": 4669,
      "Ġhuman": 4670,
      "Ġconvirti": 4671,
      "ĠabstracciÃ³n": 4672,
      "ĠHijo": 4673,
      "bilidad": 4674,
      "greso": 4675,
      "EN": 4676,
      "Ġcoinci": 4677,
      "ĠGalerie": 4678,
      "ĠAndrÃ©": 4679,
      "Ġmoderna": 4680,
      "ĠclÃ¡sico": 4681,
      "Ġposiblemente": 4682,
      "ĠTomÃ¡s": 4683,
      "ĠWar": 4684,
      "Ġaso": 4685,
      "Ġfrecuent": 4686,
      "Ġcuest": 4687,
      "ĠGeorge": 4688,
      "Ġlenguaje": 4689,
      "lot": 4690,
      "ĠVar": 4691,
      "Ġteat": 4692,
      "Ġ1956": 4693,
      "stein": 4694,
      "Ġps": 4695,
      "Ġtono": 4696,
      "entas": 4697,
      "ĠTi": 4698,
      "Ġvivir": 4699,
      "Ġ1948": 4700,
      "Ġoriginales": 4701,
      "Ġreligiosos": 4702,
      "Ð²": 4703,
      "Ġses": 4704,
      "ĠCle": 4705,
      "Ġdom": 4706,
      "ĠCarmen": 4707,
      "Ġinterna": 4708,
      "ĠGrupo": 4709,
      "Ġ),": 4710,
      "Ġconocidos": 4711,
      "Ġdestacar": 4712,
      "Ġdestacado": 4713,
      "ĠMetropolit": 4714,
      "frica": 4715,
      "Ġcondu": 4716,
      "ĠBru": 4717,
      "Ġ156": 4718,
      "Ġsimbolismo": 4719,
      "Ã©lgica": 4720,
      "Ġepiso": 4721,
      "Ġenf": 4722,
      "ÃŃculo": 4723,
      "Ġtot": 4724,
      "Ġ1971": 4725,
      "Ġsociales": 4726,
      "ĠdemÃ¡s": 4727,
      "ĠMem": 4728,
      "vaggio": 4729,
      "Ġreligiosas": 4730,
      "Ġacerca": 4731,
      "Ġvanguardia": 4732,
      "ocu": 4733,
      "ĠDise": 4734,
      "video": 4735,
      "Ġconocidas": 4736,
      "Ġhermos": 4737,
      "ĠGusta": 4738,
      "burg": 4739,
      "Ġtest": 4740,
      "Ġpintadas": 4741,
      "ĠPortu": 4742,
      "Ġcolumnas": 4743,
      "Ġrenacentista": 4744,
      "Ġ1953": 4745,
      "Ġbizant": 4746,
      "Ġgui": 4747,
      "Ġ1931": 4748,
      "ĠÃ¡m": 4749,
      "haus": 4750,
      "ĠPietro": 4751,
      "Ġing": 4752,
      "Ã¨re": 4753,
      "Ġpermite": 4754,
      "pro": 4755,
      "ĠSta": 4756,
      "ĠLis": 4757,
      "Ġparecen": 4758,
      "ĠSobre": 4759,
      "grÃ¡ficos": 4760,
      "ĠacadÃ©mico": 4761,
      "Ġsanto": 4762,
      "Ġtron": 4763,
      "chada": 4764,
      "Ġmont": 4765,
      "ĠMedia": 4766,
      "Ġlarga": 4767,
      "ragÃ³n": 4768,
      "Ġbeca": 4769,
      "ben": 4770,
      "vuel": 4771,
      "Ġama": 4772,
      "diciones": 4773,
      "izado": 4774,
      "Ġ1934": 4775,
      "Ġsuelo": 4776,
      "Ġlocalidad": 4777,
      "Ġdistintos": 4778,
      "deros": 4779,
      "tien": 4780,
      "Ġpronto": 4781,
      "Ġmito": 4782,
      "ĠescultÃ³r": 4783,
      "ivamente": 4784,
      "Ġ1942": 4785,
      "Ġilust": 4786,
      "Ġelemento": 4787,
      "Ġrecupera": 4788,
      "Ġtrayectoria": 4789,
      "Ġ1914": 4790,
      "ĠTrayectoria": 4791,
      "ĠcategorÃŃa": 4792,
      "ker": 4793,
      "yer": 4794,
      "yendo": 4795,
      "Ġcorona": 4796,
      "Ġcampes": 4797,
      "Ġtitulado": 4798,
      "lantes": 4799,
      "inar": 4800,
      "Ġnoble": 4801,
      "etros": 4802,
      "Ġclaros": 4803,
      "Ġrefleja": 4804,
      "ĠPeter": 4805,
      "Ã¢": 4806,
      "rias": 4807,
      "ĠReino": 4808,
      "Ġproblemas": 4809,
      "ruguay": 4810,
      "ĠRoyal": 4811,
      "rador": 4812,
      "ĠmÃºlti": 4813,
      "ĠOx": 4814,
      "ÃŃsticas": 4815,
      "Ġcreado": 4816,
      "minist": 4817,
      "ĠfundÃ³": 4818,
      "eld": 4819,
      "vista": 4820,
      "ĠPaulo": 4821,
      "Ġfavor": 4822,
      "23": 4823,
      "dap": 4824,
      "atic": 4825,
      "ĠEspe": 4826,
      "Ġlibertad": 4827,
      "ĠinscripciÃ³n": 4828,
      "Ġpolic": 4829,
      "Ġflorent": 4830,
      "Ġimpul": 4831,
      "bano": 4832,
      "ĠAh": 4833,
      "inastÃŃa": 4834,
      "Ġretratista": 4835,
      "Ġfundador": 4836,
      "Ġmovimientos": 4837,
      "ju": 4838,
      "Ġsel": 4839,
      "Ġobstante": 4840,
      "Ġ1932": 4841,
      "Ġ1946": 4842,
      "Ġexpresionismo": 4843,
      "Ġcompleto": 4844,
      "gues": 4845,
      "Ġapoy": 4846,
      "ĠinterpretaciÃ³n": 4847,
      "ĠrÃ¡pi": 4848,
      "rido": 4849,
      "Ġsede": 4850,
      "ĠJunto": 4851,
      "erar": 4852,
      "Ã©ndo": 4853,
      "ĠReg": 4854,
      "ĠReyes": 4855,
      "ĠingresÃ³": 4856,
      "ĠAdoraciÃ³n": 4857,
      "ĠSue": 4858,
      "ĠningÃºn": 4859,
      "Ġhorizo": 4860,
      "fos": 4861,
      "Ġdevo": 4862,
      "Ġegip": 4863,
      "Ġhacen": 4864,
      "ĠencontrÃ³": 4865,
      "Ġreconocido": 4866,
      "ĠpermitiÃ³": 4867,
      "Ġtur": 4868,
      "amen": 4869,
      "Ġpapiro": 4870,
      "Ġconsiderada": 4871,
      "ĠAutor": 4872,
      "Ġtitulada": 4873,
      "Ġretrospectiva": 4874,
      "Ġapor": 4875,
      "ctic": 4876,
      "Ġtercera": 4877,
      "Ġmetal": 4878,
      "Ġmantuvo": 4879,
      "wn": 4880,
      "Ġgente": 4881,
      "itada": 4882,
      "Ġident": 4883,
      "ĠhacÃŃa": 4884,
      "quÃ©s": 4885,
      "Ġ1926": 4886,
      "22": 4887,
      "sch": 4888,
      "Ġlat": 4889,
      "anÃŃa": 4890,
      "didas": 4891,
      "Ġsua": 4892,
      "Ġcaus": 4893,
      "Ġtiempos": 4894,
      "ane": 4895,
      "resa": 4896,
      "rimiento": 4897,
      "ĠraÃŃ": 4898,
      "ĠCorn": 4899,
      "Ġdedicada": 4900,
      "ĠÂ¿": 4901,
      "Ġdesnudos": 4902,
      "din": 4903,
      "taron": 4904,
      "unci": 4905,
      "Ġarm": 4906,
      "ĠHans": 4907,
      "ctas": 4908,
      "Ġparticularmente": 4909,
      "ĠVasari": 4910,
      "orado": 4911,
      "Ġelo": 4912,
      "leta": 4913,
      "ĠSuiza": 4914,
      "Ġapar": 4915,
      "cti": 4916,
      "dÃ©": 4917,
      "rial": 4918,
      "Ġvistas": 4919,
      "ĠGil": 4920,
      "Ġexcep": 4921,
      "ĠMadonna": 4922,
      "Ġterri": 4923,
      "ou": 4924,
      "Ġsust": 4925,
      "pectos": 4926,
      "cono": 4927,
      "Ġ1922": 4928,
      "Ġesos": 4929,
      "ĠVII": 4930,
      "ĠDiputaciÃ³n": 4931,
      "Ġprivadas": 4932,
      "ĠiconografÃŃa": 4933,
      "ĠJacob": 4934,
      "Ġ1919": 4935,
      "ĠTrin": 4936,
      "Ġ1908": 4937,
      "ĠCaravaggio": 4938,
      "Ġunivers": 4939,
      "Ġsensi": 4940,
      "inados": 4941,
      "ĠVia": 4942,
      "Ġcontexto": 4943,
      "Ġcolorido": 4944,
      "taba": 4945,
      "Ã³lica": 4946,
      "ĠBos": 4947,
      "uicio": 4948,
      "Ġropa": 4949,
      "zon": 4950,
      "45": 4951,
      "ĠBartol": 4952,
      "Ġmuerto": 4953,
      "ĠprÃ¡ctica": 4954,
      "ction": 4955,
      "Ġpapa": 4956,
      "ĠVo": 4957,
      "Ġparale": 4958,
      "Ġperdido": 4959,
      "alizada": 4960,
      "ĠUniÃ³n": 4961,
      "Ġ1933": 4962,
      "Ġ1880": 4963,
      "ĠparticipaciÃ³n": 4964,
      "ES": 4965,
      "Ġinicia": 4966,
      "licaciÃ³n": 4967,
      "ĠutilizÃ³": 4968,
      "Ġ80": 4969,
      "kin": 4970,
      "Ġadap": 4971,
      "ĠEscri": 4972,
      "Ġescas": 4973,
      "Ġdescubier": 4974,
      "ĠRivera": 4975,
      "Ġaus": 4976,
      "Ġenten": 4977,
      "ĠClub": 4978,
      "ĠcÃ©le": 4979,
      "26": 4980,
      "rÃ¡s": 4981,
      "ĠBri": 4982,
      "ĠParis": 4983,
      "Ġmens": 4984,
      "ivos": 4985,
      "ĠJac": 4986,
      "terales": 4987,
      "Ġafe": 4988,
      "ÃŃdo": 4989,
      "ĠDurero": 4990,
      "Ġinform": 4991,
      "Ġdibuj": 4992,
      "Ġchil": 4993,
      "tti": 4994,
      "ĠVa": 4995,
      "ĠÃºltimas": 4996,
      "ĠGregor": 4997,
      "ĠCalifornia": 4998,
      "Ġindica": 4999,
      "ntera": 5000,
      "ĠNorte": 5001,
      "Ġ1949": 5002,
      "Ġ1911": 5003,
      "Ġtuvieron": 5004,
      "cura": 5005,
      "ĠNatura": 5006,
      "ĠJoven": 5007,
      "ĠgÃ³tico": 5008,
      "ĠOtras": 5009,
      "Ġpul": 5010,
      "Ġsecre": 5011,
      "ĠLuego": 5012,
      "ierra": 5013,
      "Ġadelante": 5014,
      "24": 5015,
      "sh": 5016,
      "lag": 5017,
      "Ġdese": 5018,
      "alleres": 5019,
      "Ġrevistas": 5020,
      "Ġviol": 5021,
      "Ġancho": 5022,
      "Ġtemprana": 5023,
      "ĠEduardo": 5024,
      "35": 5025,
      "Ġbau": 5026,
      "ĠFestival": 5027,
      "Ġapenas": 5028,
      "Ġpropios": 5029,
      "Ġ1924": 5030,
      "Ġactividades": 5031,
      "sin": 5032,
      "ÃŃda": 5033,
      "Ġsepa": 5034,
      "ĠManet": 5035,
      "ĠinvestigaciÃ³n": 5036,
      "Ġprestig": 5037,
      "hel": 5038,
      "Ġenmar": 5039,
      "ĠentrÃ³": 5040,
      "ĠXIII": 5041,
      "Ġrespecto": 5042,
      "ĠPintores": 5043,
      "Ġneer": 5044,
      "Ġ1909": 5045,
      "ĠinstituciÃ³n": 5046,
      "ĠinstalÃ³": 5047,
      "bil": 5048,
      "rece": 5049,
      "viera": 5050,
      "Ġtipos": 5051,
      "Ġrestos": 5052,
      "ĠBÃ©lgica": 5053,
      "Ġaspectos": 5054,
      "ficial": 5055,
      "Ġ1951": 5056,
      "Ġimpresionismo": 5057,
      "didos": 5058,
      "Ġconfe": 5059,
      "cencia": 5060,
      "Ġsignificado": 5061,
      "Ġromano": 5062,
      "Ã©st": 5063,
      "ĠBat": 5064,
      "ĠallÃ¡": 5065,
      "Ġextre": 5066,
      "Ġases": 5067,
      "Ġcirc": 5068,
      "Ġalberga": 5069,
      "itario": 5070,
      "Ġexpuesto": 5071,
      "Ġrecuerda": 5072,
      "Ġprepa": 5073,
      "Ġutilizado": 5074,
      "Ġformado": 5075,
      "ĠHenry": 5076,
      "Ġfalta": 5077,
      "idas": 5078,
      "ilares": 5079,
      "Ġpuntos": 5080,
      "Ġ1917": 5081,
      "dicos": 5082,
      "ĠFam": 5083,
      "ĠTu": 5084,
      "ĠOtro": 5085,
      "ĠPaz": 5086,
      "Ġ1905": 5087,
      "Ġsanta": 5088,
      "ER": 5089,
      "Ġmol": 5090,
      "bara": 5091,
      "ĠGua": 5092,
      "Ġbarrio": 5093,
      "ĠGrabado": 5094,
      "Ġestatuas": 5095,
      "dir": 5096,
      "Ġhue": 5097,
      "Ġnar": 5098,
      "ĠRevoluciÃ³n": 5099,
      "Ġdorado": 5100,
      "ĠrÃ©": 5101,
      "Ġmanifie": 5102,
      "denal": 5103,
      "ĠfunciÃ³n": 5104,
      "Ġreciente": 5105,
      "Ġnombres": 5106,
      "Ġhabitual": 5107,
      "ĠmÃºltiples": 5108,
      "Pa": 5109,
      "Ġ1935": 5110,
      "dalu": 5111,
      "Ġenferme": 5112,
      "Ġprograma": 5113,
      "laba": 5114,
      "vidad": 5115,
      "Ġprimi": 5116,
      "forman": 5117,
      "Ġformar": 5118,
      "ĠexhibiÃ³": 5119,
      "Ġdestacados": 5120,
      "vierte": 5121,
      "84": 5122,
      "fia": 5123,
      "Ã³ve": 5124,
      "ĠCons": 5125,
      "Ġmemoria": 5126,
      "ĠPen": 5127,
      "Ġduda": 5128,
      "Ġpopulares": 5129,
      "Ġconmemora": 5130,
      "Ġbio": 5131,
      "Ġfranceses": 5132,
      "Ġcostumbri": 5133,
      "bum": 5134,
      "rer": 5135,
      "ĠPos": 5136,
      "Ġ175": 5137,
      "Ġcontenido": 5138,
      "ctiva": 5139,
      "fico": 5140,
      "ij": 5141,
      "Ġjue": 5142,
      "ĠConcepciÃ³n": 5143,
      "Ġ1915": 5144,
      "Ġhoras": 5145,
      "ĠMuriÃ³": 5146,
      "ĠInterna": 5147,
      "Ġmostrar": 5148,
      "ĠEE": 5149,
      "ĠOli": 5150,
      "ezas": 5151,
      "partamento": 5152,
      "Ġrequerida": 5153,
      "ementerio": 5154,
      "Ġcasas": 5155,
      "Ġigualmente": 5156,
      "Ġnovela": 5157,
      "ĠGabriel": 5158,
      "Ġevo": 5159,
      "cultad": 5160,
      "Ġsimilares": 5161,
      "Ġ1943": 5162,
      "ĠMur": 5163,
      "Ġescuelas": 5164,
      "ĠprÃŃncipe": 5165,
      "ĠespecÃŃ": 5166,
      "rarse": 5167,
      "boa": 5168,
      "Ġreno": 5169,
      "Ġhal": 5170,
      "ĠDis": 5171,
      "ĠHan": 5172,
      "Ġ1938": 5173,
      "ĠdestacÃ³": 5174,
      "Ġ1904": 5175,
      "Ġ1906": 5176,
      "ĠVictoria": 5177,
      "Ġseleccion": 5178,
      "Al": 5179,
      "dista": 5180,
      "Ġprepara": 5181,
      "Ġpreocu": 5182,
      "Ġimpresionista": 5183,
      "Ġllama": 5184,
      "Ġ1952": 5185,
      "Ġradic": 5186,
      "Ġgober": 5187,
      "Par": 5188,
      "gadas": 5189,
      "zÃ¡s": 5190,
      "ĠsecciÃ³n": 5191,
      "Ġ1918": 5192,
      "Ġ1921": 5193,
      "Ġluminos": 5194,
      "ĠGeorges": 5195,
      "eval": 5196,
      "Ġinteriores": 5197,
      "Ġholandes": 5198,
      "Ġexperiencia": 5199,
      "Ġaquellos": 5200,
      "Ġfemenina": 5201,
      "Ġminiaturas": 5202,
      "eraciÃ³n": 5203,
      "ĠMarcos": 5204,
      "ĠcolaborÃ³": 5205,
      "ĠEcuador": 5206,
      "mal": 5207,
      "Ïģ": 5208,
      "ĠSem": 5209,
      "ĠbÃŃb": 5210,
      "uvent": 5211,
      "Ġbrazos": 5212,
      "Ġacademia": 5213,
      "erg": 5214,
      "Ġarmon": 5215,
      "185": 5216,
      "Ġplanos": 5217,
      "Ġmercado": 5218,
      "ft": 5219,
      "pulos": 5220,
      "Ġproces": 5221,
      "terna": 5222,
      "Ġfuncion": 5223,
      "ĠadquiriÃ³": 5224,
      "ĠDÃŃaz": 5225,
      "Ġidentidad": 5226,
      "ĠAcadem": 5227,
      "ĠLy": 5228,
      "Ġbos": 5229,
      "Ġpropias": 5230,
      "Ġcomunidad": 5231,
      "Ġletras": 5232,
      "cund": 5233,
      "ximo": 5234,
      "Ġvali": 5235,
      "Ġdura": 5236,
      "Ġvidrio": 5237,
      "illermo": 5238,
      "iga": 5239,
      "erido": 5240,
      "ĠUniversal": 5241,
      "Ġenterrado": 5242,
      "Ã§ois": 5243,
      "ĠpÃ¡": 5244,
      "ĠPu": 5245,
      "ĠLÃ©": 5246,
      "Ġsacri": 5247,
      "ĠTheo": 5248,
      "Ġproyectos": 5249,
      "Ġayud": 5250,
      "Ġisla": 5251,
      "Ġmillones": 5252,
      "sky": 5253,
      "ĠRosa": 5254,
      "chen": 5255,
      "irse": 5256,
      "ĠSuperior": 5257,
      "uventud": 5258,
      "ĠConse": 5259,
      "Ġcompletamente": 5260,
      "ĠCastilla": 5261,
      "Ġencima": 5262,
      "chÃ³": 5263,
      "ĠBou": 5264,
      "Ġdiferente": 5265,
      "ĠteorÃŃa": 5266,
      "ĠSab": 5267,
      "Ġ(-": 5268,
      "cular": 5269,
      "ĠDela": 5270,
      "ĠDesta": 5271,
      "ĠComun": 5272,
      "Ġcontraste": 5273,
      "cien": 5274,
      "ĠPub": 5275,
      "Ġjuventud": 5276,
      "Ġexiste": 5277,
      "Ġexisten": 5278,
      "izada": 5279,
      "Ġ1907": 5280,
      "ĠocasiÃ³n": 5281,
      "AR": 5282,
      "Ġdepen": 5283,
      "ciano": 5284,
      "icio": 5285,
      "Ġdetalle": 5286,
      "Ġpaleta": 5287,
      "Ġenfo": 5288,
      "ĠÃ¡rboles": 5289,
      "Ġsint": 5290,
      "stes": 5291,
      "ables": 5292,
      "ĠUU": 5293,
      "ĠBell": 5294,
      "Ġdispon": 5295,
      "Ġ1923": 5296,
      "ĠdebÃŃa": 5297,
      "ĠMora": 5298,
      "Ġvic": 5299,
      "ĠTres": 5300,
      "ĠOtra": 5301,
      "Ġ1944": 5302,
      "Ġdenom": 5303,
      "Ġcorriente": 5304,
      "poleÃ³n": 5305,
      "Ġ177": 5306,
      "Ġseguido": 5307,
      "IS": 5308,
      "bla": 5309,
      "Ġlaterales": 5310,
      "ĠbÃ³ve": 5311,
      "bolos": 5312,
      "Ġantiguas": 5313,
      "Ġestampas": 5314,
      "Ġdeca": 5315,
      "reo": 5316,
      "ĠacciÃ³n": 5317,
      "ĠAst": 5318,
      "ĠSor": 5319,
      "Ġjap": 5320,
      "ĠserÃ¡": 5321,
      "Ġdoce": 5322,
      "say": 5323,
      "ĠBot": 5324,
      "Ġpiel": 5325,
      "Ġ70": 5326,
      "ĠquÃ©": 5327,
      "Ġtriun": 5328,
      "ĠArquitectura": 5329,
      "entada": 5330,
      "ĠEyck": 5331,
      "Ġ(\"": 5332,
      "ĠFar": 5333,
      "Ġ1941": 5334,
      "enoir": 5335,
      "fÃ©": 5336,
      "Ġtemple": 5337,
      "ĠMonet": 5338,
      "Ã³logo": 5339,
      "gida": 5340,
      "Ġinsp": 5341,
      "ĠGuillermo": 5342,
      "ÃŃculos": 5343,
      "Ġfirmado": 5344,
      "Ġsalas": 5345,
      "osofÃŃa": 5346,
      "Ġmuestras": 5347,
      "Ġbrillante": 5348,
      "Ġsem": 5349,
      "Ġhubo": 5350,
      "urt": 5351,
      "Ġ169": 5352,
      "useum": 5353,
      "ĠCentral": 5354,
      "Ġizquierdo": 5355,
      "Ġromana": 5356,
      "ĠSam": 5357,
      "elle": 5358,
      "Ġtecho": 5359,
      "peo": 5360,
      "ĠReci": 5361,
      "ĠHacia": 5362,
      "Ġ1889": 5363,
      "Ġimagin": 5364,
      "ĠcompaÃ±ÃŃa": 5365,
      "cam": 5366,
      "ntal": 5367,
      "ella": 5368,
      "ĠVit": 5369,
      "Ġllegada": 5370,
      "Ġdefin": 5371,
      "ĠConstant": 5372,
      "nal": 5373,
      "Ġinm": 5374,
      "ĠPortugal": 5375,
      "Ġjapones": 5376,
      "28": 5377,
      "eza": 5378,
      "rante": 5379,
      "ĠLeo": 5380,
      "ĠJosep": 5381,
      "Ġescala": 5382,
      "Ġtreinta": 5383,
      "dÃ³n": 5384,
      "ĠFlor": 5385,
      "ĠTar": 5386,
      "Ġescal": 5387,
      "Ġabri": 5388,
      "Ġestudiantes": 5389,
      "Ãºsque": 5390,
      "ĠBernard": 5391,
      "reg": 5392,
      "arlo": 5393,
      "imos": 5394,
      "Ġnoti": 5395,
      "Ġmayores": 5396,
      "Ġ31": 5397,
      "Ġventana": 5398,
      "ĠRic": 5399,
      "Ġprue": 5400,
      "Ġposib": 5401,
      "Ġ1901": 5402,
      "Ġmascul": 5403,
      "ĠeconÃ³m": 5404,
      "ĠgrÃ¡fico": 5405,
      "anci": 5406,
      "rans": 5407,
      "Ġ2020": 5408,
      "Ġasign": 5409,
      "Ġrepresentando": 5410,
      "Ġrepresentados": 5411,
      "Ġinstituciones": 5412,
      "ĠabandonÃ³": 5413,
      "Ġsit": 5414,
      "ĠWa": 5415,
      "ĠintenciÃ³n": 5416,
      "Ġindependiente": 5417,
      "Ġingles": 5418,
      "An": 5419,
      "zco": 5420,
      "ĠÃ³r": 5421,
      "tiz": 5422,
      "Ġveinte": 5423,
      "ĠSofÃŃa": 5424,
      "Ġvolver": 5425,
      "ĠVatic": 5426,
      "izi": 5427,
      "Ġameric": 5428,
      "hibi": 5429,
      "ĠGrande": 5430,
      "ĠRosario": 5431,
      "Ġobtener": 5432,
      "ĠpÃ¡gina": 5433,
      "by": 5434,
      "ny": 5435,
      "ÃŃos": 5436,
      "ĠMonasterio": 5437,
      "Ġcompleta": 5438,
      "ĠMartin": 5439,
      "Ġapoyo": 5440,
      "Ġopin": 5441,
      "ĠMontevideo": 5442,
      "Ġfragmentos": 5443,
      "Ġdemas": 5444,
      "Ġpala": 5445,
      "tudes": 5446,
      "ĠfotÃ³": 5447,
      "ĠsÃŃmbolos": 5448,
      "ntemente": 5449,
      "Ġventa": 5450,
      "igi": 5451,
      "ĠTemp": 5452,
      "Ġhabilidad": 5453,
      "ĠXII": 5454,
      "Ġcaballos": 5455,
      "Ġ000": 5456,
      "rey": 5457,
      "ĠCru": 5458,
      "ĠLet": 5459,
      "Ġarri": 5460,
      "ĠhistÃ³rica": 5461,
      "ĠCollege": 5462,
      "Ġdesempe": 5463,
      "lage": 5464,
      "matismo": 5465,
      "bate": 5466,
      "Ġexistencia": 5467,
      "ĠMusÃ©e": 5468,
      "27": 5469,
      "ĠevoluciÃ³n": 5470,
      "ĠMol": 5471,
      "Ġfamosa": 5472,
      "Ġtradicionales": 5473,
      "ĠPinacoteca": 5474,
      "ĠDen": 5475,
      "Ġlocales": 5476,
      "Ġpuertas": 5477,
      "dora": 5478,
      "Ġtenido": 5479,
      "Ġespecie": 5480,
      "ĠsalÃ³n": 5481,
      "ÃŃfico": 5482,
      "Ġasi": 5483,
      "ĠMirÃ³": 5484,
      "Ġapari": 5485,
      "Ġsolici": 5486,
      "Ġcomercia": 5487,
      "ĠAtenas": 5488,
      "lores": 5489,
      "ĠRenoir": 5490,
      "oston": 5491,
      "ĠMujeres": 5492,
      "Ġsombras": 5493,
      "ĠsensaciÃ³n": 5494,
      "cena": 5495,
      "Ġdejar": 5496,
      "Ġinstr": 5497,
      "ister": 5498,
      "Ġascen": 5499,
      "ĠPlaza": 5500,
      "ĠplÃ¡stico": 5501,
      "Ġconcurso": 5502,
      "Ġleyen": 5503,
      "ĠvisitÃ³": 5504,
      "ĠsituaciÃ³n": 5505,
      "americana": 5506,
      "Ġextranjero": 5507,
      "Ñģ": 5508,
      "Ġrea": 5509,
      "ĠUruguay": 5510,
      "dorf": 5511,
      "Ġvariedad": 5512,
      "ĠhistÃ³ricos": 5513,
      "ĠAugu": 5514,
      "Ġconseg": 5515,
      "ĠVinci": 5516,
      "ĠAdol": 5517,
      "OR": 5518,
      "ĠdebiÃ³": 5519,
      "enario": 5520,
      "Ġconcent": 5521,
      "tora": 5522,
      "Ġcata": 5523,
      "Ġpoemas": 5524,
      "cerdo": 5525,
      "Ġculturales": 5526,
      "Ġfuturo": 5527,
      "fas": 5528,
      "ood": 5529,
      "Ġevolucion": 5530,
      "imen": 5531,
      "ĠPapa": 5532,
      "ĠrazÃ³n": 5533,
      "Ġcaracteriza": 5534,
      "Ġdestacadas": 5535,
      "ordin": 5536,
      "cana": 5537,
      "mes": 5538,
      "ĠPic": 5539,
      "ĠMateo": 5540,
      "medi": 5541,
      "ĠÃģfrica": 5542,
      "Ġdata": 5543,
      "Ġinscri": 5544,
      "Ġ1892": 5545,
      "Ġelegido": 5546,
      "Ġrelacionado": 5547,
      "ĠmÃ©todo": 5548,
      "bÃ³n": 5549,
      "tte": 5550,
      "ĠVil": 5551,
      "peti": 5552,
      "Ġ170": 5553,
      "Ġescritos": 5554,
      "Ġtransmi": 5555,
      "tz": 5556,
      "ladel": 5557,
      "Ġvit": 5558,
      "uerte": 5559,
      "remio": 5560,
      "ĠÃ³leos": 5561,
      "Ġ1893": 5562,
      "Ġ1897": 5563,
      "Ġ2022": 5564,
      "ĠenseÃ±anza": 5565,
      "Ġurban": 5566,
      "Ġmexicano": 5567,
      "turista": 5568,
      "Ġlados": 5569,
      "amientos": 5570,
      "ĠFu": 5571,
      "ĠBolonia": 5572,
      "Ġcuarto": 5573,
      ".[": 5574,
      "Ġseries": 5575,
      "Ġexplic": 5576,
      "Ġrecibe": 5577,
      "Ġfrecue": 5578,
      "Ġcalles": 5579,
      "ĠAntiguo": 5580,
      "Co": 5581,
      "dis": 5582,
      "ĠbÃºsque": 5583,
      "Ġexa": 5584,
      "pula": 5585,
      "Ġcardenal": 5586,
      "Ġcercano": 5587,
      "uros": 5588,
      "raciones": 5589,
      "ĠHern": 5590,
      "ĠilustraciÃ³n": 5591,
      "Ġ2021": 5592,
      "cadas": 5593,
      "Ġ).": 5594,
      "dena": 5595,
      "Ġret": 5596,
      "urch": 5597,
      "AL": 5598,
      "ĠRepres": 5599,
      "Ġcarica": 5600,
      "Ġconservada": 5601,
      "Ġpuso": 5602,
      "Ġretor": 5603,
      "Ġseme": 5604,
      "Ġsecund": 5605,
      "ĠMuseos": 5606,
      "ĠAcademy": 5607,
      "Ïĥ": 5608,
      "Ġtalleres": 5609,
      "Ġobispo": 5610,
      "ĠPapiro": 5611,
      "Ġsuele": 5612,
      "Ġcomienzos": 5613,
      "ĠIlustra": 5614,
      "Ġcastillo": 5615,
      "onial": 5616,
      "Ġremo": 5617,
      "ĠPom": 5618,
      "Ã±ez": 5619,
      "Ġargent": 5620,
      "Ġcuyos": 5621,
      "vido": 5622,
      "Ġ1870": 5623,
      "Ġdinero": 5624,
      "caba": 5625,
      "ĠPad": 5626,
      "ĠAlonso": 5627,
      "piros": 5628,
      "Ġabs": 5629,
      "ĠAsunciÃ³n": 5630,
      "ĠEugen": 5631,
      "ĠMall": 5632,
      "ĠCra": 5633,
      "Ġol": 5634,
      "ĠdinastÃŃa": 5635,
      "ĠDE": 5636,
      "Ġtrabaja": 5637,
      "Ġencargado": 5638,
      "Ġmismos": 5639,
      "Ġaconte": 5640,
      "ific": 5641,
      "portun": 5642,
      "Ġpref": 5643,
      "Ġpincelada": 5644,
      "Ġdiario": 5645,
      "ctora": 5646,
      "Ġpubl": 5647,
      "Ġitalianos": 5648,
      "Ġamplio": 5649,
      "ĠComen": 5650,
      "ĠZe": 5651,
      "ĠÃ¡mbito": 5652,
      "ĠJacques": 5653,
      "gg": 5654,
      "ind": 5655,
      "Ġmedieval": 5656,
      "Ġimpresionistas": 5657,
      "Ġdestino": 5658,
      "zanne": 5659,
      "Âª": 5660,
      "Ġtendencias": 5661,
      "ĠUnido": 5662,
      "Ġblanca": 5663,
      "ianos": 5664,
      "raba": 5665,
      "ĠSp": 5666,
      "ĠNacido": 5667,
      "terrÃ¡n": 5668,
      "Ã¨ne": 5669,
      "Ġprofundidad": 5670,
      "ĠMes": 5671,
      "Ġdeseo": 5672,
      "aliza": 5673,
      "Ġ1888": 5674,
      "ĠDire": 5675,
      "ĠdiscÃŃpulos": 5676,
      "Ġconvertir": 5677,
      "Ġexponer": 5678,
      "Ġpalabra": 5679,
      "mÃ³s": 5680,
      "cy": 5681,
      "laridad": 5682,
      "redo": 5683,
      "anticismo": 5684,
      "etti": 5685,
      "Ġposi": 5686,
      "ĠTeresa": 5687,
      "Ġanimal": 5688,
      "Ġgriega": 5689,
      "AM": 5690,
      "OS": 5691,
      "piz": 5692,
      "cialmente": 5693,
      "esis": 5694,
      "ĠCÃ©": 5695,
      "Ġoportun": 5696,
      "ĠDomen": 5697,
      "quista": 5698,
      "ney": 5699,
      "Ġsiguiendo": 5700,
      "ĠpÃºblica": 5701,
      "ĠEducaciÃ³n": 5702,
      "Ġposee": 5703,
      "Ġdirigida": 5704,
      "21": 5705,
      "Ġeso": 5706,
      "Ġdando": 5707,
      "urs": 5708,
      "ĠKe": 5709,
      "gante": 5710,
      "Ġ155": 5711,
      "ĠniÃ±a": 5712,
      "Ġsentada": 5713,
      "Ġadquirido": 5714,
      "ĠconsiguiÃ³": 5715,
      "cch": 5716,
      "Ã³mica": 5717,
      "Ġsuce": 5718,
      "ĠBoston": 5719,
      "illos": 5720,
      "ĠdÃ³": 5721,
      "umentos": 5722,
      "Ġcasos": 5723,
      "Ġcabezas": 5724,
      "Ġdedica": 5725,
      "adÃ©mica": 5726,
      "ĠAf": 5727,
      "Ġlegado": 5728,
      "Ġclaramente": 5729,
      "ĠfundaciÃ³n": 5730,
      "pura": 5731,
      "Ġpinta": 5732,
      "Ġvuelta": 5733,
      "Ġfechado": 5734,
      "ĠSchool": 5735,
      "85": 5736,
      "AN": 5737,
      "Ðº": 5738,
      "Ġfas": 5739,
      "Ġpermit": 5740,
      "Ġtrabajaba": 5741,
      "cuenta": 5742,
      "Ġmonumental": 5743,
      "Ġhubi": 5744,
      "ÃŃfica": 5745,
      "amas": 5746,
      "ĠdescripciÃ³n": 5747,
      "Ġmag": 5748,
      "Ġanat": 5749,
      "ĠAnn": 5750,
      "ĠAngel": 5751,
      "ĠdiseÃ±ador": 5752,
      "ĠLisboa": 5753,
      "clar": 5754,
      "Ġtoma": 5755,
      "Ġconst": 5756,
      "urg": 5757,
      "ĠpÃºblicas": 5758,
      "ĠplÃ¡stica": 5759,
      "ĠBanco": 5760,
      "quilib": 5761,
      "ĠCin": 5762,
      "ĠCaja": 5763,
      "Ġdific": 5764,
      "ĠFilip": 5765,
      "Ġnacionales": 5766,
      "Ġplantas": 5767,
      "ĠÃ¡l": 5768,
      "Ġrecono": 5769,
      "ling": 5770,
      "Ġfase": 5771,
      "Ġtelas": 5772,
      "ĠbritÃ¡nico": 5773,
      "29": 5774,
      "Ã¡tico": 5775,
      "ilidades": 5776,
      "Ġcobre": 5777,
      "presionismo": 5778,
      "ĠEsco": 5779,
      "ÃŃsticos": 5780,
      "ĠSantos": 5781,
      "polis": 5782,
      "Ġcuerpos": 5783,
      "ĠlogrÃ³": 5784,
      "zio": 5785,
      "ĠMis": 5786,
      "Ġnub": 5787,
      "ĠEsp": 5788,
      "Ġtele": 5789,
      "ĠPalom": 5790,
      "ĠplÃ¡sticas": 5791,
      "ĠpublicaciÃ³n": 5792,
      "Ġpigmentos": 5793,
      "Ġsalud": 5794,
      "Ġcelebra": 5795,
      "Ġcubismo": 5796,
      "Bar": 5797,
      "Ġace": 5798,
      "ĠAbra": 5799,
      "ĠCro": 5800,
      "gaciÃ³n": 5801,
      "ĠIngres": 5802,
      "Ġescultores": 5803,
      "ĠatmÃ³s": 5804,
      "ĠGobierno": 5805,
      "ĠÃºnicamente": 5806,
      "ĠFinalmente": 5807,
      "cÃ³n": 5808,
      "Ġvertic": 5809,
      "tarse": 5810,
      "Ġfachada": 5811,
      "ĠGrecia": 5812,
      "Ġtien": 5813,
      "ĠCant": 5814,
      "Ġrealizando": 5815,
      "Ġmuerta": 5816,
      "Ġcultiv": 5817,
      "Ġsituado": 5818,
      "Ġfemenino": 5819,
      "ald": 5820,
      "Ġocul": 5821,
      "ĠhÃ¡": 5822,
      "izar": 5823,
      "ĠIb": 5824,
      "Ġresp": 5825,
      "Ġpasar": 5826,
      "Ġbellas": 5827,
      "Ġexhibe": 5828,
      "ĠinspirÃ³": 5829,
      "ĠYo": 5830,
      "Ġdisp": 5831,
      "Ġ1903": 5832,
      "ĠMonumento": 5833,
      "Ġpertenece": 5834,
      "ĠFacultad": 5835,
      "ÑĤ": 5836,
      "demos": 5837,
      "Ġdificul": 5838,
      "ip": 5839,
      "Ġlab": 5840,
      "Ġ1916": 5841,
      "Ġoriental": 5842,
      "33": 5843,
      "48": 5844,
      "Re": 5845,
      "rile": 5846,
      "Ġbene": 5847,
      "Ġcuyas": 5848,
      "quÃŃa": 5849,
      "ĠExist": 5850,
      "arroco": 5851,
      "ĠMichel": 5852,
      "In": 5853,
      "cran": 5854,
      "ĠCiv": 5855,
      "Ġdesign": 5856,
      "Ġimpa": 5857,
      "torios": 5858,
      "ĠCarrera": 5859,
      "ings": 5860,
      "Ġnego": 5861,
      "Ġviaj": 5862,
      "ĠcontemporÃ¡nea": 5863,
      "Ġcoleccionista": 5864,
      "dÃŃgen": 5865,
      "Lo": 5866,
      "iente": 5867,
      "rida": 5868,
      "ĠGuer": 5869,
      "Ġactitud": 5870,
      "Ġ1884": 5871,
      "Ġsombra": 5872,
      "Ġnegras": 5873,
      "ĠDiseÃ±o": 5874,
      "ror": 5875,
      "ĠBib": 5876,
      "adajo": 5877,
      "ÃŃsima": 5878,
      "gulo": 5879,
      "Ġmarcha": 5880,
      "Ġ167": 5881,
      "Ġinicio": 5882,
      "Ġfrecuencia": 5883,
      "Ġvuelve": 5884,
      "Ġciclo": 5885,
      "xa": 5886,
      "Ġec": 5887,
      "Ġsombre": 5888,
      "als": 5889,
      "Ġarmas": 5890,
      "ĠNapoleÃ³n": 5891,
      "ĠabriÃ³": 5892,
      "Ġcapit": 5893,
      "ĠpictÃ³ricas": 5894,
      "Ġdesnuda": 5895,
      "ĠRomero": 5896,
      "quisiciÃ³n": 5897,
      "rest": 5898,
      "Ġespera": 5899,
      "ĠTro": 5900,
      "Ġtercer": 5901,
      "Ġcerem": 5902,
      "ĠbÃºsqueda": 5903,
      "lim": 5904,
      "ÃŃtico": 5905,
      "ĠFil": 5906,
      "Ġdescen": 5907,
      "Ġsacerdo": 5908,
      "Ġ1895": 5909,
      "Ġconsideraba": 5910,
      "ĠinformaciÃ³n": 5911,
      "Ġinternacionales": 5912,
      "Le": 5913,
      "ison": 5914,
      "ĠestÃ©": 5915,
      "Ġdama": 5916,
      "ĠMariano": 5917,
      "ĠhabitaciÃ³n": 5918,
      "ĠcomprÃ³": 5919,
      "Ġrostros": 5920,
      "Ġnotables": 5921,
      "ĠFamilia": 5922,
      "eran": 5923,
      "ĠStu": 5924,
      "ĠDani": 5925,
      "Ġrojas": 5926,
      "Ġpost": 5927,
      "ĠanÃ¡lisis": 5928,
      "Ġmedia": 5929,
      "Ġoriginalmente": 5930,
      "Ġinicios": 5931,
      "ĠPalma": 5932,
      "Ġrique": 5933,
      "Ġminiatura": 5934,
      "ĠKarl": 5935,
      "Ġdemasiado": 5936,
      "bon": 5937,
      "vada": 5938,
      "Ġcala": 5939,
      "ĠPintÃ³": 5940,
      "Ġutilizando": 5941,
      "ĠpÃ¡ginas": 5942,
      "adajoz": 5943,
      "deras": 5944,
      "anzas": 5945,
      "encias": 5946,
      "ĠDres": 5947,
      "eme": 5948,
      "Ġsobr": 5949,
      "Ġje": 5950,
      "Ġhechos": 5951,
      "Ġ1896": 5952,
      "Ġorganizada": 5953,
      "Ġhistoriadores": 5954,
      "Ġcapacidad": 5955,
      "mith": 5956,
      "ĠRichard": 5957,
      "ĠLle": 5958,
      "amp": 5959,
      "Ġcome": 5960,
      "ÃŃso": 5961,
      "ĠAnÃ¡lisis": 5962,
      "Ġdocumento": 5963,
      "Ġligera": 5964,
      "Ġalim": 5965,
      "Ġveint": 5966,
      "ĠapÃ³st": 5967,
      "ĠquizÃ¡": 5968,
      "Ġideal": 5969,
      "mÃ¡ticas": 5970,
      "ĠPalazzo": 5971,
      "ĠJohann": 5972,
      "igrafÃŃa": 5973,
      "Ġcotidiana": 5974,
      "Ġenfermedad": 5975,
      "Ġpasto": 5976,
      "ĠFeria": 5977,
      "Ġrelaciones": 5978,
      "ĠholandÃ©s": 5979,
      "dras": 5980,
      "reas": 5981,
      "Ġtare": 5982,
      "inter": 5983,
      "Ġesfuer": 5984,
      "Ġinfant": 5985,
      "Ġverse": 5986,
      "Ġescritura": 5987,
      "Ġfunera": 5988,
      "Ġinspirado": 5989,
      "ĠterminÃ³": 5990,
      "ON": 5991,
      "rus": 5992,
      "Ġllen": 5993,
      "ĠCada": 5994,
      "ĠRico": 5995,
      "festa": 5996,
      "Ġ1886": 5997,
      "Ġ1887": 5998,
      "Ġregresar": 5999,
      "ParÃŃs": 6000,
      "Ġase": 6001,
      "Ġtratado": 6002,
      "alizar": 6003,
      "ĠFrank": 6004,
      "Ġvolumen": 6005,
      "Ġminu": 6006,
      "ĠcaracterÃŃstica": 6007,
      "Ġprimavera": 6008,
      "San": 6009,
      "zados": 6010,
      "ĠtrÃŃptico": 6011,
      "ĠrepresentÃ³": 6012,
      "cke": 6013,
      "tisse": 6014,
      "Ġcurso": 6015,
      "Fran": 6016,
      "ĠWest": 6017,
      "Ġ978": 6018,
      "Ġbusca": 6019,
      "ĠAmerican": 6020,
      "ĠPalomino": 6021,
      "Ã´": 6022,
      "Ġnor": 6023,
      "ĠGÃ©n": 6024,
      "Ġcortes": 6025,
      "Ġfines": 6026,
      "Ġpaisajista": 6027,
      "Ġ1860": 6028,
      "Ġzonas": 6029,
      "ĠasistiÃ³": 6030,
      "han": 6031,
      "Ġdelante": 6032,
      "ĠAragÃ³n": 6033,
      "ĠMarcel": 6034,
      "ĠquizÃ¡s": 6035,
      "Ġmaestra": 6036,
      "Ġ1885": 6037,
      "ĠFried": 6038,
      "Ġsorpren": 6039,
      "Ġpractic": 6040,
      "Ġgobern": 6041,
      "darse": 6042,
      "rama": 6043,
      "cimientos": 6044,
      "Ġbru": 6045,
      "Ġnueve": 6046,
      "Ġcaballero": 6047,
      "forme": 6048,
      "Ġnuevamente": 6049,
      "ĠBrue": 6050,
      "Ġlevant": 6051,
      "dimiento": 6052,
      "Ġprece": 6053,
      "Ġsitio": 6054,
      "Ġgalar": 6055,
      "Ġtestim": 6056,
      "helm": 6057,
      "cab": 6058,
      "ĠEj": 6059,
      "ĠChurch": 6060,
      "ĠMÃ©dici": 6061,
      "ĠTorre": 6062,
      "Ġfallecimiento": 6063,
      "ĠMayor": 6064,
      "ctivo": 6065,
      "ular": 6066,
      "esto": 6067,
      "Ġdibujar": 6068,
      "Ġplante": 6069,
      "americano": 6070,
      "34": 6071,
      "dÃŃan": 6072,
      "Ġcli": 6073,
      "Ġnorm": 6074,
      "ith": 6075,
      "Ġparis": 6076,
      "Ġforman": 6077,
      "ĠÃ©ste": 6078,
      "ĠMatisse": 6079,
      "Se": 6080,
      "Ġrecibido": 6081,
      "Ġencontrado": 6082,
      "Ġvalores": 6083,
      "ĠIgna": 6084,
      "ĠTrabajÃ³": 6085,
      "..": 6086,
      "Ġvig": 6087,
      "Ġpocas": 6088,
      "doro": 6089,
      "ville": 6090,
      "Ġcondiciones": 6091,
      "ethe": 6092,
      "ĠUl": 6093,
      "ficamente": 6094,
      "ĠHaya": 6095,
      "ierro": 6096,
      "ĠapareciÃ³": 6097,
      "Ġ1891": 6098,
      "Ġfemin": 6099,
      "tulos": 6100,
      "lad": 6101,
      "tiles": 6102,
      "ĠWol": 6103,
      "ÃŃnguez": 6104,
      "Ġluces": 6105,
      "ĠEspaÃ±ola": 6106,
      "Ġcontrario": 6107,
      "Ġinicialmente": 6108,
      "Ġpueblos": 6109,
      "Ġpublicaciones": 6110,
      "Ġespiritual": 6111,
      "Ġelab": 6112,
      "Ġabajo": 6113,
      "Ġbiblioteca": 6114,
      "Ġhabita": 6115,
      "Ġcoron": 6116,
      "Ġrespec": 6117,
      "ponÃ©s": 6118,
      "ĠorganizÃ³": 6119,
      "ĠÃŃnt": 6120,
      "cifixiÃ³n": 6121,
      "ĠTrinidad": 6122,
      "ĠapariciÃ³n": 6123,
      "46": 6124,
      "jeron": 6125,
      "Ġlista": 6126,
      "ĠCano": 6127,
      "Ġsepul": 6128,
      "Ġexpuesta": 6129,
      "Ġespejo": 6130,
      "Ġadminist": 6131,
      "ĠseÃ±ala": 6132,
      "pieza": 6133,
      "ĠEle": 6134,
      "ĠconcepciÃ³n": 6135,
      "ĠIndia": 6136,
      "Ġ1902": 6137,
      "Ġdocumentos": 6138,
      "Ġsituada": 6139,
      "Ġsignific": 6140,
      "Ġsurrealista": 6141,
      "ĠfÃ¡cil": 6142,
      "Ġcera": 6143,
      "erse": 6144,
      "ĠindÃŃgen": 6145,
      "Ãºl": 6146,
      "Ġperci": 6147,
      "Ġrespe": 6148,
      "ĠdiseÃ±Ã³": 6149,
      "ÏĢ": 6150,
      "ĠPit": 6151,
      "Ġcomis": 6152,
      "ĠMargar": 6153,
      "ĠJane": 6154,
      "ĠConsejo": 6155,
      "TU": 6156,
      "orgio": 6157,
      "Ġespal": 6158,
      "icista": 6159,
      "Ġcarteles": 6160,
      "ĠIndepen": 6161,
      "Ġnaturales": 6162,
      "Ġsentimiento": 6163,
      "Ġmadrile": 6164,
      "Ġdia": 6165,
      "Ġpoema": 6166,
      "inete": 6167,
      "ĠÃ¡rea": 6168,
      "Ġ1898": 6169,
      "Ġ1876": 6170,
      "ĠlatÃŃn": 6171,
      "CO": 6172,
      "ji": 6173,
      "Ġequilib": 6174,
      "ntos": 6175,
      "Ġadi": 6176,
      "itor": 6177,
      "Ġaust": 6178,
      "Ġvisible": 6179,
      "Ġrelieves": 6180,
      "Ġcit": 6181,
      "Ġcron": 6182,
      "Ġbal": 6183,
      "rup": 6184,
      "ĠWat": 6185,
      "ĠMedi": 6186,
      "Ġautorretrato": 6187,
      "bes": 6188,
      "ĠLen": 6189,
      "tem": 6190,
      "erista": 6191,
      "Ġresal": 6192,
      "ĠvendiÃ³": 6193,
      "Ġcincuenta": 6194,
      "ĠdÃ³lares": 6195,
      "Ã¯": 6196,
      "Ġportu": 6197,
      "Ġjuego": 6198,
      "ĠDebido": 6199,
      "Ġllegado": 6200,
      "Ġrupest": 6201,
      "ĠPiero": 6202,
      "ĠDomÃŃnguez": 6203,
      "Ġprensa": 6204,
      "Ġpredomin": 6205,
      "museum": 6206,
      "dest": 6207,
      "ĠAp": 6208,
      "ĠvivÃŃa": 6209,
      "Ġescribir": 6210,
      "ĠBeaux": 6211,
      "Ġatribuido": 6212,
      "Ġcambios": 6213,
      "ĠPhilip": 6214,
      "tia": 6215,
      "Ġhom": 6216,
      "ĠLam": 6217,
      "ĠbÃ¡s": 6218,
      "cole": 6219,
      "ette": 6220,
      "Ġmira": 6221,
      "ĠAcadÃ©m": 6222,
      "Ġsurrealismo": 6223,
      "ĠParticip": 6224,
      "Ġdemostra": 6225,
      "ĠdesempeÃ±": 6226,
      "razÃ³n": 6227,
      "ĠMural": 6228,
      "Ġdelic": 6229,
      "tirio": 6230,
      "Ġcaza": 6231,
      "Ġ157": 6232,
      "Ġresist": 6233,
      "Ġ1881": 6234,
      "Ġtransfor": 6235,
      "Ġfantas": 6236,
      "yes": 6237,
      "ĠMuerte": 6238,
      "ÃŃsimo": 6239,
      "Ġcercan": 6240,
      "ĠcrÃŃticas": 6241,
      "ĠiluminaciÃ³n": 6242,
      "ĠTaller": 6243,
      "yst": 6244,
      "Ã¡i": 6245,
      "ĠHospital": 6246,
      "ĠÃł": 6247,
      "Ġescritores": 6248,
      "Ġvisuales": 6249,
      "ĠProf": 6250,
      "Ġvolunt": 6251,
      "ĠMenciÃ³n": 6252,
      "Ġpinceladas": 6253,
      "ĠperiÃ³dico": 6254,
      "ĠÃ¡lbum": 6255,
      "ĠDaniel": 6256,
      "Ã¸": 6257,
      "Ġact": 6258,
      "adÃŃa": 6259,
      "ĠartÃŃculo": 6260,
      "Ġperteneciente": 6261,
      "ĠpÃ¡jar": 6262,
      "36": 6263,
      "Ġcura": 6264,
      "tela": 6265,
      "ĠPaolo": 6266,
      "Ġtej": 6267,
      "tivismo": 6268,
      "Ġnave": 6269,
      "Ġdistin": 6270,
      "ĠPoco": 6271,
      "Ã¼s": 6272,
      "Ġsugiere": 6273,
      "cero": 6274,
      "yle": 6275,
      "inio": 6276,
      "Ġflor": 6277,
      "Ġguer": 6278,
      "ĠGas": 6279,
      "char": 6280,
      "Ġhijas": 6281,
      "Ġ1899": 6282,
      "Ġmanifesta": 6283,
      "Ġcelebrada": 6284,
      "Î·": 6285,
      "Ã¡culo": 6286,
      "ĠPam": 6287,
      "Ġcartas": 6288,
      "ĠExp": 6289,
      "ĠejÃ©rcito": 6290,
      "Ġhumanos": 6291,
      "Ġinicial": 6292,
      "Ġesposo": 6293,
      "Ġabierto": 6294,
      "brica": 6295,
      "lon": 6296,
      "ualmente": 6297,
      "zgo": 6298,
      "Ġmoral": 6299,
      "Ġevidente": 6300,
      "Ġubicado": 6301,
      "Ġcuello": 6302,
      "alistas": 6303,
      "ĠGro": 6304,
      "ĠMarc": 6305,
      "Ġjust": 6306,
      "Ġpersonales": 6307,
      "ĠllamÃ³": 6308,
      "ĠCÃ¡diz": 6309,
      "39": 6310,
      "guer": 6311,
      "vest": 6312,
      "Ġcementerio": 6313,
      "ornos": 6314,
      "ish": 6315,
      "ieren": 6316,
      "parte": 6317,
      "ĠreligiÃ³n": 6318,
      "ĠMallorca": 6319,
      "ader": 6320,
      "Ġpion": 6321,
      "Ġestim": 6322,
      "ĠArchi": 6323,
      "Ġcreada": 6324,
      "Ġ1894": 6325,
      "ĠTok": 6326,
      "Ġflamenca": 6327,
      "Ġbreve": 6328,
      "wer": 6329,
      "let": 6330,
      "Ġprogres": 6331,
      "ctur": 6332,
      "istro": 6333,
      "Ġconsecuencia": 6334,
      "gam": 6335,
      "Ġaum": 6336,
      "ĠtÃºn": 6337,
      "Ġconvierte": 6338,
      "Ġmate": 6339,
      "uth": 6340,
      "Ġresulta": 6341,
      "ĠÃīl": 6342,
      "Ġbrazo": 6343,
      "Ġdeja": 6344,
      "ram": 6345,
      "ĠBea": 6346,
      "Ġincon": 6347,
      "Ġfuego": 6348,
      "Ġmodi": 6349,
      "ĠacadÃ©mica": 6350,
      "Ġrol": 6351,
      "Ġutilizar": 6352,
      "ĠAsimismo": 6353,
      "Ġseguir": 6354,
      "38": 6355,
      "Ġencu": 6356,
      "Ġimag": 6357,
      "Ġ1878": 6358,
      "Ġpastel": 6359,
      "ĠMetropolitano": 6360,
      "varez": 6361,
      "naciÃ³n": 6362,
      "Ġnaran": 6363,
      "Ġtrono": 6364,
      "ĠDresde": 6365,
      "Ġdebajo": 6366,
      "Ġevangel": 6367,
      "Ġfel": 6368,
      "teral": 6369,
      "ĠBarroco": 6370,
      "ranza": 6371,
      "ĠTÃ©cn": 6372,
      "ĠJim": 6373,
      "Ġdolor": 6374,
      "ĠautorÃŃa": 6375,
      "Ġparticulares": 6376,
      "Ġextraordin": 6377,
      "ĠMicha": 6378,
      "Ġdejando": 6379,
      "tÃ¡n": 6380,
      "udÃ³": 6381,
      "vol": 6382,
      "xima": 6383,
      "Ġrecre": 6384,
      "uiz": 6385,
      "ĠEstilo": 6386,
      "ĠVictor": 6387,
      "ĠalcanzÃ³": 6388,
      "minante": 6389,
      "ĠWalter": 6390,
      "ast": 6391,
      "loj": 6392,
      "ĠDyck": 6393,
      "ĠTan": 6394,
      "Ġcreando": 6395,
      "ĠEsteban": 6396,
      "Ġintensi": 6397,
      "ĠtÃŃo": 6398,
      "Ġrec": 6399,
      "cesa": 6400,
      "Ġviuda": 6401,
      "ĠGiorgio": 6402,
      "Ġadorn": 6403,
      "Ġmodernismo": 6404,
      "Ġriqueza": 6405,
      "88": 6406,
      "une": 6407,
      "Ġdescan": 6408,
      "ĠInici": 6409,
      "Ġhere": 6410,
      "Ġdocumental": 6411,
      "Ġdominio": 6412,
      "yssen": 6413,
      "ĠatmÃ³sfera": 6414,
      "ĠParticipÃ³": 6415,
      "Ġestrel": 6416,
      "Ġincen": 6417,
      "ĠFon": 6418,
      "icante": 6419,
      "ĠMarco": 6420,
      "ferencia": 6421,
      "ionales": 6422,
      "Ġformal": 6423,
      "Ġalemana": 6424,
      "Ġparticipar": 6425,
      "Ġrespons": 6426,
      "Mo": 6427,
      "inera": 6428,
      "ĠEstatal": 6429,
      "arenta": 6430,
      "ghel": 6431,
      "Ġnaturalismo": 6432,
      "ĠDalÃŃ": 6433,
      "ĠcatalÃ¡n": 6434,
      "fora": 6435,
      "loria": 6436,
      "Ġaj": 6437,
      "Ġelim": 6438,
      "tiro": 6439,
      "ĠLab": 6440,
      "ladelfia": 6441,
      "ĠMargarita": 6442,
      "ualidad": 6443,
      "Ð»": 6444,
      "ĠLÃ¡": 6445,
      "taÃ±a": 6446,
      "ĠOtto": 6447,
      "Ġmecenas": 6448,
      "licaciones": 6449,
      "Ġfamiliares": 6450,
      "Ġ1882": 6451,
      "ĠCenter": 6452,
      "ĠThyssen": 6453,
      "zaro": 6454,
      "ĠincluyÃ³": 6455,
      "ĠComenzÃ³": 6456,
      "iden": 6457,
      "sula": 6458,
      "inam": 6459,
      "ĠAma": 6460,
      "ulÃ³": 6461,
      "ĠColonia": 6462,
      "Ġsoldados": 6463,
      "Ġocupa": 6464,
      "ĠquerÃŃa": 6465,
      "BA": 6466,
      "reros": 6467,
      "Ġensa": 6468,
      "ĠIr": 6469,
      "Ġlectura": 6470,
      "ĠInv": 6471,
      "Ġnegra": 6472,
      "Ġprocedente": 6473,
      "Ġinventario": 6474,
      "ĠApolo": 6475,
      "ĠjaponÃ©s": 6476,
      "onos": 6477,
      "Ġbaja": 6478,
      "ĠPere": 6479,
      "Ġestablecer": 6480,
      "ĠcÃ©lebre": 6481,
      "Val": 6482,
      "clas": 6483,
      "ccio": 6484,
      "ues": 6485,
      "ĠVÃŃ": 6486,
      "Ġperforman": 6487,
      "Ġorg": 6488,
      "ĠKle": 6489,
      "Ġacto": 6490,
      "Ġaut": 6491,
      "Ġproduce": 6492,
      "Ġ1883": 6493,
      "cripciones": 6494,
      "Ġfirmada": 6495,
      "ĠAutorretrato": 6496,
      "ĠFab": 6497,
      "ĠresurrecciÃ³n": 6498,
      "Ġfavo": 6499,
      "Ġllevar": 6500,
      "Ġnecesidad": 6501,
      "ĠWarhol": 6502,
      "Ba": 6503,
      "ĠAR": 6504,
      "ites": 6505,
      "nivers": 6506,
      "Ġanun": 6507,
      "Ġinfluenciado": 6508,
      "ĠPerug": 6509,
      "Ġanteriormente": 6510,
      "Ġcombin": 6511,
      "Ġhistorias": 6512,
      "ĠRibera": 6513,
      "ĠÃģlvarez": 6514,
      "mond": 6515,
      "ola": 6516,
      "Ġlic": 6517,
      "ĠVIII": 6518,
      "ĠWor": 6519,
      "ĠIndi": 6520,
      "Ġmateria": 6521,
      "ĠMexic": 6522,
      "ĠMurillo": 6523,
      "ĠpodÃŃan": 6524,
      "Ġeuropeos": 6525,
      "ĠPon": 6526,
      "ĠdÃ©": 6527,
      "Ġmara": 6528,
      "ĠartÃŃculos": 6529,
      "ticelli": 6530,
      "Ġinvitado": 6531,
      "Ġbarco": 6532,
      "ĠPiedad": 6533,
      "ĠVincent": 6534,
      "gurÃ³": 6535,
      "Ġabre": 6536,
      "lezas": 6537,
      "Ġroja": 6538,
      "Ġdesarrollado": 6539,
      "Ġaguafuer": 6540,
      "vierno": 6541,
      "Ġaprecia": 6542,
      "Ġdenominado": 6543,
      "49": 6544,
      "Ġef": 6545,
      "Ġesas": 6546,
      "igos": 6547,
      "ĠGent": 6548,
      "Ġpresentan": 6549,
      "ĠÎµ": 6550,
      "Ġmonumentos": 6551,
      "Ġfallecido": 6552,
      "Ġdioses": 6553,
      "ight": 6554,
      "32": 6555,
      "fal": 6556,
      "Ġpiso": 6557,
      "ĠDem": 6558,
      "Ġsoporte": 6559,
      "ture": 6560,
      "Ġdecorativo": 6561,
      "ĠQuito": 6562,
      "Ġmosaico": 6563,
      "Ġleyenda": 6564,
      "ĠIgnacio": 6565,
      "ova": 6566,
      "ule": 6567,
      "Ġmuros": 6568,
      "ester": 6569,
      "Ġdesarrolla": 6570,
      "Ġ90": 6571,
      "ĠcÃº": 6572,
      "ĠSÃ£o": 6573,
      "timo": 6574,
      "ĠDan": 6575,
      "itÃ©": 6576,
      "manes": 6577,
      "Ġcabello": 6578,
      "Ġhumanas": 6579,
      "ĠPlata": 6580,
      "ĠaprendiÃ³": 6581,
      "ĠMurcia": 6582,
      "37": 6583,
      "ĠuniÃ³": 6584,
      "macu": 6585,
      "Ġabunda": 6586,
      "Ġllevado": 6587,
      "Ġpublicada": 6588,
      "Ġreferencias": 6589,
      "ĠinstalaciÃ³n": 6590,
      "ĠBernardo": 6591,
      "ispano": 6592,
      "ĠGregorio": 6593,
      "ĠbÃ³veda": 6594,
      "SA": 6595,
      "get": 6596,
      "ĠTrans": 6597,
      "ĠArque": 6598,
      "Ġprecis": 6599,
      "Ġcompro": 6600,
      "ficiente": 6601,
      "Ġrico": 6602,
      "ĠpÃºblicos": 6603,
      "Ġcristian": 6604,
      "Ġcubierta": 6605,
      "ĠSmith": 6606,
      "Ġdiosa": 6607,
      "Ġproven": 6608,
      "Ġmanier": 6609,
      "ĠantigÃ¼edad": 6610,
      "ĠHotel": 6611,
      "cle": 6612,
      "hur": 6613,
      "ĠFrans": 6614,
      "Ġincluido": 6615,
      "Ġexpresionista": 6616,
      "grÃ¡ficas": 6617,
      "ĠClaude": 6618,
      "Ġmenciona": 6619,
      "cÃ©": 6620,
      "rones": 6621,
      "Ġais": 6622,
      "stros": 6623,
      "Ġconcur": 6624,
      "Ġgol": 6625,
      "tades": 6626,
      "ioso": 6627,
      "Ġapunt": 6628,
      "Ġcompuesto": 6629,
      "Ġllega": 6630,
      "ĠAnto": 6631,
      "ĠThÃ©": 6632,
      "Ġreyes": 6633,
      "ĠVerme": 6634,
      "ĠBurgos": 6635,
      "Ã±ado": 6636,
      "ĠTiene": 6637,
      "Ãºmenes": 6638,
      "ĠEspaÃ±ol": 6639,
      "ĠLuisa": 6640,
      "ĠprÃ¡cticamente": 6641,
      "Ġepisodio": 6642,
      "rami": 6643,
      "Ġperfil": 6644,
      "Ġdoble": 6645,
      "Ġesceno": 6646,
      "ĠGracias": 6647,
      "ĠAlfred": 6648,
      "Ġatribuye": 6649,
      "Ġsesenta": 6650,
      "ĠMichael": 6651,
      "rabe": 6652,
      "ĠSiena": 6653,
      "usal": 6654,
      "Ġcuarenta": 6655,
      "ĠOficios": 6656,
      "Ġemble": 6657,
      "Ġabo": 6658,
      "Ġverdad": 6659,
      "Ġvari": 6660,
      "Ġrepresentante": 6661,
      "Ġhecha": 6662,
      "penha": 6663,
      "ĠMiami": 6664,
      "Ġflamencos": 6665,
      "ĠÃļlti": 6666,
      "ĠConstantino": 6667,
      "Ġconseguir": 6668,
      "todos": 6669,
      "Ġterra": 6670,
      "Ġculto": 6671,
      "ffizi": 6672,
      "Ġadquirida": 6673,
      "Ġadecu": 6674,
      "ĠdescubriÃ³": 6675,
      "Ġaprendizaje": 6676,
      "ĠsÃ³": 6677,
      "icales": 6678,
      "dou": 6679,
      "Ã¡ticas": 6680,
      "ĠcondiciÃ³n": 6681,
      "ĠIncl": 6682,
      "Ġtradiciones": 6683,
      "ĠorganizaciÃ³n": 6684,
      "Ġbrillantes": 6685,
      "Ġubicada": 6686,
      "Ġexcelente": 6687,
      "31": 6688,
      "ĠenviÃ³": 6689,
      "ĠEscor": 6690,
      "Ġembaj": 6691,
      "Ġabor": 6692,
      "ĠCarl": 6693,
      "ĠCarra": 6694,
      "Ġconsiderable": 6695,
      "ĠWilhelm": 6696,
      "Ġbasada": 6697,
      "ĠlÃ¡piz": 6698,
      "ĠDomenico": 6699,
      "hn": 6700,
      "well": 6701,
      "Ġagre": 6702,
      "ĠCue": 6703,
      "olla": 6704,
      "Ġdestacando": 6705,
      "Ġborde": 6706,
      "Ġdefinitivamente": 6707,
      "ort": 6708,
      "orme": 6709,
      "ĠBadajoz": 6710,
      "Ġmuro": 6711,
      "Ġlucha": 6712,
      "ĠConcurso": 6713,
      "Ġdecorar": 6714,
      "oluciÃ³n": 6715,
      "pectivas": 6716,
      "ĠImp": 6717,
      "Ġconstruir": 6718,
      "ĠÂ¡": 6719,
      "ĠFiladelfia": 6720,
      "ken": 6721,
      "tero": 6722,
      "yeron": 6723,
      "adura": 6724,
      "Ġmanto": 6725,
      "Ġsupera": 6726,
      "tiza": 6727,
      "Ġdescono": 6728,
      "ĠOficial": 6729,
      "Ġpobre": 6730,
      "lix": 6731,
      "clÃ¡s": 6732,
      "Ġtalla": 6733,
      "Ġrepresentaba": 6734,
      "Ġrecibir": 6735,
      "ĠOriente": 6736,
      "Ġverdadera": 6737,
      "Ġsimplemente": 6738,
      "MA": 6739,
      "caron": 6740,
      "gando": 6741,
      "dea": 6742,
      "ombi": 6743,
      "erado": 6744,
      "ĠpolÃŃticos": 6745,
      "ĠbasÃŃlica": 6746,
      "ĠEditorial": 6747,
      "ĠpoblaciÃ³n": 6748,
      "Ġhierro": 6749,
      "Ġarriba": 6750,
      "ĠSen": 6751,
      "cula": 6752,
      "Ġsobres": 6753,
      "ĠDegas": 6754,
      "Ġpasa": 6755,
      "Ġclave": 6756,
      "ĠMuchos": 6757,
      "ĠWillem": 6758,
      "ĠgÃ©neros": 6759,
      "Ġplen": 6760,
      "Ġ2023": 6761,
      "Ġdesconocido": 6762,
      "ĠRica": 6763,
      "quial": 6764,
      "ĠCour": 6765,
      "ĠCarlo": 6766,
      "ĠmenciÃ³n": 6767,
      "ĠCommon": 6768,
      "fort": 6769,
      "Ġrefiere": 6770,
      "urias": 6771,
      "ĠBretaÃ±a": 6772,
      "Ġevidencia": 6773,
      "ĠbodegÃ³n": 6774,
      "90": 6775,
      "Ġapa": 6776,
      "ĠDar": 6777,
      "ĠDist": 6778,
      "ĠAlba": 6779,
      "Ġtec": 6780,
      "ĠpropÃ³": 6781,
      "Ġescrita": 6782,
      "ĠSalon": 6783,
      "Ġviajar": 6784,
      "ĠfilosofÃŃa": 6785,
      "Ġgesto": 6786,
      "Ãºrpura": 6787,
      "orias": 6788,
      "ĠAquÃŃ": 6789,
      "Ġpatio": 6790,
      "minas": 6791,
      "Ġalej": 6792,
      "Ġmultimedia": 6793,
      "Ġiba": 6794,
      "Ġtapices": 6795,
      "crÃ¡": 6796,
      "cientes": 6797,
      "esiÃ³n": 6798,
      "Ġoch": 6799,
      "amÃ©rica": 6800,
      "ĠBuda": 6801,
      "Ġarg": 6802,
      "mont": 6803,
      "Ġromanos": 6804,
      "Ġfamosos": 6805,
      "ĠpasiÃ³n": 6806,
      "Ġmuertos": 6807,
      "Arts": 6808,
      "ĠasociaciÃ³n": 6809,
      "ĠEscorial": 6810,
      "Ġenorme": 6811,
      "Ġbro": 6812,
      "ĠAlcÃ¡": 6813,
      "ĠCorona": 6814,
      "Ġ1875": 6815,
      "itaria": 6816,
      "ĠEdward": 6817,
      "ĠseÃ±or": 6818,
      "ĠEva": 6819,
      "ĠFuer": 6820,
      "vaciones": 6821,
      "Ġherede": 6822,
      "Ġproyect": 6823,
      "Ġaluminio": 6824,
      "47": 6825,
      "hon": 6826,
      "ius": 6827,
      "rino": 6828,
      "san": 6829,
      "rael": 6830,
      "end": 6831,
      "bios": 6832,
      "lier": 6833,
      "manca": 6834,
      "Ġtier": 6835,
      "Ġproducir": 6836,
      "ĠconservaciÃ³n": 6837,
      "Ġintelectual": 6838,
      "Ġbauti": 6839,
      "ĠneerlandÃ©s": 6840,
      "ĠCivil": 6841,
      "hem": 6842,
      "zones": 6843,
      "Ġyo": 6844,
      "Ġcoment": 6845,
      "ĠTuvo": 6846,
      "cocÃ³": 6847,
      "att": 6848,
      "ĠCampo": 6849,
      "Ġterminar": 6850,
      "Ġobservar": 6851,
      "ĠSargent": 6852,
      "Ġapariencia": 6853,
      "ĠCÃ©zanne": 6854,
      "pado": 6855,
      "Ġpunt": 6856,
      "dito": 6857,
      "ĠArm": 6858,
      "Ã©nez": 6859,
      "Ġmagn": 6860,
      "Ġpodemos": 6861,
      "Ġprecios": 6862,
      "Ġmide": 6863,
      "Ġdedicarse": 6864,
      "Ġmomentos": 6865,
      "Ġmilita": 6866,
      "Ġoficiales": 6867,
      "ĠEstudios": 6868,
      "ĠJerusal": 6869,
      "ĠClemente": 6870,
      "ĠVermeer": 6871,
      "bro": 6872,
      "gios": 6873,
      "ku": 6874,
      "lum": 6875,
      "Ġesquina": 6876,
      "Ġvino": 6877,
      "Ġgeo": 6878,
      "ĠArtista": 6879,
      "ced": 6880,
      "ĠAlicante": 6881,
      "rary": 6882,
      "mitage": 6883,
      "Î»": 6884,
      "ĠIsa": 6885,
      "ĠElla": 6886,
      "ĠInmacu": 6887,
      "Ġdecorado": 6888,
      "ĠvolÃºmenes": 6889,
      "Ġchina": 6890,
      "ĠdescribiÃ³": 6891,
      "Ġurbano": 6892,
      "ĠSuecia": 6893,
      "ĠAustra": 6894,
      "Ġsuje": 6895,
      "Ġsepara": 6896,
      "Ġoficio": 6897,
      "teau": 6898,
      "Ġportada": 6899,
      "ĠRuiz": 6900,
      "cara": 6901,
      "Ġimpre": 6902,
      "Ġafi": 6903,
      "Ġusa": 6904,
      "Ġconflic": 6905,
      "ÃŃmetros": 6906,
      "elos": 6907,
      "Ġpatro": 6908,
      "ĠArch": 6909,
      "Ġprevi": 6910,
      "Ġdatos": 6911,
      "mÃ¡ticos": 6912,
      "Ġquin": 6913,
      "ĠSociet": 6914,
      "ĠAteneo": 6915,
      "44": 6916,
      "ĠUffizi": 6917,
      "ĠMagos": 6918,
      "ĠdisposiciÃ³n": 6919,
      "ĠSagrada": 6920,
      "Ġparecer": 6921,
      "Ġnaturalista": 6922,
      "vania": 6923,
      "ĠcompletÃ³": 6924,
      "Ã¼r": 6925,
      "Ġculturas": 6926,
      "Ġpresentado": 6927,
      "Ġabstracta": 6928,
      "Ġrelacionados": 6929,
      "Ġextrem": 6930,
      "Ġverdadero": 6931,
      "uest": 6932,
      "ĠAntes": 6933,
      "isco": 6934,
      "ĠgrÃ¡fica": 6935,
      "ĠIsi": 6936,
      "Ġpoderos": 6937,
      "Ġemp": 6938,
      "ĠLuca": 6939,
      "cker": 6940,
      "andin": 6941,
      "Ġ1874": 6942,
      "ght": 6943,
      "Ġpermiti": 6944,
      "Ġcumpl": 6945,
      "Barcelona": 6946,
      "ĠLie": 6947,
      "ĠBritÃ¡n": 6948,
      "Ġcomposi": 6949,
      "Ġvideo": 6950,
      "ĠHasta": 6951,
      "Ġpiedras": 6952,
      "Ġdecoraciones": 6953,
      "Ġgriegos": 6954,
      "Ġcomienzo": 6955,
      "ĠBasÃŃlica": 6956,
      "seldorf": 6957,
      "ĠFlorida": 6958,
      "hua": 6959,
      "pus": 6960,
      "ĠsÃ¡": 6961,
      "ĠSha": 6962,
      "Ġinus": 6963,
      "curo": 6964,
      "ĠArn": 6965,
      "Ġacceso": 6966,
      "ĠFranÃ§ois": 6967,
      "Ġinfluido": 6968,
      "ĠdifusiÃ³n": 6969,
      "Ġliteraria": 6970,
      "ĠlÃ¡minas": 6971,
      "87": 6972,
      "Mar": 6973,
      "dw": 6974,
      "rentes": 6975,
      "uran": 6976,
      "Ġ35": 6977,
      "Ġsatis": 6978,
      "ĠJohannes": 6979,
      "ĠinfluyÃ³": 6980,
      "ĠBotticelli": 6981,
      "itan": 6982,
      "ĠLatino": 6983,
      "ĠOn": 6984,
      "gelo": 6985,
      "taban": 6986,
      "Ġbasado": 6987,
      "Ġrosa": 6988,
      "Ġcosta": 6989,
      "ĠsirviÃ³": 6990,
      "ĠsufriÃ³": 6991,
      "Ġfrutas": 6992,
      "Ġtotalmente": 6993,
      "Ġargentino": 6994,
      "cali": 6995,
      "Ïī": 6996,
      "ntico": 6997,
      "entro": 6998,
      "ĠModern": 6999,
      "Ġcristiana": 7000,
      "Ġboceto": 7001,
      "Ġbusto": 7002,
      "Ġabsolu": 7003,
      "clo": 7004,
      "zz": 7005,
      "ntan": 7006,
      "ĠAra": 7007,
      "abeth": 7008,
      "ĠJard": 7009,
      "ĠPaint": 7010,
      "ĠSantander": 7011,
      "Ġpersonalidad": 7012,
      "ficaciones": 7013,
      "ĠsurgiÃ³": 7014,
      "Ġconocen": 7015,
      "ĠahÃŃ": 7016,
      "Ġcristianos": 7017,
      "ĠCristÃ³": 7018,
      "ĠRecibiÃ³": 7019,
      "Ġpatrocin": 7020,
      "ĠMuestra": 7021,
      "Ã©ro": 7022,
      "ĠHomenaje": 7023,
      "Ġexpuestas": 7024,
      "Ġinfluenci": 7025,
      "ĠalegorÃŃa": 7026,
      "plona": 7027,
      "Ġmodernos": 7028,
      "Ġcorrientes": 7029,
      "Ġpolicrom": 7030,
      "ĠChurchill": 7031,
      "inamarca": 7032,
      "jara": 7033,
      "ivas": 7034,
      "Ġvalenci": 7035,
      "Ġaprove": 7036,
      "Ã¡ndole": 7037,
      "Ġmosaicos": 7038,
      "ĠInternational": 7039,
      "Ġcalavera": 7040,
      "En": 7041,
      "Ã³so": 7042,
      "ĠFlandes": 7043,
      "ĠIt": 7044,
      "rosa": 7045,
      "urice": 7046,
      "Ġvive": 7047,
      "Ġcercana": 7048,
      "Ġdecorados": 7049,
      "ĠsueÃ±o": 7050,
      "Ġabierta": 7051,
      "Ġampliamente": 7052,
      "ĠalegÃ³r": 7053,
      "Ġconvertirse": 7054,
      "niversario": 7055,
      "ĠCommons": 7056,
      ".-": 7057,
      "Ġaca": 7058,
      "Ġreinado": 7059,
      "Ġgrado": 7060,
      "Ġarchi": 7061,
      "ull": 7062,
      "lanos": 7063,
      "Ġencuentro": 7064,
      "andro": 7065,
      "ĠTex": 7066,
      "Ġregistro": 7067,
      "Ġarrodil": 7068,
      "ĠJerusalÃ©n": 7069,
      "41": 7070,
      "bos": 7071,
      "ĠDona": 7072,
      "Ġdipl": 7073,
      "Ġexca": 7074,
      "Ġcampos": 7075,
      "Ġ1850": 7076,
      "ĠPolonia": 7077,
      "Ġmostrando": 7078,
      "ĠResurrecciÃ³n": 7079,
      "Ġesmal": 7080,
      "urbar": 7081,
      "Ġleg": 7082,
      "icho": 7083,
      "Ġpresentes": 7084,
      "Ġescenario": 7085,
      "Ġafirma": 7086,
      "ĠCastro": 7087,
      "Ġmusical": 7088,
      "ĠdirigiÃ³": 7089,
      "Ġsuelen": 7090,
      "ĠBartolomÃ©": 7091,
      ".),": 7092,
      "bÃŃa": 7093,
      "hen": 7094,
      "mel": 7095,
      "urez": 7096,
      "deres": 7097,
      "ĠMet": 7098,
      "Ġredon": 7099,
      "Ġben": 7100,
      "ĠFerra": 7101,
      "Ġnoctur": 7102,
      "guÃ©s": 7103,
      "Ġestablecido": 7104,
      "ĠcÃ³m": 7105,
      "ĠcelebrÃ³": 7106,
      "83": 7107,
      "Ġfer": 7108,
      "ĠStre": 7109,
      "elig": 7110,
      "Ġgama": 7111,
      "Ġhaya": 7112,
      "ĠMario": 7113,
      "ĠWik": 7114,
      "ntesis": 7115,
      "Ġespecializado": 7116,
      "Ġautodida": 7117,
      "ĠErnst": 7118,
      "42": 7119,
      "ĠMc": 7120,
      "Ã©ct": 7121,
      "ĠotoÃ±o": 7122,
      "ĠFig": 7123,
      "biendo": 7124,
      "itando": 7125,
      "ĠAlm": 7126,
      "ĠReconoci": 7127,
      "Ġhabla": 7128,
      "Ġacus": 7129,
      "ĠmarquÃ©s": 7130,
      "ĠclÃ¡sicos": 7131,
      "ĠGiotto": 7132,
      "ĠVisuales": 7133,
      "Ġparroquia": 7134,
      "douard": 7135,
      "Ġpu": 7136,
      "onÃŃa": 7137,
      "Ġfen": 7138,
      "ĠAcu": 7139,
      "Ġrevolucion": 7140,
      "Ã±e": 7141,
      "trait": 7142,
      "Ġjuntos": 7143,
      "Ġvivo": 7144,
      "Ġdocente": 7145,
      "Ġ1879": 7146,
      "ĠContempo": 7147,
      "Ġpigmento": 7148,
      "ĠCristÃ³bal": 7149,
      "Ġcris": 7150,
      "cino": 7151,
      "ĠNie": 7152,
      "ĠcaÃŃda": 7153,
      "pub": 7154,
      "iguraciÃ³n": 7155,
      "Ġhumor": 7156,
      "ĠmÃ©dico": 7157,
      "Gal": 7158,
      "dando": 7159,
      "Ġluna": 7160,
      "Ġpaz": 7161,
      "ĠDer": 7162,
      "ĠVers": 7163,
      "viene": 7164,
      "Ġtraslada": 7165,
      "ĠPers": 7166,
      "Ġreconocimientos": 7167,
      "ĠInstitute": 7168,
      "ĠinaugurÃ³": 7169,
      "usieron": 7170,
      "Ã¼sseldorf": 7171,
      "sÃ³": 7172,
      "ĠLar": 7173,
      "imas": 7174,
      "Ġpremi": 7175,
      "ĠFranz": 7176,
      "Ġmenores": 7177,
      "Ġcontrato": 7178,
      "Ġrue": 7179,
      "gorÃŃas": 7180,
      "Ġindustrial": 7181,
      "ĠrÃ¡pidamente": 7182,
      "ĠcÃºpula": 7183,
      "cca": 7184,
      "fru": 7185,
      "tta": 7186,
      "Ġdada": 7187,
      "ĠUN": 7188,
      "180": 7189,
      "Ġfinanci": 7190,
      "Ġeditor": 7191,
      "ĠHolanda": 7192,
      "Ġprofesora": 7193,
      "orial": 7194,
      "ĠopiniÃ³n": 7195,
      "ĠBrueghel": 7196,
      "Ã²": 7197,
      "adal": 7198,
      "lida": 7199,
      "Ġprecio": 7200,
      "ĠMoreno": 7201,
      "empla": 7202,
      "Ġ1866": 7203,
      "ĠpodrÃŃan": 7204,
      "ĠcompaÃ±eros": 7205,
      "Ġafect": 7206,
      "ĠsitÃºa": 7207,
      "alles": 7208,
      "Ġsuyo": 7209,
      "ĠLin": 7210,
      "ĠChe": 7211,
      "Ġpasando": 7212,
      "Ġmunicip": 7213,
      "ĠCanadÃ¡": 7214,
      "Ġeuropeo": 7215,
      "ĠAlexand": 7216,
      "Ġllegando": 7217,
      "ĠmontaÃ±as": 7218,
      "ĠfantÃ¡st": 7219,
      "Ġoportunidad": 7220,
      "CA": 7221,
      "dy": 7222,
      "Ġenfa": 7223,
      "uerta": 7224,
      "Ġcorpo": 7225,
      "ĠYu": 7226,
      "Ġcontrajo": 7227,
      "Ã¼n": 7228,
      "Ġidi": 7229,
      "ĠfirmÃ³": 7230,
      "ĠcÃ³dice": 7231,
      "ĠAdri": 7232,
      "ĠEvangelio": 7233,
      "ĠromÃ¡ntico": 7234,
      "Ġenfrent": 7235,
      "Ġbosque": 7236,
      "ĠTemplo": 7237,
      "ĠFriedrich": 7238,
      "\")": 7239,
      "hl": 7240,
      "ĠLic": 7241,
      "ceta": 7242,
      "presiÃ³n": 7243,
      "Ġvivos": 7244,
      "ĠNavar": 7245,
      "ĠCorte": 7246,
      "ĠGalleria": 7247,
      "ĠÎ±": 7248,
      "ĠTate": 7249,
      "ĠenseÃ±Ã³": 7250,
      "Ġpastores": 7251,
      "penhague": 7252,
      "gs": 7253,
      "Ġbol": 7254,
      "ĠMaurice": 7255,
      "Ġdistancia": 7256,
      "ĠCorre": 7257,
      "ĠPasiÃ³n": 7258,
      "Ġirre": 7259,
      "Ã¡ndolo": 7260,
      "ĠreproducciÃ³n": 7261,
      "Ġofrece": 7262,
      "imedia": 7263,
      "Ġfundamental": 7264,
      "ĠAbraham": 7265,
      "ĠpropÃ³sito": 7266,
      "inadas": 7267,
      "riendo": 7268,
      "Ġsuyas": 7269,
      "ige": 7270,
      "side": 7271,
      "Ġlejos": 7272,
      "mista": 7273,
      "nista": 7274,
      "ĠreciÃ©n": 7275,
      "ĠSalamanca": 7276,
      "Ġcomercial": 7277,
      "Ġdescubrimiento": 7278,
      "ĠVaticano": 7279,
      "ĠtÃºnica": 7280,
      "ĠWikimedia": 7281,
      "uz": 7282,
      "ĠMant": 7283,
      "Ġpredela": 7284,
      "Ġasum": 7285,
      "Ġfigurativo": 7286,
      "Ġfundado": 7287,
      "Ġtomar": 7288,
      "Ġfuga": 7289,
      "Ġfemeninas": 7290,
      "Ġcolumna": 7291,
      "ĠBiblia": 7292,
      "urbarÃ¡n": 7293,
      "iros": 7294,
      "Ãī": 7295,
      "ĠdecÃŃa": 7296,
      "Ġline": 7297,
      "Ġespl": 7298,
      "ĠDÃ¼sseldorf": 7299,
      "Ġperro": 7300,
      "Ġpuente": 7301,
      "Ġfuertes": 7302,
      "ernas": 7303,
      "150": 7304,
      "ĠpolÃŃticas": 7305,
      "Ġcostumbres": 7306,
      "Ġviejo": 7307,
      "Ġingeni": 7308,
      "Ġexclus": 7309,
      "ĠmitologÃŃa": 7310,
      "ĠSociety": 7311,
      "ieron": 7312,
      "ĠmÃ¡g": 7313,
      "Ġpintaba": 7314,
      "ĠVista": 7315,
      "ĠIndust": 7316,
      "ĠPrimeros": 7317,
      "ĠejecutÃ³": 7318,
      "ĠCornel": 7319,
      "Ġcosa": 7320,
      "Ġyeso": 7321,
      "Ġset": 7322,
      "ĠintervenciÃ³n": 7323,
      "ĠconstruyÃ³": 7324,
      "Ġazules": 7325,
      "Ġveneciana": 7326,
      "Ġfrecuentemente": 7327,
      "ĠpÃºrpura": 7328,
      "ĠCÃ©s": 7329,
      "Ġobtiene": 7330,
      "itt": 7331,
      "laron": 7332,
      "ĠMara": 7333,
      "ĠDeco": 7334,
      "Ġcomprom": 7335,
      "Ġconsider": 7336,
      "Ġtransi": 7337,
      "Ġ1872": 7338,
      "Ġ1877": 7339,
      "Ġjoyas": 7340,
      "Ġciertos": 7341,
      "Ġdecorativos": 7342,
      "ĠAlfredo": 7343,
      "ĠfotÃ³grafo": 7344,
      "blo": 7345,
      "ĠJunta": 7346,
      "ĠIX": 7347,
      "Ġescla": 7348,
      "ĠpresentaciÃ³n": 7349,
      "ĠcentÃŃmetros": 7350,
      "Ġeditorial": 7351,
      "ĠLitera": 7352,
      "Art": 7353,
      "Ġcorresponde": 7354,
      "Ġfabrica": 7355,
      "Ġextremo": 7356,
      "cerÃŃa": 7357,
      "drÃŃa": 7358,
      "Ġdeno": 7359,
      "ĠpÃ©r": 7360,
      "enda": 7361,
      "ĠLeg": 7362,
      "Ġcaptura": 7363,
      "Ġreconocida": 7364,
      "ĠcontinuaciÃ³n": 7365,
      "Ġencontraban": 7366,
      "ĠpelÃŃculas": 7367,
      "ĠRenÃ©": 7368,
      "ĠdomÃ©st": 7369,
      "ĠInmaculada": 7370,
      "ll": 7371,
      "Ġtestamento": 7372,
      "Ġconstante": 7373,
      "Ġrepeti": 7374,
      "ĠAng": 7375,
      "Ġafric": 7376,
      "ĠHermitage": 7377,
      "Ġprotagonista": 7378,
      "Ġsensibilidad": 7379,
      "Ġenfoque": 7380,
      "ĠHernÃ¡ndez": 7381,
      "ĠÅ": 7382,
      "lant": 7383,
      "Ġdieron": 7384,
      "bach": 7385,
      "ĠKat": 7386,
      "lard": 7387,
      "ĠautÃ©": 7388,
      "ĠJuana": 7389,
      "ĠAlegorÃŃa": 7390,
      "Ġvestida": 7391,
      "Ġsangre": 7392,
      "ĠhistÃ³ricas": 7393,
      "donado": 7394,
      "ĠPraga": 7395,
      "ĠprecisiÃ³n": 7396,
      "43": 7397,
      "iy": 7398,
      "tus": 7399,
      "Ġeru": 7400,
      "ania": 7401,
      "Ġtint": 7402,
      "Ġsustitu": 7403,
      "ĠPilar": 7404,
      "ĠJudi": 7405,
      "vila": 7406,
      "positor": 7407,
      "anorama": 7408,
      "ĠMach": 7409,
      "ĠAndalu": 7410,
      "Ġdispla": 7411,
      "Ġ146": 7412,
      "ĠresidiÃ³": 7413,
      "Ġfiel": 7414,
      "Ġcapaz": 7415,
      "ĠfilÃ³so": 7416,
      "Ġcomerciante": 7417,
      "Ġpier": 7418,
      "quet": 7419,
      "Ġregular": 7420,
      "ĠSir": 7421,
      "ĠCarol": 7422,
      "ĠPont": 7423,
      "ĠneoclÃ¡s": 7424,
      "Ġfechada": 7425,
      "Ġligeramente": 7426,
      "ĠLÃ¡zaro": 7427,
      "entando": 7428,
      "Ġsupone": 7429,
      "Ġhora": 7430,
      "uramente": 7431,
      "Ġperu": 7432,
      "Ġacent": 7433,
      "Ġ1871": 7434,
      "ĠBenito": 7435,
      "ĠPamplona": 7436,
      "Ġacadem": 7437,
      "iev": 7438,
      "Ġdiscip": 7439,
      "minos": 7440,
      "Ġterreno": 7441,
      "Ġrelato": 7442,
      "ĠutilizaciÃ³n": 7443,
      "Ġvalora": 7444,
      "ĠcomunicaciÃ³n": 7445,
      "Ġfuertemente": 7446,
      "Ġequipo": 7447,
      "ystyle": 7448,
      "ĠTokio": 7449,
      "har": 7450,
      "uve": 7451,
      "Ġecue": 7452,
      "ĠAÃ±os": 7453,
      "Ġrefor": 7454,
      "Ġreempla": 7455,
      "abe": 7456,
      "ĠGen": 7457,
      "ĠDinamarca": 7458,
      "Ġprofunda": 7459,
      "ĠArthur": 7460,
      "Ġintelectuales": 7461,
      "ĠraÃŃz": 7462,
      "Ġdisplaystyle": 7463,
      ".]": 7464,
      "edades": 7465,
      "ov": 7466,
      "tones": 7467,
      "zaba": 7468,
      "Ð´": 7469,
      "Ġlatino": 7470,
      "erta": 7471,
      "dimen": 7472,
      "Ġreper": 7473,
      "Ã±Ã³n": 7474,
      "ĠSeÃ±": 7475,
      "Ġmarca": 7476,
      "Ġmuertas": 7477,
      "Ġexpresar": 7478,
      "ĠHoy": 7479,
      "Ġidentificado": 7480,
      "mediat": 7481,
      "ĠapÃ³stoles": 7482,
      "Ġautodidacta": 7483,
      "mpa": 7484,
      "Äĩ": 7485,
      "Ġaristo": 7486,
      "Ġgrue": 7487,
      "ĠGali": 7488,
      "ĠbiografÃŃa": 7489,
      "ĠHor": 7490,
      "Ġpop": 7491,
      "cesiÃ³n": 7492,
      "Ġescribe": 7493,
      "ĠtÃ©cnicos": 7494,
      "ĠCort": 7495,
      "Ġconstruido": 7496,
      "Ġguarda": 7497,
      "Ġterritorio": 7498,
      "ĠfrÃŃ": 7499,
      "Ġprofundo": 7500,
      "ticamente": 7501,
      "ĠHouse": 7502,
      "ustos": 7503,
      "ĠNik": 7504,
      "Ġcomunes": 7505,
      "Ġdescubri": 7506,
      "Ġpuerto": 7507,
      "Ġescudo": 7508,
      "viedo": 7509,
      "',": 7510,
      "cus": 7511,
      "ificaciÃ³n": 7512,
      "yden": 7513,
      "inÃ³": 7514,
      "Ġentra": 7515,
      "tern": 7516,
      "Ġcapas": 7517,
      "Ġbasa": 7518,
      "Ġsegui": 7519,
      "ĠtÃ©rminos": 7520,
      "Ġtumbas": 7521,
      "Ġjardines": 7522,
      "Ġeuropea": 7523,
      "Ġamante": 7524,
      "Ġmensaje": 7525,
      "ĠAustralia": 7526,
      "Ġsetenta": 7527,
      "dimension": 7528,
      "Ġwe": 7529,
      "ĠHunt": 7530,
      "port": 7531,
      "gulares": 7532,
      "Ġmix": 7533,
      "Ġexplica": 7534,
      "Ġvender": 7535,
      "olÃ³gicos": 7536,
      "ĠarmonÃŃa": 7537,
      "Ġevento": 7538,
      "Ã³grafo": 7539,
      "amora": 7540,
      "Ġalf": 7541,
      "ĠTim": 7542,
      "ĠOtoÃ±o": 7543,
      "renci": 7544,
      "mile": 7545,
      "Ġnuestro": 7546,
      "illy": 7547,
      "Ġusar": 7548,
      "Ġdemuestra": 7549,
      "ĠelaboraciÃ³n": 7550,
      "ĠAlexander": 7551,
      "Ġochenta": 7552,
      "sas": 7553,
      "inal": 7554,
      "Ġconden": 7555,
      "Ġsupon": 7556,
      "Ġsuficiente": 7557,
      "Ġinmedia": 7558,
      "ĠAlber": 7559,
      "ĠJavier": 7560,
      "ĠCasas": 7561,
      "Ġsentado": 7562,
      "Ġxilo": 7563,
      "ĠOrozco": 7564,
      "Ġapreciar": 7565,
      "deos": 7566,
      "Ġsar": 7567,
      "Ġtam": 7568,
      "amÃ¡": 7569,
      "atorio": 7570,
      "zob": 7571,
      "tarÃŃa": 7572,
      "ĠmaestrÃŃa": 7573,
      "ĠJack": 7574,
      "ĠTodos": 7575,
      "ĠFoto": 7576,
      "ĠatribuciÃ³n": 7577,
      "Ġintrodujo": 7578,
      "Ġsubasta": 7579,
      "Ġtierras": 7580,
      "86": 7581,
      "mis": 7582,
      "arlem": 7583,
      "ÃŃtulo": 7584,
      "Ġrega": 7585,
      "lera": 7586,
      "ismos": 7587,
      "ĠGui": 7588,
      "Ġbras": 7589,
      "Ġcola": 7590,
      "govia": 7591,
      "iosa": 7592,
      "Ġmane": 7593,
      "ĠConde": 7594,
      "ĠAntoni": 7595,
      "Ġjefe": 7596,
      "jada": 7597,
      "ĠPens": 7598,
      "Ġglo": 7599,
      "Ġarca": 7600,
      "Ġinver": 7601,
      "Ġinac": 7602,
      "Ġmismas": 7603,
      "ĠEstudio": 7604,
      "Ġpensamiento": 7605,
      "ĠCollection": 7606,
      "Ma": 7607,
      "lina": 7608,
      "ratos": 7609,
      "ose": 7610,
      "Ġconv": 7611,
      "Ġinc": 7612,
      "ĠcorazÃ³n": 7613,
      "Ãºan": 7614,
      "ĠKandin": 7615,
      "Ġcolectivo": 7616,
      "Ġarquitectos": 7617,
      "ĠMuchas": 7618,
      "ellido": 7619,
      "Ġcomenzaron": 7620,
      "Ġ1867": 7621,
      "Ġmantener": 7622,
      "Ġescalera": 7623,
      "ĠÏĦ": 7624,
      "Ġaun": 7625,
      "Ġseno": 7626,
      "ons": 7627,
      "Ġgremio": 7628,
      "ĠJor": 7629,
      "itados": 7630,
      "lasco": 7631,
      "Ġcartel": 7632,
      "Ġtercio": 7633,
      "Ġdiferencias": 7634,
      "Ġboca": 7635,
      "Ġconsiderar": 7636,
      "Ġrealistas": 7637,
      "ĠMunch": 7638,
      "Ġchino": 7639,
      "Ġvestidos": 7640,
      "Ġvac": 7641,
      "ĠincluÃŃa": 7642,
      "Ġfragmento": 7643,
      "Ġparroquial": 7644,
      "Au": 7645,
      "bet": 7646,
      "razo": 7647,
      "Ġcone": 7648,
      "desa": 7649,
      "ĠserÃŃan": 7650,
      "Ġabuelo": 7651,
      "Ġmatric": 7652,
      "ĠSegundo": 7653,
      "Ġperfeccion": 7654,
      "Ġdiecis": 7655,
      "public": 7656,
      "sur": 7657,
      "ÃŃptico": 7658,
      "Ġvilla": 7659,
      "Ġblo": 7660,
      "Ġsopor": 7661,
      "Ġparque": 7662,
      "Ġintento": 7663,
      "Ġorfe": 7664,
      "larse": 7665,
      "Ġrealizaron": 7666,
      "Ġhogar": 7667,
      "ĠeconÃ³mica": 7668,
      "Ġllegaron": 7669,
      "Ġpsic": 7670,
      "Ġsombrero": 7671,
      "garon": 7672,
      "ĠreputaciÃ³n": 7673,
      "ĠBene": 7674,
      "emis": 7675,
      "Ġcubi": 7676,
      "Ġfund": 7677,
      "ĠProce": 7678,
      "ĠayudÃ³": 7679,
      "Ġabandonar": 7680,
      "ĠUniversity": 7681,
      "TURA": 7682,
      "centes": 7683,
      "ĠdepÃ³": 7684,
      "esor": 7685,
      "Ã¡rez": 7686,
      "ĠNÃº": 7687,
      "Ġimpar": 7688,
      "Ġmone": 7689,
      "Ġexpresiones": 7690,
      "Ġsalv": 7691,
      "Ġmadurez": 7692,
      "Ġestampa": 7693,
      "Ġempresa": 7694,
      "Ġsemej": 7695,
      "Ġnubes": 7696,
      "Ġperformance": 7697,
      "hard": 7698,
      "vico": 7699,
      "Ġdeclar": 7700,
      "ston": 7701,
      "Ġsuya": 7702,
      "ĠDr": 7703,
      "ĠFine": 7704,
      "ĠKon": 7705,
      "ionistas": 7706,
      "Ġpresi": 7707,
      "Ġgracia": 7708,
      "Ġteniendo": 7709,
      "ĠZurbarÃ¡n": 7710,
      "ĠAleks": 7711,
      "peraciÃ³n": 7712,
      "Ġdirecta": 7713,
      "ustro": 7714,
      "ĠCaballero": 7715,
      "ĠarquitectÃ³nico": 7716,
      "Ġinglesa": 7717,
      "Ġrespuesta": 7718,
      "mediatamente": 7719,
      "Ġlad": 7720,
      "ĠMos": 7721,
      "Ġprer": 7722,
      "ĠHerrera": 7723,
      "croix": 7724,
      "Ġran": 7725,
      "Ġhuel": 7726,
      "itaba": 7727,
      "Ġpergam": 7728,
      "Ġestudiante": 7729,
      "Ġapellido": 7730,
      "Ġhermanas": 7731,
      "Ġbienes": 7732,
      "cilla": 7733,
      "ĠocupÃ³": 7734,
      "Ġconvertido": 7735,
      "ĠImperial": 7736,
      "Ġexclusivamente": 7737,
      "Sa": 7738,
      "Ġfras": 7739,
      "Ġreda": 7740,
      "Ġrealmente": 7741,
      "ĠLlu": 7742,
      "ĠHals": 7743,
      "Ġcita": 7744,
      "gidos": 7745,
      "Ġclasicismo": 7746,
      "ĠcambiÃ³": 7747,
      "ĠAmbos": 7748,
      "89": 7749,
      "hit": 7750,
      "Ġinvierno": 7751,
      "Ġimpos": 7752,
      "Ġexpul": 7753,
      "ridge": 7754,
      "Ġfamosas": 7755,
      "Ġrepresentantes": 7756,
      "ĠTodo": 7757,
      "Ġ1862": 7758,
      "Ġinteg": 7759,
      "Ġtorre": 7760,
      "ĠDuque": 7761,
      "Ġevitar": 7762,
      "ds": 7763,
      "Ãª": 7764,
      "Ġavent": 7765,
      "ĠCub": 7766,
      "bida": 7767,
      "ĠHon": 7768,
      "Ġentero": 7769,
      "Ġtrabajado": 7770,
      "ĠCopenhague": 7771,
      "Ġllevan": 7772,
      "Ġnaturalezas": 7773,
      "ĠÃ¡tico": 7774,
      "Ġhoja": 7775,
      "Ġprofesores": 7776,
      "Ġ1863": 7777,
      "Ġ1864": 7778,
      "ĠAugust": 7779,
      "ĠcomparaciÃ³n": 7780,
      "Ġdesconoce": 7781,
      "82": 7782,
      "Cu": 7783,
      "Ġdei": 7784,
      "ĠerÃ³": 7785,
      "Ġlong": 7786,
      "ĠPadre": 7787,
      "tea": 7788,
      "Ġgira": 7789,
      "viendo": 7790,
      "gara": 7791,
      "ĠacrÃŃ": 7792,
      "Ġmuralista": 7793,
      "ĠpidiÃ³": 7794,
      "ĠClaudio": 7795,
      "ĠmÃ©todos": 7796,
      "Ġvaso": 7797,
      "ulouse": 7798,
      "ĠperfecciÃ³n": 7799,
      "ĠUrb": 7800,
      "Ġindustria": 7801,
      "ĠAsturias": 7802,
      "ethey": 7803,
      "ĠmÃŃ": 7804,
      "taf": 7805,
      "Ġconsa": 7806,
      "ĠExhibi": 7807,
      "Ġpartida": 7808,
      "Ġpelo": 7809,
      "Ġediciones": 7810,
      "Ġ45": 7811,
      "ĠContin": 7812,
      "ianza": 7813,
      "ĠLibre": 7814,
      "exo": 7815,
      "ĠubicaciÃ³n": 7816,
      "net": 7817,
      "Ġast": 7818,
      "Ġfle": 7819,
      "Ġreino": 7820,
      "ĠCiencias": 7821,
      "Ġhel": 7822,
      "uenca": 7823,
      "ficar": 7824,
      "ĠpictÃ³ricos": 7825,
      "ariamente": 7826,
      "Ġetapas": 7827,
      "Ġcritic": 7828,
      "Ġtemporal": 7829,
      "ĠgraduÃ³": 7830,
      "ĠJimÃ©nez": 7831,
      "EL": 7832,
      "IG": 7833,
      "zano": 7834,
      "lari": 7835,
      "erto": 7836,
      "ass": 7837,
      "Ġund": 7838,
      "urales": 7839,
      "ĠWethey": 7840,
      "Ġincluida": 7841,
      "uyÃ³": 7842,
      "Ġllamados": 7843,
      "Ġplena": 7844,
      "Ġrelacionadas": 7845,
      "ĠClara": 7846,
      "Ġadoles": 7847,
      "Arte": 7848,
      "ispÃ¡n": 7849,
      "Ġcuidado": 7850,
      "Ġlleno": 7851,
      "Ġdescubierto": 7852,
      "ĠRepresenta": 7853,
      "ĠJaneiro": 7854,
      "Ġnaranja": 7855,
      "The": 7856,
      "gico": 7857,
      "uta": 7858,
      "ady": 7859,
      "ĠBuen": 7860,
      "Ġdul": 7861,
      "Ġvelo": 7862,
      "ĠValent": 7863,
      "Ġtemprano": 7864,
      "ĠAdÃ¡n": 7865,
      "ĠtelevisiÃ³n": 7866,
      "fel": 7867,
      "gÃ©n": 7868,
      "Ġdeman": 7869,
      "Ġalas": 7870,
      "Ġalar": 7871,
      "ĠCur": 7872,
      "ĠCerv": 7873,
      "ĠPIN": 7874,
      "ĠoposiciÃ³n": 7875,
      "tim": 7876,
      "eridad": 7877,
      "ĠMac": 7878,
      "ĠaplicaciÃ³n": 7879,
      "Ġcoro": 7880,
      "ĠLudw": 7881,
      "Ġhumil": 7882,
      "Ġperiodista": 7883,
      "ĠCanaria": 7884,
      "Ġcristal": 7885,
      "Ġderro": 7886,
      "Ġfiesta": 7887,
      "oras": 7888,
      "sig": 7889,
      "Ã«": 7890,
      "Ġsat": 7891,
      "Ã±ana": 7892,
      "ĠAlcal": 7893,
      "Ġhablar": 7894,
      "Ġasunto": 7895,
      "piente": 7896,
      "bein": 7897,
      "Ġvisitar": 7898,
      "Ġmaestras": 7899,
      "ĠColecciones": 7900,
      "Ġbarroca": 7901,
      "Ġdenominada": 7902,
      "Ġhubiera": 7903,
      "Ġimpacto": 7904,
      "Ġfundadores": 7905,
      "icana": 7906,
      "Ġesbo": 7907,
      "Ġinvi": 7908,
      "cionado": 7909,
      "ĠfiguraciÃ³n": 7910,
      "Ġcolegio": 7911,
      "Ġfundada": 7912,
      "Ġproductos": 7913,
      "ĠmetÃ¡": 7914,
      "ĠArtist": 7915,
      "Ġbuscar": 7916,
      "Ġsimboliz": 7917,
      "ĠBajo": 7918,
      "ĠpatrÃ³n": 7919,
      "Ġfiestas": 7920,
      "ĠNicolas": 7921,
      "Ġcampesinos": 7922,
      "Ġclaroscuro": 7923,
      "ĠRicardo": 7924,
      "Ġincendio": 7925,
      "ĠdeclarÃ³": 7926,
      "cento": 7927,
      "sal": 7928,
      "tecas": 7929,
      "ĠForm": 7930,
      "adala": 7931,
      "Ġfuese": 7932,
      "Ġveget": 7933,
      "ĠquiÃ©n": 7934,
      "Ġterren": 7935,
      "Ġruinas": 7936,
      "Ġmanierista": 7937,
      "ĠSimÃ³n": 7938,
      "Ġindependencia": 7939,
      "Ġteatral": 7940,
      "Ġza": 7941,
      "ceres": 7942,
      "Ġcontornos": 7943,
      "ĠMois": 7944,
      "Ġrepresentadas": 7945,
      "ragon": 7946,
      "ÃŃrculos": 7947,
      "retratos": 7948,
      "Ġsuperficies": 7949,
      "ĠBlanco": 7950,
      "ĠdevociÃ³n": 7951,
      "Ġausencia": 7952,
      "ĠDelacroix": 7953,
      "ĠLudwig": 7954,
      "ade": 7955,
      "cador": 7956,
      "iter": 7957,
      "pont": 7958,
      "ĠParque": 7959,
      "ĠCongreso": 7960,
      "Ġrica": 7961,
      "ĠRomano": 7962,
      "Ġestadounidenses": 7963,
      "ĠQuint": 7964,
      "ĠRij": 7965,
      "Ġestrecha": 7966,
      "Ġnobleza": 7967,
      "ld": 7968,
      "sy": 7969,
      "Ãģ": 7970,
      "amor": 7971,
      "poco": 7972,
      "Ġentrar": 7973,
      "ĠpoÃ©tica": 7974,
      "Ġabsor": 7975,
      "Ġrusa": 7976,
      "Ġencargada": 7977,
      "ĠCupido": 7978,
      "Ġllevaron": 7979,
      "Ġguard": 7980,
      "Ġdestacada": 7981,
      "Ġpudiera": 7982,
      "Ġfront": 7983,
      "Ġmanifiesto": 7984,
      "adalajara": 7985,
      "erte": 7986,
      "ann": 7987,
      "ĠSho": 7988,
      "Ġinqui": 7989,
      "Ġcualidades": 7990,
      "ĠRoberto": 7991,
      "Ġcentra": 7992,
      "Ġfamilias": 7993,
      "ĠNaturaleza": 7994,
      "erba": 7995,
      "tios": 7996,
      "Ġfueran": 7997,
      "grama": 7998,
      "ĠCastel": 7999,
      "ĠBrun": 8000,
      "Ġcristiano": 8001,
      "Ġinstalaciones": 8002,
      "ĠBauhaus": 8003,
      "ungrÃŃa": 8004,
      "Ġseguidores": 8005,
      "Ġposibilidad": 8006,
      "ĠEugenio": 8007,
      "Ġweb": 8008,
      "entan": 8009,
      "rik": 8010,
      "Ġrect": 8011,
      "iense": 8012,
      "quiera": 8013,
      "ÃŃsmo": 8014,
      "Ġapart": 8015,
      "ĠmarrÃ³n": 8016,
      "Ġprocedentes": 8017,
      "Ġconverti": 8018,
      "ĠSimon": 8019,
      "Ġconsiste": 8020,
      "Ġrecursos": 8021,
      "Ġeventos": 8022,
      "ĠLeopol": 8023,
      "Ġenvuel": 8024,
      "ĠrevoluciÃ³n": 8025,
      "ĠDatos": 8026,
      "ĠFres": 8027,
      "irÃ¡": 8028,
      "Ġempren": 8029,
      "Ġmarcado": 8030,
      "Ġ36": 8031,
      "Ġfechas": 8032,
      "Ġutilizan": 8033,
      "Ġ1873": 8034,
      "ĠAndre": 8035,
      "Ã¨s": 8036,
      "ĠSiglo": 8037,
      "ĠInfl": 8038,
      "ĠVersalles": 8039,
      "Ġconex": 8040,
      "ĠOviedo": 8041,
      "Ġmelan": 8042,
      "Ã±oz": 8043,
      "ĠromÃ¡n": 8044,
      "Ġalemanes": 8045,
      "Ġintensa": 8046,
      "ĠIll": 8047,
      "Ġmexicana": 8048,
      "ĠAntigua": 8049,
      "ĠAlcÃ¡zar": 8050,
      "Ġmilitares": 8051,
      "ĠSeÃ±or": 8052,
      "bus": 8053,
      "fran": 8054,
      "ggen": 8055,
      "Ġple": 8056,
      "Ġagra": 8057,
      "rigo": 8058,
      "Ġexpe": 8059,
      "ĠperdiÃ³": 8060,
      "ĠMore": 8061,
      "Ġhechas": 8062,
      "Ġutilizada": 8063,
      "tions": 8064,
      "ĠToulouse": 8065,
      "Ġcomplement": 8066,
      "Ġsalones": 8067,
      "Ġcomercio": 8068,
      "emisza": 8069,
      "Los": 8070,
      "gÃ¼": 8071,
      "pp": 8072,
      "Ã©is": 8073,
      "Ġojo": 8074,
      "Ġgre": 8075,
      "Ġarcos": 8076,
      "ĠTab": 8077,
      "ĠSecre": 8078,
      "Ã±olas": 8079,
      "ĠSara": 8080,
      "ĠPertene": 8081,
      "Ġ2024": 8082,
      "Ġescritora": 8083,
      "ĠtransiciÃ³n": 8084,
      "ppe": 8085,
      "zadas": 8086,
      "zzi": 8087,
      "ĠAnte": 8088,
      "ĠAut": 8089,
      "ĠTierra": 8090,
      "ĠNar": 8091,
      "ĠIma": 8092,
      "ĠHall": 8093,
      "Ġasimismo": 8094,
      "ĠChil": 8095,
      "Ġpostura": 8096,
      "gieron": 8097,
      "rick": 8098,
      "ĠXXI": 8099,
      "Ġoscura": 8100,
      "Ġatribuyen": 8101,
      "ĠBellini": 8102,
      "Ġpalacios": 8103,
      "Ġorfebre": 8104,
      "cusiÃ³n": 8105,
      "ĠcÃŃrculos": 8106,
      "ĠPlan": 8107,
      "Ġpago": 8108,
      "ilvania": 8109,
      "Ġgi": 8110,
      "ranos": 8111,
      "Ġtrazos": 8112,
      "Ġsiguen": 8113,
      "ĠretratÃ³": 8114,
      "ĠPortrait": 8115,
      "Ġ145": 8116,
      "ĠMuÃ±oz": 8117,
      "Ġmodernista": 8118,
      "Ġciertas": 8119,
      "Ġventanas": 8120,
      "vÃ¡n": 8121,
      "ĠpÃ³st": 8122,
      "Ġaniversario": 8123,
      "itente": 8124,
      "Ġjuicio": 8125,
      "Ġrecientes": 8126,
      "Ġ1865": 8127,
      "Ġreflejan": 8128,
      "Ġcrisis": 8129,
      "81": 8130,
      "iÃ¡n": 8131,
      "rina": 8132,
      "Îº": 8133,
      "ĠcÃ¡n": 8134,
      "ĠVio": 8135,
      "Ġusado": 8136,
      "Ġcontinuar": 8137,
      "Ġtrataba": 8138,
      "Ġgeomet": 8139,
      "Ġatribuida": 8140,
      "Ġmusicales": 8141,
      "ĠCÃ¡mara": 8142,
      "ĠtÃŃpico": 8143,
      "cÃ¡ngel": 8144,
      "ĠPadua": 8145,
      ".).": 8146,
      "ertura": 8147,
      "Ġenerg": 8148,
      "uncia": 8149,
      "Ġalcal": 8150,
      "antas": 8151,
      "Ġintens": 8152,
      "Ġ147": 8153,
      "Ġ1868": 8154,
      "Ġelegante": 8155,
      "Ġparticipado": 8156,
      "Ġexperiencias": 8157,
      "Ġsaber": 8158,
      "Ġmencionado": 8159,
      "Ġfruto": 8160,
      "Ġseguridad": 8161,
      "Ġprestigio": 8162,
      "terrÃ¡neo": 8163,
      "ĠWolf": 8164,
      "Ale": 8165,
      "].": 8166,
      "Ġcel": 8167,
      "Ġalab": 8168,
      "Ġsum": 8169,
      "ĠFÃ©": 8170,
      "Ġviva": 8171,
      "pular": 8172,
      "Ġcreador": 8173,
      "Ġcentros": 8174,
      "Ġformando": 8175,
      "ĠIsrael": 8176,
      "Ġdestinado": 8177,
      "Ġbanda": 8178,
      "ĠCatÃ³lica": 8179,
      "ĠarquitectÃ³nicos": 8180,
      "ĠgeomÃ©tricas": 8181,
      "vados": 8182,
      "vÃŃan": 8183,
      "Ġdeten": 8184,
      "Ġfri": 8185,
      "ĠMÃºs": 8186,
      "tiendo": 8187,
      "Ġlecciones": 8188,
      "Ġpoten": 8189,
      "grafos": 8190,
      "Ġdisfru": 8191,
      "Ġrural": 8192,
      "Ġ500": 8193,
      "Ġelect": 8194,
      "Ġinspirada": 8195,
      "Ġintenso": 8196,
      "Ġcursos": 8197,
      "ĠacompaÃ±ado": 8198,
      "Ġconvencional": 8199,
      "Ð¾Ð²": 8200,
      "Ġsolamente": 8201,
      "Ġfrecuente": 8202,
      "Ġaguafuerte": 8203,
      "Ġquince": 8204,
      "ÅĤ": 8205,
      "Ġlit": 8206,
      "Ġunidad": 8207,
      "Ġfau": 8208,
      "erales": 8209,
      "ĠRetiro": 8210,
      "tuales": 8211,
      "uber": 8212,
      "Ġpecho": 8213,
      "Ġcolore": 8214,
      "Ġherrami": 8215,
      "ĠGuti": 8216,
      "Ġconfirm": 8217,
      "Ġconcreto": 8218,
      "tesis": 8219,
      "Ġacci": 8220,
      "Ġdisper": 8221,
      "Ġcama": 8222,
      "Ġinvolu": 8223,
      "ĠelecciÃ³n": 8224,
      "ĠHerman": 8225,
      "ĠmÃºsicos": 8226,
      "colmo": 8227,
      "Ġdeben": 8228,
      "rÃ³nica": 8229,
      "Ġestuvieron": 8230,
      "Ġrecientemente": 8231,
      "ĠCrucifixiÃ³n": 8232,
      "Ġinacab": 8233,
      "Ġarena": 8234,
      "Ã³men": 8235,
      "ĠCine": 8236,
      "Ġentus": 8237,
      "Ġjar": 8238,
      "ĠNav": 8239,
      "Ġcollage": 8240,
      "ĠHaarlem": 8241,
      "Ġpiernas": 8242,
      "Ġ1869": 8243,
      "Ġfemeninos": 8244,
      "Ġpatrimonio": 8245,
      "Ġonce": 8246,
      "ĠbritÃ¡nica": 8247,
      "Ġextranjeros": 8248,
      "ĠmontaÃ±a": 8249,
      "Ġentender": 8250,
      "ĠBattista": 8251,
      "Born": 8252,
      "eamente": 8253,
      "gimen": 8254,
      "Äģ": 8255,
      "Ġdepartamento": 8256,
      "stad": 8257,
      "orce": 8258,
      "alia": 8259,
      "Ġoeste": 8260,
      "ĠHungrÃŃa": 8261,
      "ĠautÃ³": 8262,
      "ombar": 8263,
      "Ġpropuesta": 8264,
      "Ġrefu": 8265,
      "Ġejemplares": 8266,
      "ĠusÃ³": 8267,
      "Ġpluma": 8268,
      "Ġnecesario": 8269,
      "ĠvÃŃcti": 8270,
      "hu": 8271,
      "uega": 8272,
      "dita": 8273,
      "ĠDentro": 8274,
      "Ġtraje": 8275,
      "urgo": 8276,
      "Ġcort": 8277,
      "ĠMadame": 8278,
      "ĠCarre": 8279,
      "Ġnuestra": 8280,
      "ĠespecializÃ³": 8281,
      "ĠprofesiÃ³n": 8282,
      "ĠcontinÃºa": 8283,
      "Ġsimboliza": 8284,
      "ĠejerciÃ³": 8285,
      "Ġasociado": 8286,
      "Ġactriz": 8287,
      "ĠAcuare": 8288,
      "ĠconsiderÃ³": 8289,
      "Bornemisza": 8290,
      "pto": 8291,
      "ĠCA": 8292,
      "champ": 8293,
      "Ġjurado": 8294,
      "Ġpola": 8295,
      "ĠGuggen": 8296,
      "Ġsiguieron": 8297,
      "logÃŃas": 8298,
      "Ġpresentar": 8299,
      "ĠbaÃ±": 8300,
      "Ġeleg": 8301,
      "Ġdecorativas": 8302,
      "ĠvocaciÃ³n": 8303,
      "Ġveneciano": 8304,
      "ĠVÃŃctor": 8305,
      "95": 8306,
      "ila": 8307,
      "ism": 8308,
      "randa": 8309,
      "Ġcubre": 8310,
      "Ġprin": 8311,
      "Ġtempera": 8312,
      "leros": 8313,
      "dices": 8314,
      "Ġestudiosos": 8315,
      "Ġ1861": 8316,
      "Ġministro": 8317,
      "lyn": 8318,
      "ĠFreder": 8319,
      "Ġprueba": 8320,
      "ĠanatomÃŃa": 8321,
      "ĠpÃ¡jaros": 8322,
      "ĠBudapest": 8323,
      "Ġempleo": 8324,
      "ĠAlexandre": 8325,
      "ĠGuggenheim": 8326,
      "Ġfir": 8327,
      "ĠEp": 8328,
      "rieron": 8329,
      "Ġrepar": 8330,
      "Ġdor": 8331,
      "Ġnacion": 8332,
      "ĠLou": 8333,
      "Ġrazones": 8334,
      "ĠatrÃ¡s": 8335,
      "ĠAsia": 8336,
      "ĠsolÃŃa": 8337,
      "Ġreflejo": 8338,
      "Ġ1855": 8339,
      "Ġimperial": 8340,
      "ĠSique": 8341,
      "Ġdescrito": 8342,
      "ccidente": 8343,
      "ĠCalv": 8344,
      "Ġdirigido": 8345,
      "Ġbizantino": 8346,
      "Ġflorentino": 8347,
      "Ġchileno": 8348,
      "ĠStreet": 8349,
      "TE": 8350,
      "def": 8351,
      "anda": 8352,
      "espe": 8353,
      "Ġhospital": 8354,
      "ĠDet": 8355,
      "ĠTeo": 8356,
      "Ġmala": 8357,
      "ĠcentrÃ³": 8358,
      "Ġderechos": 8359,
      "ska": 8360,
      "relie": 8361,
      "Ġalcanzar": 8362,
      "landesa": 8363,
      "ĠPrincip": 8364,
      "Ġacontecimientos": 8365,
      "ek": 8366,
      "uci": 8367,
      "Ġdepos": 8368,
      "Ġciencia": 8369,
      "ĠPrin": 8370,
      "staba": 8371,
      "ĠVeron": 8372,
      "ĠJuicio": 8373,
      "Ġ1830": 8374,
      "denes": 8375,
      "ĠKen": 8376,
      "Ġvela": 8377,
      "hire": 8378,
      "Ġexpresa": 8379,
      "Ġdistribu": 8380,
      "ĠNicola": 8381,
      "ĠGustave": 8382,
      "Ġdenomina": 8383,
      "Ġinstrumentos": 8384,
      "Ġrespectivamente": 8385,
      "bana": 8386,
      "gano": 8387,
      "Ġcitado": 8388,
      "onis": 8389,
      "ÃŃgenes": 8390,
      "Ġpapiros": 8391,
      "untas": 8392,
      "Ġpreg": 8393,
      "ders": 8394,
      "Ġmirando": 8395,
      "ĠLey": 8396,
      "Ġconservadas": 8397,
      "ĠcaracterÃŃstico": 8398,
      "ĠcatÃ³lica": 8399,
      "ĠJules": 8400,
      "Ġsosteniendo": 8401,
      "Ġluminosidad": 8402,
      "Ġjaponesa": 8403,
      "ĠAcadÃ©mie": 8404,
      "Ġbrasile": 8405,
      "Am": 8406,
      "encio": 8407,
      "ĠCert": 8408,
      "ĠhÃ©ro": 8409,
      "elles": 8410,
      "ĠKV": 8411,
      "ĠCass": 8412,
      "Ġconservados": 8413,
      "Ġilustrado": 8414,
      "bablemente": 8415,
      "ĠGiorg": 8416,
      "ĠmÃ©rito": 8417,
      "ĠBorbÃ³n": 8418,
      "Ġidentificar": 8419,
      "Ġrevela": 8420,
      "ĠcientÃŃf": 8421,
      "ĠSorolla": 8422,
      "ĠExisten": 8423,
      "ĠTÃ©cnica": 8424,
      "ĠAntoine": 8425,
      "ĠSiqueiros": 8426,
      "Ġom": 8427,
      "reza": 8428,
      "ĠSÃŃ": 8429,
      "ĠPin": 8430,
      "Ġcompara": 8431,
      "ĠVos": 8432,
      "ĠSegovia": 8433,
      "Ġlej": 8434,
      "ĠEstuvo": 8435,
      "Ġemig": 8436,
      "ĠMante": 8437,
      "terio": 8438,
      "ĠComisiÃ³n": 8439,
      "gidas": 8440,
      "ĠtÃ©cnico": 8441,
      "Ġprivado": 8442,
      "undamente": 8443,
      "Ġencontraron": 8444,
      "ĠcromÃ¡tica": 8445,
      "ĠPanamÃ¡": 8446,
      "pintura": 8447,
      "ĠBlake": 8448,
      "ĠcontribuyÃ³": 8449,
      "Or": 8450,
      "sÃ©s": 8451,
      "umo": 8452,
      "Ġmm": 8453,
      "dore": 8454,
      "rir": 8455,
      "Ġcob": 8456,
      "Ġdorada": 8457,
      "Ġexpan": 8458,
      "Ã©rrez": 8459,
      "Ġparecido": 8460,
      "ĠArtÃŃstico": 8461,
      "Ġdatan": 8462,
      "Ġpermanece": 8463,
      "ĠHamburgo": 8464,
      "Ġllena": 8465,
      "Ġcircunst": 8466,
      "ĠimaginaciÃ³n": 8467,
      "ĠMoisÃ©s": 8468,
      "ividad": 8469,
      "chus": 8470,
      "Ġigno": 8471,
      "ĠÃ¡reas": 8472,
      "Ġromanticismo": 8473,
      "Ġliterario": 8474,
      "ĠcombinaciÃ³n": 8475,
      "Ð¸Ñ": 8476,
      "Ġconstituye": 8477,
      "Ġequilibrio": 8478,
      "ĠBritÃ¡nico": 8479,
      "ĠCÃ©sar": 8480,
      "Ex": 8481,
      "vard": 8482,
      "Ġcint": 8483,
      "ĠEug": 8484,
      "Ġseres": 8485,
      "Ġarre": 8486,
      "Ġperse": 8487,
      "ĠKu": 8488,
      "Ġcompletar": 8489,
      "dellÃŃn": 8490,
      "Ġconceptual": 8491,
      "EspaÃ±a": 8492,
      "Ġdificultades": 8493,
      "erbaiy": 8494,
      "ĠGutiÃ©rrez": 8495,
      "actu": 8496,
      "tuna": 8497,
      "Ġpone": 8498,
      "adie": 8499,
      "Ġrepos": 8500,
      "ĠBatalla": 8501,
      "Ġgig": 8502,
      "ĠRÃ³": 8503,
      "ĠLau": 8504,
      "Ġparcialmente": 8505,
      "ĠMarga": 8506,
      "Ġcontaba": 8507,
      "Ġpoetas": 8508,
      "Ġcompuesta": 8509,
      "Ġdisco": 8510,
      "Ġpasaron": 8511,
      "Ġnega": 8512,
      "ĠcampaÃ±a": 8513,
      "Ġproducto": 8514,
      "Ġaparentemente": 8515,
      "Ġmunicipal": 8516,
      "Ġ1857": 8517,
      "emato": 8518,
      "ĠDuchamp": 8519,
      "ĠBonn": 8520,
      "ĠLyon": 8521,
      "Ġasegura": 8522,
      "Ġgolpe": 8523,
      "rafael": 8524,
      "Ġactor": 8525,
      "icorn": 8526,
      "Ġtrist": 8527,
      "entalmente": 8528,
      "Ġfl": 8529,
      "Ġcompositor": 8530,
      "Ġsovi": 8531,
      "ĠhipÃ³": 8532,
      "ĠCoruÃ±a": 8533,
      "Ġsentimientos": 8534,
      "Ġvaca": 8535,
      "Ġproporciones": 8536,
      "Ġviolencia": 8537,
      "Ġtriunfo": 8538,
      "ĠLetras": 8539,
      "Ġsobrino": 8540,
      "ĠExpuso": 8541,
      "ĠfenÃ³men": 8542,
      "ĠMantegna": 8543,
      "-,": 8544,
      "Ġala": 8545,
      "orros": 8546,
      "ĠCity": 8547,
      "tistas": 8548,
      "ĠGol": 8549,
      "ĠFem": 8550,
      "izÃ³": 8551,
      "Ġdesen": 8552,
      "Ġdespla": 8553,
      "Ġnotas": 8554,
      "Ġasuntos": 8555,
      "Ġmath": 8556,
      "ĠtÃŃtulos": 8557,
      "Ġusando": 8558,
      "Ġencontramos": 8559,
      "Ġconsideran": 8560,
      "ĠprotecciÃ³n": 8561,
      "ĠtardÃŃo": 8562,
      "Ġhumanidad": 8563,
      "ĠpÃ©rdida": 8564,
      "jÃ³n": 8565,
      "jam": 8566,
      "vemente": 8567,
      "onios": 8568,
      "ĠGh": 8569,
      "ĠGante": 8570,
      "Ġinmediatamente": 8571,
      "uiendo": 8572,
      "Ġnobles": 8573,
      "erida": 8574,
      "lidos": 8575,
      "ĠZÃº": 8576,
      "ĠGuadalajara": 8577,
      "ĠRay": 8578,
      "cilia": 8579,
      "ĠBorgo": 8580,
      "ĠBoliv": 8581,
      "ĠFinal": 8582,
      "Ġcombina": 8583,
      "ĠGÃ©nova": 8584,
      "Ã³cra": 8585,
      "Ġconvo": 8586,
      "ĠSy": 8587,
      "ĠBus": 8588,
      "ĠBalle": 8589,
      "ĠTrÃŃptico": 8590,
      "ĠexcepciÃ³n": 8591,
      "ĠRegres": 8592,
      "vere": 8593,
      "radores": 8594,
      "Ġcolombi": 8595,
      "Ġcorta": 8596,
      "ĠespaÃ±olas": 8597,
      "ĠLuz": 8598,
      "Ġmuebles": 8599,
      "Ġautoridades": 8600,
      "Ġ75": 8601,
      "Ġrecuerdan": 8602,
      "Ġoscuros": 8603,
      "psis": 8604,
      "ĠlitografÃŃa": 8605,
      "ĠraÃŃces": 8606,
      "ĠGiorgione": 8607,
      "rantes": 8608,
      "ÃŃp": 8609,
      "ledad": 8610,
      "ĠpercepciÃ³n": 8611,
      "inato": 8612,
      "Ġcated": 8613,
      "Ġmonte": 8614,
      "landia": 8615,
      "erias": 8616,
      "ĠDepartamento": 8617,
      "Ġretrata": 8618,
      "ĠDesarrol": 8619,
      "ĠCompaÃ±": 8620,
      "Ġsimples": 8621,
      "Ġrelativamente": 8622,
      "ilea": 8623,
      "Ġblancos": 8624,
      "ĠEmilio": 8625,
      "ĠmÃºsico": 8626,
      "Ġmencionar": 8627,
      "Ġrecibiendo": 8628,
      "ĠotorgÃ³": 8629,
      "Ġlograr": 8630,
      "ĠEspÃŃritu": 8631,
      "Ġche": 8632,
      "Ġseda": 8633,
      "ĠGia": 8634,
      "Ġbi": 8635,
      "ĠTru": 8636,
      "ajest": 8637,
      "Ġdesper": 8638,
      "ĠPast": 8639,
      "Ġotorg": 8640,
      "ĠPartido": 8641,
      "ĠrococÃ³": 8642,
      "Ġcolonial": 8643,
      "Ġvanitas": 8644,
      "ĠÃ¡rabe": 8645,
      "ĠMedellÃŃn": 8646,
      "guesa": 8647,
      "Ġmantiene": 8648,
      "varo": 8649,
      "Ġpensar": 8650,
      "Ġjusto": 8651,
      "Ġesquema": 8652,
      "Ġaceite": 8653,
      "Ġintensidad": 8654,
      "Ġcomprome": 8655,
      "Ġredes": 8656,
      "ĠTol": 8657,
      "caras": 8658,
      "ĠMarina": 8659,
      "rence": 8660,
      "venida": 8661,
      "ficÃ³": 8662,
      "Ġviaja": 8663,
      "Ġ1856": 8664,
      "quero": 8665,
      "Ġmultitud": 8666,
      "ĠsimbÃ³lico": 8667,
      "Ro": 8668,
      "Ġzar": 8669,
      "ĠuniÃ³n": 8670,
      "Ġreloj": 8671,
      "Ġalterna": 8672,
      "ĠTama": 8673,
      "ĠNu": 8674,
      "erac": 8675,
      "ĠChi": 8676,
      "Ġcreciente": 8677,
      "cismo": 8678,
      "Ġsagra": 8679,
      "Ġsoldado": 8680,
      "frak": 8681,
      "Ġlumin": 8682,
      "Ġpsico": 8683,
      "Ġsacerdote": 8684,
      "Ġvoluntad": 8685,
      "tales": 8686,
      "yr": 8687,
      "ĠdestrucciÃ³n": 8688,
      "Ã³nico": 8689,
      "ĠAdam": 8690,
      "ditos": 8691,
      "ĠTanto": 8692,
      "ĠAntigÃ¼edad": 8693,
      "ĠAmor": 8694,
      "Ġvestim": 8695,
      "ĠAzerbaiy": 8696,
      "Ġcoleccionistas": 8697,
      "Ġholandesa": 8698,
      "Ġsatisfa": 8699,
      "Ġmathfrak": 8700,
      "ĠAzerbaiyÃ¡n": 8701,
      "tam": 8702,
      "ĠCir": 8703,
      "tit": 8704,
      "ily": 8705,
      "Ġrodil": 8706,
      "ĠConvento": 8707,
      "Ġ33": 8708,
      "Ġclaustro": 8709,
      "udÃ³nimo": 8710,
      "Ġitinera": 8711,
      "Ġcomplejo": 8712,
      "ĠperteneciÃ³": 8713,
      "Ġterminado": 8714,
      "Ġbandera": 8715,
      "Ã§a": 8716,
      "Ġrodeado": 8717,
      "ĠfÃ¡brica": 8718,
      "ĠHolbein": 8719,
      "Ġnoticias": 8720,
      "ller": 8721,
      "ser": 8722,
      "Ġdestru": 8723,
      "ĠGerar": 8724,
      "Ġretratado": 8725,
      "terno": 8726,
      "Ġverdes": 8727,
      "Ġsimil": 8728,
      "Ġtraslado": 8729,
      "Ġperspectivas": 8730,
      "Ġquiso": 8731,
      "ĠÃīdouard": 8732,
      "ĠCosme": 8733,
      "Ġinvestigaciones": 8734,
      "ĠEstocolmo": 8735,
      "Ġmerca": 8736,
      "Ġuniversal": 8737,
      "ĠdenominaciÃ³n": 8738,
      "ĠCertamen": 8739,
      "dÃ©s": 8740,
      "fun": 8741,
      "zamiento": 8742,
      "Î¼": 8743,
      "ntica": 8744,
      "Ġave": 8745,
      "enza": 8746,
      "ĠSierra": 8747,
      "Ġhero": 8748,
      "Ġpab": 8749,
      "sovia": 8750,
      "ingham": 8751,
      "ĠÃ³pera": 8752,
      "ĠEspacio": 8753,
      "ĠSix": 8754,
      "Ġespada": 8755,
      "ĠadmiraciÃ³n": 8756,
      "Ġextensa": 8757,
      "ĠBrown": 8758,
      "ĠChristian": 8759,
      "ĠlÃŃder": 8760,
      "ak": 8761,
      "pio": 8762,
      "icu": 8763,
      "ĠSÃ¡": 8764,
      "Ġespont": 8765,
      "ĠBona": 8766,
      "ĠGine": 8767,
      "Ġnota": 8768,
      "less": 8769,
      "ĠAlto": 8770,
      "ionalmente": 8771,
      "Ġincluidos": 8772,
      "Ã©rico": 8773,
      "ĠGuadal": 8774,
      "Ġutilizados": 8775,
      "160": 8776,
      "Ġtemplos": 8777,
      "ĠBreton": 8778,
      "Ġsurrealistas": 8779,
      "Ġcolaborado": 8780,
      "Ġtropas": 8781,
      "ĠmitolÃ³gicos": 8782,
      "ĠIlustraciÃ³n": 8783,
      "Ġtarea": 8784,
      "Ġmaravil": 8785,
      "Ġecuestre": 8786,
      "],": 8787,
      "ficos": 8788,
      "serra": 8789,
      "upe": 8790,
      "Ñĥ": 8791,
      "Ġrit": 8792,
      "ĠApÃ³": 8793,
      "leto": 8794,
      "Ġvib": 8795,
      "ampa": 8796,
      "ĠGan": 8797,
      "ĠFel": 8798,
      "Ġcontienen": 8799,
      "ĠDere": 8800,
      "ĠmarchÃ³": 8801,
      "ĠMadrazo": 8802,
      "Ġorganizado": 8803,
      "Ġ[.]": 8804,
      "Ġpopularidad": 8805,
      "ĠdiseÃ±ado": 8806,
      "ĠForma": 8807,
      "ĠPatrimonio": 8808,
      "ĠgeomÃ©trica": 8809,
      "Ġnegros": 8810,
      "ĠindÃŃgenas": 8811,
      "Ġplenamente": 8812,
      "Ġpergamino": 8813,
      "AD": 8814,
      "ky": 8815,
      "lamente": 8816,
      "Ġpanorama": 8817,
      "ĠestÃ©tico": 8818,
      "ajas": 8819,
      "atori": 8820,
      "setti": 8821,
      "ĠWood": 8822,
      "Ġtrabajaron": 8823,
      "Ġmarinas": 8824,
      "Ġdoctor": 8825,
      "Ġcaballe": 8826,
      "Ġformada": 8827,
      "ĠCuatro": 8828,
      "creto": 8829,
      "ĠOrsay": 8830,
      "Ġempleado": 8831,
      "Ġatribuidas": 8832,
      "Ġvanguardias": 8833,
      "ĠgÃ³tica": 8834,
      "Ġmorir": 8835,
      "ientes": 8836,
      "Ġsuma": 8837,
      "ĠSco": 8838,
      "ĠoraciÃ³n": 8839,
      "tique": 8840,
      "Ġjug": 8841,
      "ĠdonÃ³": 8842,
      "ionado": 8843,
      "inger": 8844,
      "ernos": 8845,
      "Ġprofundamente": 8846,
      "Ġproducido": 8847,
      "ĠProye": 8848,
      "165": 8849,
      "Ġiconos": 8850,
      "Ġeuropeas": 8851,
      "ĠinauguraciÃ³n": 8852,
      "Ġdesaparecido": 8853,
      "Ġpropietario": 8854,
      "Ġdesignado": 8855,
      "Ġtecno": 8856,
      "ĠJardÃŃn": 8857,
      "ĠAndalucÃŃa": 8858,
      "tambiÃ©n": 8859,
      "laje": 8860,
      "ĠCÃ³": 8861,
      "Ġestancias": 8862,
      "Ġproto": 8863,
      "iste": 8864,
      "ulgar": 8865,
      "Ġpoca": 8866,
      "liar": 8867,
      "ĠNatividad": 8868,
      "pida": 8869,
      "Ġlibras": 8870,
      "Ġsimpli": 8871,
      "Ġprimo": 8872,
      "Ġsupuso": 8873,
      "ĠToro": 8874,
      "Ġconceptos": 8875,
      "ranach": 8876,
      "Ġdesconocida": 8877,
      "ĠcapitÃ¡n": 8878,
      "ĠPINTURA": 8879,
      "ĠFÃ©lix": 8880,
      "lie": 8881,
      "zana": 8882,
      "ĠcÃ¡l": 8883,
      "angular": 8884,
      "dol": 8885,
      "titudes": 8886,
      "lock": 8887,
      "quist": 8888,
      "Ġescon": 8889,
      "Ġpredi": 8890,
      "Ġacces": 8891,
      "Ġfigurativa": 8892,
      "Ġpedest": 8893,
      "Ġcolocar": 8894,
      "Ġdiferenci": 8895,
      "Ġdirecto": 8896,
      "ĠSolo": 8897,
      "Ġcatorce": 8898,
      "Ġsirve": 8899,
      "Ġregistros": 8900,
      "ĠCeÃ¡n": 8901,
      "pintor": 8902,
      "ĠperiÃ³dicos": 8903,
      "ĠAmbros": 8904,
      "Ġpropiedades": 8905,
      "ĠOxford": 8906,
      "ĠLenin": 8907,
      "Ġcristianismo": 8908,
      "ĠEugÃ¨ne": 8909,
      "gno": 8910,
      "Ġtestig": 8911,
      "ĠEdo": 8912,
      "ĠCul": 8913,
      "Ã©tr": 8914,
      "ĠBue": 8915,
      "ĠLaure": 8916,
      "ÃŃnsula": 8917,
      "ĠNacionales": 8918,
      "Ġacce": 8919,
      "ierto": 8920,
      "Ġconservador": 8921,
      "Ġbailar": 8922,
      "Ġconstruc": 8923,
      "ĠRamsÃ©s": 8924,
      "Ġ1848": 8925,
      "ĠJulian": 8926,
      "Ġestructuras": 8927,
      "Ġponer": 8928,
      "Ġexcepcional": 8929,
      "Ġesfuerzo": 8930,
      "Ġnormalmente": 8931,
      "ĠCornelis": 8932,
      "bados": 8933,
      "Ġpuro": 8934,
      "entre": 8935,
      "ĠPaula": 8936,
      "mans": 8937,
      "Ġconocimientos": 8938,
      "Ġilustrar": 8939,
      "ĠMundo": 8940,
      "Ġflore": 8941,
      "ĠtraducciÃ³n": 8942,
      "ĠIncluso": 8943,
      "ĠFueron": 8944,
      "Ġlongitud": 8945,
      "AS": 8946,
      "ĠApare": 8947,
      "ĠAgui": 8948,
      "Ġrecl": 8949,
      "Ã©ticos": 8950,
      "Ġsep": 8951,
      "ĠalusiÃ³n": 8952,
      "Ġexal": 8953,
      "ĠUm": 8954,
      "tenstein": 8955,
      "iche": 8956,
      "Ġtene": 8957,
      "Ġrepresentaban": 8958,
      "Ġ32": 8959,
      "Ġmonar": 8960,
      "ĠAsÃŃs": 8961,
      "166": 8962,
      "Ġimpresiones": 8963,
      "ureza": 8964,
      "ĠPalmas": 8965,
      "ĠCaprich": 8966,
      "ĠPalais": 8967,
      "Ġconsigue": 8968,
      "cracia": 8969,
      "ĠJacopo": 8970,
      "Ġmanifest": 8971,
      "ĠilustrÃ³": 8972,
      "Ġsello": 8973,
      "Ġsecretario": 8974,
      "Ġtestimonio": 8975,
      "Ġdiplom": 8976,
      "ĠNavarra": 8977,
      "digo": 8978,
      "ĠBÃ¡r": 8979,
      "abil": 8980,
      "imental": 8981,
      "Ġdiver": 8982,
      "etts": 8983,
      "ĠUcran": 8984,
      "ĠMarta": 8985,
      "Ġanciano": 8986,
      "ĠCarta": 8987,
      "Ġtrascen": 8988,
      "Ġadul": 8989,
      "Ġllevaba": 8990,
      "Ġcreaciones": 8991,
      "Ġenviado": 8992,
      "ĠCompaÃ±ÃŃa": 8993,
      "IC": 8994,
      "jero": 8995,
      "lamo": 8996,
      "Ġfic": 8997,
      "ĠFun": 8998,
      "Ġcubri": 8999,
      "ĠNeo": 9000,
      "Ġnov": 9001,
      "Ġasim": 9002,
      "ĠParma": 9003,
      "ĠMaxim": 9004,
      "Ġfiguran": 9005,
      "gart": 9006,
      "Ġdiscu": 9007,
      "ĠPopular": 9008,
      "Ġiniciales": 9009,
      "ĠPeÃ±a": 9010,
      "Ġefectu": 9011,
      "Ġpatrones": 9012,
      "bili": 9013,
      "Ġquedan": 9014,
      "ĠLuna": 9015,
      "Ġservir": 9016,
      "ĠcartÃ³n": 9017,
      "ĠLew": 9018,
      "Ġrus": 9019,
      "ĠCamille": 9020,
      "ĠCanal": 9021,
      "Ġcreativo": 9022,
      "ĠBrook": 9023,
      "Ġsustit": 9024,
      "ĠArqueolÃ³gico": 9025,
      "Ġcha": 9026,
      "adio": 9027,
      "encial": 9028,
      "ĠAri": 9029,
      "ĠMit": 9030,
      "tilidad": 9031,
      "Ġesenci": 9032,
      "ĠGros": 9033,
      "Ġbatal": 9034,
      "isto": 9035,
      "Ġamena": 9036,
      "Ġretratar": 9037,
      "ĠMonta": 9038,
      "Ġfrancis": 9039,
      "Ġmodelado": 9040,
      "cillo": 9041,
      "ĠsÃŃntesis": 9042,
      "ĠÎº": 9043,
      "ĠJosef": 9044,
      "Ġsuave": 9045,
      "ĠrenovaciÃ³n": 9046,
      "cchio": 9047,
      "Louis": 9048,
      "caban": 9049,
      "pent": 9050,
      "retto": 9051,
      "Ġate": 9052,
      "ĠStan": 9053,
      "ĠVille": 9054,
      "uidad": 9055,
      "ĠprolÃŃ": 9056,
      "ĠArturo": 9057,
      "Ġsignos": 9058,
      "Ġacciones": 9059,
      "ĠPark": 9060,
      "ĠAnexo": 9061,
      "Ġherencia": 9062,
      "Ġimprim": 9063,
      "field": 9064,
      "ĠHein": 9065,
      "Ġlengua": 9066,
      "ultÃ¡n": 9067,
      "Ġcatalo": 9068,
      "fasis": 9069,
      "uesca": 9070,
      "hat": 9071,
      "ĠÃ©n": 9072,
      "inet": 9073,
      "ĠCalle": 9074,
      "Ġcusto": 9075,
      "ĠtratÃ³": 9076,
      "Ġ300": 9077,
      "corÃ³": 9078,
      "Ġpresentada": 9079,
      "Ġ1858": 9080,
      "Ġ1859": 9081,
      "Ġvoz": 9082,
      "Ġexponentes": 9083,
      "ĠconvirtiÃ©ndose": 9084,
      "ĠEjÃ©rcito": 9085,
      "Ġdiagon": 9086,
      "GalerÃŃa": 9087,
      "Ġcompromiso": 9088,
      "Ġactos": 9089,
      "Ġtorm": 9090,
      "ĠPes": 9091,
      "Ġincur": 9092,
      "cola": 9093,
      "Ġcopa": 9094,
      "ath": 9095,
      "ĠintentÃ³": 9096,
      "Ġrojos": 9097,
      "Ġmarcada": 9098,
      "Ġpeda": 9099,
      "ĠdocumentaciÃ³n": 9100,
      "ÃŃrica": 9101,
      "Ġcastel": 9102,
      "Ã¡micas": 9103,
      "Ġholandeses": 9104,
      "Ġvictoria": 9105,
      "ĠPerugino": 9106,
      "ĠPensilvania": 9107,
      "ĠenergÃŃa": 9108,
      "ĠMÃºsica": 9109,
      "ĠÃ©nfasis": 9110,
      "mico": 9111,
      "rÃ¡ndose": 9112,
      "zione": 9113,
      "Ã³vil": 9114,
      "omeo": 9115,
      "ĠMendo": 9116,
      "ĠCranach": 9117,
      "tidos": 9118,
      "ĠBran": 9119,
      "Ġarcilla": 9120,
      "ĠTes": 9121,
      "Ġexig": 9122,
      "erife": 9123,
      "gencia": 9124,
      "tori": 9125,
      "Ġaparecer": 9126,
      "ĠRossetti": 9127,
      "ĠAbstra": 9128,
      "Ġcere": 9129,
      "ĠEdiciones": 9130,
      "Ġmezc": 9131,
      "Ġconferencias": 9132,
      "ĠrÃ©gimen": 9133,
      "Ġayudar": 9134,
      "ĠFarnes": 9135,
      "ĠFilippo": 9136,
      "ah": 9137,
      "hÃŃa": 9138,
      "Å«": 9139,
      "stan": 9140,
      "orios": 9141,
      "Ġunicorn": 9142,
      "ĠCena": 9143,
      "Ġdell": 9144,
      "uraciÃ³n": 9145,
      "ĠGir": 9146,
      "ĠVÃ¡zquez": 9147,
      "vile": 9148,
      "Ġacomo": 9149,
      "Ġdiscurso": 9150,
      "Ã©ricas": 9151,
[...]
