{
  "stoi": {
    "mÃ³": 3815,
    "Ġcomen": 1228,
    "rim": 313,
    "Ġactividad": 2803,
    "nos": 1235,
    "ĠIndust": 7100,
    "Ġ1987": 3547,
    "Ġtales": 4598,
    "ĠBien": 1846,
    "Ġcom": 186,
    "Ġseguido": 5664,
    "Ġterren": 7864,
    "ĠRetablo": 6908,
    "gio": 1243,
    "Ġnada": 4711,
    "Ġpintadas": 5095,
    "Ġvivos": 7224,
    "ĠplÃ¡st": 2255,
    "Ġdeci": 1377,
    "hite": 9954,
    "ĠGon": 2535,
    "renci": 8350,
    "Ġluego": 1636,
    "stadt": 9268,
    "ĠEstas": 3824,
    "Ġitalianos": 5972,
    "vidad": 5265,
    "[UNK]": 1,
    "ĠEdu": 2464,
    "tol": 2096,
    "cer": 658,
    "Ġmarchante": 8718,
    "ĠZa": 4206,
    "dado": 1612,
    "Ġminiaturas": 4594,
    "Ġ1933": 4699,
    "Ġcoleccionista": 5251,
    "Ġbuscar": 7691,
    "ĠTor": 1791,
    "ĠOviedo": 8537,
    "Ġduda": 5286,
    "mes": 6086,
    "icismo": 2743,
    "osos": 3821,
    "Ã±os": 1179,
    "Ġprotagon": 3394,
    "encial": 8992,
    "Ġexhibe": 5796,
    "ĠBou": 4180,
    "iller": 3723,
    "ĠBeaux": 5772,
    "ĠTres": 5136,
    "igÃ¼edad": 5050,
    "29": 5517,
    "Ġgris": 3544,
    "Ġdef": 1500,
    "ĠCataluÃ±a": 4726,
    "SECCION": 4,
    "Ġposes": 6598,
    "rum": 4322,
    "ĠLouvre": 2633,
    "Ġy": 131,
    "ĠBartolomÃ©": 6858,
    "ĠNi": 1657,
    "Ġprincipales": 2200,
    "Ġdan": 3673,
    "197": 2266,
    "Ġvestida": 7803,
    "âĢ": 858,
    "ĠRevista": 9444,
    "uran": 5612,
    "Ġplasmar": 9309,
    "alizar": 5865,
    "ĠbasÃŃlica": 6176,
    "ili": 3510,
    "Ġvanitas": 9872,
    "ĠDr": 7164,
    "Ġer": 3791,
    "ĠDecora": 9990,
    "ĠSer": 2998,
    "ĠModerna": 9200,
    "ĠarquitectÃ³n": 4214,
    "Ġlejos": 7426,
    "ÃŃncipe": 3607,
    "Ġinm": 5190,
    "Ġformado": 5043,
    "ano": 324,
    "Ġfragmento": 8800,
    "Ġsitu": 1803,
    "Ġentrevista": 9869,
    "Ġepisodios": 8926,
    "ĠrÃ©gimen": 9402,
    "ĠModi": 9914,
    "ĠKarl": 5348,
    "Ġcuatro": 1417,
    "Ġinscri": 5196,
    "ĠMÃºnich": 2849,
    "ĠpodÃŃan": 6929,
    "198": 2113,
    "ĠazafrÃ¡n": 9632,
    "ĠseÃ±or": 6920,
    "Ġalco": 9742,
    "ĠLima": 3762,
    "Ġneg": 5871,
    "ĠCapilla": 4137,
    "Ġexac": 8825,
    "Ġmedalla": 3103,
    "ĠmÃ¡r": 3035,
    "stein": 4079,
    "dÃ©s": 9295,
    "Ġconmemora": 4964,
    "Ġ1952": 4789,
    "iz": 244,
    "no": 421,
    "Ġinteres": 2506,
    "ĠFra": 3919,
    "ema": 1731,
    "ĠÃ¡n": 1879,
    "ĠInfl": 7679,
    "ĠAsÃŃ": 3028,
    "pectos": 5100,
    "Ġbel": 1727,
    "ĠtransiciÃ³n": 9124,
    "uerra": 1021,
    "ce": 276,
    "ĠcreciÃ³": 8920,
    "vierte": 4855,
    "Ã¡ngulo": 9930,
    "ulos": 2487,
    "Las": 9839,
    "Ġfuentes": 4332,
    "Ġdenomin": 3027,
    "Ġmus": 851,
    "Ġpasa": 6491,
    "piz": 5524,
    "Ġmadre": 1774,
    "Ġconsideran": 8302,
    "ĠPintura": 1238,
    "unto": 576,
    "ĠInfluen": 9883,
    "sur": 6632,
    "Ġcultural": 2810,
    "Ġtene": 8796,
    "Ġfueran": 8756,
    "Ġexa": 7626,
    "ĠFam": 4599,
    "gico": 7820,
    "ĠÃºltimas": 5072,
    "ĠMatisse": 5708,
    "Ġcentra": 7953,
    "ĠpÃ³st": 7469,
    "Ġmejor": 2560,
    "fi": 1229,
    "ĠCornelis": 7139,
    "rencia": 920,
    "Ġasi": 5778,
    "sociaciÃ³n": 3362,
    "gi": 1808,
    "Ġ1650": 9382,
    "cieron": 3812,
    "Ġherede": 6626,
    "alizada": 4763,
    "ĠRosario": 5446,
    "ĠdÃŃa": 2048,
    "ĠpelÃŃcula": 2836,
    "Ġposib": 4192,
    "ablos": 5945,
    "jado": 2907,
    "erias": 8935,
    "pal": 1746,
    "Ġsir": 2657,
    "Ġlucha": 6610,
    "Ġmaestra": 5652,
    "Ġllega": 6420,
    "imos": 5781,
    "gh": 1268,
    "Ġenferm": 4148,
    "alista": 1594,
    "ph": 1396,
    "zÃ¡s": 5420,
    "Ġencargos": 4018,
    "ĠEstudiÃ³": 3376,
    "ĠGiorgione": 9993,
    "Ġalrededor": 2157,
    "Ãºan": 8058,
    "Ã©ndo": 4977,
    "Ġboda": 8681,
    "75": 4102,
    "blo": 7607,
    "Ġjard": 2928,
    "ĠCollection": 6845,
    "ces": 377,
    "ĠFrans": 5599,
    "ĠII": 1498,
    "ll": 7119,
    "Ġurban": 8092,
    "useum": 4941,
    "quinas": 9414,
    "Ġfemenino": 5594,
    "Ġalar": 7784,
    "onna": 4413,
    "Ġ1967": 4109,
    "Ãºdez": 9785,
    "Ġrestaura": 5245,
    "180": 6552,
    "Ġentra": 8040,
    "Ġcubista": 9595,
    "Ġnue": 669,
    "leza": 1275,
    "Ġcomposiciones": 3124,
    "Ġpatrimonio": 7818,
    "ĠTenerife": 9856,
    "Ġotras": 1049,
    "Ġseguidores": 9072,
    "0": 14,
    "Ġbru": 5791,
    "Ġfuese": 8161,
    "Ġconstituye": 8429,
    "ÃŃr": 1568,
    "art": 1697,
    "Ġrespecto": 4918,
    "inete": 5984,
    "ĠMunicip": 9174,
    "taciones": 4629,
    "ÃŃnguez": 7111,
    "ÃŃso": 5680,
    "ĠhabÃŃan": 2599,
    "x": 79,
    "ĠMarch": 9847,
    "ĠThÃ©": 6884,
    "ĠYo": 6193,
    "ĠVi": 2160,
    "rede": 1505,
    "Au": 8474,
    "ĠDibujos": 9832,
    "Ġobten": 2879,
    "R": 44,
    "ĠSantiago": 1669,
    "vÃ¡n": 7331,
    "Ġmon": 946,
    "Ġteat": 4591,
    "ĠTh": 1306,
    "aliz": 370,
    "Ġsimbolismo": 5530,
    "ui": 234,
    "stitu": 854,
    "cÃ¡ngel": 8533,
    "Ġcontribu": 3484,
    "Ġbi": 7810,
    "gorÃŃa": 2495,
    "field": 7791,
    "adas": 426,
    "ĠFlandes": 8085,
    "zon": 4887,
    "ĠGas": 5580,
    "Ġveint": 5812,
    "icamente": 1575,
    "iros": 7304,
    "ĠLat": 3758,
    "Ġdesde": 661,
    "fano": 9658,
    "Ġ": 93,
    "Ġinfl": 791,
    "ĠGala": 8793,
    "ĠquiÃ©n": 7628,
    "Ġverdadera": 7175,
    "Ã±ana": 7786,
    "Ġtema": 1366,
    "can": 973,
    "larse": 7472,
    "Ġnobleza": 8473,
    "vel": 2639,
    "AL": 8404,
    "Ġcompositor": 8679,
    "ultÃ¡n": 9757,
    "dem": 468,
    "ĠcontratÃ³": 9487,
    "ast": 6402,
    "ĠromÃ¡ntico": 7033,
    "gadas": 5178,
    "Ġoportun": 5721,
    "Ġima": 1237,
    "La": 2069,
    "tulo": 1877,
    "Ġvariaciones": 9051,
    "Ġcon": 159,
    "ĠRiv": 4015,
    "ĠBan": 2901,
    "ĠviajÃ³": 2687,
    "Ġapart": 7615,
    "Ġhonora": 8985,
    "on": 115,
    "zanne": 5431,
    "Ġmovimiento": 1551,
    "ombi": 6061,
    "licos": 3350,
    "ret": 2643,
    "Ġsupon": 7763,
    "zion": 8033,
    "ĠAmer": 9894,
    "Ġmono": 3777,
    "ward": 3324,
    "Ġintelectuales": 7479,
    "minante": 9311,
    "cino": 6889,
    "Ġmostra": 2490,
    "Ġconsideraba": 5912,
    "187": 3629,
    "Ġabunda": 6650,
    "Ġantiguas": 5799,
    "uestas": 3519,
    "Ġprote": 2508,
    "Ġan": 520,
    "ĠChristo": 9368,
    "Ġpa": 202,
    "Ġfunda": 4034,
    "Ġnacional": 2716,
    "Ġindust": 3331,
    "Ġcron": 7593,
    "Ġhor": 3101,
    "th": 1048,
    "Ġteniendo": 7813,
    "88": 9354,
    "Ġveget": 8659,
    "Ġuru": 9060,
    "ĠSobre": 4690,
    "remio": 5079,
    "Ġaudi": 9317,
    "ĠPalom": 5151,
    "Ġpros": 4469,
    "ĠKandins": 7653,
    "cÃ©s": 1342,
    "ĠHon": 7097,
    "laron": 7309,
    "Ġvene": 3241,
    "Ġpsico": 9142,
    "tica": 3001,
    "ĠRet": 4299,
    "Ġnaranja": 7773,
    "Ġcorri": 3340,
    "Ġcompromiso": 9291,
    "74": 9077,
    "ĠJosÃ©": 952,
    "Ġrealizar": 2682,
    "Ġestampa": 7182,
    "ĠDiseÃ±o": 5631,
    "con": 581,
    "Ġtres": 882,
    "erÃŃa": 478,
    "Ġpermane": 2317,
    "ĠacadÃ©mica": 6592,
    "one": 1470,
    "Ġmodern": 4987,
    "kar": 9695,
    "yen": 2530,
    "cci": 1965,
    "ĠFrancesco": 3352,
    "icia": 3993,
    "lamente": 8928,
    "Ġ160": 3349,
    "mina": 5378,
    "cro": 3266,
    "Ġil": 775,
    "ĠMadre": 9803,
    "ĠMuestra": 7200,
    "ĠCons": 6553,
    "ĠestÃ©tico": 9784,
    "Ġincluyen": 3957,
    "ÃŃculo": 8726,
    "al": 126,
    "illy": 7919,
    ")": 10,
    "179": 8398,
    "Ġrecupera": 4767,
    "demos": 6302,
    "Ġ),": 4055,
    "Ġrepi": 9423,
    "ĠHernÃ¡ndez": 6995,
    "ĠBri": 4022,
    "Ġpastel": 5996,
    "grafa": 9253,
    "ĠgeomÃ©t": 3799,
    "ĠcarÃ¡": 2380,
    "ĠBea": 4945,
    "ÃŃo": 829,
    "Ġcreciente": 8670,
    "iago": 1604,
    "Ġbanda": 6715,
    "ĠHern": 5199,
    "Ġseguir": 5819,
    "Ġmunicipal": 8810,
    "tem": 3635,
    "Ġministro": 8027,
    "Ġrespe": 6525,
    "ĠdifÃŃcil": 5067,
    "Ġdos": 512,
    "tado": 941,
    "Ġsoporte": 7202,
    "Ġargentino": 6997,
    "Ġacuarelas": 4000,
    "Ġrealizadas": 3897,
    "ĠAnÃ¡lisis": 5435,
    "Ġvisitar": 7574,
    "ĠintentÃ³": 8658,
    "Ġ16": 493,
    "Ġmenor": 3582,
    "isla": 8777,
    "Ġ19": 197,
    "Ġsub": 2350,
    "Ġambiente": 4277,
    "Ġdestacadas": 5216,
    "ĠMenciÃ³n": 6043,
    "ĠHu": 3631,
    "Ġexp": 545,
    "Ġsesenta": 6457,
    "Ġdescubrimiento": 7360,
    "gam": 5638,
    "ĠPeter": 4525,
    "Ġpes": 1363,
    "ĠHi": 2414,
    "ĠPiedad": 7585,
    "ĠInte": 9191,
    "186": 3551,
    "ĠLÃ³pez": 3800,
    "Ġsan": 1656,
    "Ġcosta": 6804,
    "ĠacciÃ³n": 5393,
    "as": 129,
    "lia": 2491,
    "Ġvaria": 4044,
    "Ġhistor": 3652,
    "ĠPra": 3354,
    "Ġrural": 7844,
    "quÃŃa": 5880,
    "ĠoposiciÃ³n": 7915,
    "Ã¡nico": 2467,
    ".": 13,
    "bol": 1168,
    "Ġevidencia": 7086,
    "Ġreligiosos": 4929,
    "verso": 4521,
    "ĠKar": 4196,
    "ches": 3896,
    "Ġpaso": 3785,
    "Ġcolorante": 9210,
    "helm": 5141,
    "Ġllamada": 2855,
    "ĠLorenzo": 3288,
    "ĠalegorÃŃa": 7213,
    "ĠLucas": 3156,
    "abellÃ³n": 9845,
    "ĠSegÃºn": 2164,
    "Ġelim": 6478,
    "Ġsua": 4996,
    "No": 9719,
    "ĠIlustraciÃ³n": 9232,
    "ĠsintiÃ³": 9063,
    "Ã©ct": 7392,
    "Ġequilib": 6190,
    "genes": 1395,
    "ther": 8954,
    "ett": 6732,
    "ĠLan": 3979,
    "16": 975,
    "ĠEscocia": 9022,
    "Ġat": 929,
    "Ġestudi": 492,
    "Ġreligioso": 4624,
    "Ġexal": 9819,
    "gencia": 8171,
    "ĠgrÃ¡fica": 6806,
    "dose": 1152,
    "Ġmurales": 2515,
    "ĠTan": 8066,
    "ĠBer": 1139,
    "Ġsustitu": 7177,
    "35": 4877,
    "Ġretratista": 4574,
    "Ġrelaciones": 5818,
    "ĠOrle": 8843,
    "randt": 3980,
    "ĠvacÃŃo": 9561,
    "ĠIr": 5792,
    "ĠotorgÃ³": 8322,
    "Ġles": 2691,
    "Ġdesen": 8464,
    "cias": 694,
    "ĠBrue": 6020,
    "ĠCele": 9741,
    "Ne": 8899,
    "Ġpale": 4510,
    "posiciones": 776,
    "Ġimpar": 7590,
    "enza": 8096,
    "ĠSab": 5037,
    "ĠDesta": 5501,
    "Ġsocio": 9975,
    "ÃŃcu": 1376,
    "jeres": 1351,
    "ĠGre": 1523,
    "ĠNic": 3251,
    "usia": 9971,
    "Ġdiecis": 7696,
    "Ġf": 146,
    "piro": 8881,
    "tividad": 1909,
    "ĠaÃ±": 318,
    "lar": 443,
    "tidas": 8851,
    "Ġexcl": 4389,
    "ĠdonaciÃ³n": 9082,
    "dy": 6687,
    "cub": 8098,
    "ĠmÃºltiples": 5104,
    "Ġconst": 5849,
    "ania": 6508,
    "Ġrefe": 2023,
    "ĠotoÃ±o": 6487,
    "ĠUtiliz": 9820,
    "ĠAlejandrÃŃa": 9992,
    "ĠVermeer": 7284,
    "ĠMientras": 4313,
    "chando": 9515,
    "ĠdesarrollÃ³": 3116,
    "Ġdocumentada": 9935,
    "ĠTal": 3832,
    "Ġ84": 9199,
    "Ġpertene": 1855,
    "Ġmateria": 6652,
    "ĠTurner": 8959,
    "adÃ¡": 4012,
    "ivin": 9305,
    "159": 9873,
    "ĠclÃ¡sico": 5250,
    "Ġreconocimientos": 6782,
    "eria": 3371,
    "enoir": 5401,
    "ĠIl": 2430,
    "ĠArn": 6660,
    "ventud": 4048,
    "ulio": 1333,
    "Ġcomien": 2310,
    "uidos": 3310,
    "Ġcomunes": 7554,
    "Ġdirigida": 5277,
    "ĠPero": 2893,
    "ĠStreet": 7351,
    "ĠBuen": 7567,
    "ĠWey": 9524,
    "Ġdue": 8993,
    "laciÃ³n": 1635,
    "Ġta": 3328,
    "rera": 1086,
    "Ġredu": 3740,
    "Ġconfi": 8278,
    "denes": 8190,
    "Ġelem": 1486,
    "ĠCafÃ©": 9478,
    "Ġsimboliz": 8241,
    "Ġestric": 9392,
    "ĠAdri": 7369,
    "ĠMem": 4735,
    "ĠAndalucÃŃa": 9351,
    "eld": 4195,
    "Ġarena": 8463,
    "Ġapertura": 9459,
    "Ġanteriores": 4452,
    "Â": 89,
    "Ġdeca": 5797,
    "Ġpesar": 2202,
    "ĠSeÃ±or": 6641,
    "ĠTex": 6212,
    "ĠSoci": 1887,
    "ĠPalomino": 5305,
    "ĠdebÃŃan": 9755,
    "ĠtÃ©r": 2872,
    "chÃ³": 4926,
    "ĠTrÃŃptico": 9341,
    "Ġsuelen": 7512,
    "Ġalemana": 6036,
    "Ġanun": 4810,
    "Ġpelig": 8924,
    "urt": 4902,
    "Ġcelebrada": 5913,
    "ĠGante": 8313,
    "H": 34,
    "deros": 5328,
    "Ġdigital": 9835,
    "Ġcele": 1679,
    "Ġextranjeros": 9138,
    "inada": 4138,
    "Ġpermiti": 6869,
    "Ġilustrador": 4348,
    "ĠRic": 4872,
    "bres": 6793,
    "ĠTintoretto": 9301,
    "ĠLau": 7278,
    "ridge": 7189,
    "Ġmiembro": 1749,
    "ĠForma": 8593,
    "Ġ9": 1327,
    "ustra": 948,
    "tual": 5429,
    "ĠcaracterÃŃst": 2075,
    "ĠArthur": 7485,
    "ĠGiuse": 6562,
    "rato": 9636,
    "ad": 127,
    "Ġsociedad": 2926,
    "pt": 8915,
    "Fran": 5197,
    "ĠatrÃ¡s": 7830,
    "Ġfiestas": 7836,
    "Ġ169": 4590,
    "Ġreno": 5195,
    "ÃŃsticos": 5817,
    "Ġceleb": 2293,
    "Ġbaja": 6816,
    "Ġino": 8779,
    "torios": 5910,
    "P": 42,
    "Ãºsque": 5376,
    "ĠGeorges": 4677,
    "ze": 2851,
    "ĠPuerto": 5030,
    "ĠindÃŃgen": 5966,
    "Ġreda": 7356,
    "ĠfunciÃ³n": 5519,
    "Ġautoridades": 8425,
    "Ġemplea": 8957,
    "doro": 5344,
    "ualmente": 6361,
    "Ġoscuros": 8287,
    "reza": 9079,
    "ĠTexas": 9594,
    "ĠPapa": 9088,
    "unca": 2540,
    "ich": 540,
    "ĠAten": 3694,
    "ĠacadÃ©micos": 9576,
    "burg": 4309,
    "Ġ157": 5881,
    "Ġconta": 2966,
    "Ġescuelas": 5633,
    "penhague": 6728,
    "ler": 542,
    "seg": 5329,
    "ĠCabe": 9575,
    "Ġdenominada": 8118,
    "gada": 2122,
    "ĠÃ³r": 5651,
    "Ġbe": 2003,
    "Ġpredomin": 6564,
    "Ġveces": 1920,
    "ĠPi": 3261,
    "ntal": 5179,
    "ĠintervenciÃ³n": 7310,
    "is": 187,
    "entales": 2876,
    "ĠfÃŃsica": 8968,
    "ante": 1177,
    "ĠSol": 3314,
    "Ġconcl": 4113,
    "zamiento": 8339,
    "ĠEuropa": 1712,
    "Ġ18": 295,
    "Ġsens": 6664,
    "Ġtabla": 2279,
    "ĠIlustra": 5514,
    "psis": 8031,
    "ĠNa": 435,
    "ĠCla": 1970,
    "ĠV": 229,
    "ĠFrancesa": 9773,
    "cuencia": 3168,
    "ĠtÃ©cnicos": 7358,
    "Ġ60": 4600,
    "cen": 598,
    "ĠLic": 6924,
    "ÃŃb": 3557,
    "Ġrefiere": 6670,
    "Ġterminado": 9017,
    "ĠValle": 4086,
    "ĠBiografÃŃa": 1000,
    "cilla": 9002,
    "Ġpero": 592,
    "Ġpartida": 7616,
    "Ġindi": 1153,
    "ĠPosteriormente": 3313,
    "bÃ³": 3210,
    "rito": 2824,
    "ĠPensilvania": 7851,
    "tivo": 704,
    "Ġperspectiva": 2784,
    "Ġfil": 2324,
    "ĠTeo": 6666,
    "Ã³nicas": 8505,
    "lock": 7333,
    "ĠdonÃ³": 7987,
    "ĠJoh": 1329,
    "Ġpopular": 2778,
    "Ġenterrado": 4771,
    "Ã": 90,
    "Ġemo": 3898,
    "cÃŃan": 4072,
    "Valencia": 9924,
    "Ġestructuras": 9070,
    "ĠDo": 2135,
    "Ġrique": 6486,
    "Ġcierto": 3975,
    "clas": 9163,
    "Val": 8106,
    "Ġquedan": 9439,
    "Ġjurado": 7789,
    "Ã¡brica": 5717,
    "iso": 1833,
    "Ġboceto": 6593,
    "Ġcub": 2949,
    "Ġadap": 5270,
    "ĠGranada": 4020,
    "Ġvolunt": 6170,
    "Ġap": 546,
    "GB": 9161,
    "ĠgeomÃ©trica": 8966,
    "ĠAdam": 7871,
    "ĠÃ©n": 9421,
    "Ġplano": 2598,
    "W": 49,
    "per": 770,
    "olo": 5451,
    "ĠgÃ©n": 1611,
    "nti": 1689,
    "Ġhija": 1871,
    "Ġune": 9678,
    "amas": 6046,
    "Ġhistorie": 9062,
    "ier": 955,
    "vera": 2668,
    "forme": 5715,
    "fer": 5902,
    "ĠconsiderÃ³": 7623,
    "Ġconsta": 3616,
    "Ġfo": 1087,
    "Ġpintando": 3987,
    "ĠMoisÃ©s": 9353,
    "igra": 3717,
    "Ġdesarrollar": 4654,
    "Ġfirmada": 6378,
    "Ġcotidiana": 6214,
    "Ġafin": 9364,
    "itales": 9009,
    "rigo": 6629,
    "lace": 8821,
    "Ġblo": 7800,
    "Ġcentral": 2304,
    "Ġreempla": 7244,
    "X": 50,
    "Ġmezc": 6256,
    "ĠdiseÃ±ador": 5593,
    "Ġanimales": 2840,
    "Ġtier": 6778,
    "Ġinici": 1234,
    "Ġ184": 1768,
    "Ġhebre": 8009,
    "Ġactual": 3321,
    "Ġsali": 4652,
    "jas": 1290,
    "Ġprincipal": 1928,
    "ĠfÃ¡brica": 7744,
    "ĠRol": 9724,
    "onio": 786,
    "alo": 2623,
    "ct": 264,
    "Ġlad": 7883,
    "Ã©tico": 3290,
    "ĠPalmas": 9257,
    "Ã³men": 8158,
    "Ġdie": 4370,
    "Ġrepresentado": 3677,
    "Ġsubasta": 6656,
    "Ġinci": 5063,
    "ĠCano": 6965,
    "Ġperspectivas": 8922,
    "Ġtercio": 8874,
    "Ġtenido": 5644,
    "guna": 3471,
    "ick": 3864,
    "Ġmunicip": 6755,
    "uen": 568,
    "yssen": 5840,
    "o": 70,
    "ĠMundo": 8697,
    "ĠMurillo": 5785,
    "pÃ³": 2420,
    "jeron": 6557,
    "penha": 6293,
    "Ġtrabajando": 3804,
    "ĠGaller": 1402,
    "ĠGio": 2005,
    "anas": 1629,
    "ĠEs": 341,
    "ĠinscripciÃ³n": 4930,
    "terior": 1248,
    "ĠHans": 3623,
    "ĠInici": 6032,
    "degÃ³n": 7586,
    "Ġmuestras": 5166,
    "eras": 1650,
    "rillo": 3536,
    "Ġsociales": 4813,
    "ciaciÃ³n": 1835,
    "Ġconven": 3339,
    "Ġotra": 1556,
    "ĠmÃºs": 2038,
    "encia": 719,
    "ĠAlej": 3296,
    "paraÃŃso": 9490,
    "Ġescuela": 1303,
    "Ġsexual": 9857,
    "ĠClara": 7156,
    "ĠNicola": 7755,
    "entan": 9409,
    "diendo": 3102,
    "ĠOficial": 6642,
    "Ġlong": 6628,
    "Ġbo": 1007,
    "ĠBrit": 6026,
    "ĠcategorÃŃa": 4542,
    "yÃ¡n": 6770,
    "ĠHoy": 7475,
    "Ġrelacionado": 6035,
    "ĠEsco": 5372,
    "uario": 4968,
    "ĠVincent": 6379,
    "ĠIncl": 6506,
    "Ġpiezas": 2455,
    "ielo": 9025,
    "Ġveneciana": 7477,
    "Ġhabitual": 5304,
    "Ġdire": 1061,
    "lores": 4557,
    "esÃŃa": 3138,
    "ĠRos": 1838,
    "icidad": 3921,
    "iena": 2120,
    "Ġrebel": 8622,
    "ĠTem": 9947,
    "ĠParticipa": 9371,
    "Ġboca": 7902,
    "ĠdepÃ³sito": 9267,
    "Ġfal": 2434,
    "Ġelo": 4879,
    "ĠarquitectÃ³nicos": 8521,
    "iores": 1998,
    "Ġcampo": 2658,
    "Ã©t": 958,
    "Ġprodu": 845,
    "ĠLo": 1033,
    "ost": 895,
    "lados": 3185,
    "Ġbodegones": 3556,
    "Ġdefin": 4687,
    "Ġ20": 328,
    "Ġespaldas": 8911,
    "Ã¡ndo": 2663,
    "Ã¡ndose": 1540,
    "Ġprin": 7873,
    "ĠVen": 2500,
    "po": 280,
    "Ġmismas": 7547,
    "emp": 698,
    "Ġcerca": 2109,
    "ĠhistÃ³rico": 3686,
    "Ġreproducciones": 9211,
    "ubo": 4038,
    "gua": 1161,
    "ĠSalvador": 3414,
    "Ġasimismo": 8351,
    "ĠIngres": 5684,
    "Ġchina": 7388,
    "Ã©st": 5604,
    "Ġafect": 7046,
    "ĠaÃºn": 2423,
    "Ġauto": 2833,
    "Ġapare": 978,
    "188": 2607,
    "Ġgrafiti": 9734,
    "uselas": 3294,
    "Ġcontin": 3938,
    "Ġbuscando": 9434,
    "ĠBosco": 7855,
    "ĠhistÃ³r": 1793,
    "ĠMes": 6504,
    "vida": 9379,
    "emente": 2074,
    "tro": 1388,
    "Ġnunca": 2749,
    "ĠcatÃ³": 9480,
    "cidas": 4691,
    "Ġ1901": 5241,
    "ĠLlu": 7967,
    "ĠRin": 9068,
    "Ġcompar": 4236,
    "ĠHotel": 6397,
    "Ġpublicada": 6142,
    "ologÃŃa": 4933,
    "anos": 927,
    "Ġlibera": 5430,
    "tora": 5403,
    "Ġmientras": 1231,
    "arela": 8011,
    "Ġmedida": 4157,
    "os": 109,
    "Ġlibre": 2757,
    "Ġpropias": 5409,
    "ĠeconÃ³m": 3633,
    "ĠPerÃº": 4042,
    "14": 1587,
    "Ġpiso": 7211,
    "Ġcomenzaron": 7529,
    "Ġconser": 839,
    "ĠRojas": 9870,
    "ĠgalerÃŃa": 2161,
    "adajo": 5398,
    "ĠQuint": 8543,
    "ĠÃ": 582,
    "Ġcanciones": 9603,
    "ĠMontevideo": 5118,
    "ĠSegunda": 3441,
    "Ġmenudo": 2087,
    "ĠDolores": 9258,
    "ĠaprendiÃ³": 6238,
    "Ġconflicto": 9294,
    "ĠEstos": 3818,
    "ĠBona": 7538,
    "til": 781,
    "chen": 4418,
    "Ġdatos": 6835,
    "mite": 9538,
    "Ġag": 2986,
    "ĠVisuales": 6932,
    "Ġfemen": 2248,
    "Ġru": 2475,
    "cie": 9296,
    "polit": 3514,
    "Ġescrito": 2841,
    "Ġinvi": 7602,
    "Ġprecisamente": 9100,
    "Ġexper": 1625,
    "Ġestim": 6658,
    "ĠAc": 2445,
    "cÃŃ": 1875,
    "Ġminia": 2569,
    "Ġmm": 8120,
    "americano": 6002,
    "ctualmente": 3906,
    "riendo": 5639,
    "ĠclÃ¡s": 2182,
    "ladel": 5051,
    "Ġinteresante": 9754,
    "Ġprome": 9278,
    "untos": 2433,
    "Ġmiembros": 2751,
    "ĠAma": 6717,
    "ĠtÃŃtulos": 8056,
    "ĠGeorge": 3768,
    "ĠInstitute": 6303,
    "Ġalumna": 9622,
    "Ġabstractas": 9489,
    "enn": 4729,
    "Ġsemi": 9189,
    "gorÃŃas": 7867,
    "Ġnatal": 2991,
    "Ġ2000": 2979,
    "ĠLÃ¡zaro": 8054,
    "ĠGracias": 6538,
    "ĠCas": 1114,
    "Ġproto": 9412,
    "anzas": 7034,
    "Ġopin": 5467,
    "ciente": 2557,
    "bles": 2230,
    "hel": 4450,
    "cesiÃ³n": 4270,
    "Ġreg": 1226,
    "bai": 7550,
    "dil": 3381,
    "ds": 7151,
    "ĠcaÃŃda": 7165,
    "EspaÃ±a": 8578,
    "ĠestÃ©tica": 3983,
    "Ġhizo": 1296,
    "Ġso": 287,
    "Ġmanifiesto": 7658,
    "Ġreper": 7510,
    "tudes": 5745,
    "ĠMarÃŃa": 900,
    "ĠPaula": 9424,
    "ĠarquitectÃ³nico": 8308,
    "ĠrÃ©": 4892,
    "ĠfÃŃs": 4488,
    "ĠQui": 3256,
    "ĠPasiÃ³n": 7940,
    "Ġpre": 451,
    "Ġarro": 4493,
    "Ġfundam": 3749,
    "Ġrealismo": 2930,
    "Ġcentros": 8760,
    "ĠCorre": 7406,
    "Ċ": 92,
    "ova": 5682,
    "ĠAli": 9443,
    "Ġtecno": 8817,
    "raciones": 5333,
    "isa": 3078,
    "tidos": 9056,
    "ĠcatÃ³lica": 8304,
    "Ġhecho": 1578,
    "vada": 5163,
    "Ġcomp": 548,
    "ĠActualmente": 4641,
    "ĠAteneo": 6573,
    "rÃŃan": 4274,
    "Ġabandon": 2570,
    "Ġestado": 1302,
    "ĠAp": 5991,
    "Ġvoluntad": 8772,
    "via": 1848,
    "ĠGan": 7601,
    "laridad": 5548,
    "ĠestÃ¡": 682,
    "Ġaf": 1511,
    "Ġatribuida": 8401,
    "ĠCristo": 1381,
    "Ġdescon": 5793,
    "Ġrostros": 6171,
    "ivos": 4838,
    "\",": 1058,
    "Ġuniversidad": 8616,
    "itu": 501,
    "ĠarmonÃŃa": 7460,
    "alupe": 9837,
    "lesia": 863,
    "192": 2727,
    "184": 4647,
    "ĠInter": 1514,
    "Ġdeb": 2587,
    "vers": 814,
    "Ġ1927": 4320,
    "Ġ1995": 3641,
    "jetos": 1950,
    "ragÃ³n": 4993,
    "ĠHor": 6832,
    "iento": 629,
    "ĠinspiraciÃ³n": 3951,
    "ĠCuando": 2707,
    "Ġtapiz": 9693,
    "rom": 1613,
    "ĠAsia": 8842,
    "Ġencont": 1108,
    "Ġretor": 5394,
    "tea": 7201,
    "Ġingeni": 6644,
    "Ġexpuesto": 4851,
    "Ġ2016": 3396,
    "Ġtal": 800,
    "ght": 6136,
    "Ġ22": 2996,
    "ĠCollege": 4961,
    "orno": 3281,
    "ĠPintores": 5185,
    "quet": 7243,
    "ĠImperial": 7717,
    "eries": 3907,
    "Ġ1852": 9401,
    "ggen": 6859,
    "Ġprofundamente": 8376,
    "her": 3767,
    "Ġinsta": 2203,
    "Ġartista": 544,
    "ĠJoaqu": 3605,
    "ĠJoan": 3886,
    "DA": 8868,
    "ĠFab": 5407,
    "pero": 9454,
    "quÃŃ": 2501,
    "ĠmÃ©": 2291,
    "Ġdecorados": 7713,
    "Ġhasta": 640,
    "Ġ1917": 4563,
    "Ġllena": 9020,
    "Ġrecuerdan": 8458,
    "Ġtinta": 4384,
    "ĠejecutÃ³": 9432,
    "Ġpas": 756,
    "Ġmanuscrito": 2764,
    "ĠConser": 8671,
    "Ġnot": 2521,
    "ĠHar": 2857,
    "ĠcontribuyÃ³": 7678,
    "Ġeuropeos": 6933,
    "hu": 5674,
    "ĠVictoria": 4988,
    "Ġrecientes": 8344,
    "Ġmasa": 9986,
    "Ġconoci": 611,
    "ĠCongreso": 7298,
    "Ġ2005": 3159,
    "Ġiglesia": 1159,
    "ash": 2618,
    "ĠCul": 8326,
    "Ġevangel": 5292,
    "trecht": 8032,
    "ĠCatedral": 3892,
    "ĠDun": 9679,
    "ĠEx": 567,
    "ĠPortugal": 5748,
    "Ġref": 1010,
    "Ġcue": 1418,
    "ĠCle": 4111,
    "Ġg": 206,
    "ĠayudÃ³": 7380,
    "Ġnombres": 5413,
    "Ġedificio": 2412,
    "daron": 4615,
    "ĠRe": 394,
    "Barcelona": 7023,
    "vent": 2181,
    "una": 1830,
    "ĠStuttgart": 9988,
    "ĠEspaÃ±a": 918,
    "Ġon": 2684,
    "ĠpelÃŃculas": 6409,
    "ĠRijksmuseum": 9608,
    "dÃŃ": 4068,
    "ilidades": 5915,
    "Ġconstru": 1668,
    "Ã¡lisis": 3183,
    "Ã©m": 1559,
    "wa": 2791,
    "gart": 9032,
    "illa": 575,
    "Ġlargo": 1777,
    "ĠAntoine": 8688,
    "Ġmexicana": 7340,
    "Ġtorre": 7505,
    "sten": 9799,
    "Ã¡b": 3520,
    "Ġrecuer": 2759,
    "Ġsobres": 7229,
    "ats": 7683,
    "ĠlÃŃ": 4963,
    "ĠLar": 6829,
    "Ġdibuj": 7085,
    "Ġcorto": 9704,
    "Ġtela": 2427,
    "ctos": 1163,
    "ccident": 3392,
    "olla": 6091,
    "Ġconce": 3162,
    "omen": 1597,
    "ĠExposiciÃ³n": 1012,
    "Ġpede": 9171,
    "liam": 2250,
    "Ġdor": 8536,
    "randa": 8255,
    "ĠUn": 1301,
    "tta": 7424,
    "Ġcha": 9738,
    "tish": 9386,
    "Ġconcreto": 8687,
    "pont": 7528,
    "Ġdeten": 8021,
    "ĠgeomÃ©tricas": 8649,
    "ister": 5312,
    "ĠdebÃŃa": 5567,
    "ull": 6517,
    "ĠHistÃ³rico": 9805,
    "Ġdorada": 8745,
    "vid": 2047,
    "onÃŃa": 7088,
    "Ġentonces": 1406,
    "Ġ2015": 3429,
    "Ġmoderno": 4003,
    "ĠBernardino": 9215,
    "Ġjoyas": 7920,
    "ji": 5675,
    "ĠmostrÃ³": 4412,
    "ĠSiqueiros": 8486,
    "ĠespaÃ±ol": 1171,
    "Ġherrami": 8325,
    "Ġ70": 5129,
    "pul": 4423,
    "ĠSecesiÃ³n": 9744,
    "entalmente": 9801,
    "embro": 8809,
    "damente": 3317,
    "ĠÃ¡rbol": 2980,
    "ni": 400,
    "Ġrecibido": 5893,
    "Ġ1893": 5143,
    "ĠFalle": 3806,
    "ar": 125,
    "ĠEE": 5203,
    "Ġ2009": 3128,
    "Ġavan": 4334,
    "Ġdolor": 6579,
    "ĠmitolÃ³gicos": 9141,
    "ĠrepresentaciÃ³n": 1711,
    "ĠStu": 5309,
    "tros": 4578,
    "ĠMich": 3066,
    "Ġcerc": 3164,
    "ĠaÃ±os": 429,
    "rel": 1876,
    "cin": 2579,
    "ĠpropÃ³": 7136,
    "rales": 2459,
    "ĠperteneciÃ³": 7847,
    "Q": 43,
    "pado": 6701,
    "ĠTate": 6261,
    "oua": 8236,
    "cri": 517,
    "Ġeurope": 3456,
    "Ġpocos": 4103,
    "Ġmat": 871,
    "Ġrepeti": 7425,
    "Ġconj": 1884,
    "Ġtablas": 4694,
    "Ġrepresenta": 741,
    "Ġ1935": 4648,
    "Ġperformance": 8418,
    "idos": 2372,
    "ragon": 7300,
    "Ġayudante": 8716,
    "Ġ13": 1667,
    "rem": 686,
    "creto": 8735,
    "ficada": 8008,
    "Ġprima": 4550,
    "ĠNapoleÃ³n": 5765,
    "cran": 6240,
    "Ġcera": 6395,
    "onor": 1861,
    "Ġapor": 5588,
    "ĠXXI": 7868,
    "rek": 6738,
    "cra": 3852,
    "ĠAlfre": 4224,
    "Ġvir": 3150,
    "Ġhubi": 6643,
    "Ġmila": 7004,
    "ĠBel": 543,
    "ies": 9187,
    "Ġmarinas": 7812,
    "Ġvanguardias": 9813,
    "Ġapenas": 5171,
    "ĠLibro": 3772,
    "exo": 6980,
    "Ġpob": 3640,
    "Mad": 3470,
    "Ġgrie": 2260,
    "gares": 3274,
    "ĠEstados": 1468,
    "cciÃ³n": 375,
    "onas": 4397,
    "ĠocupaciÃ³n": 9878,
    "Ġfer": 6259,
    "ĠArts": 3065,
    "ĠhabÃŃa": 774,
    "ĠPlÃ¡sticas": 3586,
    "rante": 4627,
    "zio": 5957,
    "Ġfechado": 5767,
    "Ġ1954": 4390,
    "ierro": 6328,
    "ulo": 2636,
    "rÃŃa": 816,
    "ĠÂ¡": 7373,
    "ĠPinturas": 4804,
    "Ġconocer": 3760,
    "ader": 5562,
    "Ġhaberse": 9094,
    "Ġdiferencia": 3801,
    "M": 39,
    "undi": 2871,
    "Ġmomentos": 7006,
    "Ġs": 116,
    "Ġcapital": 3053,
    "ĠAmb": 3561,
    "ĠJohn": 1843,
    "ord": 1921,
    "poleÃ³n": 5211,
    "Ġlograr": 8762,
    "Ġrela": 850,
    "\").": 9862,
    "Ġrea": 5903,
    "perio": 3518,
    "Ġexplo": 4165,
    "Ġensa": 6309,
    "ĠdataciÃ³n": 9772,
    "ĠCompaÃ±ÃŃa": 8849,
    "Ġaspecto": 3707,
    "ĠLe": 599,
    "Ġminiatura": 5498,
    "Ġdistint": 2251,
    "Ġdisper": 7781,
    "ĠIsaac": 8157,
    "Ġent": 314,
    "Ġcoleccionistas": 8274,
    "Ġexpresionismo": 4329,
    "Ġpoeta": 2886,
    "26": 4825,
    "ĠdestrucciÃ³n": 8991,
    "gando": 3337,
    "ĠTab": 7991,
    "ht": 9635,
    "uz": 7145,
    "ĠVie": 3194,
    "za": 338,
    "ibles": 5320,
    "Ġatribuido": 6037,
    "ĠMen": 2477,
    "Ġpatrones": 9960,
    "ĠnÃºm": 1827,
    "Ġdestruido": 9557,
    "Ġpasos": 9196,
    "Ġdama": 6225,
    "Ġninguna": 4551,
    "orca": 4351,
    "istas": 853,
    "berg": 2192,
    "lard": 7551,
    "Ġincor": 3082,
    "Ġpodemos": 7471,
    "ĠPa": 398,
    "ĠEj": 6039,
    "ica": 224,
    "forman": 5347,
    "ĠVo": 4033,
    "Ġdisponible": 9838,
    "ĠAnte": 7821,
    "Ġcuar": 3369,
    "ĠdescripciÃ³n": 5606,
    "Ġgeo": 7482,
    "stan": 7412,
    "Ġobserv": 8176,
    "ĠSegundo": 6727,
    "Ġbusca": 6162,
    "Ġera": 608,
    "Ġexposiciones": 1209,
    "ĠAzerbaiyÃ¡n": 8104,
    "Ġreloj": 9665,
    "ĠAt": 4162,
    "dora": 5471,
    "ĠsÃŃ": 2000,
    "Ã¼l": 9463,
    "Ġtar": 1207,
    "Ġsalida": 9581,
    "Ġcate": 3899,
    "ĠLiteratura": 9244,
    "Ġobjetos": 2119,
    "Ġpapel": 1599,
    "Ġthe": 1799,
    "Ġtaller": 1362,
    "todo": 3931,
    "Ã³nima": 9887,
    "me": 846,
    "bier": 1062,
    "ĠcÃ³": 1780,
    "mem": 4142,
    "Ġbos": 4858,
    "ĠEscul": 2993,
    "ling": 5483,
    "ĠapareciÃ³": 6185,
    "Ġmonumentos": 7037,
    "Ġnumerosas": 2693,
    "ĠMedia": 5192,
    "ĠseÃ±alÃ³": 9898,
    "tiendo": 8023,
    "Ġterm": 1982,
    "Ġfon": 1331,
    "Ġmonte": 8561,
    "Ġderecho": 3621,
    "ĠcelebrÃ³": 6870,
    "RA": 7893,
    "atorio": 6764,
    "ĠFe": 1969,
    "Ġestancia": 3070,
    "use": 1264,
    "ĠConcepciÃ³n": 4788,
    "uiza": 4093,
    "ĠCa": 515,
    "Ġfront": 8565,
    "inos": 1210,
    "ĠPre": 3133,
    "calipsis": 8707,
    "ps": 2645,
    "Ġcostumb": 3743,
    "ĠcanciÃ³n": 8575,
    "quis": 3109,
    "Ġsiendo": 1482,
    "Ġdebido": 2046,
    "Ġinstrumentos": 8803,
    "ĠElizabeth": 7240,
    "Ġblanca": 5064,
    "ctora": 5601,
    "cifi": 4374,
    "Ġac": 445,
    "Ġindustria": 7157,
    "Ġproyecto": 2436,
    "Ġreun": 2956,
    "Ġ1968": 3825,
    "Ġjuicio": 8481,
    "Ġvarias": 1403,
    "Ġpintar": 1539,
    "tida": 4128,
    "lana": 3634,
    "Ġplaza": 4302,
    "Ġromano": 5494,
    "Ġvestidos": 7792,
    "ĠKo": 3574,
    "ĠFrancisco": 1103,
    "ud": 1001,
    "Ġverano": 3881,
    "ĠrealizaciÃ³n": 4019,
    "Ġdistribu": 8379,
    ");": 1989,
    "eno": 1455,
    "ĠOtoÃ±o": 7589,
    "iev": 8839,
    "Ġembar": 1116,
    "Ġderecha": 1715,
    "gieron": 9752,
    "Ġhistorias": 6472,
    "well": 6338,
    "ĠBorbÃ³n": 9919,
    "Ġlocales": 5625,
    "Ġpaisajes": 1294,
    "Ġmez": 2847,
    "yeron": 6921,
    "Ġdedicado": 4227,
    "Ġconect": 9630,
    "ĠfalleciÃ³": 3865,
    "itario": 4912,
    "Ġnombra": 9366,
    "Ġburgues": 9593,
    "Ġescribir": 6306,
    "pos": 294,
    "ĠEyck": 5920,
    "Ġdatan": 9306,
    "ced": 7436,
    "Ġrepresentaban": 9460,
    "ĠCaprich": 8414,
    "50": 2185,
    "79": 9470,
    "ĠBarcelona": 1305,
    "Ġherencia": 8412,
    "ok": 4134,
    "Ġpanel": 4960,
    "Ġprimero": 2641,
    "gelo": 6978,
    "Ġcolecciones": 2081,
    "Ã¡nicas": 8919,
    "ĠBab": 8776,
    "ĠprecisiÃ³n": 6950,
    "ĠManuscri": 9933,
    "ĠcÃ³n": 9611,
    "ver": 373,
    "ĠPetit": 9552,
    "Ġpose": 2900,
    "Ġlle": 605,
    "ĠMedellÃŃn": 8345,
    "uesta": 2178,
    "Ġcolor": 703,
    "st": 120,
    "ĠtambiÃ©n": 395,
    "ĠBay": 8127,
    "Ġdescubier": 5342,
    "rary": 6231,
    "ĠdescubriÃ³": 6595,
    "cram": 9903,
    "Ġmarfil": 9109,
    "gli": 4471,
    "uero": 9614,
    "ĠMont": 2095,
    "ila": 8948,
    "Ġlibros": 1867,
    "Ġtex": 1317,
    "ĠToda": 9647,
    "p": 71,
    "ida": 696,
    "ĠOtras": 4888,
    "ÃŃsimo": 8124,
    "terrÃ¡neo": 8371,
    "Ġaun": 7964,
    "ĠtodavÃŃa": 3287,
    "ĠaquÃŃ": 4168,
    "ĠEstocolmo": 7408,
    "rig": 1416,
    "cesa": 6383,
    "ĠAndrÃ©": 4470,
    "Ġsuces": 5022,
    "uta": 7947,
    "Ġcentro": 1952,
    "sto": 504,
    "dÃŃa": 2218,
    "lico": 1365,
    "bida": 7121,
    "ĠÃį": 8723,
    "Ġpintor": 387,
    "rell": 9831,
    "ĠAsunciÃ³n": 5750,
    "Ġflu": 7256,
    "ĠSargent": 7960,
    "Ġrelativamente": 8331,
    "ĠMis": 5856,
    "Ġinfluido": 6861,
    "Ã©nez": 6947,
    "uncia": 8121,
    "eb": 5448,
    "quisiciÃ³n": 6044,
    "ĠParis": 4528,
    "ĠD": 209,
    "ĠIX": 6751,
    "Ġmodelo": 2094,
    "Ġpintaba": 6721,
    "Ġpast": 3408,
    "ĠVia": 4748,
    "Ġmor": 3367,
    "Ġindica": 4692,
    "varo": 8963,
    "ĠMuchas": 7760,
    "Ġdipl": 6814,
    "be": 702,
    "gia": 3985,
    "ficados": 7456,
    "ĠcÃŃrculos": 7517,
    "Ġactriz": 8534,
    "ari": 1564,
    "Ġpergam": 7027,
    "Ġcontinuar": 7289,
    "vancia": 9384,
    "Ġ1902": 5520,
    "Ġactor": 8608,
    "jam": 7670,
    "ĠJardÃŃn": 8460,
    "cente": 3513,
    "ĠÃī": 1899,
    "Ġalf": 7058,
    "ĠFalleciÃ³": 4448,
    "ĠestÃ¡n": 1266,
    "amen": 4832,
    "Ġconocimientos": 8257,
    "cimiento": 1241,
    "ĠEdi": 2313,
    "Ġoscu": 2712,
    "Ġtien": 2137,
    "Ġorganizada": 5476,
    "Ġdescu": 2114,
    "Ġusa": 6518,
    "III": 1750,
    "dador": 3511,
    "ĠFinalmente": 5809,
    "ĠbiografÃŃa": 6813,
    "mez": 4341,
    "ĠAnd": 1352,
    "ÃŃs": 404,
    "ficaciones": 6942,
    "ĠArquite": 4439,
    "Ġprimeros": 1645,
    "Ġmecenas": 6173,
    "ĠJaime": 8906,
    "Ġvist": 3166,
    "Ġ1911": 4337,
    "ĠAmerican": 5383,
    "Ġmonarca": 9385,
    "stores": 6708,
    "Ġfen": 6963,
    "Ġari": 6116,
    "ĠatenciÃ³n": 2913,
    "adÃŃa": 5743,
    "ĠPous": 8378,
    "Ġser": 397,
    "Ġgesto": 6760,
    "ĠLen": 6015,
    "ÃŃris": 9327,
    "ĠIs": 1516,
    "Ġnecesario": 8814,
    "Ġpartido": 9504,
    "Ġricos": 9913,
    "ĠAmÃ©rica": 3284,
    "Ġaz": 1335,
    "Ġinvierno": 7133,
    "Ġoriginales": 4725,
    "Ġsa": 954,
    "Ġclaroscuro": 7576,
    "Ġbarroco": 3264,
    "ĠbaÃ±o": 7802,
    "Ġrealizados": 4498,
    "Ġmes": 1626,
    "ĠlitografÃŃa": 7923,
    "presionismo": 5911,
    "Ġbelga": 8228,
    "ĠPere": 6802,
    "ĠCru": 4935,
    "ĠGali": 6864,
    "Ġprocedentes": 8030,
    "uf": 9405,
    "ĠÃ¡m": 4839,
    "Ġcorpo": 7826,
    "Ġartistas": 652,
    "ĠenviÃ³": 6957,
    "Ġlocal": 4077,
    "vido": 5480,
    "Ġprincipalmente": 1996,
    "tecas": 8422,
    "ĠRubens": 3357,
    "Ġt": 140,
    "anci": 4901,
    "Ġrele": 4515,
    "scri": 8917,
    "Ġasunto": 7872,
    "76": 9759,
    "dan": 3021,
    "ĠAntonio": 1272,
    "Ġsolamente": 8177,
    "lesi": 8975,
    "Ġinacab": 8253,
    "Ġcuader": 9395,
    "ale": 1082,
    "pectivas": 6866,
    "ĠcomenzÃ³": 1567,
    "ĠcrÃŃticas": 5985,
    "ĠcaracterÃŃstica": 6011,
    "Ġdebe": 3292,
    "Ġsome": 9220,
    "Ġ1895": 5210,
    "Ġaparece": 1891,
    "Ġcincuenta": 5986,
    "ĠChicago": 3378,
    "ĠOrsay": 8196,
    "ĠSp": 5089,
    "Ġviol": 4840,
    "Ġoscuro": 4438,
    "Ġguar": 4720,
    "ĠChar": 2105,
    "fÃŃa": 2444,
    "cent": 1863,
    "rio": 977,
    "Ġllamado": 1964,
    "Ġgoua": 9589,
    "ĠCri": 1041,
    "Ġbaj": 1122,
    "Ġpropietario": 8417,
    "adio": 9067,
    "Ġreconocimiento": 3905,
    "Ġit": 1104,
    "grafÃŃa": 609,
    "ers": 1409,
    "rente": 3612,
    "Ġconstruir": 6697,
    "ĠSil": 3549,
    "Ã±ado": 6412,
    "alladolid": 4024,
    "Ġindic": 4434,
    "m": 68,
    "hlo": 8621,
    "pie": 4105,
    "ĠChica": 3262,
    "ĠPÃºblica": 9666,
    "Ġreve": 3495,
    "ĠAgui": 9906,
    "ĠArti": 1828,
    "ĠTest": 4393,
    "Ġdelante": 6460,
    "Ġtransmi": 5615,
    "ry": 1889,
    "ĠTÃ©cnica": 8231,
    "ĠHunt": 8122,
    "Ġmorir": 8243,
    "Ġconden": 7375,
    "ĠBruselas": 3479,
    "orme": 7082,
    "Ġarzob": 9207,
    "Ġdistintos": 4762,
    "Ġmosaico": 7320,
    "ĠHamburgo": 8063,
    "Bornemisza": 7441,
    "Ġantigua": 3006,
    "endo": 641,
    "Ġ183": 2026,
    "ĠVarsovia": 8358,
    "Ġpi": 1328,
    "itan": 8145,
    "ĠSantander": 6883,
    "ĠCarre": 8207,
    "Ġmas": 2561,
    "uramente": 6374,
    "Ġisla": 4614,
    "dices": 6368,
    "iva": 3910,
    "ĠconvirtiÃ©ndose": 8833,
    "Ġtrabaj": 417,
    "Ġ1963": 3874,
    "ĠDÃŃaz": 5332,
    "enci": 2758,
    "Ã³st": 3504,
    "ĠEmbaj": 9808,
    "Ġfundadores": 7462,
    "ĠTrayectoria": 4454,
    "Ġescudo": 4801,
    "Ġigualmente": 5537,
    "ermo": 7317,
    "Ġapo": 1902,
    "varez": 6404,
    "Ġarriba": 6583,
    "ĠMir": 9999,
    "ĠperdiÃ³": 7908,
    "l": 67,
    "ĠÃģmsterdam": 3179,
    "Ġexpon": 2640,
    "tores": 1606,
    "Ġcoro": 8077,
    "Ġimplic": 9242,
    "Ġcasado": 8586,
    "Ġhi": 559,
    "9": 23,
    "ĠMariano": 6428,
    "Ġarque": 4208,
    "Ġpropiedad": 3700,
    "Ã¡logo": 2705,
    "ĠWh": 6523,
    "Ġseres": 8623,
    "ĠfÃ¡cil": 6574,
    "ĠMach": 7113,
    "1998": 9466,
    "Ġestudios": 1182,
    "gres": 760,
    "Ġpeso": 9113,
    "ĠcÃ¡mara": 4297,
    "Ġrecor": 2544,
    "cur": 1028,
    "Ġnubes": 7440,
    "Ġ1905": 4611,
    "ĠChristi": 6113,
    "ĠUcran": 9699,
    "Ġideal": 6634,
    "Ġventana": 5315,
    "Ġrelacionadas": 8520,
    "Ġmotivos": 3195,
    "ĠgÃ³": 4060,
    "A": 27,
    "Ġconocidos": 4561,
    "Ġcuadros": 1060,
    "Ġgi": 8110,
    "Ġsalones": 8091,
    "ĠHam": 3380,
    "fe": 441,
    "sion": 2721,
    "Ġinvolu": 8128,
    "Ġfri": 8276,
    "stas": 455,
    "ĠpolÃŃtico": 4119,
    "Ã©n": 292,
    "Ġtra": 293,
    "Ġ1894": 5722,
    "Ġatrib": 2744,
    "ĠÃ¡b": 7190,
    "Ġcata": 5938,
    "nes": 3067,
    "ĠbÃ³ve": 5164,
    "ĠIg": 1724,
    "Ġampli": 3424,
    "Ġhalla": 4717,
    "trait": 7068,
    "che": 1167,
    "Ġdesarrol": 1138,
    "Ġsirve": 8830,
    "Ġter": 1169,
    "ĠRepÃºblica": 2933,
    "eral": 3559,
    "etras": 3849,
    "Ġempresa": 6410,
    "[PAD]": 0,
    "ĠPeters": 3742,
    "G": 33,
    "ÃŃt": 679,
    "Ġquin": 7062,
    "ruguay": 5040,
    "Ġecuestre": 7350,
    "ĠEl": 271,
    "Ġvolver": 5186,
    "ĠpaÃŃses": 3591,
    "Ġresist": 6510,
    "Ġcosa": 8450,
    "Ġ1942": 4596,
    "ĠreligiÃ³n": 6875,
    "ĠToulouse": 7264,
    "Ġ46": 9934,
    "Ġmodelado": 9648,
    "Ġcurso": 5853,
    "Ġafe": 4934,
    "iado": 4527,
    "Ġlecciones": 8328,
    "ĠUN": 6948,
    "ĠseÃ±ala": 5995,
    "Ġpergamino": 7891,
    "Ġ1949": 4650,
    "e": 60,
    "Ġmonumentales": 9793,
    "ĠIgnacio": 5768,
    "ĠVÃŃ": 6891,
    "ĠXV": 1096,
    "Ġdocente": 6914,
    "Ġasocia": 9263,
    "ĠVista": 7546,
    "Ġcor": 579,
    "ĠPu": 5119,
    "rina": 6157,
    "ĠKing": 9684,
    "Ġdecir": 3203,
    "Ġ1869": 7498,
    "Ġojos": 3866,
    "Ġjardines": 7490,
    "ĠantigÃ¼edad": 7346,
    "zÃ³": 862,
    ".),": 7675,
    "ĠabandonÃ³": 5130,
    "ĠtardÃŃa": 9774,
    "erar": 4307,
    "ĠCol": 906,
    "sticia": 6315,
    "ian": 2613,
    "ĠVatic": 5701,
    "Ġmilita": 6569,
    "ĠTim": 7059,
    "ÃŃdo": 4734,
    "Ġ1923": 4835,
    "ĠAzul": 8306,
    "vos": 2071,
    "ĠcorazÃ³n": 7263,
    "Ġejemplos": 4263,
    "Ġib": 3994,
    "ĠTru": 7644,
    "guin": 4010,
    "reau": 7610,
    "Ġfor": 393,
    "Ġreligios": 1616,
    "Ġmister": 9662,
    "Ġdej": 3386,
    "ĠcambiÃ³": 7292,
    "ĠCatalina": 4485,
    "ĠcaracterÃŃsticas": 3451,
    "Ġpersonalidad": 6834,
    "biendo": 6608,
    "ĠInternacional": 2165,
    "Ġespa": 1337,
    "Ġdesarrollado": 7052,
    "Ġ4": 1009,
    "int": 173,
    "Ġamplia": 4021,
    "Ġsentada": 6075,
    "lon": 7232,
    "Ġaniversario": 7199,
    "Ġpier": 7234,
    "ntaine": 9092,
    "ĠcÃ©lebre": 6146,
    "Ġenorme": 7185,
    "Ġviuda": 6074,
    "ĠAh": 5065,
    "bito": 4718,
    "ĠDere": 9194,
    "ragona": 9649,
    "bal": 3180,
    "vaciones": 6712,
    "ĠquerÃŃa": 6768,
    "entar": 4091,
    "Ġofre": 2656,
    "ĠmitologÃŃa": 7262,
    "ĠinfluyÃ³": 6818,
    "ĠFel": 7749,
    "ĠrecibiÃ³": 1572,
    "Ġhumanas": 6916,
    "ĠtenÃŃan": 4882,
    "Ġnoticia": 8676,
    "umentos": 6063,
    "gulo": 5404,
    "Ġ148": 6226,
    "Ġestren": 7745,
    "Ġcuyos": 5590,
    "Ġhere": 5882,
    "Ġligeramente": 7429,
    "Re": 5738,
    "stad": 8216,
    "ĠespaÃ±": 869,
    "Ġdestacado": 4713,
    "ĠMÃ¡": 3645,
    "Ġdata": 5775,
    "Ġcontenido": 4758,
    "Ġarrodil": 8252,
    "la": 107,
    "Ġnub": 5734,
    "Ġgradu": 4047,
    "Ġrespuesta": 7748,
    "Ġcris": 7306,
    "ĠnaciÃ³": 1806,
    "rich": 2042,
    "Ġarm": 4985,
    "Ġtuvo": 1176,
    "quia": 3473,
    "rÃŃo": 7330,
    "ĠTodos": 7831,
    "Ġpreten": 4520,
    "Ġdocument": 8060,
    "Ġfie": 4272,
    "tografÃŃa": 7642,
    "ĠChurch": 6609,
    "Ġlongitud": 8750,
    "udÃ³": 6018,
    "ĠmontaÃ±as": 7622,
    "ĠHerman": 4639,
    "Ġconstruida": 8604,
    "ĠEduardo": 4187,
    ".-": 7209,
    "Ġclientes": 8834,
    "2": 16,
    "Ġuno": 796,
    "ĠVille": 9238,
    "ĠNicolÃ¡s": 4733,
    "var": 1757,
    "ĠteorÃŃa": 5308,
    "Ġespl": 9458,
    "ĠAdria": 9810,
    "Ġultra": 9496,
    "vila": 6881,
    "Ġmulti": 3112,
    "ĠFriedrich": 5504,
    "ĠTro": 5384,
    "ĠGia": 6649,
    "sÃ³": 7432,
    "Ġpermanente": 4305,
    "mpa": 9040,
    "ĠFestival": 4943,
    "ĠdifÃŃ": 4249,
    "ĠApÃ³": 9889,
    "Ġconde": 3642,
    "Ġestar": 3106,
    "Ġegip": 6426,
    "Ġ1960": 2819,
    "omo": 1281,
    "Ġact": 6320,
    "cida": 2124,
    "ĠAbraham": 7183,
    "Ġmar": 529,
    "Ġconservadas": 8211,
    "dio": 1770,
    "ĠBuda": 6521,
    "ĠcentÃŃmetros": 7036,
    "ĠRegres": 8123,
    "ĠArquitectura": 5488,
    "Ġ978": 5463,
    "Ġhorizo": 4871,
    "ist": 282,
    "Ġespecialmente": 1796,
    "uena": 3714,
    "Ġvestido": 3660,
    "ble": 617,
    "dena": 5253,
    "Ġgalar": 6012,
    "Ġenero": 1716,
    "mÃ¡n": 6647,
    "Ġimportancia": 3334,
    "Ġrealizaron": 7580,
    "Ġtodas": 2194,
    "Ġfam": 600,
    "Ġ2006": 3107,
    "ĠespecÃŃ": 4937,
    "ĠBrun": 7439,
    "Ġsiguiente": 2159,
    "Ġpredi": 8937,
    "Ġeuro": 2737,
    "viedo": 7924,
    "ĠJacques": 4741,
    "ĠEnlaces": 3973,
    "Ġad": 812,
    "tor": 406,
    "ĠHe": 1912,
    "ĠPascu": 9047,
    "ĠGuadalupe": 9964,
    "ĠImperio": 4367,
    "jos": 654,
    "SS": 8581,
    "Ġtel": 7577,
    "Ġpinta": 5491,
    "ge": 638,
    "Ġnacida": 9014,
    "Na": 9718,
    "Ġasegura": 9861,
    "Ġvisitantes": 8629,
    "Ġpropor": 2738,
    "usiÃ³n": 2269,
    "Ġampliamente": 6900,
    "gulos": 9053,
    "Ġfre": 1321,
    "ĠHen": 1740,
    "ĠBeato": 9071,
    "ĠRojo": 9505,
    "ierra": 5080,
    "Ġsoldado": 8643,
    "ĠpÃºb": 1359,
    "ĠHabana": 2914,
    "gues": 5193,
    "Ġreino": 8186,
    "ĠreproducciÃ³n": 7693,
    "ĠPin": 8393,
    "for": 782,
    "ĠVirgin": 8441,
    "ĠBacon": 8672,
    "Ġsur": 1271,
    "Ġalgun": 709,
    "ĠGiotto": 8844,
    "Ġimpro": 9553,
    "ĠBoston": 4911,
    "Ġoriental": 6244,
    "Ġv": 175,
    "ĠpasiÃ³n": 6580,
    "ĠPlÃ¡st": 2825,
    "undamente": 7879,
    "Ã¡i": 6964,
    "ĠmÃºsico": 7986,
    "Ġ162": 2852,
    "graph": 8807,
    "Ġab": 499,
    "ĠprÃŃncipe": 4809,
    "adre": 734,
    "Ġeje": 1895,
    "ĠBolonia": 4974,
    "ras": 226,
    "Ġcondiciones": 6149,
    "bas": 4539,
    "Ġpractic": 6278,
    "Ġtestamento": 6603,
    "cher": 3988,
    "ĠpoblaciÃ³n": 6940,
    "ÃŃv": 7905,
    "dimension": 7531,
    "lu": 1854,
    "siones": 1844,
    "ĠVel": 2242,
    "Ġinteriores": 5008,
    "Ġdiferenci": 9520,
    "ĠMauri": 9225,
    "cocÃ³": 8039,
    "ĠQ": 1192,
    "Ġfondos": 4446,
    "ab": 205,
    "ĠErnesto": 9651,
    "ĠUffizi": 6352,
    "Ġimpre": 6236,
    "aliza": 5500,
    "Ġaprecia": 6335,
    "amb": 3218,
    "Ã³ve": 4951,
    "Ġrevista": 2416,
    "tible": 9483,
    "venes": 3127,
    "ĠKon": 8050,
    "ĠpelÃŃcu": 2287,
    "Ġcomercia": 5331,
    "ĠdecÃŃa": 7152,
    "Ġjuego": 6168,
    "Ġello": 2585,
    "ĠEspa": 5841,
    "ĠbÃºsque": 5569,
    "inta": 1878,
    "ham": 2601,
    "Ġderro": 7956,
    "Ġtitulado": 4500,
    "Ġherm": 1297,
    "ĠLab": 6312,
    "6": 20,
    "193": 2888,
    "erra": 1674,
    "ĠDuque": 7846,
    "ceso": 2226,
    "ĠcartÃ³n": 8369,
    "ĠCanadÃ¡": 6399,
    "ĠvisitÃ³": 5215,
    "Ġhabiendo": 9089,
    "Ġllevaron": 7877,
    "Ġencuentra": 1134,
    "ĠFon": 6179,
    "sel": 2564,
    "ĠCiudad": 1839,
    "Ã©": 162,
    "Ġsecre": 4890,
    "Ġ1951": 4606,
    "Ġblancas": 9400,
    "Ġprueba": 7961,
    "Ġrecibiendo": 8198,
    "ĠPast": 7885,
    "ĠGh": 7979,
    "ĠComen": 5219,
    "Ġban": 2066,
    "cole": 5763,
    "ĠFeli": 2280,
    "Ġtextos": 3601,
    "Ġperci": 5981,
    "wich": 9761,
    "ĠBol": 2425,
    "dos": 311,
    "Ġtab": 1528,
    "ĠSu": 497,
    "gawa": 9380,
    "ĠpÃ¡": 4862,
    "Ġdig": 4479,
    "Ġpublicaciones": 5859,
    "uela": 988,
    "rentes": 7074,
    "ĠLÃ³": 3776,
    "rib": 1742,
    "alizados": 9275,
    "Ġaseg": 7184,
    "Ã¡m": 1756,
    "umo": 6351,
    "s": 74,
    "ĠÃŃn": 8754,
    "ĠNew": 2127,
    "ĠRomano": 7714,
    "Ġhombres": 3297,
    "J": 36,
    "iano": 1767,
    "Ġfrescos": 2577,
    "Ġdirectamente": 4507,
    "eamente": 8266,
    "ĠartÃŃstica": 1221,
    "ĠAustria": 4248,
    "Ġidi": 6867,
    "Ġvent": 2995,
    "Ġhijo": 1217,
    "Ġperio": 1801,
    "Ġconserva": 1892,
    "Ġsegu": 4009,
    "ĠDE": 9441,
    "queiros": 8420,
    "Ġsim": 823,
    "CI": 266,
    "Ġaprender": 9937,
    "Ġ1908": 4535,
    "Ġsemanas": 9607,
    "rencias": 2902,
    "ĠSalom": 6249,
    "ĠpasÃ³": 2177,
    "Ġplanta": 4401,
    "ĠÃºltimo": 2039,
    "Ġrepresentante": 7286,
    "Ġsobrevi": 4560,
    "Ģ": 94,
    "Ġencontraban": 7064,
    "ĠProbablemente": 8938,
    "Ġbat": 3903,
    "rit": 1605,
    "Ã±e": 8201,
    "amos": 5069,
    "Ġefectos": 3909,
    "Ġcuerpo": 1786,
    "dor": 595,
    "Ġmis": 1081,
    "quier": 1132,
    "didos": 5006,
    "rona": 8073,
    "Ġmujeres": 1553,
    "Ġque": 160,
    "ĠAy": 2843,
    "Ġmanos": 2800,
    "tada": 1760,
    "Ġrealistas": 8552,
    "Ġrect": 8254,
    "Ġ0": 3406,
    "Ġnuevos": 4071,
    "ant": 285,
    "ĠJudi": 7778,
    "Ġdice": 3442,
    "Ãºl": 6522,
    "Ġnoble": 5230,
    "Ġcampos": 7050,
    "Ġlab": 5647,
    "Ġatribu": 2268,
    "Ġgobierno": 3020,
    "tesis": 7841,
    "Ã¼s": 5182,
    "gÃ¼": 9453,
    "dentes": 3434,
    "ĠColo": 9668,
    "ĠHend": 6855,
    "ĠelecciÃ³n": 7193,
    "ĠKi": 9950,
    "Ġfundador": 4679,
    "ĠPÃ©": 3398,
    "ĠpictÃ³ricos": 8644,
    "Ġconvertirse": 6492,
    "cidad": 3344,
    "Ġweb": 6759,
    "terrÃ¡n": 5766,
    "Ġetapa": 2681,
    "ĠInterna": 4955,
    "Ġ1997": 3554,
    "Ġsombrero": 7168,
    "ĠNue": 764,
    "inadas": 6339,
    "Ġdemostra": 6425,
    "xico": 1068,
    "ĠWikimedia": 6435,
    "Ġ1903": 5416,
    "ĠleÃ³n": 9931,
    "ĠVinci": 6441,
    "ĠrestauraciÃ³n": 3803,
    "ĠSierra": 8949,
    "IN": 471,
    "arrol": 1077,
    "Ġcuello": 6993,
    "ĠseudÃ³nimo": 9969,
    "Ġpalab": 2865,
    "anda": 9054,
    "Ġindependiente": 5194,
    "Ġdemasiado": 6024,
    "ĠFor": 2374,
    "Ġliterario": 8133,
    "Madrid": 3624,
    "Ġenfrent": 7063,
    "Ġcercano": 5629,
    "Ã¡t": 876,
    "ĠPrimer": 3372,
    "ĠpÃºblicos": 6454,
    "Ġpromin": 9193,
    "ĠSen": 6762,
    "Ġregresa": 9415,
    "ĠF": 216,
    "ĠHol": 3522,
    "Ġper": 268,
    "ski": 3872,
    "ĠCÃ©": 5678,
    "ĠabriÃ³": 5648,
    "Ġinterior": 2452,
    "positor": 7646,
    "ĠAri": 6364,
    "ĠSolo": 8270,
    "Ġplaya": 9462,
    "Ġfrecuencia": 5558,
    "els": 8435,
    "C": 29,
    "Ġsanta": 5486,
    "Ġdescen": 5727,
    "ĠCarmen": 4166,
    "Ġabre": 6607,
    "4": 18,
    "isp": 3446,
    "ami": 3880,
    "Ġtumbas": 9583,
    "Ġesfuerzo": 9122,
    "Ġfant": 4099,
    "Ġaguafuer": 6177,
    "Ġcontexto": 4999,
    "pec": 1265,
    "ĠilustraciÃ³n": 5542,
    "ĠGabriel": 4509,
    "landia": 8610,
    "ĠAugust": 6009,
    "Ġni": 1019,
    "elig": 7525,
    "Ġamante": 7072,
    "ĠDaniel": 4783,
    "ĠpictÃ³ricas": 6270,
    "uscri": 1586,
    "Ġconcepto": 5003,
    "izo": 1002,
    "Ġactividades": 4759,
    "quez": 2088,
    "ĠArte": 507,
    "yor": 9966,
    "ĠShe": 9410,
    "Ġpie": 1025,
    "ĠQu": 2666,
    "ĠFre": 2753,
    "ĠdiseÃ±o": 2150,
    "ĠFiladelfia": 6038,
    "ik": 3425,
    "Ġuni": 1945,
    "eos": 1542,
    "Ġvela": 8191,
    "ĠDominic": 9212,
    "Ġ163": 2756,
    "Ġmayo": 1574,
    "inte": 2878,
    "los": 407,
    "z": 81,
    "ĠUniversidad": 1213,
    "Ġestilo": 746,
    "ĠBlack": 9494,
    "Ġ1976": 3875,
    "Ġafric": 9283,
    "ĠBreton": 8165,
    "Ġcolectivo": 7552,
    "Ġobser": 2060,
    "Ġcercan": 8259,
    "amento": 1953,
    "Ġdoctor": 8769,
    "ĠÃģngel": 1818,
    "ĠGeneral": 4213,
    "Ġcumpl": 7639,
    "Ġrepresentaciones": 3090,
    "vin": 1457,
    "ub": 460,
    "Ġgober": 5544,
    "Ġcartas": 6209,
    "kins": 9404,
    "Ġgu": 1472,
    "Ġtemplo": 4043,
    "mat": 6502,
    "ĠEdo": 8765,
    "Ġmom": 1251,
    "ĠIndepen": 5968,
    "ĠjardÃŃn": 4151,
    "ajest": 9640,
    "Ġhay": 1448,
    "ben": 4544,
    "ĠEra": 3796,
    "ĠDibujo": 4311,
    "Ġcasas": 5445,
    "Ġnegros": 8588,
    "Ġ2003": 3468,
    "Ġcuanto": 4126,
    "Ġllegar": 4340,
    "Ġmuer": 784,
    "ĠChrist": 5358,
    "In": 6021,
    "Ġviene": 9588,
    "Ġreinado": 7450,
    "bido": 1315,
    "Ġdiferentes": 1755,
    "Ġgan": 2054,
    "Ġbrillante": 5814,
    "Ġdinero": 6059,
    "ora": 463,
    "Ã±ez": 5490,
    "Ġextranj": 3751,
    "Ġacor": 9239,
    "ĠWar": 4420,
    "Ġ149": 4300,
    "Ġtridimension": 9624,
    "Ġ1887": 5493,
    "ĠJose": 2169,
    "Ġholandesa": 8980,
    "ĠEgip": 4121,
    "ĠBerlÃŃn": 2051,
    "ĠVicente": 3675,
    "Ġesco": 4255,
    "tim": 8187,
    "umen": 4494,
    "Ġabuelo": 7437,
    "ĠCont": 1364,
    "ĠCivil": 6645,
    "Ġamena": 8798,
    "Ġcompleto": 4635,
    "ĠPens": 6719,
    "Ġhace": 1960,
    "ĠdomÃ©st": 7959,
    "Ġfolios": 9290,
    "Ġ28": 3036,
    "ĠcomisiÃ³n": 8880,
    "ĠcontÃ³": 8904,
    "Ġexpresiones": 8389,
    "Ġpasar": 5421,
    "mas": 748,
    "Ġconsa": 7188,
    "erdo": 3757,
    "ĠLie": 6731,
    "Ġbase": 2792,
    "Ġmedal": 9131,
    "ĠCha": 3731,
    "Ġespacio": 1837,
    "ĠMartÃŃn": 2184,
    "tados": 2760,
    "Ã©lgica": 4292,
    "ĠDist": 6297,
    "f": 61,
    "Ġutilizar": 6081,
    "ĠMonte": 2925,
    "cracia": 8967,
    "Ġlim": 2765,
    "Ġvuelve": 5961,
    "Ġproductos": 7827,
    "ficado": 2238,
    "ĠDresde": 5499,
    "ĠSevilla": 1947,
    "Ġutiliza": 3943,
    "Ġmoder": 1462,
    "ĠChil": 6913,
    "ospital": 4031,
    "Ġmala": 8452,
    "ruecos": 8909,
    "len": 2619,
    "vantes": 6424,
    "umba": 3639,
    "vol": 6423,
    "ĠJules": 8262,
    "Ġk": 2740,
    "uicio": 4698,
    "ĠAlemania": 2028,
    "Ġretorn": 9098,
    "ĠLegado": 8783,
    "gin": 2526,
    "Ġinvas": 9708,
    "Ġregres": 1420,
    "pl": 1374,
    "ĠMol": 5310,
    "ĠArch": 6331,
    "Ġ1862": 7444,
    "ĠtravÃ©s": 1445,
    "Ġapariencia": 7065,
    "cco": 9315,
    "Ġcristiano": 8749,
    "ĠBran": 7518,
    "vados": 7332,
    "Ġba": 1279,
    "mu": 9247,
    "Ã¡poles": 3234,
    "Ġtratados": 9938,
    "ĠTw": 8638,
    "Ġ1900": 3888,
    "ÃŃfico": 8321,
    "Ġgriegos": 8305,
    "Ġuniverso": 9046,
    "Ġob": 231,
    "inet": 8804,
    "Ġdejado": 9610,
    "Ġmem": 3647,
    "mi": 402,
    "ĠFernÃ¡ndez": 4314,
    "Ġsil": 4583,
    "Ġinfluenci": 6561,
    "Ġpuso": 6148,
    "ĠGent": 7334,
    "ĠTrinidad": 6264,
    "Ġconse": 2299,
    "Ġnum": 1422,
    "Ġpelo": 7666,
    "lavera": 6922,
    "resa": 4556,
    "Ġ1906": 4697,
    "Ġflor": 6251,
    "guar": 2542,
    "ĠAndalu": 7911,
    "Ġtron": 4796,
    "ilo": 621,
    "Ġcorona": 5798,
    "Ġsigui": 1094,
    "Ġrena": 3418,
    "ĠReales": 9342,
    "194": 2881,
    "ĠacadÃ©mico": 4707,
    "-": 12,
    "riel": 3937,
    "jes": 2062,
    "Ġintrodu": 2771,
    "Ġespecie": 5233,
    "ĠTi": 5110,
    "alleres": 4939,
    "ung": 2821,
    "ĠvocaciÃ³n": 8136,
    "Ġcampesinos": 8702,
    "dilla": 9097,
    "Ġregistro": 7804,
    "ville": 4695,
    "Ġsiguen": 8329,
    "vich": 4443,
    "ĠgraduÃ³": 7104,
    "an": 128,
    "ĠhistÃ³ricas": 7584,
    "Ġdiez": 3844,
    "Ġsin": 783,
    "ĠCorn": 4026,
    "Ġperdida": 9149,
    "ĠLud": 6905,
    "Ġhumana": 3696,
    "ĠSorolla": 7793,
    "Ġpremio": 2246,
    "gados": 4250,
    "Ġnueve": 5550,
    "Ġhermanas": 7313,
    "ĠCorte": 7703,
    "Ġubicada": 6785,
    "Ġderechos": 7387,
    "Ġocupa": 6639,
    "dÃŃan": 6618,
    "Ġemp": 6790,
    "ĠGonzalo": 9991,
    "ĠMural": 6549,
    "Ġdominio": 6360,
    "Ġllevado": 6939,
    "ĠexhibiciÃ³n": 4321,
    "Ġlum": 3249,
    "ntes": 423,
    "Ġsiguieron": 8893,
    "urrecciÃ³n": 6065,
    "mediat": 7467,
    "ĠDiv": 9534,
    "32": 6115,
    "Ġr": 522,
    "Ġri": 3011,
    "ĠSam": 4942,
    "ĠMi": 1293,
    "Ġherman": 2386,
    "tico": 1562,
    "Ġllegado": 6292,
    "Ġidea": 3161,
    "ximo": 5284,
    "ĠGaspar": 8119,
    "Ġyeso": 7612,
    "ĠSaint": 3120,
    "pre": 1308,
    "Ġavent": 8095,
    "Ro": 7856,
    "Ġciencia": 8083,
    "seldorf": 5600,
    "ronce": 2848,
    "84": 5456,
    "Ġmil": 1932,
    "Ã©is": 8200,
    "ĠacompaÃ±": 2675,
    "gas": 1723,
    "ĠEnrique": 3220,
    "Ġtrata": 2390,
    "ĠconvirtiÃ³": 1822,
    "ĠllegÃ³": 2447,
    "Ġantiguo": 2817,
    "12": 2382,
    "ÃŃrico": 9333,
    "ĠMax": 4399,
    "eta": 1919,
    "Ġacus": 6799,
    "ĠNueva": 931,
    "ĠfiguraciÃ³n": 7725,
    "ECCION": 270,
    "ĠdÃ©cada": 1426,
    "Ġsiguientes": 3375,
    "zig": 9270,
    "Ġ2004": 3265,
    "ĠtÃ©cnicas": 2428,
    "Ġcap": 942,
    "ĠPie": 1927,
    "jara": 6675,
    "ĠmarchÃ³": 8025,
    "iblemente": 8443,
    "ons": 7896,
    "ust": 2252,
    "ungrÃŃa": 7834,
    "ĠVar": 4746,
    "Ġjapones": 5283,
    "mart": 9720,
    "Ġdecorativos": 7937,
    "udo": 940,
    "inamarca": 6356,
    "ĠHaya": 5009,
    "ĠsÃ¡": 7323,
    "ses": 3377,
    "adura": 6934,
    "lez": 3077,
    "Ġ-": 518,
    "Ġfunera": 6815,
    "Ġindustrial": 6539,
    "Ġens": 9886,
    "ctu": 620,
    "ĠElla": 6191,
    "uiÃ³": 3972,
    "Ġgru": 980,
    "Ġparque": 7787,
    "Ġmitad": 3118,
    "Ġfin": 659,
    "ciÃ³": 588,
    "uri": 2422,
    "Ġproviene": 9041,
    "Ġpeti": 8882,
    "Ġubic": 2967,
    "ĠVal": 1050,
    "Ġleer": 9848,
    "Ġalta": 3672,
    "cul": 536,
    "yÃ³": 2180,
    "Ġconverti": 7957,
    "Ġ1945": 4200,
    "Ġgeom": 3068,
    "ĠObras": 1978,
    "dieron": 3895,
    "Ġmant": 1834,
    "Ġet": 1579,
    "Ġornam": 5240,
    "ĠganÃ³": 3713,
    "Ġverde": 2798,
    "Ġ1888": 5167,
    "ĠLib": 1961,
    "ĠSalamanca": 6898,
    "ĠMarco": 6577,
    "Ġdesempe": 5152,
    "Ġxilo": 7267,
    "croix": 7945,
    "Ġparticulares": 6284,
    "Ġimpresionismo": 4812,
    "rael": 6207,
    "Ġcho": 9926,
    "ĠÃºltima": 2227,
    "beres": 2536,
    "ĠModerno": 2563,
    "Ch": 9736,
    "ĠCupido": 8220,
    "Ġsar": 8340,
    "Ġnivel": 3963,
    "Ġterminar": 6783,
    "Ġprimeras": 2058,
    "Ġfro": 4046,
    "dencias": 4414,
    "Ġacto": 6752,
    "ĠCamille": 7637,
    "istro": 6119,
    "ĠMall": 5300,
    "Ġvalora": 6824,
    "Ġcolum": 3366,
    "dam": 1389,
    "Ġciudades": 3332,
    "ĠTaller": 5940,
    "Ġinicios": 5786,
    "Ġesencial": 9638,
    "jÃ³n": 8141,
    "ĠHospital": 6180,
    "Ġpersonas": 2519,
    "Ġpr": 462,
    "Ġsint": 5036,
    "reg": 5147,
    "rÃ¡": 772,
    "Ġmisma": 1627,
    "atal": 1178,
    "ĠMartin": 5341,
    "Ġdis": 743,
    "Ġtener": 2904,
    "Ġconseguir": 6749,
    "Ġoro": 2345,
    "ky": 3506,
    "ney": 4237,
    "ĠobservaciÃ³n": 9523,
    "Ġempren": 7572,
    "ĠParma": 8005,
    "ĠRa": 1201,
    "museum": 5705,
    "Ġposibilidad": 7478,
    "ĠOx": 7603,
    "ori": 1283,
    "Ġmantener": 7772,
    "165": 7258,
    "rens": 8516,
    "uiendo": 8315,
    "erte": 8525,
    "Ġinicio": 5839,
    "Ġsolitario": 8791,
    "Ġmelan": 7663,
    "cont": 1029,
    "ĠSuper": 9766,
    "ĠallÃŃ": 2205,
    "taf": 7265,
    "Ġdirector": 2221,
    "ĠCuba": 3051,
    "ction": 4298,
    "gimen": 8633,
    "zÃ³n": 2783,
    "Ġautores": 3809,
    "Ġsuperior": 2665,
    "Ġsupone": 7799,
    "ĠJuicio": 7384,
    "Ġel": 136,
    "erm": 622,
    "Ġpese": 9792,
    "Ġsignificado": 5073,
    "abilidad": 8837,
    "Ġtard": 4131,
    "ĠVis": 2954,
    "Ġtratamiento": 4632,
    "Ġescal": 5487,
    "Ġcompleta": 5374,
    "Ġoriginalmente": 5971,
    "Lond": 9162,
    "ľ": 102,
    "ables": 3152,
    "ĠCanal": 8399,
    "diente": 2713,
    "ceta": 7527,
    "gip": 2911,
    "Ġentus": 7788,
    "Ġmartirio": 9363,
    "Ġadquirida": 6386,
    "Ġinvestig": 2576,
    "ĠPaÃŃses": 3814,
    "Ġtalento": 4587,
    "Ãº": 255,
    "Ġtipo": 1781,
    "Ġra": 866,
    "ĠÃ¡rabe": 8725,
    "ĠRenoir": 5642,
    "Ġnotas": 8547,
    "ĠHasta": 6896,
    "die": 8383,
    "ĠperÃŃo": 1951,
    "ĠSuiza": 4523,
    "iÃ©ndose": 9356,
    "Ġpig": 3643,
    "Ġsus": 281,
    "Ġ90": 6408,
    "laborÃ³": 3620,
    "ĠNegro": 9916,
    "Ġ80": 4785,
    "glaterra": 2591,
    "forma": 3960,
    "Ġunivers": 4819,
    "Ġdado": 4554,
    "jar": 1573,
    "licas": 3244,
    "ĠEstuvo": 8527,
    "irm": 1286,
    "ĠCertamen": 8764,
    "com": 2553,
    "Ġesceno": 6431,
    "ĠWe": 2596,
    "Ġlevant": 6095,
    "ĠplÃ¡sticas": 6001,
    "Ġmue": 819,
    "ĠPost": 2862,
    "ĠParticip": 5900,
    "ire": 1903,
    "Ġinvoluc": 9497,
    "Ġgest": 3125,
    "ĠPanamÃ¡": 8155,
    "ĠRo": 646,
    "ĠOr": 1367,
    "Ã©ro": 6559,
    "ĠLich": 8789,
    "ĠpequeÃ±os": 4356,
    "hibi": 4884,
    "porte": 4301,
    "Ġmujer": 1289,
    "oles": 4666,
    "Ġfamosa": 5172,
    "ĠtÃºn": 6233,
    "gon": 2125,
    "ĠvendiÃ³": 5731,
    "ĠCopenhague": 7179,
    "ĠOtra": 5428,
    "bus": 8432,
    "icos": 430,
    "ĠMaest": 3263,
    "Ġizquierda": 1682,
    "Ġmode": 1204,
    "tz": 5693,
    "ĠDan": 5946,
    "Ġpigmento": 6736,
    "hard": 6596,
    "1992": 9809,
    "Ġej": 1078,
    "Ġligera": 6013,
    "stes": 5026,
    "Ġcasos": 5983,
    "[EOS]": 3,
    "ĠCada": 6198,
    "ĠHip": 9084,
    "ĠThyssen": 5887,
    "Ġacabado": 9120,
    "Ġverse": 6340,
    "bum": 4141,
    "icasso": 2323,
    "Ġmed": 2708,
    "ĠrelaciÃ³n": 1943,
    "viÃ³": 1173,
    "Ġpuntos": 5225,
    "adores": 1401,
    "ritu": 2116,
    "Ġvaca": 8627,
    "ĠgeneraciÃ³n": 4118,
    "ĠAnunciaciÃ³n": 4893,
    "pint": 3597,
    "ial": 1949,
    "ĠUniversity": 7138,
    "ĠOri": 3674,
    "do": 143,
    "Ġdestino": 5692,
    "Ġreconoci": 1497,
    "13": 2502,
    "ĠHenry": 4136,
    "Ġsede": 4622,
    "Ġnormalmente": 8848,
    "Ġcopia": 3069,
    "ficiente": 6754,
    "ĠatmÃ³sfera": 6500,
    "Ġ1958": 4335,
    "a": 56,
    "vierno": 5858,
    "Ġincom": 8932,
    "Ġexpresar": 7866,
    "tÃ³n": 3000,
    "ford": 3775,
    "Ġdife": 1093,
    "ĠPerson": 9728,
    "ĠmetÃ¡": 8223,
    "Ã³nimo": 2580,
    "ir": 315,
    "Ġrepresentar": 3108,
    "ĠPeÃ±a": 9003,
    "Ġpublicado": 3738,
    "ĠMurcia": 7231,
    "Ġnego": 5667,
    "20": 1067,
    "Ġlogra": 4534,
    "vangel": 2426,
    "Sant": 9780,
    "ĠSo": 1127,
    "hem": 6371,
    "Ġampl": 3306,
    "ĠdocumentaciÃ³n": 8553,
    "ĠBuenos": 1866,
    "Ã³g": 1319,
    "Ġtrabajaba": 5570,
    "ĠTur": 3356,
    "ĠJoven": 4873,
    "Ġconstitu": 3918,
    "ĠTri": 3823,
    "Ġedifici": 1718,
    "ĠWille": 6053,
    "Ġu": 804,
    "ĠAragÃ³n": 6417,
    "Ġgusto": 4177,
    "ĠMaurice": 7427,
    "00": 513,
    "ÃŃgenes": 7470,
    "ĠresultÃ³": 8445,
    "Ġdiscurso": 9279,
    "oni": 2511,
    "Ã¡nch": 3891,
    "ĠEm": 1814,
    "ĠDescripciÃ³n": 2309,
    "Ġcit": 6265,
    "nidad": 4674,
    "Ġserpi": 8768,
    "ĠÃ©poca": 932,
    "arios": 1400,
    "radas": 3204,
    "quina": 4685,
    "iere": 2932,
    "cando": 3755,
    "ind": 4492,
    "Ġtitulada": 4295,
    "ĠNoruega": 9180,
    "Ġenfo": 5011,
    "ĠSiglo": 8154,
    "igi": 5249,
    "ĠLeopoldo": 9513,
    "ĠRoma": 1051,
    "Ġdejando": 6262,
    "ĠR": 212,
    "zaro": 6809,
    "cionales": 1721,
    "ĠsÃŃmbolos": 5235,
    "plica": 9472,
    "Ġpra": 4850,
    "ĠEstado": 2918,
    "ĠFerrara": 9389,
    "Ġhist": 675,
    "Ġamig": 1479,
    "lista": 2813,
    "ĠNiÃ±o": 2438,
    "Ġextra": 2525,
    "1": 15,
    "ĠGerar": 7376,
    "ĠCor": 1008,
    "Ġgrandes": 1392,
    "Ġdecla": 4032,
    "entaciÃ³n": 2103,
    "Ġleg": 7122,
    "ĠparticipaciÃ³n": 4865,
    "vÃ©": 9864,
    "Ġche": 7509,
    "Ġdibujo": 1142,
    "Ġ1912": 3959,
    "icho": 9304,
    "Ġsacerdo": 6131,
    "ĠGerm": 9762,
    "ĠAllen": 9746,
    "ĠdiseÃ±ado": 8227,
    "ĠpolÃ©m": 9228,
    "ĠGalleria": 6599,
    "minos": 7710,
    "Ġexplica": 7497,
    "Ġ2007": 2889,
    "Ġrenacent": 4317,
    "Ġinferior": 3163,
    "dal": 1745,
    "ĠInmaculada": 6380,
    "Ġinterme": 9170,
    "Ġcondu": 4777,
    "grÃ³": 4273,
    "Ġlleva": 2963,
    "Ġjesui": 9064,
    "ĠAmigos": 9153,
    "Ġhabilidad": 6217,
    "ong": 2358,
    "ism": 8225,
    "ĠSeÃ±": 3298,
    "ĠPo": 1032,
    "ĠPed": 1411,
    "dencia": 1224,
    "Ġguarda": 8289,
    "Ġpar": 312,
    "gara": 7684,
    "Ġah": 1975,
    "rados": 2820,
    "estiv": 3517,
    "Ã©rico": 8626,
    "Ġgrue": 7365,
    "ampa": 8559,
    "Ġconcurso": 5029,
    "aja": 3257,
    "Ġcuad": 505,
    "imar": 7980,
    "Ġsor": 4230,
    "Ġmit": 2667,
    "bili": 9390,
    "Ġadul": 9982,
    "Ġdes": 263,
    "Ġdesnuda": 5543,
    "ĠimÃ¡genes": 1678,
    "tra": 339,
    "Ġ1868": 7130,
    "elli": 2897,
    "vario": 9659,
    "stal": 2558,
    "Sa": 7857,
    "ĠMor": 2383,
    "gra": 353,
    "culp": 9571,
    "Ġpredo": 4927,
    "ĠiniciÃ³": 4035,
    "Ġdesnu": 3088,
    "Ġ195": 737,
    "ĠlatÃŃn": 5833,
    "Ġ1961": 4267,
    "iografÃŃa": 891,
    "Ġitaliano": 1735,
    "atro": 890,
    "ĠrÃ¡pidamente": 6811,
    "ĠCue": 6273,
    "ĠMilla": 8346,
    "Ġadqui": 1754,
    "ĠVila": 9349,
    "cenas": 4161,
    "Ġdiversos": 2261,
    "Ġmodi": 6058,
    "Ġcristiana": 7771,
    ".)": 3967,
    "Ġcomponente": 9858,
    "dimiento": 5804,
    "Ġalcan": 2603,
    "retto": 8457,
    "Ġaconte": 5620,
    "San": 5843,
    "cano": 6877,
    "ĠMoreno": 7124,
    "ĠReci": 5180,
    "ĠÃļlti": 6473,
    "elle": 5626,
    ").": 382,
    "Ġproces": 6479,
    "Ġ)": 2481,
    "Ġnos": 3695,
    "ĠGe": 1583,
    "Ġrodeado": 8628,
    "ĠtÃŃtulo": 2143,
    "ĠPrimera": 3157,
    "Ġdecorativas": 8591,
    "Ġcru": 3056,
    "Ġestatuas": 6083,
    "zando": 4004,
    "el": 199,
    "ĠBarbi": 7994,
    "tella": 8574,
    "ĠSeba": 3104,
    "ĠTra": 1509,
    "ĠJuana": 7561,
    "ĠTu": 4540,
    "tt": 2055,
    "Ġmano": 1762,
    "Ġinstal": 4359,
    "sula": 7108,
    "uenca": 7325,
    "Ġpref": 5336,
    "Ġ1857": 7955,
    "Ġdese": 5679,
    "Ġesenci": 8852,
    "Ġcopias": 3653,
    "Ġencontrar": 2794,
    "Ġlu": 532,
    "todos": 7558,
    "Ġescalera": 7599,
    "ĠCasa": 1842,
    "inosa": 8341,
    "ĠFlores": 8563,
    "ciendo": 2107,
    "Ġflamen": 2355,
    "Ġcercana": 6640,
    "demi": 9967,
    "Ġandal": 9685,
    "ĠcreÃ³": 2869,
    "Ġpara": 261,
    "ertura": 8142,
    "ĠJesÃºs": 2082,
    "Ã¡ndez": 3126,
    "ĠvolÃºmenes": 6433,
    "Ġprofes": 1105,
    "Museo": 3515,
    "Ġtrabajaron": 9277,
    "Ġsuyas": 7355,
    "Ġilustraciones": 2999,
    "we": 3916,
    "Ġfranco": 9551,
    "Ġvideo": 7123,
    "ĠMois": 8611,
    "ĠRum": 8637,
    "imas": 7587,
    "Ġcaja": 9783,
    "rosa": 7645,
    "Ġmarcha": 5509,
    "Ġclase": 3405,
    "ĠSir": 6812,
    "Ġtomando": 9095,
    "ĠTes": 8823,
    "Ġfamiliares": 6405,
    "ĠJane": 4751,
    "ĠBurgos": 6571,
    "ĠlÃŃn": 1758,
    "ĠSiena": 6730,
    "ĠKa": 2860,
    "ĠpÃ©rdida": 8708,
    "Ġespect": 1883,
    "Ġmodernista": 8956,
    "[": 53,
    "Ġcamino": 4147,
    "Ġalcanzar": 8646,
    "Ġvisuales": 6282,
    "ĠLux": 9767,
    "Ġ15": 612,
    "Ġprofundo": 7326,
    "Ġide": 874,
    "Ġtiempo": 930,
    "Ġformal": 6341,
    "Ġtemprano": 8028,
    "Ġsum": 8037,
    "Ġcubismo": 5820,
    "Ġpropuesta": 8343,
    "Ġprograma": 5045,
    "ĠSig": 3018,
    "Ġpiano": 9230,
    "cera": 3129,
    "lam": 667,
    "fru": 7073,
    "ĠMarie": 4319,
    "ĠTodo": 7995,
    "Ġtur": 4781,
    "Ġher": 5654,
    "ĠGiorg": 9709,
    "Ġcono": 1499,
    "Ã¡nt": 3460,
    "ĠÃºnico": 3214,
    "americanos": 9260,
    "ĠRusia": 3761,
    "ÃŃf": 3100,
    "ieron": 6105,
    "rique": 2056,
    "Ġvari": 7020,
    "uego": 1170,
    "Ġexcel": 5556,
    "Ġinse": 9476,
    "ose": 7797,
    "lage": 4971,
    "Ġ2018": 3784,
    "199": 2002,
    "ĠÂ": 4154,
    "Ġmanierismo": 9495,
    "tia": 5944,
    "Ġcuarto": 5503,
    "Ġmonumento": 3596,
    "Ġlas": 215,
    "Ġoscura": 8355,
    "ĠZÃº": 7562,
    "2007": 9958,
    "Ġtodos": 1683,
    "ĠdevociÃ³n": 8265,
    "ĠL": 172,
    "Ġrealmente": 7928,
    "Ġsuperficies": 8046,
    "ĠJacob": 3829,
    "ĠÃģ": 911,
    "Ġespalda": 9183,
    "ĠGil": 4312,
    "ĠMira": 9984,
    "Ġredes": 8476,
    "ĠproporcionÃ³": 9939,
    "ĠHombre": 8583,
    "Ġciertas": 8197,
    "Ġti": 549,
    "ĠChina": 4589,
    "so": 500,
    "tÃ¡": 2988,
    "Ġnorm": 5898,
    "Ġcarro": 9787,
    "ĠGeorg": 3014,
    "Ġparte": 554,
    "taciÃ³n": 1218,
    "lÃ¡st": 1476,
    "ĠS": 154,
    "cena": 5017,
    "Ġalgo": 2736,
    "vor": 3370,
    "Ġidentidad": 5366,
    "peraciÃ³n": 7266,
    "diz": 2457,
    "â": 91,
    "ile": 1140,
    "ĠDol": 9251,
    "ĠAlbert": 4122,
    "ĠCity": 7651,
    "ĠpÃ¡jaros": 8888,
    "ĠJac": 4089,
    "Ã±as": 1977,
    "Ġdirige": 9352,
    "ĠExposiciones": 2145,
    "Ġediciones": 7051,
    "ĠFuente": 8883,
    "Ġ1910": 3650,
    "ĠDu": 1620,
    "als": 5457,
    "Ġvigor": 9324,
    "Ġcalles": 6304,
    "ĠAng": 7454,
    "ĠBrown": 7272,
    "ĠEspacio": 8323,
    "Ġpincel": 5117,
    "cura": 5098,
    "Ġtan": 1999,
    "ĠRÃ©": 9639,
    "Ġun": 142,
    "Ġimpos": 7746,
    "37": 6222,
    "ĠdescribiÃ³": 6377,
    "ĠBaj": 2602,
    "ĠEp": 7083,
    "ĠcrÃŃt": 1211,
    "ĠLondres": 1322,
    "Ã¡r": 1545,
    "ĠAgust": 4352,
    "Ġdoce": 5276,
    "ĠBla": 3759,
    "Ġfantas": 6147,
    "7": 21,
    "Ġse": 168,
    "Gal": 6548,
    "ĠcomparaciÃ³n": 7912,
    "tad": 3750,
    "villa": 1664,
    "ement": 3720,
    "Ġacre": 9303,
    "ĠCub": 7906,
    "Ġsituado": 5832,
    "Ġconvirti": 4541,
    "nt": 112,
    "ĠMit": 9455,
    "Ġvalenci": 7061,
    "Ġme": 379,
    "Ġtercer": 5742,
    "Ã©ricas": 9769,
    "Ġ1929": 4067,
    "Ġ\"": 372,
    "ĠColor": 7503,
    "enta": 437,
    "Ġcocina": 9818,
    "Ġproduce": 6534,
    "Ġcomun": 2018,
    "ĠMora": 5021,
    "Ġch": 1530,
    "Ġinst": 8024,
    "log": 1284,
    "ĠJard": 6707,
    "taÃ±a": 5908,
    "ĠGiovanni": 2551,
    "Ġ165": 3093,
    "ĠSchw": 9830,
    "ĠCoruÃ±a": 8661,
    "Ġran": 7671,
    "Ġcolectiva": 4294,
    "Ã©nt": 4547,
    "Ġizquier": 1435,
    "ĠDomen": 5217,
    "ĠOtro": 5288,
    "Ġpuertas": 5883,
    "ierto": 8733,
    "ĠCour": 5933,
    "itas": 2630,
    "Ġmomento": 1414,
    "Ġmeses": 2950,
    "ĠsÃŃm": 2499,
    "queta": 9422,
    "ĠpresentaciÃ³n": 6952,
    "tagon": 3315,
    "Ġrevolucion": 6665,
    "Ġtomar": 6899,
    "Ġdestru": 8678,
    "ĠGauguin": 4392,
    "Ġ5": 1036,
    "Ġcomienza": 4496,
    "ranza": 6150,
    "Ġbras": 7929,
    "Ġrealizada": 2460,
    "toÃ±o": 4220,
    "Ġatribuye": 6602,
    "rado": 496,
    "Ġbailar": 7832,
    "Ġpermanece": 8675,
    "Ã³rdo": 3581,
    "Ġcuadro": 768,
    "dea": 7241,
    "Ġgrado": 6830,
    "omb": 627,
    "ĠWik": 6286,
    "ĠCarol": 6578,
    "Ġhaciendo": 4483,
    "Ġinmedia": 7110,
    "Ġdicho": 4385,
    "ĠAdemÃ¡s": 1820,
    "bon": 8373,
    "ĠacadÃ©m": 2637,
    "ĠPalais": 8150,
    "ÃŃstico": 3342,
    "ĠArgentina": 2441,
    "di": 153,
    "Ġhecha": 6915,
    "ĠediciÃ³n": 3364,
    "ĠdecidiÃ³": 3658,
    "ĠRica": 7096,
    "ĠU": 331,
    "Ġzar": 8568,
    "ÃŃtulo": 1897,
    "Ġsituada": 5973,
    "ĠBauhaus": 7422,
    "Ġcoment": 6090,
    "Ġarmon": 5311,
    "ĠCaracas": 3894,
    "enas": 4275,
    "ĠautÃ³": 7951,
    "Ġcontinu": 1630,
    "eza": 5998,
    "Ġcine": 3611,
    "Ġprim": 365,
    "ĠcrÃŃtica": 2653,
    "ĠCu": 1097,
    "onasterio": 2545,
    "ĠIsa": 5878,
    "ĠNÃ¡poles": 3431,
    "ĠcampaÃ±a": 8026,
    "hoy": 9691,
    "ĠPaolo": 6975,
    "Ġdibu": 604,
    "Ġnegras": 6872,
    "ĠMuerte": 5751,
    "Ġcomunidad": 5135,
    "ĠPark": 8585,
    "ĠBonn": 8047,
    "ĠAmor": 8953,
    "Ġdiri": 8004,
    "uro": 917,
    "jano": 8787,
    "Ġcardenal": 5303,
    "ĠHil": 9892,
    "Ã©s": 317,
    "Ġespejo": 6067,
    "ĠSalon": 6468,
    "Ġextien": 9911,
    "Ġaproxim": 3474,
    "dou": 6443,
    "Ã©ase": 1761,
    "dex": 5202,
    "Ġmanifie": 5038,
    "izquier": 1423,
    "ĠGua": 4959,
    "ĠapÃ³st": 6926,
    "Ġhubo": 5632,
    "cy": 5019,
    "Ġdura": 7402,
    "Ġarg": 6437,
    "ĠZ": 777,
    "ĠKunst": 2992,
    "Ġpion": 6172,
    "Ġcapacidad": 5874,
    "ĠISBN": 3600,
    "ĠpictÃ³r": 1478,
    "Ġcri": 1513,
    "urice": 7146,
    "Ġpropiedades": 8832,
    "ĠModer": 1787,
    "Ġcartu": 8905,
    "85": 7892,
    "Ġincon": 6127,
    "Ġestam": 2958,
    "ĠCÃ¡": 3165,
    "ĠTuvo": 6467,
    "Ġabier": 3041,
    "Ġindependencia": 7997,
    "esa": 3007,
    "Ġrevistas": 4706,
    "ĠBas": 2529,
    "ĠFri": 2782,
    "tus": 8020,
    "Ġdando": 5460,
    "ĠEn": 242,
    "Ġiniciales": 8539,
    "Ġcomienzo": 6748,
    "Ġfigurativa": 8840,
    "ture": 5948,
    "lÃ³": 2214,
    "ĠVa": 4778,
    "ĠProvincial": 4279,
    "ĠEscor": 6066,
    "rero": 2556,
    "ordin": 6082,
    "landeses": 7103,
    "Ġbautizado": 9655,
    "Ġnacimiento": 3529,
    "Ġinfancia": 4444,
    "S": 45,
    "ona": 475,
    "ispo": 4080,
    "Ġpersonajes": 1874,
    "ĠprolÃŃ": 8571,
    "Ġfech": 3002,
    "Ġpapa": 4536,
    "teca": 1451,
    "pro": 4659,
    "rama": 3820,
    "rimiento": 4630,
    "Ġconstruido": 7382,
    "ĠRetratos": 9348,
    "Ġfran": 838,
    "Ġqu": 1826,
    "ĠÃģl": 5046,
    "ĠAustra": 6062,
    "loj": 7057,
    "Ġconvencional": 8908,
    "..": 6337,
    "ĠCali": 3239,
    "ĠmitolÃ³g": 4281,
    "Ġparecen": 4919,
    "Ġdonde": 440,
    "tien": 4772,
    "Buenos": 9375,
    "ĠTeresa": 5237,
    "Ġhojas": 4186,
    "ĠdÃ©c": 1197,
    "Ġinv": 1090,
    "du": 342,
    "Ġedad": 1904,
    "Ġvid": 3413,
    "166": 8981,
    "ĠlÃ¡m": 8599,
    "Ġpasando": 6979,
    "pestre": 9329,
    "lezas": 6323,
    "Ġmin": 1633,
    "lier": 5994,
    "Ġorfebre": 8651,
    "Ġnar": 5549,
    "Ġmirando": 8299,
    "ĠWillem": 6627,
    "xiÃ³n": 4028,
    "Ġintrodujo": 7621,
    "ĠnÃºmero": 2025,
    "quÃ©s": 4834,
    "ĠMartirio": 8934,
    "edades": 7819,
    "Ã³": 121,
    "chi": 1870,
    "alu": 5020,
    "ĠModern": 6747,
    "yendo": 4849,
    "ĠcatÃ¡logo": 3618,
    "nal": 5025,
    "ip": 1155,
    "antes": 1191,
    "Ġlibertad": 4779,
    "ĠBu": 2731,
    "Ġfab": 4499,
    "Ġpescado": 9573,
    "EC": 267,
    "Ġsostiene": 4876,
    "presiÃ³n": 7099,
    "venida": 8353,
    "ĠsimbÃ³": 4570,
    "Ġigu": 2021,
    "Ġencu": 5844,
    "Ġpertenece": 5755,
    "ĠLy": 4442,
    "ice": 1744,
    "ĠPaulo": 4256,
    "Ġimport": 3226,
    "itud": 4362,
    "ĠconcepciÃ³n": 6787,
    "Ġ10": 1812,
    "175": 9727,
    "ashington": 3045,
    "Ġcartel": 7685,
    "vimiento": 9234,
    "ĠManuel": 2041,
    "Ãºnich": 2747,
    "72": 9901,
    "Ġtrascen": 9398,
    "Ġeuropeas": 8846,
    "Ġlito": 4078,
    "ĠgÃ©neros": 7389,
    "ĠconstrucciÃ³n": 2873,
    "Ġ1865": 7250,
    "ĠCine": 8406,
    "ĠBogotÃ¡": 3900,
    "ĠWarhol": 6761,
    "Ġuniforme": 9877,
    "Ġcaptura": 6842,
    "į": 97,
    "ĠsueÃ±o": 6446,
    "Ġtu": 2565,
    "Ã¡ct": 2647,
    "fradÃŃa": 9882,
    "ĠCarra": 6713,
    "ĠcÃ¡n": 7721,
    "Ġ1928": 4127,
    "Ġexhib": 4324,
    "ÃŃpulos": 5801,
    "ĠIgu": 9667,
    "Ġescritor": 2909,
    "Ġobtuvo": 2627,
    "Ġrepresentan": 3146,
    "Ġcorres": 2496,
    "inio": 5653,
    "empo": 836,
    "tionale": 8550,
    "Ġdejar": 5279,
    "Ġpopu": 1807,
    "Ġhistoriadores": 5808,
    "cido": 961,
    "dÃ³n": 5538,
    "Ġ176": 4212,
    "Ġlan": 3786,
    "ncia": 2692,
    "ĠmÃ©todo": 5964,
    "sen": 2156,
    "dico": 2811,
    "Ġdestacada": 8272,
    "Ġmanier": 7324,
    "Ġama": 4655,
    "Ġsabe": 3887,
    "Ġestaciones": 9868,
    "ĠPue": 3603,
    "pintura": 8595,
    "ĠÃīmile": 9155,
    "ĠGau": 3348,
    "Ġalas": 8607,
    "Ġhoja": 8511,
    "Ġregalo": 9322,
    "Ġcolonia": 8148,
    "Ġef": 7015,
    "bar": 844,
    "gn": 2020,
    "Ġambi": 2456,
    "gl": 1910,
    "ĠSan": 408,
    "ita": 934,
    "Ġexpone": 4347,
    "Ġinfant": 5700,
    "pan": 2973,
    "ĠFlor": 4833,
    "Ġ1879": 6512,
    "laga": 3744,
    "stÃŃa": 4346,
    "ĠFar": 5148,
    "ici": 344,
    "pa": 245,
    "Ġportada": 6796,
    "hen": 7608,
    "ĠMos": 2965,
    "Ġ30": 2546,
    "Ġinqui": 7777,
    "champ": 8202,
    "ĠCentral": 5400,
    "Ġjuntos": 7019,
    "Ġfebrero": 1881,
    "Ġretratos": 1024,
    "urs": 4949,
    "Ġinus": 7401,
    "Ġb": 220,
    "igÃ¼": 3939,
    "ientes": 7775,
    "Ġrevi": 1785,
    "ĠteorÃŃas": 9214,
    "Ġusando": 8319,
    "Ġescritura": 5891,
    "tiva": 708,
    "Ġcu": 240,
    "Ġpaisaj": 733,
    "Ġcontrato": 7147,
    "co": 236,
    "Ġ1939": 4221,
    "Ġenmar": 5226,
    "Ġdestinado": 8015,
    "Ġventanas": 8264,
    "Ġrefle": 1571,
    "pes": 3092,
    "Ġprincip": 650,
    "Ã±o": 490,
    "Ġrealizando": 5850,
    "Ġmi": 494,
    "Ġmet": 1661,
    "ĠLeonardo": 3223,
    "ĠNico": 4289,
    "Ġperfe": 3160,
    "allet": 8694,
    "Ġgal": 1484,
    "Ġvarios": 1246,
    "sovia": 7909,
    "arias": 3566,
    "Ġconv": 7633,
    "erta": 6739,
    "Ġreconocida": 6944,
    "viera": 5361,
    "ĠAcadÃ©mie": 7349,
    "Ġdon": 2595,
    "Ġtemprana": 4854,
    "icio": 5452,
    "ĠNavar": 7385,
    "je": 482,
    "Ġtom": 1720,
    "Ġaband": 2228,
    "dorf": 4308,
    "Ġrefu": 8424,
    "untamiento": 2875,
    "ernet": 8051,
    "ĠpÃ¡jar": 6389,
    "Ġmu": 288,
    "Ġfru": 2867,
    "Ġconf": 1823,
    "entes": 745,
    "ĠLuca": 7560,
    "ĠpodrÃŃan": 7486,
    "versidad": 1092,
    "Ġdesn": 1592,
    "Ġvisitas": 9172,
    "lÃ¡": 1095,
    "ĠTestamento": 4981,
    "ĠLuis": 1378,
    "ĠRay": 9093,
    "ĠNÃº": 7221,
    "Ġamigo": 2337,
    "Ġintenso": 7939,
    "Ġdo": 555,
    "ut": 1663,
    "Ġsurreal": 4144,
    "tan": 2196,
    "ĠclÃ¡sica": 4794,
    "ĠWal": 3059,
    "quil": 3393,
    "ĠUr": 3498,
    "lis": 9078,
    "ĠDomingo": 3614,
    "ionales": 6551,
    "pic": 9863,
    "iana": 3986,
    "ernos": 8163,
    "Ġcaracterizan": 9796,
    "ĠRÃŃo": 4511,
    "gol": 9609,
    "ĠRibera": 6348,
    "elles": 8569,
    "rededores": 9829,
    "lie": 2943,
    "Ġseleccion": 4860,
    "Ġdiciembre": 1737,
    "ĠgÃ©nero": 1849,
    "xim": 2296,
    "quite": 983,
    "ĠReconoci": 6668,
    "Ġcentenario": 9428,
    "Ġexpertos": 8698,
    "ic": 138,
    "cerdo": 5794,
    "ĠNicolas": 7975,
    "est": 350,
    "Ġaquel": 1973,
    "les": 321,
    "ĠPes": 8775,
    "ĠCÃ©s": 7109,
    "Ġhablar": 9397,
    "Ġincorpo": 4123,
    "Ġha": 290,
    "ĠArm": 6314,
    "cialmente": 5505,
    "Ã¡z": 2253,
    "ĠPollock": 8861,
    "Ġhon": 4265,
    "zadas": 7926,
    "Ġafi": 4857,
    "Ġexig": 9168,
    "ĠFig": 7451,
    "ĠParece": 9343,
    "Ġig": 962,
    "ĠHenri": 3336,
    "Ġpudiera": 8357,
    "ĠtÃŃpico": 8288,
    "Ġllevan": 7709,
    "ius": 6381,
    "Ġdistin": 6161,
    "ĠEspaÃ±": 827,
    "Ġmaestros": 2600,
    "Ġdeco": 972,
    "Ġnaturales": 6232,
    "ccidental": 4061,
    "Ġgrupo": 1133,
    "Ġdeno": 7808,
    "ĠItalia": 1357,
    "Ġdocum": 1502,
    "Ġau": 584,
    "Ġabandonar": 7521,
    "Ġaux": 9572,
    "Ġimpa": 5687,
    "ĠWater": 8910,
    "Ġoblig": 4176,
    "en": 135,
    "Ġreyes": 6679,
    "mont": 7930,
    "Ġgre": 8711,
    "posi": 336,
    "ĠBartolom": 4703,
    "puÃ©s": 623,
    "Ġescultor": 2036,
    "tori": 5816,
    "ĠQuin": 9468,
    "Ġ1982": 3746,
    "erie": 2588,
    "ight": 6655,
    "ÃŃrica": 9044,
    "Ġpel": 1888,
    "ĠThe": 1310,
    "Ġteneb": 9075,
    "Ġintele": 4139,
    "ĠpreparaciÃ³n": 9216,
    "ĠpodrÃŃa": 2660,
    "ĠMarta": 9192,
    "Ġsentido": 2808,
    "um": 274,
    "Ġespe": 563,
    "Ġmodernos": 7853,
    "Ġlos": 179,
    "Ġestudio": 1267,
    "ĠNatividad": 9330,
    "Ġnace": 9331,
    "Ġobserva": 5602,
    "mentos": 2870,
    "inam": 5779,
    "fil": 3790,
    "ues": 6657,
    "Ġsuf": 2846,
    "Ã³r": 587,
    "rador": 4878,
    "Ġinaug": 2672,
    "amo": 3902,
    "Ġdirecta": 7687,
    "ĠInstituto": 1825,
    "ĠCruz": 2834,
    "Ġlengu": 3831,
    "Ġ1992": 3428,
    "ĠMuriÃ³": 4406,
    "Ġconocida": 1986,
    "Ġdios": 4235,
    "ĠfundaciÃ³n": 5327,
    "zana": 8972,
    "ens": 873,
    "Ġexistencia": 5827,
    "Ġintenta": 9977,
    "Ã¼": 1080,
    "Ġcontrajo": 6461,
    "tina": 4449,
    "Ġdistinguir": 9004,
    "ĠÃ¡lbum": 4920,
    "ĠCourbet": 8360,
    "ĠExp": 5181,
    "Ġsitio": 5719,
    "Ġoficial": 3177,
    "Ġestu": 3793,
    "ĠMexic": 6276,
    "Ġentusias": 9942,
    "Ġcabeza": 2298,
    "Ġp": 111,
    "tam": 7978,
    "Ġpis": 9798,
    "li": 418,
    "Ġcarbon": 9203,
    "Ġpropia": 2346,
    "uelo": 3435,
    "Ġataque": 9335,
    "Ġcome": 5922,
    "Ġreprodu": 2703,
    "Ġactivo": 3404,
    "Ġ1969": 4247,
    "Ġbio": 4604,
    "Ġsalud": 5475,
    "Ġsit": 5584,
    "cita": 9661,
    "Ġnuestros": 9981,
    "uros": 6619,
    "Ġelegido": 5221,
    "Ġmoda": 4350,
    "Ġfecha": 2523,
    "que": 145,
    "curso": 2235,
    "Ġingen": 4559,
    "Ġestatu": 2098,
    "Ġbien": 1288,
    "Ġcivil": 3374,
    "Ġaltura": 4132,
    "ĠperfecciÃ³n": 9369,
    "sin": 4564,
    "ĠEditorial": 6758,
    "cti": 4793,
    "ĠTrabajÃ³": 5756,
    "Ġdesta": 857,
    "Ġpab": 8582,
    "inados": 4701,
    "amente": 414,
    "Ġperro": 7222,
    "pula": 4712,
    "ĠMarcel": 6041,
    "cor": 1099,
    "Ġseg": 2045,
    "Ġcruz": 3299,
    "ĠmÃ¡ximo": 9140,
    "Ġconsiderar": 7828,
    "eles": 2497,
    "ĠTierra": 8049,
    "Ġalum": 1676,
    "k": 66,
    "Al": 5189,
    "ĠpaÃŃs": 1535,
    "ĠbodegÃ³n": 6070,
    "Ġcin": 1576,
    "ath": 5496,
    "Ġgrabado": 1967,
    "ĠNuevo": 3632,
    "Ġlar": 1312,
    "deg": 2017,
    "ĠFuentes": 9539,
    "Ġminu": 5847,
    "ĠProce": 7149,
    "Ġsupuso": 9116,
    "mer": 3578,
    "ppe": 5349,
    "sos": 2301,
    "fera": 4254,
    "inaciÃ³n": 1841,
    "siva": 9976,
    "ĠDurante": 1419,
    "L": 38,
    "ĠPon": 6311,
    "Ġpastores": 7643,
    "gs": 7162,
    "cÃŃpulo": 2952,
    "ĠcomunicaciÃ³n": 7476,
    "Ġfuncion": 5357,
    "Ġmarcada": 9518,
    "onis": 8545,
    "Ġproyectos": 4875,
    "terna": 5005,
    "udades": 3268,
    "ĠartÃŃcu": 3569,
    "Ġcoleccion": 3254,
    "Ġpadre": 1046,
    "Ġpren": 4440,
    "Ġ1980": 3048,
    "Ġim": 343,
    "Ġmay": 589,
    "Ġveinte": 5156,
    "ĠViviÃ³": 9811,
    "ĠpolÃŃtica": 3583,
    "ĠEstudi": 2080,
    "Ġais": 5564,
    "ĠContemporary": 8784,
    "Ġcontrastes": 9132,
    "Ġaust": 8208,
    "grafÃŃas": 2303,
    "ĠBarroco": 7465,
    "esis": 5298,
    "dici": 4398,
    "Ãºlti": 833,
    "ĠMendoza": 9403,
    "Ġespiritu": 4427,
    "Ġbajo": 1370,
    "ix": 2968,
    "get": 6646,
    "ĠWashington": 3167,
    "ĠGreen": 8829,
    "Ġblan": 1431,
    "ĠSuecia": 6223,
    "ĠWalter": 5846,
    "Ġlegado": 5585,
    "aud": 8952,
    "³": 85,
    "ĠinstalÃ³": 4678,
    "gar": 615,
    "Ġfiguran": 9151,
    "Ġorg": 6674,
    "Ġtro": 3901,
    "ilio": 3669,
    "ĠdiseÃ±": 1560,
    "ctas": 5000,
    "rando": 1570,
    "Ġalterna": 8144,
    "fal": 6344,
    "Ġritu": 8535,
    "Ġidentific": 3410,
    "Ġadquirido": 5468,
    "bolos": 5001,
    "Bo": 9184,
    "ĠÃ¡rboles": 5282,
    "iene": 883,
    "ĠJerÃ³nimo": 4593,
    "ĠNor": 3207,
    "Ġejemplo": 1708,
    "Ġconcre": 4477,
    "lant": 7210,
    "Ġ1985": 3590,
    "ĠJimÃ©nez": 8082,
    "Ġatribuyen": 8164,
    "Ġmuy": 751,
    "ĠJon": 9680,
    "ĠMayor": 5989,
    "Ġ1936": 3889,
    "Ġfrente": 2312,
    "Ġepisodio": 6224,
    "Ġexhi": 1537,
    "bilidad": 4868,
    "Ġcul": 968,
    "ĠLuna": 8365,
    "uk": 8405,
    "Ġplanos": 5439,
    "teriores": 2919,
    "Ġconservan": 3535,
    "Ġ177": 4938,
    "Ġestatua": 2917,
    "ĠPort": 9346,
    "Ġdecorado": 7443,
    "Ġreflejo": 8212,
    "ĠKat": 9426,
    "Ġcum": 3884,
    "imen": 5735,
    "ĠWood": 7634,
    "in": 134,
    "cipa": 2271,
    "Ġ1970": 2953,
    "Ġedificios": 3712,
    "Ġvisual": 4056,
    "izaciÃ³n": 3706,
    "ĠBretaÃ±a": 6154,
    "Ġdorado": 5703,
    "Ã¡st": 3657,
    "Ġgriega": 6329,
    "ĠCultural": 2573,
    "Ġmoderna": 4704,
    "omas": 2609,
    "ĠMÃºs": 8003,
    "Ġmasculino": 9815,
    "Ġabstracta": 7504,
    "Ġbrasile": 8877,
    "Ġ179": 2850,
    "000": 2209,
    "Ġoctubre": 1655,
    "Ġcobre": 5976,
    "aron": 533,
    "ĠBre": 2574,
    "ĠPiero": 7215,
    "Ġest": 207,
    "Ġincluido": 5571,
    "ĠAmeric": 3464,
    "deos": 7095,
    "ados": 329,
    "ĠDÃŃa": 4232,
    "ĠFo": 2136,
    "ood": 4721,
    "istad": 3703,
    "Ġfamilias": 7815,
    "Ġmuertos": 8210,
    "eric": 1407,
    "Ġparticularmente": 4744,
    "Ġmarco": 4104,
    "Ġsimil": 8174,
    "ĠÃºnica": 3243,
    "ĠAyuntamiento": 3432,
    "ĠGerona": 8943,
    "ert": 1453,
    "idente": 2728,
    "ĠSalÃ³n": 1150,
    "19": 385,
    "lesias": 3774,
    "Ġom": 9597,
    "illos": 5426,
    "ĠMaestro": 4421,
    "tÃ³": 886,
    "tarios": 9445,
    "Ġescala": 5224,
    "cio": 485,
    "ĠLÃ¡": 6673,
    "Ġtelas": 5749,
    "ĠJan": 1677,
    "stos": 1840,
    "Ġatra": 2635,
    "ĠcÃ³dices": 9751,
    "elos": 8506,
    "Ġtrasla": 1581,
    "Ġgrafi": 6745,
    "dov": 8872,
    "lante": 2117,
    "Ġacent": 7344,
    "ĠPrim": 1546,
    "Ġlatino": 7638,
    "ĠpictÃ³rica": 2683,
    "Ġcam": 799,
    "ĠBlake": 9481,
    "ĠAllÃŃ": 3233,
    "Ġafro": 9347,
    "Ġben": 6631,
    "stru": 1088,
    "ĠjudÃŃos": 8944,
    "str": 1372,
    "ĠMar": 354,
    "urÃ³": 3477,
    "uÃ±a": 3438,
    "Ġcel": 7041,
    "Ġ1964": 3787,
    "phe": 9781,
    "ron": 1071,
    "ĠÃīl": 6714,
    "Ġruinas": 8499,
    "ĠCir": 7343,
    "pi": 488,
    "Ġdelic": 6648,
    "less": 8668,
    "ĠGuerra": 1851,
    "terno": 8352,
    "Ġll": 4923,
    "Ġfamosas": 7438,
    "Ġimportante": 1652,
    "Ġposteriormente": 2344,
    "ĠPint": 841,
    "emb": 950,
    "Ġno": 307,
    "Ġencargada": 8126,
    "Ġflorent": 5773,
    "ĠNatural": 9836,
    "ĠPicasso": 2356,
    "Ġportu": 6750,
    "ĠEsteban": 6678,
    "ĠOl": 3463,
    "ĠcentrÃ³": 8388,
    "Ġge": 2424,
    "Ġespada": 8728,
    "Ġvisit": 7154,
    "eter": 8996,
    "un": 133,
    "Ġcre": 530,
    "ĠAunque": 2162,
    "ome": 3293,
    "ĠÃ¡bside": 7962,
    "ĠMoscÃº": 3842,
    "ĠEvangelista": 9448,
    "Ġestaba": 1354,
    "Ġcorriente": 5672,
    "Ġ2023": 6469,
    "Ġprepara": 5070,
    "si": 309,
    "ĠExist": 5691,
    "Ġrelieves": 7655,
    "Ġconstruc": 8792,
    "uy": 935,
    "Ġgeneralmente": 3644,
    "orio": 4155,
    "orte": 1900,
    "tional": 2201,
    "Ġmuerto": 4967,
    "ĠEntre": 1184,
    "Ġcuentos": 8663,
    "Ġsignifica": 3172,
    "Ġnaran": 6152,
    "ĠRico": 6807,
    "boa": 5140,
    "ĠartÃŃstico": 1699,
    "Ġdici": 1637,
    "Ġli": 1027,
    "ĠPan": 3722,
    "ĠCampo": 7287,
    "Ġcrisis": 8182,
    "ĠDal": 3763,
    "ĠanÃ¡lisis": 6050,
    "osÃ³": 9782,
    "eran": 6493,
    "ccidente": 8592,
    "ĠDios": 3117,
    "Ġpaisaje": 1536,
    "ĠTos": 9498,
    "ĠGuggenheim": 7410,
    "Ġ14": 937,
    "imental": 9378,
    "Ġ12": 1850,
    "ĠdecisiÃ³n": 8813,
    "ĠNorte": 4827,
    "Ġcristianos": 8446,
    "Ġacu": 1340,
    "Ġfuertes": 7128,
    "cial": 1076,
    "Ġpostura": 7932,
    "ĠNe": 1222,
    "ĠColectiva": 9917,
    "ĠgalerÃŃas": 4234,
    "vÃŃan": 8490,
    "pez": 3454,
    "ĠMusÃ©e": 5184,
    "Ġ150": 3208,
    "ĠIncluso": 9143,
    "ĠCastel": 7549,
    "ĠMart": 1524,
    "Ġmantiene": 8684,
    "Ġtarde": 1339,
    "ric": 1459,
    "relie": 9671,
    "ĠMura": 7640,
    "ganiz": 1487,
    "fic": 824,
    "ĠVÃ¡zquez": 9547,
    "Ġincluy": 1684,
    "ĠUU": 5382,
    "Ġnor": 5459,
    "Ġcir": 2592,
    "ĠDise": 4581,
    "ĠRuiz": 6847,
    "Ġneces": 2554,
    "tera": 1260,
    "ĠJosef": 9367,
    "chas": 2063,
    "ĠYa": 4211,
    "tas": 739,
    "Ġeditorial": 6928,
    "Ġreferencias": 6528,
    "ĠcompaÃ±": 2466,
    "ĠpertenecÃŃa": 9623,
    "Ġhaya": 7452,
    "Ġam": 450,
    "erme": 3459,
    "din": 4202,
    "ular": 5726,
    "Ġcomplejo": 8613,
    "Ġve": 487,
    "Ġposiblemente": 4621,
    "Ġproye": 1517,
    "Ġ1897": 5263,
    "Ġcorta": 8090,
    "ĠOrden": 3593,
    "san": 6794,
    "Ġexhibi": 2097,
    "uc": 9204,
    "rector": 7895,
    "Ġmuerta": 5591,
    "ĠEdiciones": 8415,
    "anta": 3877,
    "ĠcomposiciÃ³n": 1582,
    "tÃ³noma": 8103,
    "Ġcrear": 2895,
    "ĠCara": 1926,
    "ĠÃīcole": 8664,
    "ĠWhit": 8324,
    "Ġga": 2652,
    "ĠEdward": 5610,
    "Ġhab": 422,
    "eriormente": 3085,
    "nam": 4261,
    "ĠLes": 4025,
    "Ġriqueza": 7107,
    "ĠAle": 943,
    "Ġejecu": 2068,
    "vant": 4573,
    "Ġder": 2050,
    "ĠRamÃ³n": 4814,
    "ricos": 7660,
    "j": 65,
    "ĠCin": 5665,
    "Ġtalleres": 5535,
    "gado": 1215,
    "Ġcitado": 7990,
    "Ġinvestigaciones": 8736,
    "Ġilustra": 1175,
    "Ġenf": 2190,
    "sas": 7305,
    "iter": 7765,
    "ĠCrucifixiÃ³n": 7176,
    "ĠBl": 6936,
    "mel": 7014,
    "Ġluminos": 5097,
    "Ġpersonalidades": 8770,
    "Ġacep": 2945,
    "amiento": 1124,
    "ĠJean": 1654,
    "Ġcant": 2361,
    "Ġ1971": 4252,
    "pas": 1704,
    "ĠSara": 7617,
    "ven": 562,
    "Ġcaracter": 1311,
    "ĠindÃŃgenas": 8705,
    "Ġle": 360,
    "ina": 334,
    "Ġtampoco": 9656,
    "ĠprotecciÃ³n": 8542,
    "ernes": 9871,
    "Ġdisp": 5892,
    "tivi": 1410,
    "greso": 4522,
    "Ġmide": 6852,
    "Ãºs": 939,
    "led": 9564,
    "ĠneerlandÃ©s": 5884,
    "Ġcura": 7081,
    "gica": 3422,
    "Ġ26": 3175,
    "anza": 2129,
    "Ġ45": 7457,
    "ĠRey": 3044,
    "formaciÃ³n": 6542,
    "denal": 4765,
    "Ġprof": 809,
    "louse": 6989,
    "Ġalim": 5485,
    "ĠLuisa": 7043,
    "Ġgol": 6797,
    "Ġesca": 2984,
    "Ġ31": 4975,
    "Ġcotidi": 3830,
    "tic": 1030,
    "Ġtono": 4797,
    "[FIN_SECCION]": 5,
    "Ġanat": 5813,
    "izar": 5869,
    "Ġ1881": 5586,
    "Ġcontrario": 6122,
    "ello": 2680,
    "ajes": 1471,
    "ĠacabÃ³": 9019,
    "ĠAst": 5125,
    "Ġciertos": 7595,
    "Ġfinal": 2273,
    "Ġpiel": 5268,
    "Ġlabor": 4058,
    "ĠCh": 472,
    "ornos": 6519,
    "Ġdist": 1035,
    "ĠJaco": 2729,
    "ĠRembrandt": 4424,
    "ĠMantegna": 9633,
    "Ġ36": 8562,
    "Ġeditor": 7594,
    "ĠRen": 3507,
    "Ġmonar": 9519,
    "ĠBajo": 7672,
    "Ġmanifest": 9139,
    "zob": 7297,
    "Ġcomprom": 5090,
    "ra": 108,
    "ser": 1480,
    "ĠPlaza": 5330,
    "orros": 8850,
    "Ġpresentan": 6535,
    "ĠAnn": 5510,
    "ĠPom": 4984,
    "ico": 254,
    "ĠEse": 4354,
    "to": 189,
    "Ġhubiera": 9006,
    "Ġbeca": 4285,
    "Ġ200": 597,
    "Ġeleg": 7921,
    "ĠGarcÃŃa": 2719,
    "ĠVenecia": 1992,
    "ĠAlexandre": 8785,
    "vino": 9205,
    "ĠincluyÃ³": 6111,
    "Ġpalacio": 2906,
    "Ġinventario": 5919,
    "Ġestrecha": 7869,
    "fu": 9965,
    "ĠconsiguiÃ³": 5627,
    "fran": 7783,
    "gida": 5153,
    "]": 54,
    "rismo": 3617,
    "160": 7327,
    "laba": 5411,
    "icales": 6621,
    "Ġsepara": 7364,
    "Ġabierta": 7008,
    "ĠSco": 8169,
    "ĠeconÃ³mica": 7319,
    "leo": 720,
    "Ġintensi": 6246,
    "atic": 4966,
    "ĠDegas": 5934,
    "ĠOficios": 6347,
    "Ġgeneraciones": 9826,
    "itos": 4339,
    "ĠCan": 1821,
    "Ġregresar": 5710,
    "Ġci": 466,
    "Ġhermanos": 3034,
    "ĠdeclarÃ³": 7557,
    "ĠformaciÃ³n": 2059,
    "ĠPlata": 6354,
    "ĠCab": 2216,
    "Ġfl": 8492,
    "ÃŃ": 137,
    "Ġ1973": 4218,
    "cipe": 3481,
    "ĠLitera": 6582,
    "ono": 1488,
    "undo": 4013,
    "ĠinglÃ©s": 2793,
    "Ġentre": 399,
    "Ġ186": 1245,
    "ĠCalifornia": 4282,
    "Ġdesconocida": 9652,
    "cional": 436,
    "ĠColecciÃ³n": 2278,
    "Ġois": 4245,
    "ĠbÃºsqueda": 5885,
    "Ġfigurativo": 7279,
    "Ġluz": 1164,
    "Ġmedievales": 9833,
    "Ġfinalmente": 3119,
    "ĠFrank": 5031,
    "Ġaquella": 5187,
    "Ġilustrar": 8812,
    "ĠOccidente": 9725,
    "Ġmexic": 3064,
    "ĠMunch": 5418,
    "cÃ¡": 4894,
    "Ġprofesionales": 9646,
    "Ġmemoria": 5259,
    "Ġmotivo": 2582,
    "Ġincluir": 9687,
    "bÃ³n": 8556,
    "Ġperiodo": 2367,
    "Ġ2010": 2981,
    "ws": 6466,
    "ente": 214,
    "Ġrequer": 3843,
    "ĠreciÃ©n": 6651,
    "ĠVida": 3031,
    "Ġinspi": 1692,
    "ĠCo": 486,
    "ĠAlgunos": 3565,
    "usieron": 6876,
    "ĠadoptÃ³": 9159,
    "cre": 1262,
    "Ġexperim": 2837,
    "rano": 2070,
    "Ġarri": 5271,
    "Cu": 7838,
    "Ġdesarrollo": 3227,
    "ĠEscuela": 924,
    "ense": 4571,
    "eme": 5857,
    "ĠCÃ¡mara": 8242,
    "mile": 7143,
    "FIN": 479,
    "Ġ1885": 5741,
    "Ġamericano": 9628,
    "Ġop": 2473,
    "ĠVersalles": 8168,
    "arca": 2989,
    "pido": 3911,
    "ĠSuperior": 5291,
    "ionado": 8781,
    "Ġbre": 4052,
    "Ġtrabajar": 2462,
    "ĠLenin": 8632,
    "sal": 7661,
    "Ġcubierta": 6456,
    "eraciÃ³n": 8560,
    "Ġmejo": 2815,
    "Ġprofundi": 4761,
    "Ġcolumna": 7261,
    "Ġas": 446,
    "ÃŃnsula": 9701,
    "Ġpue": 510,
    "ĠMartÃŃnez": 3971,
    "ĠintroducciÃ³n": 9158,
    "ien": 283,
    "zzo": 3318,
    "gidos": 9134,
    "Ġpanorama": 9339,
    "Ġemble": 6291,
    "ĠcÃ³dice": 5116,
    "ĠpropÃ³sito": 7523,
    "Ġhue": 5053,
    "Ġpobre": 7223,
    "ĠSilva": 9435,
    "ĠLatino": 7131,
    "este": 3158,
    "bil": 7087,
    "ĠComisiÃ³n": 8625,
    "itÃ©": 6047,
    "ĠÃ¡ngel": 2571,
    "ĠBo": 965,
    "Ġalber": 3741,
    "ĠjÃ³venes": 3440,
    "ĠplÃ¡stica": 5650,
    "Ġ75": 9229,
    "tiliz": 938,
    "car": 565,
    "ella": 5405,
    "sachusetts": 7977,
    "ĠWest": 5218,
    "Ġevitar": 7988,
    "Ġdecorar": 6746,
    "Ġhumano": 3914,
    "Ġbastante": 4429,
    "Ġgran": 467,
    "cionado": 7569,
    "Am": 7150,
    "Ġproporciones": 8647,
    "aug": 2662,
    "Ġsuelo": 4791,
    "cado": 1208,
    "Ġrevela": 7716,
    "Ġfas": 5489,
    "ĠMed": 2341,
    "ĠTeatro": 3663,
    "Ġconvir": 1495,
    "cto": 531,
    "ĠRod": 3139,
    "Ġagu": 3996,
    "Ġhe": 847,
    "Ġvistas": 4656,
    "ĠprisiÃ³n": 9521,
    "Ġdescrita": 9918,
    "Ġfuente": 3275,
    "Ġpincelada": 5577,
    "Ġlib": 715,
    "ques": 1805,
    "dito": 6973,
    "Ġaguas": 9555,
    "Ġtienen": 2686,
    "ĠjudÃŃo": 9940,
    ":": 24,
    "ĠmadrileÃ±a": 9373,
    "uesto": 2108,
    "ĠEstÃ¡": 3255,
    "ĠNik": 6497,
    "ĠBene": 6633,
    "Ã¡zquez": 2294,
    "F": 32,
    "ĠtemÃ¡tica": 3247,
    "ostrÃ³": 9197,
    "ethey": 8072,
    "_": 55,
    "ĠinspirÃ³": 5561,
    "ĠCom": 728,
    "ciado": 3792,
    "Ġmanuscri": 1693,
    "Ã©ndez": 9169,
    "cola": 9499,
    "ctiva": 5074,
    "Ġcomplement": 7582,
    "iÃ³": 897,
    "turas": 2187,
    "Ġmensaje": 7707,
    "ĠVelÃ¡zquez": 2593,
    "ington": 2281,
    "rÃ³n": 2321,
    "Ġ1873": 7028,
    "ĠAntigua": 8531,
    "Ġtapices": 6017,
    "Ġinter": 691,
    "ĠSantos": 6174,
    "Ġverda": 4094,
    "ĠVictor": 6661,
    "cam": 5761,
    "entando": 6935,
    "Ġvilla": 6946,
    "Ġ50": 3781,
    "Ġeduca": 9795,
    "ĠLouis": 3509,
    "bi": 233,
    "ĠOrozco": 8512,
    "Ġdeter": 3291,
    "ael": 6464,
    "ĠContexto": 9108,
    "cciones": 1741,
    "icipal": 3091,
    "ĠInt": 1214,
    "Ġsilla": 8731,
    "ĠAbstra": 8925,
    "ĠcompaÃ±eros": 6499,
    "ĠFigura": 9106,
    "Ġsuya": 7625,
    "serrat": 9806,
    "mostra": 6359,
    "Ġconcep": 2890,
    "ĠAsimismo": 6334,
    "Ġsimples": 9255,
    "org": 1937,
    "Ġexcepcional": 9182,
    "Ġinstalaciones": 7741,
    "The": 7217,
    "ĠLu": 666,
    "Ġseguridad": 7999,
    "Ġcampes": 4997,
    "tiv": 580,
    "Ġlengua": 8501,
    "Ġreac": 9546,
    "Ġciudad": 771,
    "Ġmadera": 2163,
    "Ġfamiliar": 3721,
    "uerta": 7235,
    "Ġmundial": 8528,
    "Ã±a": 707,
    "ĠvisiÃ³n": 3105,
    "Ġvisita": 3307,
    "Ġobservar": 7161,
    "Ġvasos": 5936,
    "Ġsec": 4637,
    "Ġfamilia": 902,
    "Ġespos": 1544,
    "lamo": 7963,
    "º": 86,
    "ĠBautista": 3841,
    "ume": 3833,
    "rile": 5677,
    "Ġpermite": 4676,
    "?": 26,
    "ĠHolanda": 6823,
    "fo": 1580,
    "Ġalgunos": 1202,
    "mara": 2978,
    "ĠVIII": 6139,
    "ĠJa": 898,
    "Ġglo": 7708,
    "Ġasoci": 3539,
    "Ġalguna": 4158,
    "ĠDor": 8790,
    "ÃŃptico": 3003,
    "Ġcualidades": 8838,
    "Ġefecto": 3388,
    "ĠfrancÃ©s": 1469,
    "cripciones": 6536,
    "ĠencargÃ³": 3567,
    "Ġsiglo": 596,
    "ĠcombinaciÃ³n": 7944,
    "ntan": 6688,
    "Ġllevar": 6175,
    "Ġpartir": 1276,
    "vuel": 4861,
    "ĠCalle": 9128,
    "ĠGrabado": 4928,
    "ethe": 5967,
    "Ġja": 4290,
    "ĠRio": 8097,
    "1985": 9855,
    "Ġmateriales": 3087,
    "Ã³lo": 1816,
    "Ġmadrile": 5965,
    "ĳ": 98,
    "ĠBlan": 3319,
    "Ġejemplares": 7985,
    "ĠJoaquÃŃn": 4062,
    "ĠBorgo": 9135,
    "uestos": 3879,
    "Ġconsist": 3564,
    "Ġroja": 6421,
    "Ġencargado": 5681,
    "ĠDelacroix": 8179,
    "Ġnotables": 5905,
    "ĠBal": 2868,
    "ĠC": 158,
    "Ġcapilla": 2258,
    "ĠFem": 8410,
    "ple": 1120,
    "Ġexpres": 1393,
    "Ġacuare": 2034,
    "Ġincluyendo": 3300,
    "Ġven": 1379,
    "frica": 5206,
    "tipo": 8347,
    "Ġtrabajos": 1525,
    "Ġsegui": 8029,
    "Ġseis": 2509,
    "ĠJohan": 8237,
    "iden": 1747,
    "igos": 6382,
    "ĠRecibiÃ³": 6691,
    "Ġcualquier": 3680,
    "Ġbusto": 7301,
    "ĠDatos": 7400,
    "Ġhici": 3702,
    "ĠFue": 828,
    "Ġesta": 362,
    "ombre": 712,
    "Ġ1947": 4518,
    "ri": 155,
    "xima": 6372,
    "Ġpureza": 9722,
    "ĠJohann": 3754,
    "ĠGro": 5458,
    "Ġ1500": 9031,
    "Ġintegra": 4194,
    "ĠTre": 4425,
    "ĠCastro": 7704,
    "Ġflores": 2480,
    "ÃŃtica": 6779,
    "piÃ³": 9413,
    "irse": 5238,
    "ĠinterÃ©s": 2371,
    "150": 7137,
    "cho": 551,
    "mÃ³s": 5860,
    "Ġtranspare": 9479,
    "sach": 7734,
    "ĠasÃŃ": 875,
    "pat": 8873,
    "ĠfirmÃ³": 7053,
    "ribu": 1369,
    "Ġpopularidad": 8498,
    "ĠColle": 2987,
    "ĠPamplona": 7294,
    "Ġperfeccion": 7596,
    "ĠStudio": 9670,
    "ĠEvangel": 3472,
    "Ġ1984": 3770,
    "Ġempleo": 8275,
    "ĠMarruecos": 9502,
    "Ġcie": 2960,
    "ĠenseÃ±anza": 5513,
    "Ġ21": 3273,
    "lo": 180,
    "ĠBajos": 3739,
    "uidad": 8824,
    "Louis": 8338,
    "ĠViejo": 4377,
    "ĠKahlo": 9119,
    "Ġletras": 5299,
    "Ġregist": 2795,
    "dro": 4948,
    "Ġmanifestaciones": 9797,
    "ted": 1485,
    "©": 83,
    "ĠNational": 2936,
    "ĠMiembro": 9620,
    "guerra": 9452,
    "sie": 9840,
    "diÃ³": 966,
    "Ġpuro": 9438,
    "Ġprue": 5399,
    "ĠBeat": 8983,
    "Ġresca": 9383,
    "Ġado": 2277,
    "ĠQue": 4380,
    "vamente": 5133,
    "de": 104,
    "Ġocul": 5904,
    "ĠValenci": 9227,
    "ty": 4215,
    "aciÃ³n": 684,
    "Ġmostrando": 6594,
    "Ġimprim": 8771,
    "ficio": 4749,
    "¡": 82,
    "Ġaus": 4846,
    "ĠWethey": 8112,
    "tarÃŃa": 7473,
    "ance": 9358,
    "etro": 2827,
    "Ġpub": 903,
    "Ġautora": 9137,
    "Ġadi": 5830,
    "80": 3637,
    "tambiÃ©n": 7508,
    "gante": 6254,
    "ĠPaul": 1979,
    "Ġcatal": 4700,
    "ĠChristian": 7729,
    "vil": 1959,
    "ĠSoviÃ©tica": 9874,
    "ĠescribiÃ³": 2399,
    "Ġdesapare": 3990,
    "Ġfuerte": 2655,
    "ĠBlo": 9299,
    "vie": 4280,
    "mol": 3260,
    "Ġvida": 705,
    "Ġpudo": 2446,
    "tom": 9065,
    "Ġclave": 6407,
    "Ġintens": 8041,
    "Ġobstante": 5039,
    "ĠsÃ³lo": 2701,
    "Ġcita": 3437,
    "ĠBerm": 8636,
    "ricas": 5739,
    "ado": 193,
    "Ġsuje": 6945,
    "uraciÃ³n": 2326,
    "ĠeclesiÃ¡st": 9776,
    "Ġpueblo": 2748,
    "rer": 5004,
    "ĠLond": 1247,
    "Ġprefe": 9978,
    "kusa": 9676,
    "ĠgÃ³tico": 6101,
    "Ġnegocio": 9582,
    "ny": 6294,
    "Ġconfirm": 8132,
    "Ġtradi": 1324,
    "ĠGinebra": 8655,
    "ĠClark": 8990,
    "vania": 6109,
    "Ġmara": 9011,
    "culos": 3402,
    "Ġestos": 1532,
    "ĠNatura": 4891,
    "oras": 7514,
    "dÃ³": 856,
    "Ġactitud": 6042,
    "iss": 3716,
    "ĠclÃ¡sicas": 9467,
    "¿": 88,
    "Ġof": 607,
    "ĠAugusto": 8555,
    "ĠBib": 4566,
    "empre": 2010,
    "ĠInmacu": 6092,
    "wood": 7948,
    "Ġ2021": 5246,
    "Ġdest": 2144,
    "Ġpensamiento": 7889,
    "ĠPrimeros": 6757,
    "Ġembaj": 6624,
    "onial": 6102,
    "ĠHer": 2168,
    "Ġ1858": 7922,
    "ul": 300,
    "95": 7396,
    "ĠMond": 9456,
    "ter": 537,
    "ĠMuseo": 376,
    "Ġapreciar": 7448,
    "ticas": 6565,
    "caba": 5990,
    "ĠadmiraciÃ³n": 8618,
    "Ġrepresentantes": 7474,
    "Ġproducir": 6450,
    "ĠpintÃ³": 1274,
    "ĠContemporÃ¡neo": 2746,
    "Ġfranceses": 5122,
    "Ġsex": 3997,
    "Ġduque": 2916,
    "ĠTiz": 3626,
    "Ġrum": 7949,
    "zzi": 6215,
    "ĠSue": 4226,
    "ĠsiguiÃ³": 3950,
    "dero": 3052,
    "Ġtras": 780,
    "urch": 5977,
    "Ġpor": 198,
    "ĠPala": 1135,
    "ĠPri": 4029,
    "Ġprop": 685,
    "ĠMant": 6689,
    "iete": 2673,
    "ĠGobierno": 5929,
    "ios": 366,
    "Ġ1848": 7499,
    "rodu": 1475,
    "Ġfresco": 2768,
    "Ġdu": 1391,
    "uida": 1809,
    "Ġrespons": 6164,
    "ĠJorge": 3063,
    "Ġren": 3346,
    "ĠreuniÃ³": 9961,
    "ith": 5444,
    "ĠSanta": 1039,
    "tal": 688,
    "ĠBra": 2726,
    "Ġ1979": 3965,
    "Ġpreocu": 5325,
    "tero": 7159,
    "Ġmovimientos": 5144,
    "ĠMante": 9503,
    "fasis": 9417,
    "Ġliteraria": 7029,
    "ĠCer": 3271,
    "ĠDiego": 2959,
    "ĠAlgunas": 4466,
    "Ġfundado": 7249,
    "olÃ³gicas": 9117,
    "Ġpiedras": 7636,
    "ĠBernardo": 6343,
    "Ġvanguar": 3115,
    "Ġdurante": 671,
    "idad": 619,
    "Ġblancos": 8333,
    "Ġtre": 3094,
    "Ġproyect": 7093,
    "ĠBanco": 5795,
    "Ġproblemas": 4769,
    "ĠRichard": 5464,
    "ĠCena": 9664,
    "ex": 2262,
    "ĠreputaciÃ³n": 7383,
    "ible": 1249,
    "ĠrÃŃo": 3708,
    "ĠCap": 2237,
    "Ġpropi": 4505,
    "Ġsegunda": 1940,
    "lot": 3998,
    "Ġdecora": 1775,
    "ĠNu": 8995,
    "ĠAngel": 6007,
    "ĠTou": 6350,
    "ĠAlexander": 7371,
    "Ġincur": 9328,
    "Ġsuici": 8930,
    "Ġhum": 1166,
    "Ġmov": 1314,
    "ambiÃ©n": 340,
    "stÃ³": 3278,
    "Ex": 8878,
    "Ġnaturalezas": 7311,
    "pare": 789,
    "Ġjud": 4361,
    "iar": 2892,
    "Ġfinanci": 6384,
    "Ġamiga": 8984,
    "Ġcarga": 8744,
    "Ġtratado": 6064,
    "Ġdeben": 8715,
    "Ġ1872": 6725,
    "ĠCl": 3289,
    "nista": 7842,
    "ienen": 6192,
    "Ġlienzo": 981,
    "ĠalgÃºn": 3736,
    "ĠmÃ©rito": 8862,
    "tÃ³r": 1273,
    "Ġnumeros": 1538,
    "inger": 7686,
    "Ġ1978": 3954,
    "Ġ2": 272,
    "Ġmen": 668,
    "Ġtrataba": 8286,
    "nivers": 5790,
    "ĠDis": 4798,
    "ĠpolÃŃticas": 7458,
    "ĠGregor": 4864,
    "ĠBattista": 6530,
    "dente": 1916,
    "Ġvon": 2806,
    "ĠGutiÃ©rrez": 8461,
    "riÃ³": 877,
    "tiza": 6820,
    "ĠMuse": 1287,
    "Ġ180": 2816,
    "ue": 124,
    "ĠrÃ¡pi": 4651,
    "Ġapoyo": 5174,
    "ĠRobert": 3419,
    "Ġerig": 8871,
    "or": 123,
    "ĠBil": 3415,
    "Ġprimarios": 7357,
    "Ġrelacionados": 6672,
    "pub": 6976,
    "ĠEliz": 6966,
    "ias": 706,
    "Ġvit": 5694,
    "entras": 1059,
    "Ġdefinitivamente": 6415,
    "Ġescrita": 6494,
    "dista": 4910,
    "ĠPertene": 7739,
    "ĠÃģn": 1725,
    "Ġcontra": 843,
    "yer": 4897,
    "ĠenseÃ±": 2359,
    "Ġcomer": 2231,
    "Ġnegro": 2442,
    "man": 458,
    "Ġconsigue": 8459,
    "\".": 967,
    "Ġaunque": 1066,
    "Ġresultado": 3819,
    "Ġmal": 3490,
    "Ġdecide": 8673,
    "Ġl": 139,
    "Mar": 6617,
    "ĠMarga": 8349,
    "Ġconvertido": 7488,
    "ciano": 3923,
    "ĠG": 201,
    "rafael": 8310,
    "ĠarcoÃŃris": 9731,
    "cos": 724,
    "igu": 736,
    "ĠNan": 8805,
    "Ġprivadas": 4668,
    "Ġagra": 8544,
    "Ġ1853": 8859,
    "Ġesp": 2338,
    "fica": 861,
    "Ġ1899": 5461,
    "ĠCole": 1347,
    "Ġval": 1751,
    "27": 5355,
    "ĠtÃ©cnica": 1387,
    "Ġrecu": 1792,
    "Ġenca": 4365,
    "Ġdesaparecido": 9005,
    "Ġmenores": 7386,
    "ĠHungrÃŃa": 8217,
    "Ã¼sseldorf": 5732,
    "Ġautorretrato": 4680,
    "Ġes": 177,
    "ĠMagdal": 4014,
    "Ġaparentemente": 8660,
    "naciÃ³n": 5909,
    "ficÃ³": 6554,
    "reas": 5762,
    "Ġjar": 9010,
    "te": 178,
    "labora": 1412,
    "Ġintento": 7627,
    "Ġdiv": 5126,
    "Ġsiguiendo": 5894,
    "Ġpunt": 7024,
    "Ġrequerida": 4705,
    "ĠGÃ³mez": 4841,
    "Ġcan": 1880,
    "ĠDepartamento": 7874,
    "Ġsustit": 8802,
    "Ġvisible": 6004,
    "enda": 5280,
    "Ġancho": 4915,
    "atori": 9085,
    "ĠvÃŃcti": 7976,
    "Se": 5547,
    "deo": 2265,
    "unio": 1717,
    "Ġ25": 2440,
    ";": 25,
    "Ġ1991": 3691,
    "Ġnuestro": 8284,
    "ĠUnidos": 1449,
    "atura": 757,
    "Ġ1904": 4671,
    "Ġinfluencia": 1421,
    "Ġedi": 899,
    "rones": 5092,
    "ĠTemp": 5287,
    "Ġsuficiente": 7884,
    "terales": 5636,
    "Ġsu": 157,
    "Ġ1962": 3933,
    "ento": 304,
    "Ġdicha": 4526,
    "Ġ1975": 3964,
    "rie": 1415,
    "Ġintensa": 7833,
    "ĠBolÃŃvar": 9625,
    "Ġacentu": 9735,
    "ĠConstantino": 6458,
    "ĠpodÃŃa": 4345,
    "ĠOtros": 3782,
    "Ġtierra": 3427,
    "inado": 1995,
    "Ġambos": 2552,
    "Ġmilitar": 4092,
    "ĠContempo": 6612,
    "imiento": 1146,
    "BC": 9994,
    "lantes": 5099,
    "Ġpocas": 6031,
    "hire": 7735,
    "ĠCiv": 5539,
    "Ġpoder": 2541,
    "Ġmencion": 2369,
    "Ġdiversas": 2270,
    "Ġevolucion": 5789,
    "fa": 945,
    "Ġexpresion": 2318,
    "Ġla": 118,
    "ĠFie": 9846,
    "Ġcapas": 7630,
    "Ġotorgado": 9756,
    "Ġnie": 4124,
    "ĠSant": 561,
    "brero": 1789,
    "ury": 8367,
    "hat": 8961,
    "ĠHel": 3628,
    "paciÃ³n": 4366,
    "Ġi": 1719,
    "ĠInterior": 8614,
    "Ġviaja": 7829,
    "ĠClaude": 5737,
    "Ġinicia": 4957,
    "Ġcambio": 3099,
    "pintor": 8648,
    "untas": 8693,
    "dt": 7321,
    "Ġnoctur": 6773,
    "Ġcab": 763,
    "Ġrepresentados": 5502,
    "Ġfechada": 6955,
    "ĠproducciÃ³n": 2044,
    "val": 1702,
    "fael": 2029,
    "minist": 4768,
    "Ġ8": 1320,
    "Ġfuera": 2314,
    "ĠUnivers": 2714,
    "Ġseries": 5484,
    "ntos": 6051,
    "ĠSy": 9474,
    "Ġcatorce": 9201,
    "landa": 3421,
    "Ġna": 558,
    "ĠPos": 5154,
    "rarse": 4084,
    "se": 296,
    "Ġ1921": 4830,
    "Ġocas": 2011,
    "ĠPalacio": 1619,
    "Ġur": 2343,
    "ĠpequeÃ±o": 2644,
    "Ġdieron": 7545,
    "28": 4947,
    "Ġplante": 6096,
    "usi": 3143,
    "Ġintelectu": 4328,
    "Ġconservada": 5553,
    "Ġmayores": 5753,
    "ulgar": 8767,
    "Ġver": 616,
    "Ġelect": 7445,
    "ĠBr": 1666,
    "andro": 3086,
    "Ġhabitu": 3488,
    "dera": 1382,
    "mos": 1160,
    "ĠfilosofÃŃa": 7144,
    "ĠcolaborÃ³": 5112,
    "ĠJulio": 3718,
    "ĠCarlos": 1427,
    "ĠPalma": 5760,
    "ige": 6720,
    "Ġcerem": 6112,
    "iblio": 1729,
    "ĠMary": 4530,
    "ĠSegun": 2664,
    "sti": 1057,
    "Ġmedie": 4133,
    "Ġenviado": 8530,
    "ĠCristÃ³": 6333,
    "olÃ³gica": 4459,
    "Ġdemuestra": 7347,
    "ĠIndia": 5842,
    "II": 639,
    "ĠBasÃŃlica": 6614,
    "Ġtonalidades": 9712,
    "Ġdisting": 3711,
    "ĠcolaboraciÃ³n": 3609,
    "Ġlibro": 1399,
    "mientos": 2417,
    "Ġfar": 8900,
    "Ġconsiderarse": 9956,
    "ĠfenÃ³men": 8361,
    "Ġpo": 381,
    "ot": 4169,
    "ĠlitografÃŃas": 8430,
    "ÃŃsticas": 4914,
    "ĠEscri": 5150,
    "idas": 4338,
    "AC": 4468,
    "ig": 192,
    "ĠJos": 752,
    "ĠdepÃ³": 8034,
    "Ġinterpre": 2171,
    "ĠGrande": 5454,
    "ĠespaÃ±oles": 4491,
    "CO": 6700,
    "Ġespectador": 2725,
    "Ġ190": 894,
    "inato": 8609,
    "Ġdispon": 5220,
    "Ġtradiciones": 7541,
    "Ġ187": 1091,
    "Ġserie": 1003,
    "Ġtumba": 4150,
    "ĠsituaciÃ³n": 5176,
    "ĠincorporÃ³": 9334,
    "ĠenergÃŃa": 7605,
    "zada": 3206,
    "Ġactualmente": 2396,
    "Ġcorrespondiente": 9859,
    "ĠHals": 7066,
    "tones": 6394,
    "ĠHart": 9698,
    "Ġestudiosos": 8682,
    "Ġpersonales": 6219,
    "unque": 818,
    "ĠAndrea": 4613,
    "tar": 792,
    "Ġant": 665,
    "ĠNie": 7026,
    "ĠdÃ©": 6743,
    "ĠPortu": 5010,
    "grafo": 2722,
    "ĠGiovan": 2378,
    "ĠGo": 963,
    "Ġdisc": 4607,
    "Ġhu": 4519,
    "Ġmuerte": 982,
    "ĠCert": 8384,
    "ĠexposiciÃ³n": 779,
    "cristo": 9549,
    "Ġexpuesta": 5649,
    "ĠAdo": 2856,
    "Ġcompuesto": 6625,
    "Ġpalacios": 9156,
    "imismo": 4204,
    "ĠresidiÃ³": 7214,
    "Ã³rico": 4662,
    "ferencia": 6438,
    "ĠSor": 4898,
    "Ġapreci": 3385,
    "Ġpublicidad": 9716,
    "osp": 3452,
    "lera": 7641,
    "Ġinno": 4667,
    "ĠCasas": 8317,
    "ĠÃ³rdenes": 9293,
    "ĠAg": 4640,
    "igh": 3968,
    "Ġnoviembre": 1743,
    "eli": 1911,
    "Ġjusto": 8238,
    "Ġvendido": 9114,
    "Ġprivada": 3073,
    "Ġpl": 2035,
    "ĠGrand": 8222,
    "ĠquÃŃm": 6868,
    "ĠNY": 9442,
    "celona": 1199,
    "Ġfase": 6285,
    "Ġproporcion": 3769,
    "ĠXVI": 3017,
    "ĠValladolid": 4403,
    "realismo": 9243,
    "Ġotor": 3170,
    "Ġconservados": 8044,
    "dust": 2605,
    "Ġ2008": 3145,
    "nte": 241,
    "setti": 7823,
    "Ġcubre": 8639,
    "ctual": 8998,
    "Ġconvertir": 5269,
    "ĠSus": 1073,
    "rÃ©s": 3756,
    "gido": 3072,
    "ĠInvestig": 9629,
    "Ġejerci": 9493,
    "ĠutilizaciÃ³n": 7845,
    "viÃ©tica": 8087,
    "mediatamente": 7659,
    "Ġmuchas": 2007,
    "ĠChri": 2854,
    "Ġsosten": 4447,
    "Ġprofundidad": 5901,
    "Ġtemp": 1860,
    "ĠBilbao": 4120,
    "sk": 7515,
    "ical": 3648,
    "Ġsob": 3229,
    "illet": 9464,
    "Ġvariedad": 5770,
    "ĠGonz": 8273,
    "isco": 6365,
    "aragoza": 3592,
    "Ba": 5533,
    "ĠPintÃ³": 5970,
    "Ġfra": 3602,
    "and": 817,
    "Ġluna": 6985,
    "Ġrecopi": 9286,
    "Arte": 7370,
    "Ġconocen": 6600,
    "ĠClemente": 6886,
    "ĠGalle": 9786,
    "landes": 2704,
    "ĠhacÃŃa": 5049,
    "Ġ1855": 7817,
    "cador": 7774,
    "ĠLou": 1589,
    "ĠCuatro": 8219,
    "Ġobtener": 5290,
    "Ġpago": 8479,
    "Ġcreador": 8300,
    "ap": 1974,
    "Ġtradicionalmente": 9287,
    "ĠpublicÃ³": 2697,
    "tadas": 3726,
    "Ġseme": 5897,
    "Ġz": 1946,
    "ĠMal": 2939,
    "Ġrecomen": 8763,
    "centes": 7295,
    "Ġpresente": 3545,
    "\"),": 9482,
    "ĠBiblia": 5345,
    "ans": 1993,
    "itaba": 9697,
    "Ġparticipado": 7689,
    "Ġidenti": 2193,
    "Ġprem": 1543,
    "niversario": 6272,
    "lecciÃ³n": 4164,
    "ha": 1156,
    "Ġmodelos": 3140,
    "Ġformato": 3480,
    "pli": 6319,
    "Ġol": 5317,
    "ĠMÃ¡r": 9866,
    "Ġceremonia": 9099,
    "Ġexca": 7142,
    "ime": 2614,
    "ĠAutÃ³noma": 9241,
    "22": 4756,
    "Ġholandeses": 9000,
    "versi": 1015,
    "Ġgo": 1730,
    "Ġcubi": 7035,
    "anÃŃa": 5061,
    "Ġunidad": 8600,
    "ĠatribuciÃ³n": 7228,
    "ĠDurero": 5082,
    "emo": 8950,
    "Ġabogado": 9733,
    "eriores": 3941,
    "cadas": 5821,
    "allado": 3572,
    "ĠOn": 7203,
    "zaron": 4284,
    "ÃŃst": 473,
    "Ġllen": 6520,
    "âĢĶ,": 5091,
    "ĠGer": 3848,
    "Ġorganizado": 8427,
    "ĠlÃŃnea": 3008,
    "Ġestampas": 5322,
    "Ġcorte": 2204,
    "Ġreflejar": 9115,
    "Ġasum": 7003,
    "ed": 749,
    "ĠDirecciÃ³n": 9416,
    "bos": 7362,
    "Ġargum": 9654,
    "Ġpri": 1119,
    "Ġ1": 150,
    "Ġnacido": 3838,
    "Ġvisto": 4740,
    "ĠArtes": 498,
    "cÃ³": 1353,
    "Ġprepa": 5102,
    "ĠtÃ©cnico": 9173,
    "ismo": 371,
    "ine": 731,
    "Ġocup": 4745,
    "ÃŃos": 3856,
    "Ã©rcito": 4199,
    "ticos": 5093,
    "ĠEugenio": 7106,
    "vard": 7870,
    "ĠconstruyÃ³": 6991,
    "ĠademÃ¡s": 1520,
    "Ġnovela": 4658,
    "Ġmun": 997,
    "didas": 5052,
    "peo": 5568,
    "ĠMadame": 9332,
    "Ġpresentar": 8116,
    "ĠholandÃ©s": 5437,
    "cados": 3876,
    "Ġoriginal": 1930,
    "intoretto": 8945,
    "ĠSim": 2828,
    "Ġrepres": 469,
    "Ã³rica": 6744,
    "uidas": 3589,
    "Ġaguafuerte": 8000,
    "Ġmesa": 4665,
    "ĠÃģngeles": 4050,
    "Ġtrabajado": 7419,
    "ĠhÃ©ro": 8143,
    "Ġejecutado": 9692,
    "ells": 9875,
    "lan": 356,
    "ĠY": 571,
    "ĠidentificaciÃ³n": 9897,
    "Ġ1977": 4117,
    "ĠPremios": 3548,
    "ĠSanto": 2762,
    "ples": 3389,
    "ĠRafael": 2381,
    "ez": 957,
    "Ġcl": 1665,
    "Ġhumanidad": 9202,
    "Ã¡l": 1957,
    "jer": 914,
    "strucciÃ³n": 4112,
    "Ġtextura": 9112,
    "cke": 6281,
    "ĠHist": 1338,
    "ĠespaÃ±ola": 2394,
    "Ġevi": 2927,
    "Ġrestos": 5301,
    "ĠCÃŃrculo": 4602,
    "lidos": 8465,
    "rin": 2453,
    "depen": 2348,
    "uer": 335,
    "Ġlen": 3019,
    "Ġversiones": 4271,
    "ĠPia": 9237,
    "Ġcoti": 3501,
    "Ġcarta": 4156,
    "Ġabierto": 6336,
    "Ġcolectivas": 3448,
    "ĠViena": 2696,
    "ĠMetropolit": 4482,
    "Ġconvirtieron": 8885,
    "mal": 5158,
    "ua": 2385,
    "Ġbasado": 6613,
    "ĠFuji": 8801,
    "hal": 8140,
    "tene": 1638,
    "tamente": 2780,
    "Ġdestinada": 9879,
    "ĠmuriÃ³": 2149,
    "ĠVol": 4184,
    "Ġsimbol": 2471,
    "Ġdeman": 7609,
    "O": 41,
    "urante": 524,
    "igrafÃŃa": 6289,
    "Ġroca": 8841,
    "45": 6616,
    "Ġcabezas": 6453,
    "tir": 2240,
    "Ġcomerciante": 6982,
    "Ġbienes": 7115,
    "Ġparecido": 8828,
    "ĠFu": 4628,
    "ĠIma": 8099,
    "pÃ³n": 3683,
    "grÃ¡f": 2037,
    "iones": 1332,
    "Ġ182": 2458,
    "Ġenvuel": 8296,
    "Ġ1898": 5541,
    "Ġchileno": 8532,
    "des": 405,
    "Ġ1934": 4548,
    "ĠMat": 2364,
    "ĠPrÃŃncipe": 8700,
    "Ġacomo": 8977,
    "ulÃ³": 6252,
    "omenaje": 2830,
    "Ġtriun": 5168,
    "antas": 8451,
    "ĠApocalipsis": 9262,
    "ĠAntoni": 8193,
    "ĠBÃ¡rbara": 9125,
    "Ġplena": 7888,
    "ĠMo": 573,
    "ĠtrÃŃptico": 6345,
    "mann": 3466,
    "sado": 9188,
    "Ġid": 8541,
    "ĠFelipe": 2408,
    "titud": 4478,
    "Ġmarido": 4516,
    "quero": 8444,
    "Ġhoras": 5314,
    "ĠapariciÃ³n": 6556,
    "ĠPina": 3890,
    "entos": 556,
    "ta": 222,
    "ĠXX": 1672,
    "Ġencar": 976,
    "ĠdespuÃ©s": 801,
    "ĠBodegÃ³n": 8010,
    "Ġemple": 2377,
    "Ġcost": 2823,
    "Ġocasiones": 3209,
    "fol": 9391,
    "toria": 2754,
    "ĠdebiÃ³": 5264,
    "rieron": 5824,
    "sky": 8666,
    "ek": 7431,
    "ti": 165,
    "ctura": 1043,
    "Ġrelieve": 5906,
    "grama": 3439,
    "Ġ175": 4569,
    "ĠGuggen": 7394,
    "Ġalto": 2688,
    "alles": 7242,
    "Ġfel": 6987,
    "Ġgloria": 9130,
    "Ġcontemp": 4545,
    "Ġecon": 3212,
    "ĠDel": 2210,
    "Ġilustrados": 9619,
    "cios": 1515,
    "ĠWol": 6396,
    "Ġfemenina": 5275,
    "ĠShrek": 7506,
    "orn": 3047,
    "ĠMiami": 6196,
    "Ġmetaf": 9745,
    "Ġ1630": 8396,
    "Ġexplic": 5390,
    "Ġexclusivamente": 7669,
    "vemente": 7411,
    "pia": 2142,
    "ĠcaracterÃŃstico": 8229,
    "Ġ1883": 5924,
    "dela": 5260,
    "Ġocu": 2014,
    "ĠalemÃ¡n": 2513,
    "Ġvive": 7002,
    "ĠcontemporÃ¡neos": 3839,
    "Ġresidencia": 4049,
    "Ġing": 4847,
    "ntera": 5339,
    "Ġret": 1165,
    "Ġinfluy": 3430,
    "vista": 4360,
    "Ġvest": 1673,
    "ba": 352,
    "cir": 3186,
    "Ġmirada": 4395,
    "linas": 9527,
    "Ġazules": 6375,
    "ĠinformaciÃ³n": 5803,
    "Ġvic": 5415,
    "Ġvenezo": 9512,
    "Ġfutu": 3246,
    "dida": 1734,
    "ĠClub": 4373,
    "Ġparroquia": 7167,
    "Ġ1913": 4100,
    "ĠPor": 909,
    "ĠrealizÃ³": 1144,
    "Ġpintores": 1017,
    "ug": 2482,
    "Ġconsiderada": 4709,
    "Ġgalardonado": 9921,
    "uerto": 3458,
    "ĠWilhelm": 5521,
    "Ġpintados": 4303,
    "Ġju": 1602,
    "ĠpÃºblico": 2244,
    "Ġgrupos": 4612,
    "Ġcons": 569,
    "ĠÃºn": 1529,
    "Ġ1956": 4453,
    "Ġgenera": 1026,
    "ĠStre": 6496,
    "oma": 697,
    "Ġza": 7776,
    "Ġayuda": 2948,
    "Ġexpan": 8387,
    "gun": 427,
    "Ġprofesor": 1934,
    "Ġcastillo": 5508,
    "ĠPaÃŃs": 3131,
    "Ġacci": 7918,
    "ĠEva": 5861,
    "Ġconvierte": 6103,
    "Ġcompa": 3715,
    "Ġretratar": 8548,
    "sachuset": 7946,
    "udad": 603,
    "ĠDesarrol": 8439,
    "ĠUniversal": 4859,
    "arÃŃa": 1966,
    "Ġexpuso": 2463,
    "nto": 1706,
    "Ġinfluenciado": 6307,
    "dis": 4433,
    "Ġsuyo": 7650,
    "dol": 7858,
    "Ġcomple": 1112,
    "Ġcomienzos": 5723,
    "Ġtrabaja": 5373,
    "Ġdetal": 2333,
    "ĠningÃºn": 4965,
    "reo": 6079,
    "Ã©c": 560,
    "OS": 9995,
    "Ġa": 114,
    "ĠLiceo": 9023,
    "Ġretra": 535,
    "ĠBudapest": 7430,
    "ĠpÃ¡g": 2797,
    "tte": 4995,
    "ĠPit": 6019,
    "Ġpieza": 3689,
    "vis": 1631,
    "Ġobispo": 5831,
    "Ġcompletamente": 5388,
    "Ġescen": 1069,
    "ĠMu": 1098,
    "ĠInglaterra": 2632,
    "ĠautÃ©nt": 7762,
    "ĠFacultad": 5852,
    "ĠmarquÃ©s": 6676,
    "Ġparticular": 1644,
    "ĠFla": 9743,
    "guesa": 8875,
    "ĠMendo": 9147,
    "anto": 805,
    "Ġvolumen": 5872,
    "Ġnombre": 1128,
    "ĠcÃŃrculo": 4057,
    "Ġrom": 1252,
    "ĠdinastÃŃa": 6910,
    "ĵ": 99,
    "ĠGiuseppe": 6681,
    "Ġ1916": 5236,
    "att": 7134,
    "Ġtotalidad": 9814,
    "Ġ1994": 3704,
    "Ġhogar": 7078,
    "Ġdesarrolla": 6734,
    "Ġ1944": 4958,
    "Ġdeseo": 6118,
    "Ġapa": 7624,
    "Ġanim": 1691,
    "Ġdisfru": 7982,
    "Ġintensidad": 8504,
    "jante": 3030,
    "zar": 1473,
    "ĠcontinuÃ³": 3401,
    "entÃ³": 2654,
    "Ġ1959": 4081,
    "erado": 8374,
    "Ġencontramos": 8907,
    "Ġdiosa": 7000,
    "dic": 655,
    "eri": 380,
    "Ġaplic": 3646,
    "Ġreflex": 9431,
    "ĠWill": 7069,
    "Ġadminist": 6288,
    "ĠmÃºsica": 2734,
    "Ġingles": 5297,
    "ĠAdoraciÃ³n": 5188,
    "pÃ©": 9545,
    "Ġreser": 9318,
    "ĠNaciÃ³": 3436,
    "Ġ168": 4456,
    "Ġperdido": 5085,
    "ĠconcediÃ³": 9899,
    "Ġnegra": 6130,
    "ĠFueron": 9246,
    "lÃŃ": 1304,
    "ĠIbero": 9941,
    "ĠMadrazo": 9616,
    "ĠselecciÃ³n": 8729,
    "uts": 8362,
    "lano": 3316,
    "ĠFi": 3719,
    "ĠArt": 793,
    "ĠFa": 2349,
    "ĠBadajoz": 6138,
    "Ġprecio": 6977,
    "zaba": 7449,
    "ĠGuar": 8724,
    "Ġtuvieron": 4732,
    "emas": 3221,
    "ĠNacionales": 8780,
    "Ġcada": 1549,
    "lares": 1323,
    "Ġelabora": 3010,
    "Ġro": 701,
    "Ġmanif": 3840,
    "Ġencontraba": 3734,
    "Ġtarea": 8887,
    "orm": 1623,
    "fornia": 4016,
    "Ġpadres": 3272,
    "uno": 4059,
    "195": 2858,
    "ÃŃmetros": 6581,
    "Ġbasada": 6439,
    "ĠCristina": 9827,
    "Ġprimi": 5492,
    "Ġtran": 1125,
    "ĠAlba": 6912,
    "ĠanatomÃŃa": 8448,
    "Ġto": 420,
    "Ġdiscip": 7367,
    "cta": 1779,
    "78": 2903,
    "Ġrico": 7077,
    "entre": 8036,
    "orce": 8720,
    "Ġras": 3496,
    "ĠVera": 8067,
    "Ã¡tico": 2583,
    "Ġabo": 6567,
    "ĠDra": 9973,
    "Ġasign": 6230,
    "Ġvoz": 8500,
    "iencia": 2469,
    "ur": 326,
    "une": 6056,
    "Ġterritorio": 8199,
    "port": 3057,
    "ĠMÃ©xico": 1113,
    "ĠBotticelli": 8359,
    "BA": 6078,
    "inebra": 8149,
    "ĠCuenca": 8901,
    "Ġverdes": 8354,
    "Ġimperial": 7395,
    "ĠuniÃ³n": 7965,
    "ĠinstituciÃ³n": 4921,
    "Ġmenciona": 6324,
    "ĠCanaria": 8334,
    "ĠCharles": 2799,
    "Ġbrazos": 5522,
    "lajara": 7316,
    "ĠVers": 7170,
    "Ġtienda": 9730,
    "rick": 5895,
    "ĠUm": 9501,
    "Ġcarteles": 6200,
    "gal": 2779,
    "Ġand": 2012,
    "umas": 9272,
    "ĠRicardo": 7314,
    "Ġprivile": 9957,
    "ĠAb": 2211,
    "rena": 3489,
    "cte": 8709,
    "Ġex": 250,
    "crom": 8055,
    "ĠFrance": 9849,
    "Ġclara": 3417,
    "ĠAleks": 8695,
    "ĠConse": 5086,
    "Ġingeniero": 9101,
    "ĠÃ¡mbito": 5776,
    "Ġunas": 2559,
    "Ġcuenta": 2611,
    "Ġarch": 9910,
    "alidad": 726,
    "Ġm": 132,
    "Ġcent": 835,
    "Ãºm": 1618,
    "uvo": 744,
    "Ġpermit": 5870,
    "dap": 5094,
    "ĠprovocÃ³": 8815,
    "ingen": 8363,
    "ÃŃan": 656,
    "fico": 5056,
    "ĠArg": 8203,
    "Ġpueden": 1905,
    "Ġdocumentos": 5592,
    "ĠlÃ¡": 3311,
    "Ġalemanes": 7782,
    "urias": 6485,
    "Ġfle": 7785,
    "Ġmanten": 3533,
    "zione": 7662,
    "ilidad": 1936,
    "heim": 3651,
    "Ġotros": 689,
    "Ġfrancos": 9771,
    "ĠMonumento": 6398,
    "all": 1195,
    "ĠSeg": 8189,
    "ĠExhibi": 6821,
    "zÃ¡": 2375,
    "Ġ1859": 7996,
    "Ġrecuerdo": 9605,
    "ker": 3752,
    "Ã¡": 152,
    "ĠdestacÃ³": 5369,
    "emos": 4171,
    "Ġprincipio": 3878,
    "ĠGalicia": 9437,
    "ĠdÃŃas": 3049,
    "Ġclasi": 6735,
    "zco": 5659,
    "Ġrecibi": 3913,
    "Ġequipo": 7079,
    "lida": 7733,
    "Ġmuralista": 7984,
    "grada": 3478,
    "196": 2275,
    "Ġorigen": 2311,
    "ril": 879,
    "Ġpropios": 4903,
    "ĠraÃŃz": 7013,
    "Ġinicialmente": 5645,
    "ĠDora": 8766,
    "Ġ55": 9111,
    "Ġdesper": 8246,
    "ĠCastilla": 5406,
    "ĠRenacimiento": 3353,
    "fÃ©": 5028,
    "iedad": 2297,
    "ĠPedro": 1465,
    "cal": 1466,
    "presionista": 9320,
    "ĠFerdin": 9179,
    "ĠprÃ¡ctica": 4895,
    "Ġenfa": 7397,
    "ĠFrancia": 1100,
    "IA": 9544,
    "ĠcelebraciÃ³n": 9491,
    "ĠvÃŃn": 9411,
    "Ġellos": 1439,
    "Ġllamados": 8748,
    "Ġint": 364,
    "Ġacer": 2805,
    "say": 5212,
    "Ġ2014": 3359,
    "arse": 1065,
    "Ġespacios": 4152,
    "Ġsalir": 9446,
    "Ġpermiten": 9775,
    "Ġgracias": 2838,
    "ĠFlo": 1447,
    "Ġ1871": 6637,
    "Ġzona": 3563,
    "ĠTom": 2908,
    "titu": 9598,
    "ĠTo": 1121,
    "ĠRoy": 3494,
    "tivismo": 6532,
    "Ġnov": 9641,
    "ie": 275,
    "(": 9,
    "ye": 714,
    "onia": 1474,
    "Ġilustrado": 7876,
    "eso": 3780,
    "Ġje": 5752,
    "ÃŃa": 188,
    "ĠJes": 1784,
    "dido": 1456,
    "ĠCaravaggio": 4411,
    "Ġgrabados": 2151,
    "set": 9912,
    "8": 22,
    "ol": 203,
    "hr": 8870,
    "Ġretablo": 2040,
    "Ġala": 9248,
    "Ġdesconoci": 4198,
    "ino": 388,
    "ĠManet": 4821,
    "mon": 2578,
    "Ġfavo": 6671,
    "menes": 4437,
    "Ġcolombi": 7861,
    "Ġsiempre": 2141,
    "urbarÃ¡n": 5389,
    "ridad": 2594,
    "uras": 2702,
    "ices": 3491,
    "Ġpared": 4172,
    "ander": 3693,
    "tit": 7481,
    "Ġconservado": 3322,
    "Ġ196": 662,
    "Ġtama": 2769,
    "ĠJavier": 6636,
    "Ale": 8739,
    "ĠPÃŃo": 9908,
    "uset": 7493,
    "Ġexpuestas": 6841,
    "ĠMedalla": 2929,
    "Ġconceptos": 9713,
    "ĠSem": 5013,
    "ĠTrabajo": 9508,
    "ional": 2788,
    "ĠJor": 7377,
    "ĠEc": 9530,
    "zo": 442,
    "ĠBus": 8267,
    "Ġjo": 1334,
    "Ġori": 2773,
    "Ġmediados": 3409,
    "ĠartÃŃculos": 6434,
    "Ã³leo": 9904,
    "ĠcontemporÃ¡neo": 3854,
    "ĠJer": 2568,
    "):": 4233,
    "Ġnuestra": 8713,
    "Ġconver": 2207,
    "Ġ2002": 3512,
    "cento": 8524,
    "tura": 367,
    "ult": 3295,
    "Ġcal": 1944,
    "ruz": 1662,
    "vidu": 1358,
    "Ġhospital": 7537,
    "Ġsombra": 5950,
    "Ġimpresionista": 4532,
    "Ġinvitado": 6210,
    "ĠMiche": 8475,
    "Ġbrazo": 6155,
    "Ġde": 105,
    "ĠAntiguo": 6023,
    "ĠÃŃnt": 6189,
    "ĠWolf": 8579,
    "Ġtri": 2089,
    "ĠEle": 5848,
    "ĠPasÃ³": 9307,
    "mento": 2997,
    "ĠBrueghel": 7239,
    "iona": 9570,
    "Ġesencia": 9970,
    "ĠusÃ³": 7767,
    "Ġep": 3096,
    "Ġimpres": 2777,
    "Ġmona": 9563,
    "cÃ³n": 5712,
    "Ġestil": 2531,
    "Ġinsp": 5128,
    "Ġesos": 4899,
    "Ġexilio": 9148,
    "ĠMonta": 8496,
    "Ġhumil": 7737,
    "ĠMe": 1056,
    "Ġpsic": 7273,
    "Ġromanticismo": 9852,
    "Ġorfe": 8205,
    "Ġprimavera": 6060,
    "U": 47,
    "ĠArtist": 6862,
    "the": 3579,
    "Ġcaballe": 8069,
    "ag": 5229,
    "Ġtrono": 6547,
    "189": 2589,
    "Ġobje": 1976,
    "ĠCar": 547,
    "alizaciÃ³n": 4231,
    "biÃ³": 773,
    "ĠÃ¡reas": 8857,
    "ĠAccademia": 9985,
    "Ġdesa": 2325,
    "iza": 2112,
    "Ġartes": 1569,
    "ĠAlfonso": 4585,
    "tolom": 4475,
    "us": 194,
    "ĠLand": 9298,
    "ĠRetrato": 1971,
    "ĠMÃ¡laga": 4283,
    "rista": 3154,
    "plona": 6943,
    "Ġ201": 674,
    "erma": 9842,
    "Ġdocumentado": 8554,
    "ĠCast": 1634,
    "Ġexcelente": 8488,
    "ĠFontaine": 9650,
    "viendo": 7779,
    "tions": 7101,
    "Ġmuebles": 8612,
    "Ġconfe": 4669,
    "Ġdocumenta": 9430,
    "Ã¡ticos": 4852,
    "K": 37,
    "Ġsistema": 4149,
    "Ġcuyas": 5959,
    "Ġidentificar": 8630,
    "Ġcen": 9102,
    "ĠperÃŃodo": 2086,
    "Ġcosas": 5145,
    "Ġconocido": 1330,
    "Ġmedia": 5999,
    "ĠXVIII": 3097,
    "iles": 2883,
    "aro": 3038,
    "ison": 5711,
    "ĠPardo": 9516,
    "ĠÃļ": 4537,
    "vi": 258,
    "Ġepiso": 4460,
    "ĠHan": 6117,
    "Ġnatura": 887,
    "ĠIndependencia": 9160,
    "Ġutilizados": 8982,
    "Ġbrillantes": 6784,
    "Ġproce": 2283,
    "Ġestrel": 5780,
    "Est": 9217,
    "maciÃ³n": 2405,
    "ļ": 101,
    "Ġcaballete": 8620,
    "Ġocho": 3944,
    "ula": 2284,
    "ĠEcu": 4689,
    "ĠBell": 5643,
    "ĠMetro": 4066,
    "Ġrojos": 8330,
    "Ġdesem": 4209,
    "Ãºb": 951,
    "ĠHuman": 9732,
    "ĠCarl": 4693,
    "ĠpatrÃ³n": 8470,
    "ĠhipÃ³tesis": 8730,
    "tivamente": 2306,
    "win": 6984,
    "ĠProf": 6132,
    "onios": 8022,
    "Ġinmediatamente": 8570,
    "10": 1918,
    "ĠAlejandro": 4257,
    "ĠllevÃ³": 2772,
    "Ġarte": 396,
    "Ġrica": 8162,
    "eda": 7352,
    "Ġescultura": 1154,
    "Ġtierras": 7522,
    "gÃ©n": 8139,
    "Ġdiferente": 5137,
    "Ġhijas": 5928,
    "erife": 9548,
    "ĠLyon": 7022,
    "ĠAdÃ¡n": 7459,
    "Ġ1914": 4191,
    "ĠCe": 2844,
    "ibu": 3075,
    "Ġsantos": 3420,
    "Ġtrans": 1345,
    "ores": 678,
    "15": 1072,
    "r": 73,
    "Ġcontaba": 8657,
    "Ġasim": 9824,
    "Ġreti": 4375,
    "Ġparticipar": 6028,
    "Ġalgunas": 1483,
    "Ġperforman": 7067,
    "end": 6087,
    "ĠSalomÃ³n": 9816,
    "Ġenter": 3745,
    "ĠJoseph": 3811,
    "Ġvivir": 4634,
    "Ġapu": 5044,
    "ĠHo": 1070,
    "Ġfirm": 1925,
    "Ġpintado": 2019,
    "ĠHomenaje": 6623,
    "Ġdenominado": 6956,
    "colmo": 6969,
    "ctubre": 1590,
    "ĠcÃ©": 3955,
    "glÃ©s": 2646,
    "Ġnombrado": 2628,
    "Ġpeque": 1216,
    "into": 4379,
    "Ġcambia": 9618,
    "ĠMargar": 6509,
    "En": 6401,
    "ĠexhibiÃ³": 4584,
    "ĠYu": 7366,
    "Ġinspirado": 5826,
    "ĠBasilea": 8965,
    "Ġby": 8348,
    "Ġvertic": 5956,
    "ĠÃģvila": 9461,
    "vismo": 9841,
    "ĠGi": 1519,
    "Ġsurrealista": 5747,
    "Ġconocidas": 4723,
    "ĠVÃ©ase": 1924,
    "âĢĶ": 859,
    "Ġdepartamento": 7676,
    "ĠmontaÃ±a": 8382,
    "Ġsupera": 8493,
    "Z": 52,
    "Ġ1999": 3527,
    "rag": 1541,
    "retratos": 6817,
    "quesa": 9944,
    "ĠClo": 8740,
    "ĠComer": 9768,
    "Ġoch": 7363,
    "ill": 1225,
    "ĠFlorida": 6257,
    "Ġfa": 1205,
    "Ġplasm": 9181,
    "Ġ185": 1504,
    "ĠHerm": 6208,
    "hl": 6716,
    "ĠContra": 9175,
    "Ġvelo": 7766,
    "ro": 151,
    "Ġsen": 1819,
    "Ġclaroscu": 6698,
    "pen": 1194,
    "if": 3855,
    "poco": 7840,
    "ĠneoclÃ¡s": 7754,
    "Ġpresenta": 2539,
    "raciÃ³n": 761,
    "diciÃ³n": 3074,
    "Ġniv": 3368,
    "Ġaparecen": 3309,
    "pla": 2785,
    "im": 219,
    "ĠRivera": 5055,
    "Ġvo": 2503,
    "ĠAmbos": 7673,
    "cum": 1257,
    "Ġretratado": 9058,
    "ĠSta": 4304,
    "Ġextremo": 7237,
    "tion": 949,
    "Ġcompren": 4210,
    "Ġromanos": 7268,
    "Ġtotalmente": 6769,
    "cuela": 888,
    "Ġhermana": 3121,
    "Ġ202": 2004,
    "cu": 237,
    "ĠinterpretaciÃ³n": 4836,
    "Ġejer": 3524,
    "Ġ170": 5113,
    "Ġrenacentista": 5139,
    "Ġinfantil": 8897,
    "Ġpaisajista": 5528,
    "El": 2431,
    "ĠTen": 3710,
    "Ġ1920": 3134,
    "era": 273,
    "Ġ2011": 3142,
    "Ġprincipios": 2106,
    "Ġcated": 9107,
    "Ġesfuer": 6178,
    "ĠsÃ³": 6828,
    "ĠExisten": 8180,
    "Ġca": 346,
    "ki": 1639,
    "Ġutilizada": 7581,
    "ĠromÃ¡nt": 4116,
    "cken": 9770,
    "Ġescenas": 1394,
    "Ġcreaciones": 8894,
    "Ġprensa": 5978,
    "Ġcuya": 2604,
    "ĠToro": 8153,
    "jo": 323,
    "ĠmudÃ³": 3981,
    "visiÃ³n": 3725,
    "Ġmusical": 6160,
    "ĠDentro": 8890,
    "lidad": 3508,
    "ggio": 3046,
    "Ġproven": 6667,
    "Ġwith": 9284,
    "Ġparedes": 4253,
    "ilea": 8442,
    "Ġrojas": 8249,
    "porÃ¡n": 1190,
    "Ġ33": 8642,
    "pe": 291,
    "ber": 591,
    "ĠGru": 3727,
    "ĠTrans": 7075,
    "idades": 2123,
    "ĠconociÃ³": 2532,
    "ku": 6330,
    "Ġbuena": 4661,
    "rÃ¡s": 2676,
    "ĠBat": 3199,
    "encio": 8710,
    "ort": 6321,
    "Ġasuntos": 8808,
    "Ġtendencias": 6287,
    "ĠRoyal": 4130,
    "Ġestudiante": 6967,
    "ĠÃ©": 484,
    "ĠGiacomo": 9337,
    "ia": 190,
    "ĠBÃ¡r": 8478,
    "Ġpoderos": 7647,
    "Ġdepen": 5254,
    "ĠCÃ³dice": 5668,
    "Ġresta": 1983,
    "Ġpaneles": 4601,
    "Ġhora": 7277,
    "edad": 1233,
    "Ġlugares": 3659,
    "ĠZamora": 9932,
    "ĠFundaciÃ³n": 2175,
    "qu": 503,
    "ĠCr": 6903,
    "ccion": 2493,
    "ĠSa": 738,
    "ĠDomenico": 6137,
    "Ġperfil": 6798,
    "ĠConvento": 9195,
    "gu": 432,
    "Ġsuperficie": 4045,
    "Ġhicieron": 4625,
    "Ġpreg": 8042,
    "ES": 6308,
    "iendo": 834,
    "dores": 3528,
    "Ġplantas": 5635,
    "Mus": 3285,
    "ame": 4349,
    "Ġformando": 7702,
    "Ġbelleza": 3110,
    "Ġclaro": 4106,
    "ombar": 7952,
    "mino": 3523,
    "Ġsimple": 3857,
    "ĠAugu": 4766,
    "Ġrecon": 2915,
    "V": 48,
    "tÃ¡n": 7009,
    "ĠfotÃ³grafo": 6388,
    "ĠDyck": 6575,
    "Ġimpresion": 1648,
    "right": 8159,
    "ĠhÃ¡": 9637,
    "und": 2027,
    "ĠIII": 2376,
    "Ġmatric": 7368,
    "Ġcomis": 5825,
    "onces": 1343,
    "ĠMil": 2138,
    "Ġleyen": 5294,
    "anticismo": 6475,
    "ĠNacional": 649,
    "fos": 5075,
    "Ġpublica": 2724,
    "su": 3859,
    "tela": 5845,
    "Ġpaz": 7047,
    "Ġbocetos": 4178,
    "estig": 2031,
    "encias": 6310,
    "Ġsecundaria": 8522,
    "Ġprincesa": 8786,
    "ĠSho": 7524,
    "AR": 5375,
    "Ġdiferencias": 7759,
    "Ġdesconoce": 8292,
    "Ġ'": 2616,
    "orge": 1980,
    "Ġafirma": 6537,
    "34": 5611,
    "Ġfic": 8788,
    "ĠalcanzÃ³": 6305,
    "ĠP": 166,
    "Ġdetalle": 5576,
    "ĠAlejand": 8502,
    "Ġclas": 1798,
    "Ġentrada": 4096,
    "ĠPÃ©rez": 3668,
    "Ġvidrio": 5630,
    "Ġmuro": 6298,
    "Ġ1957": 4167,
    "Ġsup": 1739,
    "Ġcantante": 9061,
    "ima": 1349,
    "ĠHerrera": 7269,
    "Ġventa": 5208,
    "ĠKu": 9028,
    "ĠGoya": 2241,
    "rededor": 1948,
    "Ġ193": 730,
    "esor": 7611,
    "ĠÃ¡": 1031,
    "ĠelaboraciÃ³n": 7507,
    "ĠNacido": 5042,
    "ĠKas": 9748,
    "ĠCastillo": 4739,
    "tolÃ³g": 4039,
    "quiera": 8509,
    "Ġ1640": 9626,
    "inas": 1107,
    "ttgart": 9710,
    "Ġretrato": 1148,
    "cab": 5618,
    "ĠMaxim": 9090,
    "Ã³so": 7276,
    "yn": 2524,
    "ON": 265,
    "ĠVit": 5540,
    "ĠPub": 4925,
    "Ġcompon": 4461,
    "Ġ1851": 9133,
    "Ġmuest": 2300,
    "anorama": 7579,
    "ks": 2787,
    "Ġimpresionistas": 5160,
    "cianos": 8879,
    "ĠFran": 465,
    "Ġjes": 8722,
    "ĠDinamarca": 6789,
    "ĠRomero": 6805,
    "ste": 1110,
    "ger": 1972,
    "dore": 8065,
    "tales": 9008,
    "ĠMuseum": 1565,
    "erido": 5041,
    "ĠuniÃ³": 6126,
    "men": 1145,
    "ī": 96,
    "Ġestructura": 3016,
    "ĠejerciÃ³": 7880,
    "ĠFro": 9222,
    "Ġarquitecto": 2804,
    "Ġexiste": 5274,
    "ÃŃp": 1491,
    "Ġexperiencias": 8260,
    "Ġbreve": 6077,
    "manca": 6448,
    "ĠRij": 7246,
    "Ġmarca": 7379,
    "ĠGal": 461,
    "Ġefe": 1782,
    "Ġindividu": 1443,
    "ĠParÃŃs": 601,
    "ĠdiseÃ±os": 4608,
    "Ġbas": 1506,
    "ĠLis": 4757,
    "ĠHistoria": 1596,
    "ĠLet": 9927,
    "Ġsant": 2061,
    "Ġcree": 4216,
    "Ġident": 4979,
    "ĠRossetti": 8413,
    "eridad": 9150,
    "nta": 919,
    "Ġtradu": 3403,
    "Ġpensar": 8895,
    "Ġsepul": 7307,
    "cero": 6165,
    "ĠcompaÃ±ÃŃa": 5066,
    "ĠNavarra": 8927,
    "ladas": 2483,
    "itados": 7839,
    "ĠRock": 9915,
    "ĠPar": 464,
    "Ġsido": 990,
    "!": 6,
    "Ġfrecue": 5709,
    "ĠVan": 1603,
    "Ġc": 110,
    "Ġparece": 2173,
    "Ġabstra": 1764,
    "Ġimpresiones": 8061,
    "ĠAlice": 9700,
    "Ġtendencia": 4916,
    "ctur": 6072,
    "Ġempleado": 8617,
    "ÃŃritu": 3917,
    "Ġgui": 4702,
    "ĠGiro": 9154,
    "ts": 1355,
    "Ġviajar": 6332,
    "Ġ188": 922,
    "rana": 3076,
    "ĠSte": 2695,
    "pera": 1037,
    "fuer": 3341,
    "onso": 2755,
    "Ġcient": 4480,
    "ĠMarcos": 6104,
    "ĠPam": 6135,
    "Ġfemin": 6300,
    "ĠparticipÃ³": 2245,
    "Ġsoldados": 6638,
    "Ġanterior": 2402,
    "Ġprobable": 1797,
    "Ġrecientemente": 7657,
    "Ġcoinci": 5014,
    "Ġreligiosas": 5024,
    "Ġluminosidad": 8156,
    "Ã©rica": 2067,
    "SBN": 3383,
    "Ġhermano": 2022,
    "Ġpreser": 9226,
    "Ġorganiz": 1600,
    "46": 9925,
    "ĠTheo": 4822,
    "Pa": 5132,
    "Ġestaban": 3012,
    "Ġescas": 5289,
    "rup": 6235,
    "ĠPen": 6199,
    "ivas": 7540,
    "ĠSix": 8519,
    "Ġcier": 1646,
    "Ġdio": 2488,
    "Ġtonos": 3531,
    "Ġcali": 4504,
    "Roma": 9902,
    "Ġincendio": 7461,
    "Ġacab": 3176,
    "Ġpince": 3361,
    "ĠrÃ¡": 3868,
    "ledo": 3228,
    "uber": 8113,
    "ara": 1738,
    "65": 6686,
    "ĠDa": 1336,
    "ĠadquiriÃ³": 4931,
    "ĠDos": 3240,
    "ĠEurope": 9509,
    "uegos": 9865,
    "Ġnuevamente": 5806,
    "Ġllu": 9905,
    "CION": 269,
    "Ġtrazos": 7931,
    "Ġdirigido": 7849,
    "Ġpola": 6911,
    "oli": 3141,
    "ĠProvin": 3235,
    "lesiÃ¡st": 9325,
    "Ġ29": 3584,
    "gramas": 7723,
    "bet": 7127,
    "abel": 2393,
    "Ġnorte": 2845,
    "ĠFort": 6211,
    "ĠCon": 572,
    "Ġ27": 3286,
    ".).": 8913,
    "pin": 7564,
    "ĠPilar": 8755,
    "Ã©rcules": 7225,
    "ĠallÃ¡": 5360,
    "isiÃ³n": 3411,
    "ĠAlfredo": 7423,
    "ĠenseÃ±Ã³": 6919,
    "Ã³grafo": 7342,
    "ĠRenÃ©": 8230,
    "ĠserÃŃa": 2718,
    "rent": 2625,
    "Ġencima": 5532,
    "Le": 5979,
    "orias": 6403,
    "Ġmural": 1987,
    "ĠexpresiÃ³n": 2863,
    "Ġcreado": 4787,
    "ĠhistÃ³rica": 5529,
    "sch": 4867,
    "itente": 8342,
    "Ġlenguaje": 4552,
    "govia": 7018,
    "ctoria": 2527,
    "ĠPho": 9696,
    "Ġdentro": 1771,
    "ĠSto": 7566,
    "Ġman": 550,
    "ultura": 1299,
    "ĠWat": 5313,
    "Ġconstante": 7089,
    "Ġmencionar": 9711,
    "Ġllevaba": 9043,
    "udi": 390,
    "ĠÃ³pera": 8078,
    "pp": 7275,
    "ĠRu": 3542,
    "Ġentrega": 9425,
    "Ġespont": 8635,
    "Ġtempera": 8235,
    "terio": 7910,
    "seÃ±": 1016,
    "zen": 9660,
    "ĠTambiÃ©n": 992,
    "ilar": 2206,
    "ild": 9359,
    "Ġadmi": 2548,
    "ĠtelevisiÃ³n": 7283,
    "±": 84,
    "Ġoccidental": 5058,
    "ido": 448,
    "ĠPas": 2186,
    "Ġhomb": 2670,
    "ĠDÃ¼sseldorf": 5805,
    "ĠVaticano": 8137,
    "ĠMagdalena": 4225,
    "Ġacce": 8601,
    "ĠIndi": 4782,
    "ureza": 9511,
    "ParÃŃs": 5296,
    "ero": 357,
    "Ġresi": 2236,
    "dez": 1856,
    "ĠArtists": 8912,
    "Ġtele": 5261,
    "Baptiste": 8960,
    "ĠUl": 5954,
    "Ġestuvo": 2099,
    "Ġtare": 6089,
    "Ġdesign": 7171,
    "Ġllegada": 5346,
    "Ã¼n": 6277,
    "lab": 825,
    "Ġgrab": 921,
    "wor": 9164,
    "Ġonce": 8102,
    "Mo": 6239,
    "ĠRus": 2575,
    "way": 9048,
    "tenstein": 8759,
    "Ġextrem": 6498,
    "pu": 403,
    "ĠejecuciÃ³n": 4371,
    "taron": 5534,
    "ĠRodrÃŃ": 4673,
    "Ġprimo": 8590,
    "berto": 2507,
    "\")": 6888,
    "Ġdom": 3571,
    "EN": 6737,
    "ĠmaÃ±ana": 9567,
    "ly": 3701,
    "Ġsimpli": 9059,
    "ele": 1083,
    "Ġiniciativa": 9372,
    "ĠMan": 912,
    "ritz": 9936,
    "Ġdestacan": 3445,
    "âĢĶ.": 9789,
    "Ġameric": 5453,
    "ĠAutor": 3922,
    "urado": 3055,
    "erida": 8453,
    "erial": 4115,
    "ilvania": 7153,
    "ĠLi": 2152,
    "N": 40,
    "ĠGreco": 3502,
    "tti": 4404,
    "Ġescritora": 7694,
    "Ġestadounidense": 2677,
    "ĠPro": 1052,
    "ĠtÃ©rmino": 3656,
    "Ġ1850": 6545,
    "Ġmo": 368,
    "ĠdenominaciÃ³n": 9312,
    "Ġbatallas": 9777,
    "ĠPaisaj": 3974,
    "emisza": 7216,
    "Ġsola": 4296,
    "Ġpresencia": 2829,
    "Ġva": 2102,
    "Ġescultora": 9240,
    "Ãī": 8295,
    "garo": 8891,
    "go": 278,
    "Ġinca": 9928,
    "Ġvez": 959,
    "Ġencontra": 2220,
    "clÃ¡s": 7070,
    "Ġ1941": 5107,
    "ĠfÃŃsico": 9469,
    ".,": 2222,
    "ito": 1397,
    "Ġteatral": 7728,
    "ĠartÃŃst": 660,
    "pren": 2796,
    "Ġelegante": 9387,
    "Ġaluminio": 6376,
    "lio": 1186,
    "stros": 6879,
    "ĠinteresÃ³": 8699,
    "gor": 1531,
    "Ġrelacion": 2053,
    "ĠLeon": 2597,
    "ĠregiÃ³n": 3992,
    "Ġprestig": 4962,
    "ĠdÃ©cadas": 4364,
    "ĠGalerÃŃa": 651,
    "Ġmusicales": 7983,
    "quel": 1688,
    "Ġgira": 7968,
    "Ġropa": 4829,
    "ĠBarbizon": 9145,
    "tido": 2118,
    "dice": 2690,
    "Ġculturas": 7688,
    "ĠEug": 6597,
    "ĠUniÃ³n": 4513,
    "Ġaspectos": 5272,
    "Ã³n": 147,
    "ĠOli": 5213,
    "ĠSofÃŃa": 5438,
    "ledad": 7758,
    "ĠBor": 2331,
    "ĠApolo": 7039,
    "ĠGalerie": 4036,
    "T": 46,
    "lanos": 6550,
    "ÃŃsmo": 7886,
    "gios": 6836,
    "Ġast": 7198,
    "Ã¡rez": 7413,
    "Ġestablecer": 6143,
    "Ġ2019": 3977,
    "itar": 1817,
    "Ġx": 1131,
    "ĠPier": 3193,
    "unst": 2392,
    "Ġenfoque": 6887,
    "fre": 7542,
    "Ġpala": 2295,
    "Ġresp": 5624,
    "Ġpasado": 4336,
    "itaciÃ³n": 3530,
    "form": 3054,
    "ĠCamp": 8940,
    "bein": 7814,
    "Ġnin": 3258,
    "190": 2415,
    "De": 8914,
    "ĠCaja": 5862,
    "inal": 7398,
    "ĠIm": 1994,
    "ĠalusiÃ³n": 8853,
    "Ġnoti": 4954,
    "illermo": 4586,
    "Ġconsidera": 1680,
    "ĠpidiÃ³": 8195,
    "rence": 7732,
    "ĠcolecciÃ³n": 989,
    "Ġparale": 4953,
    "ĠE": 144,
    "ĠPrin": 9566,
    "Ġfort": 9027,
    "Ġdestr": 4396,
    "icas": 383,
    "Ġ1938": 4719,
    "Ġsingular": 9953,
    "don": 2732,
    "Ġlleno": 8337,
    "Ġfama": 4376,
    "Ġentender": 8703,
    "Ġpinturas": 618,
    "Ġgeneral": 1432,
    "bolo": 3326,
    "Ġplenamente": 9052,
    "icaciÃ³n": 3797,
    "ĠreacciÃ³n": 9313,
    "ĠHein": 6188,
    "ĠJosep": 6069,
    "bor": 2404,
    "Ġtren": 8434,
    "Ġlig": 3181,
    "ĠFranco": 8114,
    "ĠmÃ©dico": 7044,
    "ĠIn": 502,
    "Ġarchi": 6772,
    "hib": 3795,
    "ĠAÃ±os": 7212,
    "Ġretablos": 6318,
    "ĠFau": 8437,
    "Ġdul": 8507,
    "kov": 4582,
    "terra": 2465,
    "Ġsimilares": 5425,
    "Ġrealiz": 470,
    "Ġart": 577,
    "ĠExpuso": 7667,
    "Ġcombina": 9880,
    "ĠLegiÃ³n": 9123,
    "Ġprogres": 6480,
    "ĠProdu": 8484,
    "Ġconstr": 2990,
    "uir": 1375,
    "ĠIll": 7854,
    "Ġespecializado": 6194,
    "ĠEsp": 4986,
    "Ġetc": 2814,
    "rabes": 9473,
    "Ġfau": 7600,
    "Ġacademia": 4889,
    "ria": 1162,
    "ĠCaballero": 7227,
    "Ġparticip": 1463,
    "ĠChile": 1869,
    "lina": 7730,
    "uso": 634,
    "ges": 3705,
    "ĠcerÃ¡mica": 4017,
    "olÃ³g": 1929,
    "ĠAnt": 699,
    "rid": 583,
    "dicos": 5047,
    "talia": 1300,
    "Ġaprove": 7038,
    "Ġpoco": 1617,
    "Ġ40": 4487,
    "ĠAlrededor": 9823,
    "ĠAgustÃŃn": 4980,
    "roducciÃ³n": 9896,
    "Ġplata": 3826,
    "ĠpermitiÃ³": 4474,
    "Ġejemp": 1227,
    "ĠGuer": 5619,
    "ÃŃtulos": 6120,
    "ĠArtistas": 2472,
    "Art": 7555,
    "ĠEspaÃ±ol": 7635,
    "ĠFern": 1344,
    "Ġfallecimiento": 6213,
    "Ġgra": 602,
    "ĠposiciÃ³n": 3873,
    "Ġsuave": 8876,
    "raba": 5526,
    "voluciÃ³n": 2517,
    "ĠBen": 2320,
    "ĠXI": 1428,
    "Ġdem": 2217,
    "Ġmedios": 4108,
    "Ġ2020": 5200,
    "itado": 2650,
    "Ã±": 191,
    "hist": 4646,
    "Ġfiguras": 979,
    "ĠserÃŃan": 7701,
    "ĠMuchos": 6801,
    "Ġnave": 5266,
    "Ġ2013": 3259,
    "Ġregularmente": 8818,
    "Ġ1849": 8615,
    "Ġhistoriador": 4145,
    "em": 218,
    "ban": 1106,
    "Ġtexto": 2387,
    "Ġamp": 2518,
    "Ġsepa": 5198,
    "Ġamistad": 3940,
    "Ġenerg": 6923,
    "Ġverdadero": 7597,
    "ĠaÃ±ad": 3570,
    "guera": 8939,
    "Ġnacion": 8006,
    "ĠclÃ¡sicos": 7291,
    "ĠiconografÃŃa": 5088,
    "laje": 8598,
    "tre": 3457,
    "Ġexhibida": 9433,
    "ctor": 1018,
    "urez": 7285,
    "fra": 3747,
    "yck": 3485,
    "ĠSociet": 6227,
    "ĠespecializÃ³": 7592,
    "Ġe": 106,
    "Ġofrece": 7007,
    "erg": 4331,
    "worth": 9657,
    "ĠcreaciÃ³n": 2498,
    "ĠDuchamp": 8456,
    "iense": 7916,
    "Ġescenario": 7102,
    "Ġcarrera": 1558,
    "Ġbarco": 6201,
    "cl": 528,
    "Ġcarica": 5613,
    "ividad": 8820,
    "hÃŃa": 8795,
    "ĠÃ³leos": 5281,
    "Ġ1926": 4546,
    "pone": 3853,
    "ĠPhil": 4529,
    "Ġ1966": 4097,
    "cripciÃ³n": 1493,
    "ves": 1696,
    "ubert": 9345,
    "Ġ(,": 7257,
    "bo": 904,
    "Ġgrave": 9617,
    "da": 185,
    "Ġano": 9528,
    "xa": 5683,
    "Ġn": 182,
    "turo": 7571,
    "Ġ156": 4610,
    "ĠFuer": 6874,
    "Ã±oz": 7495,
    "Ġlugar": 1137,
    "uiz": 6279,
    "ĠrenovaciÃ³n": 9336,
    "manes": 6481,
    "rias": 4842,
    "Ġsignos": 9362,
    "Or": 9355,
    "Ġapren": 2052,
    "Ãºn": 454,
    "Ġrecibe": 5307,
    "mond": 5962,
    "ĠraÃŃ": 4807,
    "cha": 570,
    "ĠFranz": 6187,
    "ide": 613,
    "tes": 359,
    "ĠMode": 9703,
    "Ġproducido": 8549,
    "Ġcaracteriza": 5574,
    "leta": 5007,
    "B": 28,
    "ĠilustrÃ³": 8816,
    "Ġ1919": 4473,
    "ĠBrook": 8166,
    "ĠquizÃ¡s": 6260,
    "ĠErnst": 6202,
    "Lou": 7055,
    "Ġmol": 4983,
    "porÃ³": 9012,
    "Ġpens": 2861,
    "zos": 1250,
    "ĠtÃ©rminos": 7805,
    "Ġade": 2976,
    "ĠÃīdouard": 8240,
    "Ġjunto": 926,
    "Ãºa": 3197,
    "ĠMuy": 9340,
    "ĠpÃºblica": 5559,
    "rospectiva": 3724,
    "Ġpartes": 3391,
    "inera": 6124,
    "Ġesto": 2413,
    "ĠWorld": 9418,
    "ĠSin": 1318,
    "Ġcapa": 2470,
    "ĠFÃ©lix": 7208,
    "cular": 5293,
    "ĠRepres": 5408,
    "Ġindividual": 2543,
    "ĠSar": 4355,
    "Ġviajes": 3684,
    "ĠdemÃ¡s": 5257,
    "quete": 9249,
    "Ġestancias": 8797,
    "Ġaquellos": 5616,
    "ĠcrÃŃticos": 4008,
    "del": 1800,
    "Ġesque": 4603,
    "Ġce": 2468,
    "ule": 6909,
    "q": 72,
    "Ġ2012": 3113,
    "quer": 1726,
    "ju": 4815,
    "Ġarmas": 5555,
    "ĠSon": 3930,
    "90": 6349,
    "Ġmuros": 6892,
    "ĠCÃ©zanne": 6827,
    "ĠBe": 1172,
    "Ġmillones": 4455,
    "Ġ35": 6611,
    "Ġcol": 523,
    "ĠBau": 2339,
    "ĠPaint": 6588,
    "Ġhacer": 1985,
    "rÃ¡f": 1390,
    "Ġsig": 384,
    "Ġleyenda": 6184,
    "ĠMadrid": 663,
    "ĠbiÃ³": 9271,
    "ĠcontemporÃ¡n": 1766,
    "leto": 8514,
    "ĠcÃ³m": 6346,
    "Ġalmacen": 9834,
    "Ġaire": 3219,
    "ĠMonasterio": 5432,
    "ĠtamaÃ±o": 2910,
    "Ġoficio": 6917,
    "Ġposteriores": 3654,
    "tistas": 9165,
    "Ġtradicional": 2946,
    "Ġvino": 6742,
    "Ġactivi": 3949,
    "Ġcompletar": 7712,
    "tud": 2698,
    "ĠCenter": 6195,
    "ientos": 2379,
    "Ġ197": 677,
    "vador": 2528,
    "ga": 444,
    "ĠmÃ¡s": 306,
    "posiciÃ³n": 433,
    "Ġjunio": 1769,
    "tuvo": 2223,
    "Ġnaturaleza": 1962,
    "rand": 2880,
    "den": 410,
    "ĠescultÃ³r": 5368,
    "Ġexten": 2733,
    "ders": 8172,
    "ĠPhilip": 5828,
    "graf": 483,
    "ĠcÃ³mic": 9266,
    "Ġpublici": 9265,
    "ĠMadonna": 5506,
    "Ġconsig": 2896,
    "ĠprÃ³": 4462,
    "Ġarcos": 8314,
    "Ġpost": 5890,
    "ĠJe": 1368,
    "Ġcursos": 7489,
    "Ġcaza": 6098,
    "Ġcostumbres": 7348,
    "ĠAz": 3178,
    "Ġensayo": 9922,
    "ivamente": 4790,
    "Y": 51,
    "Ġsoci": 1864,
    "Ġment": 8836,
    "ram": 2351,
    "razo": 8035,
    "Ġ17": 625,
    "ĠCaracter": 9794,
    "Ġencuentran": 1898,
    "ĠpublicaciÃ³n": 5183,
    "Ġcalidad": 3015,
    "Ġimpor": 860,
    "Ġparro": 4160,
    "Ġcr": 855,
    "Ġrepublic": 9457,
    "ellÃ³n": 4315,
    "Ġconservador": 9282,
    "ĠPh": 3627,
    "cismo": 9550,
    "ĠAlm": 7076,
    "ĠconservaciÃ³n": 7407,
    "bara": 4269,
    "ĠA": 149,
    "ĠGir": 8280,
    "larÃ³": 6882,
    "Ġ1854": 9574,
    "icu": 9206,
    "amora": 6327,
    "Ġacuerdo": 4183,
    "ructura": 2715,
    "lad": 6326,
    "Ġcopi": 2308,
    "Ġmantuvo": 4672,
    "ĠPr": 3252,
    "ĠCro": 5686,
    "ĠAndrÃ©s": 4664,
    "ĠinauguraciÃ³n": 8428,
    "ĠBa": 1045,
    "i": 64,
    "cina": 3303,
    "ĠMun": 1212,
    "ĠtardÃŃo": 8472,
    "ĠXII": 5162,
    "ĠZurbarÃ¡n": 5718,
    "tisse": 5671,
    "onos": 6436,
    "ĠAcu": 6880,
    "cant": 8111,
    "cula": 6706,
    "Ġdram": 4579,
    "ĠApo": 3976,
    "Ġinclu": 2642,
    "Ġpedestal": 9779,
    "rece": 5161,
    "ĠYe": 9686,
    "Ġincen": 6027,
    "Ġcole": 552,
    "Ġcola": 7570,
    "ĠCre": 3497,
    "Ġyo": 7120,
    "ĠCÃ¡diz": 6271,
    "ĠJerusal": 6529,
    "Ġbus": 2225,
    "urg": 5527,
    "yl": 5788,
    "Ġextranjero": 5146,
    "ranos": 7614,
    "Ġdirecto": 8858,
    "ĠCarlo": 5614,
    "lti": 693,
    "y": 80,
    "Ġcaracteriz": 3216,
    "Ġdivers": 1348,
    "arago": 3568,
    "Ġnecesidad": 6767,
    "Ġrespon": 4992,
    "Ã©cn": 852,
    "Ġduquesa": 9035,
    "ristas": 5598,
    "'": 8,
    "Ġfuerzas": 9485,
    "ĠRegresÃ³": 9542,
    "Ġsensi": 5033,
    "ĠOs": 3013,
    "gla": 2429,
    "Ġnumerosos": 2626,
    "Ġnomb": 1585,
    "d": 59,
    "zionale": 8867,
    "Ġ1937": 4007,
    "ĠÃ³p": 7901,
    "ĠmÃ¡": 3863,
    "Ġfir": 8311,
    "Ġpersonaje": 3667,
    "ĠReina": 4908,
    "Ġ38": 8979,
    "ĠCes": 8277,
    "ĠPet": 1882,
    "Ġecue": 6295,
    "taban": 9269,
    "ĠPers": 7583,
    "ĠMedi": 6283,
    "ĠcÃº": 4905,
    "cito": 3662,
    "ĠBÃ©lgica": 4558,
    "Ġproceso": 3171,
    "Ġmayor": 822,
    "hon": 6682,
    "Ġmanifesta": 6484,
    "ĠHacia": 5012,
    "Ġpon": 4869,
    "Born": 7374,
    "ĠParticipÃ³": 6125,
    "ĠperiÃ³": 3835,
    "ĠFun": 8076,
    "igura": 538,
    "rimonio": 1701,
    "ne": 794,
    "cules": 7091,
    "ĠpoÃ©tica": 8517,
    "ĠCÃ©sar": 7632,
    "ĠGuillermo": 4714,
    "Ġcaballos": 5440,
    "Ġus": 1434,
    "Ġella": 1442,
    "ĠForm": 7187,
    "ĠMad": 578,
    "tiÃ³": 1185,
    "Ġvali": 5285,
    "Ġfemeninas": 7181,
    "Ġcorresponde": 3636,
    "Ġinform": 4524,
    "Ġantigu": 1230,
    "ĠArchi": 6280,
    "Ġembargo": 1181,
    "ĠfundÃ³": 4753,
    "Ġahora": 2520,
    "ismos": 7399,
    "ĠRam": 2391,
    "tedral": 1931,
    "Ġtorno": 3733,
    "Ġprovo": 3956,
    "bre": 243,
    "esco": 9740,
    "Ġamar": 2335,
    "Ġresistencia": 9541,
    "Ġco": 235,
    "Ġeuropeo": 7339,
    "ĠAlf": 2170,
    "dada": 3173,
    "ĠdesempeÃ±": 5777,
    "Ġvin": 3735,
    "ĠÃ¡ngeles": 3655,
    "paÃ±a": 4742,
    "Ġparroquial": 7303,
    "Ġsacerdote": 8706,
    "uma": 3550,
    "Ġ166": 3205,
    "Ġeste": 527,
    "enera": 842,
    "Ġdestacando": 6825,
    "ene": 681,
    "ĠVir": 947,
    "ani": 2065,
    "Ġestablecido": 6893,
    "ĠubicaciÃ³n": 8016,
    "Ġfachada": 5730,
    "ĠtenÃŃa": 1632,
    "CA": 7606,
    "Ġbril": 2921,
    "Ġtraslada": 6953,
    "rÃ¡n": 2092,
    "embre": 753,
    "izada": 5242,
    "Ġvas": 3347,
    "Con": 9126,
    "Ġitali": 1203,
    "ĠaceptÃ³": 9213,
    "Ġcapit": 5899,
    "Ġsentado": 7126,
    "ĠRevoluciÃ³n": 5214,
    "Ġps": 4657,
    "ĠHab": 2140,
    "Ġfrecuent": 4410,
    "Ġgig": 8188,
    "ĠEgipto": 4378,
    "viene": 6938,
    "ĠquÃ©": 5512,
    "ĠRom": 2401,
    "ĠVI": 4372,
    "iblioteca": 1954,
    "Ġimagen": 1550,
    "Ġjefe": 7302,
    "Ġdescri": 1811,
    "Ġtotal": 3836,
    "ĠRub": 2711,
    "ĠMuÃ±oz": 7553,
    "yaquil": 9893,
    "Ġfirma": 4405,
    "ĠTar": 5111,
    "Ġobjeto": 3182,
    "Ġprom": 9615,
    "ĠCodex": 5943,
    "Ġev": 4170,
    "ĠdisposiciÃ³n": 7248,
    "Ġmuestran": 3201,
    "ĠPaisaje": 4792,
    "Ġvol": 1220,
    "Ġapro": 2009,
    "uye": 9233,
    "Ġbosque": 6555,
    "jor": 2352,
    "ĠbritÃ¡nico": 5596,
    "va": 297,
    "Ġne": 722,
    "Ġsue": 1862,
    "ĠLle": 5769,
    "ĠcasÃ³": 2370,
    "ĠcÃ©le": 4824,
    "ĠLetras": 8558,
    "ĠResurrecciÃ³n": 9049,
    "Ġdif": 2001,
    "Ġalej": 8316,
    "Ġ1660": 9091,
    "tier": 8902,
    "Ġpic": 1398,
    "Ġpies": 3622,
    "loria": 5941,
    "Ġmencionado": 8261,
    "umbre": 7296,
    "Ġsat": 8108,
    "Ġcompara": 8160,
    "Ġcapaz": 7338,
    "Ġ1819": 9764,
    "ĠPatrimonio": 7850,
    "ĠdecoraciÃ³n": 2292,
    "almente": 459,
    "Ġazul": 1607,
    "riz": 3061,
    "17": 1239,
    "ĠSebasti": 3153,
    "Ġsaber": 8799,
    "Ġsab": 2100,
    "Ġencontrado": 6653,
    "ural": 3426,
    "part": 3455,
    "ĠmayorÃŃa": 2276,
    "Ġdespla": 7992,
    "ĠTiene": 6722,
    "Ġvivo": 6959,
    "Ġobras": 378,
    "Ġinac": 7415,
    "Ġesmal": 6710,
    "LA": 9634,
    "itudes": 8283,
    "ĠpoesÃŃa": 3730,
    "retra": 2166,
    "ĠAlegorÃŃa": 7218,
    "ĠGra": 1555,
    "rios": 2853,
    "Ġdescub": 3023,
    "Ġparticipa": 2615,
    "ĠTol": 8508,
    "cepciÃ³n": 2084,
    "cerÃŃa": 7513,
    "Ġ1861": 7618,
    "Ġreflejan": 8152,
    "Ġermita": 9370,
    "Ġmismo": 769,
    "Ġantro": 9851,
    "sider": 6358,
    "ĠXVII": 2942,
    "Ã¡ndole": 7271,
    "g": 62,
    "cencia": 4326,
    "Ġul": 7913,
    "Ġborde": 6856,
    "ģ": 95,
    "Ġojo": 7731,
    "dando": 7533,
    "ĠComenzÃ³": 5951,
    "uniden": 2083,
    "Ġmuchos": 1563,
    "Ġpuerta": 4946,
    "ĠOb": 1053,
    "Ġvender": 7191,
    "ĠEugen": 4708,
    "ĠCi": 1522,
    "Ã±Ã³n": 7822,
    "Ġesposo": 6005,
    "ĠVil": 5371,
    "ing": 557,
    "Ġay": 1681,
    "Ġhuman": 4944,
    "ĠocupÃ³": 7312,
    "Ġinspirada": 7936,
    "Ġacciones": 9344,
    "ĠMark": 9224,
    "iro": 2717,
    "Ġpuesto": 3560,
    "ĠAlex": 3532,
    "ĠprofesiÃ³n": 8221,
    "Ġmejores": 3610,
    "Ġevento": 7442,
    "Ġsurrealistas": 8431,
    "Ġtraslado": 9281,
    "Ġmismos": 5729,
    "rÃ©": 2362,
    "Ġtestim": 5628,
    "Ġvuelta": 5396,
    "ĠBeca": 9791,
    "Ġpermi": 1991,
    "Ġre": 161,
    "ĠAr": 257,
    "Ġemperador": 4228,
    "guez": 3132,
    "Ġdifere": 1494,
    "Ġuna": 196,
    "Ġincl": 687,
    "Ġvalle": 8408,
    "adora": 2774,
    "Ġ(": 183,
    "Ġcomprome": 8946,
    "18": 534,
    "Ġestable": 1566,
    "Ã¡g": 1981,
    "ĠJ": 238,
    "ĠTiziano": 4153,
    "ĠColonia": 5759,
    "Ġdec": 5318,
    "ĠHuel": 9681,
    "ĠSou": 6234,
    "Ġproducto": 8301,
    "Ġesquema": 8847,
    "igo": 3630,
    "Ġrepar": 8513,
    "ĠColegio": 4430,
    "rada": 826,
    "Ġfruto": 8381,
    "Ġarti": 361,
    "Ġcarre": 8298,
    "Ġregreso": 3543,
    "Ġgriego": 3984,
    "Ġred": 8407,
    "ĠDesde": 1671,
    "ĠJim": 6418,
    "Ġ1890": 3802,
    "Ġinglesa": 7428,
    "ĠlÃŃneas": 2935,
    "ise": 2079,
    "oluciÃ³n": 6677,
    "Ķ": 100,
    "il": 200,
    "Ġsuba": 4107,
    "rez": 1437,
    "ĠDre": 9802,
    "ĠentrÃ³": 4736,
    "ustro": 7030,
    "Ġmane": 8100,
    "unta": 2885,
    "Ġalumnos": 4407,
    "Ġesa": 2110,
    "zy": 8971,
    "reno": 3043,
    "Ġfalta": 5083,
    "ĠestaciÃ³n": 9302,
    "Ġaristo": 7837,
    "ĠRosa": 5227,
    "Ġaprendizaje": 5974,
    "Ġdistrito": 8589,
    "cuent": 657,
    "cultad": 5157,
    "Ġcelebra": 5663,
    "Ġdedic": 1151,
    "Ġbu": 3225,
    "vieron": 2128,
    "isis": 3025,
    "Ã©ticas": 7204,
    "Ġin": 211,
    "Ġ1983": 4065,
    "public": 7563,
    "Ġutilizan": 8250,
    "Ġimag": 6591,
    "Ġlic": 6158,
    "Ġpod": 1508,
    "ariamente": 6906,
    "uel": 586,
    "Ġsentimientos": 8662,
    "Ã³vil": 9235,
    "ĠbiogrÃ¡ficos": 9580,
    "Ġsem": 4239,
    "ĠPerug": 7619,
    "Ġlien": 830,
    "pti": 1429,
    "Ġtriunfo": 8291,
    "ton": 1074,
    "ĠX": 491,
    "ĠAquÃŃ": 6558,
    "Ġhal": 6974,
    "Ġabor": 6488,
    "ĠReyes": 5124,
    "ĠCra": 5660,
    "ĠGalerÃŃas": 9979,
    "ĠDi": 1512,
    "grÃ¡ficas": 6483,
    "ditos": 9105,
    "ĠPer": 1277,
    "Ġenten": 5319,
    "Ġinternacional": 2807,
    "oston": 4710,
    "er": 117,
    "ĠRes": 3304,
    "Ġpasaron": 8746,
    "Ġrecuerda": 4990,
    "jando": 5465,
    "Ġmedallas": 9778,
    "Ġrealidad": 2492,
    "Ġdecorativo": 7116,
    "Ġaves": 8690,
    "ca": 247,
    "gno": 7681,
    "dent": 2257,
    "ĠNavarro": 9717,
    "inci": 4683,
    "Ġaj": 6620,
    "Ġadelante": 5018,
    "Ġrefor": 7090,
    "ĠahÃŃ": 6695,
    "Ġdesconocido": 7080,
    "ĠfilÃ³so": 7654,
    "ĠorganizÃ³": 5575,
    "Ġcristi": 2969,
    "Ġund": 6586,
    "ĠtÃºnica": 7158,
    "ĠLeopol": 7756,
    "ĠEmil": 9465,
    "entas": 5027,
    "Ġexternos": 3946,
    "Ġfuga": 8134,
    "ĠGui": 8057,
    "Ġnobles": 9867,
    "Ġdepos": 8653,
    "der": 452,
    "Ġrec": 5958,
    "ĠfotografÃŃas": 4101,
    "Ġbasa": 7548,
    "ptiembre": 1804,
    "ĠMinisterio": 4391,
    "Ġverdad": 8455,
    "Ġrepresent": 808,
    "Ġfamosos": 6733,
    "ĠErn": 3729,
    "Ã³m": 2153,
    "mons": 6123,
    "Ġneo": 3032,
    "Ġaut": 4006,
    "ĠMilÃ¡n": 3198,
    "Ġcast": 3042,
    "ĠFerra": 6167,
    "Ġvictoria": 9627,
    "ĠÃ³": 765,
    "Ġflamenca": 7238,
    "hor": 9338,
    "ama": 1232,
    "ĠDeco": 6669,
    "ĠPont": 8079,
    "ĠPad": 5472,
    "ĠMy": 8185,
    "ÃŃstica": 3358,
    "nia": 3395,
    "ĠCiencias": 7536,
    "ĠÃ©xito": 2373,
    "caciÃ³n": 1901,
    "Ġpaleta": 5131,
    "Ġcomercio": 8135,
    "mÃ¡tica": 7698,
    "ld": 7757,
    "Ġinterna": 4363,
    "ĠPortrait": 8175,
    "ĠartÃŃsticos": 3387,
    "Ġcarb": 5191,
    "Los": 7718,
    "Ġgrises": 9449,
    "ĠtomÃ³": 4426,
    "Ġfi": 2384,
    "fort": 5969,
    "Ġpalabra": 5802,
    "Ġ24": 2770,
    "Ġseda": 8903,
    "aban": 1084,
    "ĠIgna": 5295,
    "Ġobra": 347,
    "ĠBur": 2710,
    "Ġsobre": 348,
    "itaria": 6937,
    "ĠParti": 3867,
    "ĠSel": 8546,
    "Ġcombin": 8062,
    "ĠMargarita": 6819,
    "rial": 4565,
    "ov": 8773,
    "ĠHermitage": 7174,
    "ĠElena": 8247,
    "ĠEspaÃ±ola": 6110,
    "ĠTel": 9083,
    "ude": 3147,
    "ĠUrb": 6680,
    "ĠSur": 3382,
    "ĠÃŃ": 4098,
    "Ġpublic": 1269,
    "Ġmetros": 3516,
    "ĠOfici": 3365,
    "ĠAu": 1117,
    "Ġresal": 6108,
    "Ġviaje": 2195,
    "Ġestudiando": 9381,
    "om": 148,
    "Ġatribuidas": 9157,
    "Ġdibujar": 6242,
    "Ġdibujos": 1438,
    "Ġimp": 1642,
    "oral": 7664,
    "enario": 5134,
    "ola": 1467,
    "ĠTanto": 8742,
    "Ġfrancis": 9788,
    "Ġsombras": 5688,
    "ĠDes": 631,
    "ĠProcedencia": 8523,
    "Ġmuseo": 1452,
    "ka": 1609,
    "Ġcar": 474,
    "Ġarquitect": 3576,
    "Ġhonor": 2977,
    "etty": 8641,
    "sta": 184,
    "Ġcomb": 2832,
    "Ġentero": 8256,
    "Ġdiplom": 8865,
    "guÃ©s": 7484,
    "Ġformas": 1939,
    "ĠdibujÃ³": 9825,
    "ĠConde": 5433,
    "Ġtestimonio": 7890,
    "Ġcuales": 2212,
    "ĠFreder": 7166,
    "gotÃ¡": 3670,
    "Ġprotesta": 9136,
    "Ġrit": 9326,
    "Ġgolpe": 8751,
    "Ġintelectual": 7253,
    "ĠterminÃ³": 5787,
    "ĠIsrael": 7446,
    "ĠrazÃ³n": 5557,
    "ario": 574,
    "ĠVÃŃctor": 8566,
    "ĠAcadem": 4616,
    "Ġasistir": 9753,
    "Ġ1907": 4800,
    "orÃ³": 3137,
    "ĠPoco": 5784,
    "Ġartifici": 7483,
    "ĠaÃ±o": 614,
    "gna": 4159,
    "Ġsimplemente": 6513,
    "cep": 892,
    "Par": 4538,
    "grado": 3191,
    "ĠMay": 4074,
    "hua": 7535,
    "Ġesposa": 1853,
    "cca": 6729,
    "Ġofici": 1695,
    "ĠBellini": 9292,
    "Ġsala": 2617,
    "ĠAmbros": 8577,
    "dientes": 4223,
    "Ġvie": 3678,
    "sterio": 2400,
    "Ġestal": 9167,
    "ĠMas": 2700,
    "v": 77,
    "gaba": 8462,
    "ĠAsturias": 7329,
    "Ġfuertemente": 7260,
    "Ġdrama": 6763,
    "Ġperman": 1659,
    "Ġloc": 2104,
    "Ġpres": 541,
    "Ġlargas": 9621,
    "ou": 725,
    "ĠÃ©x": 2176,
    "landesa": 5138,
    "Ġicono": 2689,
    "Ġcolumnas": 5392,
    "Ġevo": 5048,
    "def": 8491,
    "I": 35,
    "Ġcolorido": 4978,
    "Ġexter": 3416,
    "Ġapari": 6054,
    "amor": 7245,
    "Ġderi": 3958,
    "ĠserÃ¡": 5232,
    "ĠBolivia": 9514,
    "Ġpers": 1649,
    "ĠoraciÃ³n": 8822,
    "Ġpremios": 3837,
    "Ġine": 9081,
    "eas": 2289,
    "fun": 8107,
    "ork": 849,
    "ĠSimon": 6894,
    "Ġtradicionales": 5511,
    "Ġ).": 5470,
    "zz": 6442,
    "teo": 3828,
    "ĠGr": 9440,
    "ĠMara": 9013,
    "up": 4330,
    "48": 9596,
    "ĠtradiciÃ³n": 2612,
    "Ġ100": 4179,
    "Ġplas": 3947,
    "jan": 4203,
    "Ġjuegos": 9264,
    "Ġmanuscritos": 3098,
    "ĠVasari": 5595,
    "Ġestudiar": 2723,
    "Ġcorrespon": 5658,
    "ĠpÃ¡gina": 5204,
    "alizadas": 9821,
    "ĠPablo": 2397,
    "ĠMundial": 2437,
    "rieras": 9231,
    "at": 253,
    "Ġjapon": 6183,
    "icista": 6427,
    "Ã©l": 3039,
    "Ġpos": 521,
    "Ġcostumbrista": 9673,
    "Ġpla": 913,
    "Ġtoda": 1373,
    "31": 6325,
    "ĠQuito": 6400,
    "Ġros": 1705,
    "Ġbauti": 6477,
    "Ġexpul": 7539,
    "ĠMarina": 8494,
    "ĠFol": 7416,
    "ĠAlfred": 6507,
    "ĠFont": 9604,
    "ĠAlexand": 7282,
    "onal": 9357,
    "ray": 8929,
    "aria": 1527,
    "Ġapoy": 4681,
    "Ġparcialmente": 8572,
    "americ": 2735,
    "Ġhechas": 8747,
    "Ġdescan": 6204,
    "Ġreconocido": 4619,
    "Ġmanto": 7613,
    "Ġgobern": 6355,
    "Ġascen": 5466,
    "Ń": 103,
    "ĠSÃ¡nchez": 4243,
    "ĠSimÃ³n": 8263,
    "Ã¡nchez": 4201,
    "Ġenrique": 9800,
    "iciÃ³n": 2274,
    "Ġd": 213,
    "Ã¡genes": 1621,
    "ĠprÃ¡ct": 2898,
    "Ġinf": 514,
    "Ġsuce": 5589,
    "ĠN": 246,
    "ĠSeÃ±ora": 5060,
    "Ġfundamental": 7032,
    "Ġacom": 2586,
    "medi": 6430,
    "tis": 1282,
    "retrato": 2674,
    "ĠMet": 6357,
    "ough": 8510,
    "Ġtej": 6129,
    "Ġcint": 8557,
    "iga": 4696,
    "vÃŃa": 2015,
    "ĠVirginia": 9900,
    "ib": 327,
    "Ġempe": 2448,
    "cion": 225,
    "Ġtrat": 2419,
    "Ġcere": 8942,
    "arÃ¡": 3966,
    "itz": 3467,
    "hur": 6683,
    "Ġmexicano": 5337,
    "Ġarre": 8515,
    "Ġcone": 7501,
    "fle": 9817,
    "Ġocur": 4881,
    "ĠLey": 7573,
    "tiz": 5443,
    "ĠLuego": 4752,
    "ĠPieter": 4508,
    "Ġrecre": 6241,
    "ings": 5071,
    "ĠniÃ±a": 5807,
    "Ġtend": 7420,
    "bados": 9471,
    "ĠW": 386,
    "Ġsello": 7743,
    "ĠcontinÃºa": 8053,
    "olÃ³gico": 4260,
    "ĠcarÃ¡cter": 2406,
    "ĠdesempeÃ±Ã³": 8181,
    "ĠlÃ¡minas": 6775,
    "ĠAm": 767,
    "Ġdescrito": 8131,
    "ĠSchool": 5205,
    "ald": 5907,
    "Ġ2022": 5419,
    "Ġconside": 893,
    "entada": 5370,
    "donado": 6981,
    "vio": 4189,
    "ym": 7353,
    "crip": 1244,
    "ĠGusta": 3999,
    "TE": 9185,
    "gil": 9146,
    "Ã¡n": 284,
    "Ġapellido": 7390,
    "Ġmagn": 6838,
    "lim": 5554,
    "ros": 279,
    "am": 176,
    "ĠZaragoza": 3970,
    "ĠJerusalÃ©n": 6873,
    "jero": 7796,
    "Ġdic": 4512,
    "espe": 7927,
    "urbar": 5343,
    "Ġsug": 3373,
    "ĠVas": 2899,
    "zgo": 6605,
    "Ġrespectivamente": 7795,
    "Ġlista": 6088,
    "lÃŃn": 1561,
    "Ġmaestro": 1503,
    "Ġline": 7798,
    "Ġdocumento": 6495,
    "bio": 2090,
    "ĠMantua": 9314,
    "Ġpertenecen": 9510,
    "ĠPetersburgo": 4087,
    "ÃŃas": 729,
    "ador": 594,
    "ĠMin": 2411,
    "Ã³venes": 3151,
    "osa": 986,
    "c": 58,
    "ĠBon": 3679,
    "Ġsugi": 9613,
    "stra": 457,
    "ines": 2694,
    "Ġfres": 1501,
    "Ġprotagonistas": 9289,
    "lig": 1115,
    "Ġesculturas": 2555,
    "Ġigno": 8921,
    "ĠvÃŃ": 4826,
    "Ã©rrez": 8397,
    "Ġtestig": 8234,
    "cht": 3737,
    "Ġlitera": 2085,
    "Ġequilibrio": 8606,
    "ĠColomb": 2584,
    "ĠBenjam": 8117,
    "ĠSha": 6703,
    "Ġcielo": 3525,
    "Ġespeci": 832,
    "Ġsigue": 4325,
    "ĠAbra": 5921,
    "ĠGen": 6166,
    "ĠTrin": 5077,
    "ĠRoberto": 7981,
    "ment": 2938,
    "ĠOxford": 8866,
    "Ã³nica": 3465,
    "Ġpuente": 7393,
    "amÃ©rica": 6622,
    "Ġesbo": 7414,
    "Ġboce": 2985,
    "Ġreales": 4358,
    "recciÃ³n": 4222,
    "ĠScho": 4082,
    "ctivo": 6006,
    "Ġexperiencia": 4823,
    "ĠAsÃŃs": 9321,
    "siÃ³n": 953,
    "ĠartÃŃculo": 5673,
    "ĠpresentÃ³": 2474,
    "haus": 3945,
    "ciana": 5084,
    "Ġculturales": 5689,
    "ĠinvestigaciÃ³n": 5002,
    "¼": 87,
    "Ġbandera": 6440,
    "ini": 998,
    "ĠH": 248,
    "aux": 3320,
    "Ġalma": 4288,
    "Ġic": 2133,
    "Ġdedica": 4969,
    "Ġpintura": 299,
    "Ġ1981": 4075,
    "ĠVega": 9323,
    "ĠautorÃŃa": 6451,
    "Ġata": 4240,
    "Ġmedidas": 9600,
    "Ġ1948": 4276,
    "Ġexpe": 8366,
    "Ġhumanos": 6756,
    "Ġincluye": 3915,
    "ĠAuguste": 8605,
    "Ġ1925": 4190,
    "Ġculto": 7114,
    "Ġclaustro": 7935,
    "pida": 8147,
    "ĠsolÃŃa": 8551,
    "ĠasociaciÃ³n": 6250,
    "umento": 3698,
    "ĠBras": 3335,
    "ĠAntigu": 3908,
    "Lau": 9585,
    "Ġmonasterio": 3615,
    "ulta": 5811,
    "ĠVII": 4952,
    "ĠfÃ¡": 5379,
    "Ġpiernas": 8070,
    "ĠBrujas": 9036,
    "ranj": 3187,
    "bes": 5774,
    "ctic": 4784,
    "vier": 2057,
    "pto": 7233,
    "ĠpÃ©r": 7468,
    "dias": 5823,
    "Ġext": 2030,
    "gen": 411,
    "ĠPraga": 7031,
    "dica": 1858,
    "Ġdich": 2319,
    "Ġprece": 6107,
    "Ġ155": 5728,
    "vere": 7751,
    "ĠaplicaciÃ³n": 7900,
    "Ġcabal": 2179,
    "Ġaca": 6692,
    "Ġdaba": 9644,
    "Ġmani": 2172,
    "Ġnuevas": 3277,
    "Ġ1882": 6000,
    "Ġresponsable": 9073,
    "gro": 1624,
    "ĠofreciÃ³": 8356,
    "Ġtecho": 5256,
    "Ġsuma": 9945,
    "Ġexisten": 5377,
    "stre": 3330,
    "Ġconsum": 9599,
    "sterdam": 2812,
    "ĠbaÃ±": 8151,
    "Ġbarroca": 8576,
    "ĠHa": 878,
    "oso": 1292,
    "Ġmedi": 644,
    "Ġtrayectoria": 4543,
    "dial": 2078,
    "Ġsist": 3236,
    "vit": 7807,
    "Ġcomercial": 6766,
    "Ġcas": 509,
    "ĠReino": 4722,
    "Ġdona": 7016,
    "ĠFres": 6630,
    "eth": 3224,
    "Ġamb": 1759,
    "ĠplÃ¡stico": 5545,
    "Ġvio": 1907,
    "Ġtap": 3765,
    "Ġdada": 6267,
    "ticelli": 7752,
    "cia": 232,
    "Ġfechas": 7863,
    "Ġitinera": 8269,
    "ĠseÃ±": 3123,
    "para": 1778,
    "Ġdescar": 9929,
    "Ġorden": 2451,
    "Ġmens": 5173,
    "ladelfia": 5829,
    "bios": 7048,
    "ntro": 1686,
    "Ġlienzos": 2842,
    "ĠBru": 4489,
    "Ġal": 204,
    "ĠdiseÃ±Ã³": 5873,
    "Ġdedicados": 9790,
    "Ġagosto": 1984,
    "ĠGrupo": 4174,
    "Ġbarcos": 9365,
    "ntas": 4441,
    "cifixiÃ³n": 5579,
    "Ġorigin": 1196,
    "ĠjaponÃ©s": 6584,
    "ĠPol": 2148,
    "cla": 1836,
    "ĠJesu": 9729,
    "Ġargent": 5670,
    "ĠÃ¡ngulo": 9592,
    "Ġabstracto": 3962,
    "erse": 6052,
    "Ġcolo": 766,
    "Ġrepresentaba": 6780,
    "erbai": 7882,
    "omÃŃa": 3822,
    "ĠCent": 1129,
    "Ġganado": 9853,
    "Ġbal": 6367,
    "ma": 289,
    "jÃ³": 1295,
    "ĠMur": 4870,
    "ĠFilippo": 9419,
    "Ġpoemas": 5239,
    "Ġsuyos": 9236,
    "ĠB": 181,
    "halle": 9586,
    "ĠretratÃ³": 7825,
    "Ġautorretratos": 7753,
    "Ġvertical": 9560,
    "ĠPlan": 8074,
    "erio": 1085,
    "smo": 2353,
    "ĠComo": 1753,
    "Ġviva": 9765,
    "ard": 653,
    "Ġimporta": 1014,
    "raron": 3748,
    "leos": 4251,
    "bur": 1270,
    "americana": 5515,
    "isches": 9475,
    "ÃŃm": 1242,
    "Ġgrande": 3447,
    "Ġconcent": 5248,
    "Ġpropie": 4415,
    "Ġrecur": 3924,
    "Ġana": 9103,
    "Ġconsecuencia": 6414,
    "ivo": 4306,
    "Ġrealiza": 3114,
    "Ġviolencia": 8048,
    "Ġantes": 1278,
    "ĠincluÃŃa": 6885,
    "rico": 4626,
    "ĠGrÃ¡f": 9972,
    "ĠJuan": 837,
    "vir": 1126,
    "iencias": 3989,
    "Ġcubier": 3794,
    "Ġcalavera": 8368,
    "bach": 6839,
    "rÃŃ": 2256,
    "Ġprotagonista": 7575,
    "cÃŃa": 1063,
    "cker": 6822,
    "Ġestuvieron": 7881,
    "ĠcompaÃ±ero": 8714,
    "Ġconex": 8364,
    "ĠDon": 3444,
    "Ġconserv": 1446,
    "vo": 310,
    "pio": 8433,
    "Ġtest": 3122,
    "ĠWilliam": 2365,
    "Ġoportunidad": 7207,
    "Ġtomado": 9602,
    "umi": 9086,
    "ĠLuz": 8467,
    "Ġmaest": 916,
    "ĠCos": 2610,
    "Ġrelig": 1444,
    "Ġhoy": 2512,
    "ĠDiana": 7972,
    "media": 3805,
    "bierno": 2336,
    "dras": 6390,
    "lin": 2213,
    "irma": 2839,
    "ang": 3149,
    "ĠColombia": 2924,
    "adie": 8974,
    "ren": 369,
    "Ġen": 122,
    "inu": 1309,
    "ĠAlonso": 6049,
    "ĠEstudio": 7359,
    "Ġviento": 8997,
    "Ġbizantino": 8402,
    "miento": 806,
    "Ġiconos": 8884,
    "ĠPietro": 4994,
    "alla": 848,
    "ĠEnt": 1038,
    "fia": 4747,
    "entro": 7434,
    "Ġdel": 163,
    "ĠBermÃºdez": 9885,
    "ĠEdgar": 8487,
    "ĠtrabajÃ³": 1614,
    "izÃ³": 8994,
    "Ã¡micas": 8674,
    "desa": 7464,
    "ĠDem": 6540,
    "Ġinver": 7308,
    "Ġpropa": 9974,
    "ĠsirviÃ³": 6471,
    "ken": 5676,
    "Ġ1875": 6452,
    "unda": 1360,
    "gÃºn": 865,
    "Ġmost": 3009,
    "Ġsecretario": 8336,
    "uda": 1004,
    "Ġdefensa": 9579,
    "ĠDesnudo": 9584,
    "ĠmÃ¡g": 7914,
    "ĠÃĵ": 2631,
    "Es": 4238,
    "Ġfigura": 566,
    "Ġ192": 740,
    "grÃ¡ficos": 4731,
    "ĠFried": 4845,
    "Ġdisco": 8209,
    "rÃ¡ndose": 8970,
    "ys": 2484,
    "ĠsegÃºn": 1460,
    "ando": 301,
    "torio": 2606,
    "ĠVos": 9361,
    "Ġ1830": 8014,
    "Ġempera": 3423,
    "Ãºmenes": 6290,
    "Ġ1924": 4686,
    "uil": 8667,
    "cadem": 713,
    "Ġpresentes": 6840,
    "Ġprecis": 6419,
    "ion": 447,
    "logÃŃa": 1653,
    "ĠKe": 5889,
    "Ġsegundo": 2243,
    "adajoz": 5442,
    "arel": 9042,
    "Ġamplio": 5930,
    "ĠJames": 4125,
    "bia": 4866,
    "Ġdestaca": 3351,
    "ĠVeron": 9393,
    "Ġutiliz": 993,
    "atur": 6777,
    "Ġmetal": 5581,
    "ass": 6373,
    "rÃŃptico": 4533,
    "Ġuso": 1700,
    "Ġsigni": 1917,
    "ĠAmberes": 2822,
    "Ġfemeninos": 8320,
    "ĠÃ¡rea": 6016,
    "ĠMateo": 5608,
    "mista": 6949,
    "Ġabajo": 6197,
    "dÃ©": 7491,
    "crÃ¡": 7532,
    "\"": 7,
    "Ġsetenta": 7668,
    "Ġunos": 1914,
    "ĠFal": 9300,
    "ĠAires": 1710,
    "Ġfotos": 9707,
    "ĠLisboa": 5725,
    "Ġgen": 3500,
    "Bar": 5931,
    "ardo": 1477,
    "Ġterri": 5335,
    "erman": 1591,
    "chada": 4643,
    "Ġbatalla": 4381,
    "ĠFeria": 5617,
    "200": 1955,
    "sito": 4181,
    "Ġ167": 5023,
    "ĠInv": 6505,
    "Ġesperanza": 9750,
    "Ġfabrica": 6871,
    "dad": 230,
    "amientos": 5992,
    "ille": 1385,
    "Ġtiene": 1261,
    "ĠsensaciÃ³n": 5477,
    "able": 923,
    "Ġiluminado": 9118,
    "Ġreside": 6025,
    "rantes": 7056,
    "cana": 7904,
    "ĠUni": 590,
    "tario": 3936,
    "h": 63,
    "rido": 4457,
    "ĠDesn": 8518,
    "Ġpresidente": 3443,
    "ĠintenciÃ³n": 5385,
    "Ġjoven": 1534,
    "ĠfantÃ¡st": 7727,
    "Ġcos": 1847,
    "bert": 1670,
    "AM": 5447,
    "ann": 2189,
    "turista": 6391,
    "Ã©ticos": 6543,
    "Ġpoetas": 8204,
    "ĠÃģfrica": 6406,
    "Ġ1972": 4054,
    "Ġeran": 1703,
    "mica": 9760,
    "ĠLad": 8075,
    "Ġilum": 2247,
    "ÃŃfica": 5479,
    "wn": 3929,
    "Ġdestacar": 4770,
    "vÃ³": 6411,
    "ĠbÃŃb": 4806,
    "ĠSixtina": 9884,
    "ĠSecre": 7700,
    "Ġlat": 3071,
    "vaggio": 4266,
    "ĠComun": 5209,
    "Ġ199": 624,
    "ĠI": 251,
    "Ġembajador": 9450,
    "Ar": 2315,
    "cter": 933,
    "ĠpolÃŃt": 1707,
    "aje": 1040,
    "Ġespi": 3808,
    "tios": 8109,
    "Ġinc": 7526,
    "Ġsimilar": 3308,
    "ĠpercepciÃ³n": 8656,
    "rar": 718,
    "tivas": 1316,
    "vaciÃ³n": 3155,
    "terdam": 8587,
    "ĠBern": 2254,
    "Ġcama": 8043,
    "Ġdesnudo": 3302,
    "ciles": 9998,
    "macu": 5834,
    "Ġaum": 5952,
    "tando": 3217,
    "Ġcuer": 1425,
    "ĠJunto": 4670,
    "stina": 7433,
    "ĠCarta": 8826,
    "ĠSh": 2147,
    "eo": 286,
    "Ġ164": 2866,
    "ĠFilip": 5917,
    "ualidad": 6055,
    "Ġestudiantes": 5170,
    "wig": 6362,
    "alizado": 3412,
    "Ġprofesores": 7125,
    "Ġinterrum": 9069,
    "ĠanÃ³nimo": 9952,
    "ĠsecciÃ³n": 5356,
    "ueva": 4318,
    "Ġiglesias": 4163,
    "Ġreligiosa": 4310,
    "ĠdejÃ³": 2982,
    "andins": 7591,
    "ĠRib": 4085,
    "Ġreciente": 4940,
    "Ġ1993": 3798,
    "ĠWit": 8248,
    "Ġencontraron": 8831,
    "Ġcuando": 907,
    "Ġexterior": 4419,
    "Ġfamoso": 3552,
    "ĠFeder": 4140,
    "dellÃŃn": 8012,
    "realista": 4906,
    "ĠBro": 2775,
    "ĠKn": 8732,
    "ĠHall": 7502,
    "Ġdoble": 6490,
    "Ġsecund": 5109,
    "Ġcontienen": 8856,
    "Ã¡ticas": 3613,
    "Ġfrag": 3486,
    "Ġrep": 1885,
    "au": 553,
    "Ġcristal": 7631,
    "ĠEuro": 1554,
    "Ġtiempos": 5326,
    "bÃŃa": 6902,
    "bablemente": 7769,
    "Ġespecial": 2638,
    "lyn": 7719,
    "mar": 2006,
    "Ġpin": 2208,
    "Ġorig": 896,
    "como": 3927,
    "ĠSegovia": 8068,
    "Ġcli": 5822,
    "tiro": 5926,
    "arra": 2761,
    "Ġpat": 2101,
    "Ġpoema": 5835,
    "iÃ³n": 449,
    "ĠAra": 6863,
    "Ġconciencia": 9556,
    "Ġacontecimientos": 8597,
    "ĠInstitu": 1492,
    "Ġporce": 8654,
    "ĠMonet": 4387,
    "Ġcueva": 9399,
    "Ġ1950": 3135,
    "Ġins": 880,
    "fici": 807,
    "ĠcuestiÃ³n": 9653,
    "Ġvi": 401,
    "ĠUtrecht": 8669,
    "mente": 303,
    "ĠacrÃŃ": 7970,
    "Ġform": 995,
    "Ġfiesta": 7706,
    "pper": 9007,
    "Ġinfluencias": 3807,
    "quista": 5879,
    "ĠimpresiÃ³n": 4278,
    "tiene": 3130,
    "minas": 6511,
    "Ġpersona": 4514,
    "Ġinstituciones": 5391,
    "Ġnoticias": 7925,
    "Ġescritores": 6121,
    "ĠRetra": 1752,
    "deras": 5800,
    "angular": 9677,
    "Ġoport": 5640,
    "ĠMallorca": 5875,
    "Ġsirvi": 9308,
    "rida": 5306,
    "Ġtemporal": 7656,
    "ĠcientÃŃf": 5697,
    "ĠfantasÃŃa": 9989,
    "Ġquer": 3846,
    "usa": 1922,
    "Ġ39": 9688,
    "Ġarquite": 1109,
    "Ġautodidacta": 7118,
    "bir": 2661,
    "zas": 1259,
    "portes": 8438,
    "Ġincluidos": 8125,
    "Ġsolo": 1350,
    "Ġ(\"": 4633,
    ".\"": 4051,
    "cÃŃpu": 2818,
    "ĠcÃºpula": 5455,
    "ĠutilizÃ³": 4817,
    "Ġconten": 2874,
    "chos": 2077,
    "Ġmuseos": 2549,
    "MA": 6459,
    "Ġgraf": 9209,
    "Ġub": 2290,
    "ĠDie": 2073,
    "ĠKir": 9569,
    "Ġlocalidad": 4636,
    "ane": 4618,
    "osofÃŃa": 5587,
    "Ġescri": 723,
    "ĠRetiro": 7790,
    "Ġseptiembre": 1845,
    "Ġacuarela": 3450,
    "allero": 3732,
    "Ġabril": 1765,
    "ĠVio": 8855,
    "Ġescul": 727,
    "Ġdibujante": 3553,
    "rus": 5706,
    "Ġpecho": 8538,
    "Ġusado": 7620,
    "ĠasistiÃ³": 5354,
    "icante": 6711,
    "inastÃŃa": 5864,
    "Ġimportantes": 1906,
    "Ġpodido": 9642,
    "ilares": 5359,
    "Ġcual": 1013,
    "Ġteor": 3860,
    "Ġnega": 8258,
    "ĠOa": 8146,
    "vante": 9948,
    "pol": 1206,
    "Ġrelevancia": 9963,
    "Ġcollage": 7345,
    "Ġpalabras": 4173,
    "Ġcabe": 1886,
    "ueras": 9844,
    "ĠDres": 5114,
    "Ġreci": 788,
    "Ġcic": 4258,
    "Ġdificultades": 8294,
    "Ġescultores": 6927,
    "ficaciÃ³n": 2685,
    "Ã¡lo": 2342,
    "Ġletra": 9407,
    "Ġsust": 4924,
    "ĠResta": 9087,
    "Ġtanto": 1111,
    "ĠCornel": 5854,
    "dios": 4880,
    "ru": 332,
    "Ġintera": 9535,
    "Ġflo": 1490,
    "Ġprofesional": 4495,
    "id": 3379,
    "Ġ7": 1325,
    "ĠtÃ©cn": 925,
    "ĠGrecia": 6029,
    "Ġapelli": 6800,
    "hi": 790,
    "ij": 3184,
    "Ġrespec": 5771,
    "33": 5469,
    "Ġrue": 6808,
    "fora": 7534,
    "Ġvia": 928,
    "licaciones": 6268,
    "cara": 7897,
    "son": 526,
    "Ġconvento": 3505,
    "erbaiyÃ¡n": 8093,
    "ĠEr": 2388,
    "ĠGros": 8526,
    "Ġmosa": 4486,
    "ĠValencia": 2016,
    "Ã³rdoba": 3665,
    "Ġsosteniendo": 8596,
    "Ġayudar": 9021,
    "aciones": 3779,
    "Ġ174": 5106,
    "itando": 9394,
    "Ġreferencia": 3033,
    "Ġcm": 984,
    "iv": 797,
    "Ġtin": 9408,
    "Ġmont": 4623,
    "38": 6085,
    "ĠSt": 1651,
    "ĠGÃ©n": 5244,
    "Ġele": 1404,
    "res": 170,
    "iguraciÃ³n": 7971,
    "Ġpresi": 7665,
    "Ġrin": 8206,
    "ĠRodrÃŃguez": 4688,
    "ĠÃºlti": 889,
    "ĠlÃŃm": 9612,
    "Ġoeste": 7764,
    "gent": 1496,
    "Ġ189": 872,
    "umbra": 7859,
    "Ġfondo": 1601,
    "Ġhom": 5927,
    "izi": 5015,
    "cillo": 8469,
    "ĠdifusiÃ³n": 7226,
    "gÃŃa": 9186,
    "Ġbur": 3312,
    "et": 305,
    "Ġforman": 6073,
    "Ġmarzo": 1728,
    "Ġromana": 5422,
    "ĠHÃ©": 9891,
    "[BOS]": 2,
    "ĠAn": 585,
    "ĠVerme": 6958,
    "logÃŃas": 8129,
    "Ġexhibido": 9033,
    "hol": 4088,
    "dia": 944,
    "timo": 6022,
    "39": 6186,
    "ĠGogh": 3521,
    "Ġpe": 695,
    "ĠZo": 8827,
    "Ġsigno": 9822,
    "Ġformaron": 9645,
    "Ġcolore": 7862,
    "zado": 2198,
    "ris": 1157,
    "Ġrepresentada": 4874,
    "ĠVall": 8955,
    "ĠHijo": 4368,
    "Ġcasi": 1713,
    "Ġdirig": 2139,
    "ond": 884,
    "Ġvig": 6040,
    "cientes": 6878,
    "ĠGar": 1748,
    "ĠAnto": 6753,
    "Ġpleno": 9018,
    "ĠJulian": 8400,
    "Ġpuer": 2409,
    "ĠgrÃ¡fico": 5363,
    "partamento": 4716,
    "Ġabsor": 7084,
    "ĠTour": 9895,
    "rino": 4982,
    "ĠcadÃ¡": 9406,
    "rey": 4595,
    "Ġsimboliza": 8081,
    "Ġveneciano": 8594,
    "lem": 3433,
    "leros": 7950,
    "ĠÂ¿": 6369,
    "Ġlado": 1868,
    "Ġcer": 864,
    "ĠMorales": 9987,
    "Ġurb": 3952,
    "Ġaten": 2354,
    "Ġreca": 8421,
    "unciaciÃ³n": 4497,
    "Ġprovin": 3050,
    "ĠFederico": 4229,
    "ĠrepresentÃ³": 6449,
    "Ġcau": 9726,
    "arte": 3089,
    "Ġasist": 2368,
    "tto": 4268,
    "Ġdedicada": 4737,
    "Ġabs": 5634,
    "Ġpunto": 2199,
    "ster": 1610,
    "Ġgremio": 6831,
    "ef": 8232,
    "ĠFinal": 8213,
    "ĠMÃ©dici": 6153,
    "Ġguer": 6693,
    "Ġpolic": 5474,
    "11": 2905,
    "ĠVirgen": 1054,
    "Ġcla": 999,
    "na": 325,
    "ĠWor": 5836,
    "ĠFlorencia": 1915,
    "Ġllegaron": 8218,
    "Ġayuntamiento": 8923,
    "ĠJaÃ©n": 9429,
    "ck": 755,
    "Ġcomposi": 6851,
    "abe": 7186,
    "star": 9739,
    "ponde": 2974,
    "Ġimpacto": 7806,
    "uyÃ³": 7466,
    "arenta": 6462,
    "ÃŃn": 438,
    "ĠKlim": 9951,
    "Ġflorentino": 9860,
    "ementerio": 4568,
    "ĠtratÃ³": 9273,
    "ĠsÃŃntesis": 8013,
    "ĠÃºltimos": 2739,
    "Ġexpresa": 8727,
    "illo": 1298,
    "Ġhan": 1183,
    "mans": 8495,
    "ffizi": 6133,
    "Ġcolegio": 7875,
    "Ġconferencias": 8701,
    "ĠConsejo": 6003,
    "ĠcatalÃ¡n": 6971,
    "ccio": 6972,
    "Ġsencil": 4484,
    "Ġindividuales": 2972,
    "Ġcalle": 2249,
    "ĠabstracciÃ³n": 4774,
    "Ġpoten": 7724,
    "gan": 956,
    "by": 5068,
    "ĠObra": 2229,
    "Ġmura": 1223,
    "Ġhomenaje": 4076,
    "Ã¡pol": 3037,
    "uss": 9532,
    "Nueva": 9562,
    "ent": 141,
    "Ġdere": 1255,
    "Ġochenta": 8064,
    "Ġgusta": 8683,
    "Ġnatural": 1794,
    "ĠcromÃ¡tica": 8214,
    "Ġ194": 787,
    "ĠCÃ³rdoba": 3934,
    "Ġplan": 1440,
    "entado": 3482,
    "ĠregresÃ³": 2961,
    "ites": 7017,
    "van": 754,
    "Ġ159": 3845,
    "Ġsiglos": 3475,
    "gos": 711,
    "Ġdiver": 8692,
    "isterio": 3276,
    "ĠNaturaleza": 8071,
    "Ġretom": 9507,
    "Ġarquitectos": 7520,
    "Ġformar": 5081,
    "ĠorganizaciÃ³n": 6810,
    "ĠGran": 1147,
    "ah": 8652,
    "ertad": 3883,
    "Ġinstr": 5427,
    "empla": 6990,
    "ones": 643,
    "Ġ1909": 4592,
    "ĠviviÃ³": 2877,
    "ĠSe": 355,
    "ĠTokio": 6514,
    "gue": 1189,
    "Londres": 9543,
    "Ġquienes": 3870,
    "ja": 519,
    "gano": 8449,
    "Ġdetalles": 3231,
    "Ġcopa": 9190,
    "ÃŃrculos": 7288,
    "Ġseno": 7463,
    "Ġfue": 259,
    "Ġley": 9026,
    "ĠK": 416,
    "Ġpul": 5338,
    "Ġespal": 5669,
    "ĠMus": 337,
    "ĠValent": 7903,
    "Ġirre": 8101,
    "Ġestilos": 4932,
    "char": 5953,
    "ĠFÃ©li": 7025,
    "omin": 1507,
    "Ġda": 885,
    "68": 8183,
    "Ġobtiene": 7417,
    "ntexto": 3813,
    "ĠMig": 1687,
    "lada": 1188,
    "Ġdimensiones": 3885,
    "ĠDalÃŃ": 5353,
    "Ġ1946": 4645,
    "Ġpan": 1956,
    "Ġinstru": 9477,
    "Ġcont": 363,
    "Ġalcal": 7544,
    "Ġtitu": 2155,
    "ure": 2439,
    "Ġcaballero": 5704,
    "ĠLas": 721,
    "ĠCarracci": 8987,
    "ĠEcuador": 5201,
    "ficar": 5572,
    "ĠPintor": 3991,
    "ĠhabitaciÃ³n": 6169,
    "Ã©li": 6106,
    "23": 4577,
    "pres": 319,
    "ĠNou": 9396,
    "Ġ1889": 4831,
    "Ġtam": 6986,
    "Ġacadem": 8419,
    "Ġtempo": 4073,
    "Ġprimera": 735,
    "Ġcuyo": 2742,
    "Ġrode": 3192,
    "Ġurbanos": 8737,
    "Ġdedicarse": 6544,
    "ĠacompaÃ±ado": 8390,
    "ĠGol": 7511,
    "Ġfalle": 1958,
    "Ġo": 167,
    "ĠTa": 1643,
    "ĠÃ©l": 1022,
    "Ġestas": 1736,
    "col": 2263,
    "vest": 6203,
    "anismo": 7220,
    "bao": 3850,
    "ĠPrado": 1552,
    "Ġdell": 8385,
    "Ġtalla": 8482,
    "ĠprÃ¡cticamente": 7071,
    "Ġlla": 3540,
    "ĠLam": 5868,
    "ĠRÃ³": 8282,
    "Ġdevo": 4991,
    "cali": 6370,
    "ĠDibu": 3242,
    "Ġcara": 1064,
    "Ġdar": 3040,
    "Ġantiguos": 4023,
    "tino": 6465,
    "Ġviejo": 7361,
    "ĠsurgiÃ³": 7421,
    "Ġdiscu": 8680,
    "Ã³ricos": 7247,
    "30": 2316,
    "ĠIglesia": 2259,
    "ĠâĢĶ": 1380,
    "ĠpabellÃ³n": 9631,
    "Ġrepos": 9129,
    "Ġfu": 2167,
    "ĠProye": 8892,
    "3": 17,
    "ĠColecciones": 7337,
    "ĠPat": 3022,
    "video": 4435,
    "ernas": 6589,
    "ciales": 4357,
    "Ġtransform": 7236,
    "ĠformÃ³": 3024,
    "Ġlaterales": 6014,
    "ada": 249,
    "ĠAf": 5424,
    "ĠGonzÃ¡": 3834,
    "usos": 9166,
    "uest": 6999,
    "ĠFine": 6659,
    "dere": 9997,
    "Ġfrecuentemente": 7040,
    "ĠestableciÃ³": 3893,
    "Ġ1877": 6774,
    "Ġvalor": 3810,
    "Ġamor": 2750,
    "Ġpresentada": 8426,
    "Ġdenom": 5497,
    "ĠVene": 1461,
    "ĠsimbÃ³lico": 8863,
    "Ġma": 351,
    "Ġtot": 4567,
    "Ġposi": 5695,
    "ĠmenciÃ³n": 6533,
    "Ġdiam": 8086,
    "Ġcontro": 4083,
    "Ġpen": 2407,
    "od": 2951,
    "Ġbot": 9983,
    "Ġneer": 4445,
    "ĠSi": 1795,
    "ÃŃvar": 9529,
    "ĠAya": 9531,
    "ĠMujeres": 5267,
    "tos": 425,
    "Ġenci": 4501,
    "ĠAcademia": 870,
    "ĠMagos": 7494,
    "itor": 6151,
    "jet": 1685,
    "Ġcasa": 1180,
    "ales": 308,
    "ĠJoa": 3267,
    "ĠsufriÃ³": 6895,
    "Ġ1856": 8080,
    "polis": 6269,
    "ĠSagrada": 6568,
    "adÃ©m": 2033,
    "Ġtermin": 2533,
    "ĠSociedad": 2937,
    "Ġesc": 349,
    "ĠKle": 6724,
    "Ġmuertas": 7010,
    "ambi": 330,
    "Ġfrancesa": 2941,
    "Ġguard": 8540,
    "Ġretrata": 8454,
    "ĠAcademy": 4904,
    "ĠChi": 9643,
    "ĠBellas": 635,
    "Ġreflej": 9176,
    "cademia": 798,
    "guayo": 8734,
    "dimen": 7492,
    "ĠinstalaciÃ³n": 6570,
    "ĠLibros": 8685,
    "Ġescena": 1521,
    "Ġfras": 7565,
    "prema": 9828,
    "ĠCosta": 4727,
    "ĠTÃ©cn": 6313,
    "rat": 5316,
    "Ġdefini": 2955,
    "Ġtec": 6524,
    "ĠBenito": 7117,
    "ff": 1481,
    "uales": 2572,
    "ĠBernard": 4989,
    "Ġpu": 5255,
    "Ġ300": 9110,
    "Ġsel": 4417,
    "lamen": 2224,
    "Ġfe": 867,
    "orgio": 6515,
    "Ġfuer": 633,
    "ĠcapitÃ¡n": 8704,
    "Ġespiritual": 6221,
    "Ġya": 778,
    "Ġdistinciones": 9540,
    "ity": 3541,
    "ĠBoliv": 8471,
    "Ġsurrealismo": 5997,
    "Ġadorn": 6792,
    "cas": 692,
    "han": 7254,
    "ĠDebido": 5702,
    "Ġdenomina": 9525,
    "ĠPadre": 8394,
    "Ġreina": 3279,
    "Ġcoron": 6541,
    "Ġfragmentos": 6182,
    "Ġizquierdo": 5121,
    "Ġmito": 4837,
    "Ġterra": 7205,
    "ĠCÃ³": 4472,
    "ĠConsta": 3280,
    "Ġaproximadamente": 4617,
    "ĠThomas": 3608,
    "Ġutilizando": 5754,
    "Ġinstitu": 2485,
    "ĠObtuvo": 9706,
    "arlo": 7140,
    "Ġor": 439,
    "Ġ1998": 3587,
    "zi": 2931,
    "ĠeducaciÃ³n": 3773,
    "ĠCur": 7682,
    "Ġsombre": 5622,
    "ĠDani": 4451,
    "Ġpresentado": 6765,
    "ĠConcurso": 6099,
    "bro": 6998,
    "ĠMuseos": 5536,
    "ĠBiblioteca": 2443,
    "ĠCarrera": 5518,
    "t": 75,
    "ĠrococÃ³": 9152,
    "guer": 5495,
    "ĠimaginaciÃ³n": 8738,
    "Ġperiodista": 7487,
    "Ġilust": 4820,
    "ĠmÃ¡rmol": 3778,
    "Ġsi": 840,
    "Ġmodo": 2550,
    "bel": 3449,
    "pent": 9219,
    "ĠÃĵleo": 3816,
    "imientos": 3390,
    "ĠdirecciÃ³n": 3575,
    "ĠAlicante": 7135,
    "ĠSw": 9663,
    "ĠLeo": 5414,
    "ĠgrÃ¡f": 3580,
    "ĠChurchill": 8580,
    "uestra": 4175,
    "ĠGloria": 9946,
    "Ġbizant": 5142,
    "Ġmanera": 1622,
    "Ġec": 5876,
    "Ġideas": 4219,
    "Ġnota": 8170,
    "Ġiba": 7094,
    "ĠEstudios": 6696,
    "Ġmascul": 4917,
    "gulares": 7887,
    "Ġple": 8002,
    "Ġaprendiz": 3664,
    "Ġefectu": 8964,
    "Ġperson": 732,
    "Ġcargo": 3238,
    "ĠRegional": 9715,
    "Ġviaj": 6482,
    "ĠJapÃ³n": 3851,
    "ĠniÃ±o": 2620,
    "Ġteatro": 3333,
    "Ġexit": 8584,
    "las": 302,
    "ĠvivÃŃa": 5837,
    "Ġparticu": 1441,
    "usion": 8038,
    "185": 4342,
    "ĠMÃ©": 908,
    "Ġfueron": 820,
    "Ġtorm": 8774,
    "ĠGÃ©r": 9533,
    "Ġtreinta": 5397,
    "Ġpintora": 1865,
    "caron": 6850,
    "Ġmediante": 2651,
    "Ġrusa": 8192,
    "ĠAl": 389,
    "ĠMarc": 6576,
    "ĠSÃ¡": 9297,
    "Ġ1990": 3174,
    "embrandt": 4327,
    "baj": 374,
    "Ġclases": 2634,
    "hn": 5937,
    "demÃ¡s": 960,
    "Ġbronce": 3111,
    "ĠApare": 8721,
    "darse": 5757,
    "ĠencontrÃ³": 4802,
    "gonal": 8529,
    "pole": 4262,
    "venciÃ³n": 4259,
    "Ġrefleja": 4786,
    "Ġpint": 208,
    "Ġcolabora": 2121,
    "xto": 2741,
    "Ġrega": 7966,
    "ester": 6587,
    "Ġdeja": 6216,
    "ĠCuad": 8811,
    "ch": 223,
    "Ġluces": 6489,
    "itt": 6684,
    "ĠLibre": 7194,
    "ĠTomÃ¡s": 4476,
    "ĠdÃ³": 4972,
    "ĠatmÃ³s": 5949,
    "Ġhijos": 1988,
    "ĠHugo": 8018,
    "ĠT": 227,
    "ĠCultura": 1405,
    "tirio": 5699,
    "Ġcui": 4207,
    "ĠcontemporÃ¡nea": 5939,
    "Ġcartones": 8115,
    "re": 113,
    "Ġseman": 7160,
    "Ġmostrar": 4844,
    "ĠDiputaciÃ³n": 4909,
    "Ġexcep": 5165,
    "har": 7163,
    "ĠÃ©po": 901,
    "rea": 1813,
    "tedra": 8485,
    "',": 8019,
    "Ġimagin": 5340,
    "Ġamarillo": 3343,
    "Ġfinales": 1933,
    "Ġsos": 2272,
    "ĠdirigiÃ³": 6918,
    "Ã©ndose": 2826,
    "ĠGallery": 1557,
    "Ġcrea": 2538,
    "Ġ1940": 3692,
    "ĠHolbein": 8564,
    "Ġrelato": 7954,
    "ĠAnne": 9030,
    "Ġqui": 648,
    "ostra": 2307,
    "gran": 9737,
    "Ġchino": 7973,
    "ĠPierre": 3697,
    "Ġformada": 8423,
    "ĠsitÃºa": 7315,
    "Ġenvi": 3847,
    "Ã¼r": 6342,
    "Ġ191": 868,
    "Ġanual": 8602,
    "Ġden": 1675,
    "veira": 8758,
    "Ġpriv": 1815,
    "yes": 5925,
    "Ġpueb": 2267,
    "ĠBienal": 2126,
    "zan": 2975,
    "ĠAlber": 7824,
    "Ġextraordin": 7054,
    "ĠAdol": 5386,
    "Ġciclo": 5441,
    "ĠherÃ¡l": 9037,
    "ĠdiscÃŃpulos": 6163,
    "Ġexist": 1714,
    "Ġrol": 7629,
    "unt": 419,
    "Ġdioses": 7105,
    "Ġobjetivo": 4620,
    "Ġfem": 1857,
    "Ġ65": 8380,
    "Ġrosa": 6243,
    "Ġrelie": 4005,
    "ĠWil": 1548,
    "ĠPe": 1436,
    "Ġcambios": 6145,
    "omatismo": 8624,
    "ner": 2410,
    "ĠGa": 2219,
    "u": 76,
    "arla": 7354,
    "Ġcaus": 4816,
    "sor": 3399,
    "Ġfamil": 795,
    "Ġhombre": 1832,
    "Ġflamencos": 7259,
    "ira": 2478,
    "nier": 9568,
    "umb": 2174,
    "Ġhero": 8918,
    "Ġ1988": 3904,
    "ĠÃ©nfasis": 9451,
    "arlem": 6266,
    "Ġremo": 5062,
    "gaciÃ³n": 5661,
    "mis": 8244,
    "io": 195,
    "Ġtoma": 5685,
    "Ġadecu": 7251,
    "Ġador": 4588,
    "Ġconsider": 6846,
    "Ġconflic": 7012,
    "ĠUruguay": 5656,
    "Ġdestacados": 5478,
    "Ġmad": 2786,
    "Ġcortes": 6159,
    "ĠHora": 8268,
    "Ġespera": 6057,
    "Ġ000": 5525,
    "Ġacero": 9208,
    "Ġho": 974,
    "rÃ³": 750,
    "ĠPres": 2957,
    "ĠZe": 5262,
    "ĠpictÃ³rico": 3537,
    "Ġhumor": 7011,
    "Ġpatro": 6860,
    "Ġqueda": 4572,
    "Ġevidente": 6476,
    "ĠLeiden": 9980,
    "Ġ154": 5436,
    "Ġresto": 3232,
    "Ġtropas": 8416,
    "ĠLÃ©": 5155,
    "ĠfotÃ³": 4750,
    "ĠStan": 8239,
    "Ġate": 9377,
    "mania": 1872,
    "ĠGab": 2887,
    "iosa": 7403,
    "ĠYork": 905,
    "rice": 9601,
    "ĠcÃ¡": 2449,
    "Ġ1884": 5417,
    "Ġayud": 5175,
    "pest": 4730,
    "peti": 5607,
    "ĠContinu": 9447,
    "ĠdiscÃŃpulo": 3248,
    "usiones": 8386,
    "tio": 2802,
    "Ġtrabajo": 813,
    "Ã©r": 742,
    "Ġllam": 985,
    "dir": 4642,
    "side": 803,
    "ĠContemporÃ¡n": 2403,
    "Ġ1986": 3558,
    "inter": 5380,
    "cimientos": 6301,
    "Ġinfluen": 1005,
    "ĠUna": 1413,
    "Ġpronto": 4458,
    "ĠHeinrich": 7649,
    "oria": 610,
    "Ġempres": 4027,
    "25": 3817,
    "Ġrecursos": 8224,
    "Ġvidrieras": 9577,
    "ĠArturo": 8245,
    "Ġ1922": 4644,
    "lari": 8215,
    "Ġservir": 9276,
    "sa": 637,
    "Ġrojo": 2334,
    "olÃ³gicos": 7770,
    "ĠOtto": 7690,
    "ĠCompaÃ±": 8440,
    "Ġapar": 5078,
    "Ġ1953": 4649,
    "ĠCatal": 2322,
    "ĠXIII": 4900,
    "Ġreal": 1424,
    "Ġbodeg": 2590,
    "ĠperiÃ³dico": 6100,
    "Ġinusual": 9758,
    "ranach": 9714,
    "Ġdimen": 3230,
    "Ġfrances": 2024,
    "Ġalberga": 4755,
    "Ġaparecer": 9256,
    "Ġpare": 831,
    "Ġ1955": 4517,
    "Ġtransi": 8052,
    "ĠGuadalajara": 8001,
    "ĠcomÃºn": 3250,
    "ĠMer": 2669,
    "w": 78,
    "Ġprofesora": 6275,
    "Ġ1864": 7021,
    "Ġbra": 3200,
    "ĠcrÃŃtico": 2923,
    "urÃŃa": 9683,
    "ĠGu": 881,
    "ajas": 8640,
    "Ġmucha": 4799,
    "ĠAgu": 9888,
    "Ġhabita": 5982,
    "ĠJo": 758,
    "ĠEsto": 2621,
    "ĠdetrÃ¡s": 4369,
    "ĠSociety": 6531,
    "Ġh": 171,
    "Ġmilitares": 7697,
    "Ġclasicismo": 8271,
    "Ġfun": 811,
    "Arts": 6455,
    "ĠraÃŃces": 8886,
    "ĠAnexo": 7780,
    "ĠSilveira": 9606,
    "cada": 3062,
    "cala": 9763,
    "reros": 6962,
    "old": 3487,
    "ĠBos": 4063,
    "pular": 7747,
    "Ġausencia": 7989,
    "ĠPoussin": 8677,
    "Ġescribe": 7049,
    "Ġpromo": 3585,
    "udio": 3969,
    "Ġcreativo": 9350,
    "yo": 1034,
    "ĠBorg": 8931,
    "ĠVerona": 9959,
    "Ġsuperfici": 2962,
    "Ġaso": 4490,
    "Ġperteneciente": 5987,
    "Ġmatem": 7453,
    "ĠJunta": 7588,
    "Ġprecios": 7112,
    "ĠLlo": 9484,
    "ĠMÃºsica": 8819,
    "Ġperu": 7098,
    "Ġrealista": 3925,
    "Ġsatis": 7934,
    "ĠversiÃ³n": 2285,
    "volucion": 3323,
    "Ġdomin": 2629,
    "Ġprest": 3661,
    "Ġdocumental": 6205,
    "imo": 1346,
    "gros": 3606,
    "Ġ145": 7801,
    "tilidad": 9565,
    "ĠGÃ©nova": 7341,
    "Ġcultiv": 5935,
    "ĠevoluciÃ³n": 5713,
    "Ġsal": 1341,
    "ficos": 9038,
    "Ġgrabador": 3196,
    "Ġcastel": 8391,
    "yle": 8567,
    "Ġcuarenta": 6694,
    "ĠpolÃŃticos": 6843,
    "ĠTrabaj": 3861,
    "onde": 392,
    "Ġurbano": 7293,
    "Ġos": 1997,
    "ĠbÃ¡s": 6128,
    "Ġalcalde": 9144,
    "Ġcuidado": 8717,
    "'s": 2831,
    "Ġconceptual": 8958,
    "ĠpÃºblicas": 5234,
    "teno": 9749,
    "Ġeso": 5641,
    "ĠAs": 1042,
    "Ġ11": 3058,
    "Ġllama": 4896,
    "Ġasociado": 7372,
    "cuenta": 5565,
    "Ġcaso": 2494,
    "cchio": 9388,
    "ezas": 5783,
    "ĠHom": 9223,
    "Ġses": 4408,
    "ÃŃsima": 7378,
    "Ġdistintas": 4481,
    "Ġinfor": 4146,
    "Ã³logo": 5395,
    "ĠFrances": 2131,
    "Ġconvo": 8312,
    "ĠAlgun": 2329,
    "tern": 7042,
    "lor": 1938,
    "ĠllamÃ³": 6068,
    "Ġ2017": 3534,
    "Ġabsolu": 6996,
    "ĠLondon": 9690,
    "ign": 2130,
    "Ġcora": 6248,
    "Ġdific": 5714,
    "Ġhierro": 7274,
    "rica": 1935,
    "etas": 3283,
    "ĠRich": 3638,
    "aba": 506,
    "AN": 6901,
    "Ġir": 2454,
    "ĠTimes": 9923,
    "ĠmarrÃ³n": 8059,
    "D": 30,
    "ÃŃtico": 6237,
    "ĠDomin": 2776,
    "ĠReg": 4684,
    "ĠFede": 6992,
    "ĠvolviÃ³": 3136,
    "lid": 3982,
    "Ġcreada": 6033,
    "Ġhorizonte": 9559,
    "ĠCam": 1454,
    "digo": 6718,
    "Ġactu": 1141,
    "ĠtrasladÃ³": 2328,
    "Ġtemple": 6833,
    "ĠPremio": 1136,
    "relli": 9045,
    "ali": 358,
    "Ġ1943": 4843,
    "Ġdescubierto": 8309,
    "Ġ[": 480,
    "Ġacceso": 6848,
    "Ġlibras": 8007,
    "ĠLos": 593,
    "emato": 8761,
    "amp": 4886,
    "Ġ1965": 3869,
    "Ġenfermedad": 5578,
    "Ġreco": 2671,
    "Ġ34": 9254,
    "Ġalem": 2076,
    "Ġactualidad": 4182,
    "Ġbiz": 4936,
    "Ġtraje": 8375,
    "tu": 412,
    "Ġ146": 9319,
    "rir": 3995,
    "ĠJesucristo": 9943,
    "arro": 762,
    "Ġhaber": 1588,
    "das": 424,
    "ĠRepresenta": 7598,
    "ĠEstilo": 5960,
    "Ã¡mica": 2912,
    "Ġ1874": 6432,
    "Ġincluida": 6853,
    "Ġmunicipio": 8947,
    "Ġchil": 5222,
    "Ġsuele": 6144,
    "Ġtint": 7141,
    "erista": 5947,
    "gular": 3461,
    "Ġace": 6503,
    "ĠsalÃ³n": 5552,
    "Ġ23": 3190,
    "Ġsele": 3245,
    "Ġese": 1280,
    "ĠMario": 7172,
    "pel": 1263,
    "ionalmente": 8226,
    "ko": 1615,
    "Ġ1915": 4675,
    "Ġdella": 4244,
    "ĠpequeÃ±as": 4193,
    "ĠtÃŃo": 5932,
    "ĠAndre": 7060,
    "ĠEscultura": 3827,
    "Ġbene": 5707,
    "Ġinten": 2154,
    "Ġporcelana": 9526,
    "Ġherra": 7543,
    "Ġfines": 5566,
    "isto": 8480,
    "licaciÃ³n": 4863,
    "lica": 710,
    "ĠAlcal": 7001,
    "Ġexponer": 5258,
    "op": 9376,
    "zones": 6776,
    "ĠDom": 4135,
    "stria": 3573,
    "ern": 673,
    "gre": 2191,
    "Ġregistros": 9492,
    "Co": 5252,
    "etra": 1371,
    "ĠPrem": 970,
    "uido": 1200,
    "Ġgama": 6771,
    "ĠAustralia": 6501,
    "ĠFrancis": 1006,
    "ĠArchiv": 9420,
    "grÃ¡fica": 3681,
    "cÃº": 3604,
    "Ġvista": 2432,
    "tiles": 6444,
    "ispano": 6907,
    "Ġpopulares": 5096,
    "Ġprobablemente": 2188,
    "Ġitaliana": 4428,
    "estival": 4069,
    "Ġrepresentando": 5473,
    "Ġencuent": 785,
    "Ġcreando": 6218,
    "polo": 9591,
    "Ġmonum": 1923,
    "ntemente": 5563,
    "garon": 4553,
    "Ġ1860": 5573,
    "ntesis": 6353,
    "ĠClaudio": 8860,
    "ĠocasiÃ³n": 5034,
    "tha": 7299,
    "Ġpareja": 3355,
    "Ġtercera": 4754,
    "Ġfrom": 9250,
    "ten": 495,
    "Ġdescribe": 4383,
    "GalerÃŃa": 8864,
    "Ġmoral": 5955,
    "Ġgente": 4907,
    "Ġnueva": 2064,
    "ĠGustave": 7192,
    "zuela": 3625,
    "Ġrealizado": 1963,
    "ĠLip": 8634,
    "ĠAnna": 4575,
    "Ġponer": 9558,
    "Ġnoche": 4241,
    "irÃ³": 2947,
    "Ġvib": 8477,
    "Ġ158": 4970,
    "ĠCatÃ³lica": 7941,
    "ĠÃģlvarez": 6615,
    "Ġjulio": 1852,
    "Ġeventos": 8167,
    "Ã¡ndola": 9285,
    "Ġconci": 4287,
    "icip": 4344,
    "ĠBartolomeo": 8969,
    "Ġmag": 5758,
    "Ġhacen": 5115,
    "itada": 4638,
    "ĠParque": 7899,
    "ĠRealizÃ³": 4506,
    "Ġprofun": 9955,
    "Ġmiemb": 1258,
    "gg": 5621,
    "Ġporque": 2486,
    "quilib": 5815,
    "Ġguerra": 1829,
    "Ġmultimedia": 6071,
    "paÃ±": 428,
    "Ġubicado": 6206,
    "ĠniÃ±os": 3253,
    "Ġincluso": 2197,
    "Ġ147": 8194,
    "Ġcat": 2049,
    "2000": 9178,
    "Ġregular": 6988,
    "ieren": 6274,
    "ĠespÃŃritu": 5059,
    "ĠMiguel": 1763,
    "ĠOt": 1890,
    "ĠpequeÃ±a": 3400,
    "ĠPara": 1533,
    "ĠOrleans": 9076,
    "Ġcabello": 6385,
    "Ġ178": 3169,
    "ĠCal": 2659,
    "amÃ¡": 7435,
    "bu": 453,
    "ribun": 9177,
    "ĠTorre": 5646,
    "Ġmira": 6141,
    "Ġcolec": 969,
    "Col": 8835,
    "ĠinaugurÃ³": 6931,
    "Ġante": 2013,
    "pura": 9024,
    "Ġmedio": 1788,
    "lic": 717,
    "landÃ©s": 2940,
    "ĠMÃ©rito": 9488,
    "erva": 7480,
    "Ġsegun": 1187,
    "Ġpuede": 1055,
    "Ġar": 217,
    "mita": 3926,
    "Ġindepen": 3083,
    "Ġbrit": 3215,
    "coteca": 4037,
    "ĠPaz": 5120,
    "presion": 964,
    "Ġjaponesa": 8403,
    "ho": 1433,
    "Ġjuventud": 5032,
    "ĠquedÃ³": 4041,
    "Ġinte": 1584,
    "Ġpublicados": 9016,
    "por": 434,
    "ceres": 7811,
    "Ġvac": 6837,
    "sig": 8752,
    "Ġvanguardia": 5016,
    "Ġcontornos": 8297,
    "Ġ1863": 7336,
    "vile": 9252,
    "Ġmultitud": 8251,
    "Ġte": 516,
    "ĠAntes": 6795,
    "ĠMirÃ³": 5364,
    "ĠToledo": 3453,
    "ĠAtenas": 7045,
    "grafos": 7559,
    "ĠHum": 4129,
    "remo": 5350,
    "bla": 5177,
    "ÃŃda": 4998,
    "ĠmÃºsicos": 8045,
    "ĠAutorretrato": 4848,
    "ĠNicol": 4343,
    "Ġquien": 810,
    "Ġparis": 5942,
    "ĠEst": 413,
    "ĠFin": 2781,
    "mit": 2534,
    "ĠSmith": 6080,
    "Ġpluma": 8645,
    "ĠIb": 5764,
    "Ġ198": 642,
    "pecto": 2357,
    "lando": 2922,
    "Ġsomb": 2971,
    "Ġmosaicos": 7674,
    "rue": 3764,
    "Ġsensibilidad": 7530,
    "ĠLong": 8691,
    "ĠMon": 1690,
    "orios": 9587,
    "ĠM": 156,
    "udÃ³nimo": 8332,
    "ĠEstatal": 6008,
    "mo": 277,
    "dra": 2421,
    "ĠJu": 670,
    "Ġcontrasta": 8999,
    "ĠOro": 3079,
    "Ġ2001": 3595,
    "sey": 7898,
    "gel": 747,
    "ĠEspe": 4773,
    "oling": 9909,
    "Ġuniversal": 8290,
    "ĠAR": 6890,
    "Ġ1891": 5434,
    "Ġsacri": 5412,
    "ĠElis": 9500,
    "clo": 6474,
    "Ãºr": 6140,
    "Ġcorre": 3649,
    "ĠBot": 5736,
    "ĠGonzÃ¡lez": 3862,
    "Ġclaramente": 5546,
    "Ġarca": 8854,
    "Ġpueblos": 7206,
    "ĠReal": 1307,
    "Ġparecer": 7129,
    "torial": 3546,
    "ley": 2884,
    "rbol": 2699,
    "ĠlÃŃder": 9121,
    "ĠartÃŃsticas": 3148,
    "Ġdomina": 8307,
    "ĠDe": 508,
    "Ġcontiene": 3538,
    "ĠJack": 6635,
    "ĠVenus": 3189,
    "undaciÃ³n": 2091,
    "ĠSebastiÃ¡n": 3978,
    "ĠEducaciÃ³n": 5365,
    "ĠTer": 3493,
    "lado": 991,
    "ĠUno": 4605,
    "xic": 2363,
    "Ġ1840": 8130,
    "Ġcrom": 4382,
    "Ġset": 7169,
    "bra": 1598,
    "ctores": 3920,
    "ily": 7568,
    "Ġpersonal": 2522,
    "Ġnaturalista": 6781,
    "alizÃ³": 2763,
    "Ġcinco": 2233,
    "ĠingresÃ³": 4432,
    "ĠTemplo": 7196,
    "olu": 1143,
    "Ġvendida": 9876,
    "ĠEmilio": 7290,
    "ĠSal": 716,
    "ablo": 1158,
    "Ã³ricas": 8978,
    "Ġrecl": 9055,
    "Ġpeda": 9486,
    "ĠmitolÃ³gicas": 9674,
    "Ġ500": 8303,
    "Ġcausa": 4205,
    "Ġescritos": 5551,
    "Ġsanto": 5367,
    "164": 7711,
    "ĠDub": 9890,
    "Ġprovincia": 4110,
    "Ġmonjes": 9198,
    "ĠFrescos": 8665,
    "ĠcolocÃ³": 9705,
    "Ġcusto": 9590,
    "cel": 802,
    "conoci": 1123,
    "Ġforma": 628,
    "Ġsuel": 4040,
    "guay": 4090,
    "cÃ©": 8138,
    "Ġ1876": 5746,
    "erior": 539,
    "ĠOriente": 6961,
    "ĠJaneiro": 6263,
    "ĠÃ³leo": 915,
    "it": 239,
    "21": 5247,
    "Ġdesnudos": 4188,
    "ena": 645,
    "ins": 2340,
    "le": 164,
    "gosto": 1941,
    "culo": 1810,
    "ĠHonor": 3766,
    "Ġemig": 7993,
    "Ġapre": 2327,
    "ĠhistÃ³ricos": 5507,
    "jada": 5243,
    "Ġelementos": 1831,
    "ĠBrasil": 3928,
    "unciÃ³n": 4775,
    "ilia": 3483,
    "ĠPache": 8757,
    "ĠIsabel": 2709,
    "),": 333,
    "dades": 1291,
    "empos": 5076,
    "par": 1044,
    "ĠsÃŃmbolo": 3577,
    "Ã¡culo": 6741,
    "ĠEspÃŃritu": 9675,
    "aj": 252,
    "Ġconoce": 2891,
    "Ġlo": 320,
    "esto": 5993,
    "ĠMaria": 2648,
    "rabe": 6606,
    "ital": 1647,
    "bado": 3305,
    "ĠAsociaciÃ³n": 3499,
    "Ġcaballo": 3282,
    "Ã¡nicos": 7750,
    "ĠCommons": 6299,
    "tismo": 2418,
    "ĠGuad": 7736,
    "ĠTurÃŃn": 8017,
    "Ġ1870": 4818,
    "ÃŃrculo": 2461,
    "etrÃŃa": 6181,
    "n": 69,
    "Ġfabric": 9578,
    "Ġsalas": 5516,
    "ĠHouse": 6897,
    "inÃ³": 5855,
    "Ġvestim": 8941,
    "Ġsolici": 5273,
    "ĠAd": 2134,
    "pieza": 6097,
    "ĠcÃ³mo": 4242,
    "Ġautor": 1047,
    "ston": 5387,
    "Ġprivado": 7938,
    "Ġrecha": 3666,
    "ux": 3462,
    "Ġ1931": 4663,
    "Ġinscripciones": 9506,
    "ĠMÃ¡s": 2766,
    "Ġclaros": 4724,
    "wer": 5733,
    "ingÃºn": 4808,
    "ĠestudiÃ³": 1990,
    "Ġem": 481,
    "Ġpolicrom": 8370,
    "es": 130,
    "Ġextensa": 9034,
    "Ġcontacto": 3526,
    "Ġdificulta": 7794,
    "Ġambas": 4316,
    "ER": 6416,
    "Ġpop": 7519,
    "Ġcambi": 2752,
    "ĠO": 316,
    "Ġbol": 7318,
    "ioso": 7335,
    "Ġmuch": 1011,
    "ĠSch": 1790,
    "ĠBritÃ¡nico": 8503,
    "ĠReconocimientos": 9245,
    "Ġmer": 2920,
    "ĠMichael": 6826,
    "Ġ1996": 3671,
    "ĠVin": 2835,
    "ĠcontinuaciÃ³n": 7155,
    "Ġsocial": 2514,
    "pus": 6709,
    "ĠGuada": 7148,
    "Ġjue": 5101,
    "ĠDen": 5655,
    "cil": 1384,
    "Ġconjunto": 2347,
    "vado": 3338,
    "Ġservi": 3029,
    "Ġnacionales": 5923,
    "dar": 2720,
    "Ġdise": 2043,
    "cilia": 7865,
    "Ġprimer": 936,
    "ciones": 298,
    "izado": 4409,
    "ĠAcadÃ©m": 5228,
    "bable": 1608,
    "Ġpinceladas": 5918,
    "msterdam": 2944,
    "Ġ1620": 9850,
    "ft": 4555,
    "Ġw": 2516,
    "ĠmÃºlti": 4780,
    "erÃŃas": 3081,
    "abeth": 5324,
    "tivos": 1285,
    "ĠPopular": 8468,
    "ĠEu": 3270,
    "Ġfuego": 6723,
    "ĠÃºnicamente": 6010,
    "Ġestadouniden": 2264,
    "laban": 9689,
    "unci": 6363,
    "ran": 210,
    "Ġanciano": 8962,
    "Ġconseg": 5637,
    "Ġcorrientes": 7447,
    "Ġton": 2398,
    "pon": 1118,
    "illas": 2864,
    "ptiste": 8318,
    "ĠBatalla": 7974,
    "Ġcirc": 5054,
    "40": 3788,
    "ĠCeÃ¡n": 8686,
    "Ġmonumental": 5716,
    "Ġadop": 3407,
    "ĠempezÃ³": 3619,
    "ĠejÃ©rcito": 5851,
    "ish": 5449,
    "Ġdijo": 4095,
    "rse": 7255,
    "ĠAi": 1526,
    "ĠSamuel": 8986,
    "adamente": 2789,
    "ĠFrida": 7942,
    "orial": 7092,
    "ancias": 4143,
    "alidades": 3080,
    "ual": 1593,
    "Ġllev": 1313,
    "ĠAlcalÃ¡": 8293,
    "cien": 6585,
    "Ġsalv": 9001,
    "Ġ1918": 4660,
    "rans": 5877,
    "ĠPal": 1773,
    "ĠJacopo": 8794,
    "Ġdestac": 1873,
    "Ġcementerio": 5583,
    "ĠFer": 2450,
    "ĠpermaneciÃ³": 4197,
    "ĠIsi": 5980,
    "ĠArtÃŃstico": 8497,
    "Ġpremi": 6941,
    "Ġeru": 7894,
    "nacional": 1450,
    "yectoria": 2649,
    "Ġexponentes": 9554,
    "Ġcultura": 1253,
    "ĠDur": 8436,
    "ĠHay": 3325,
    "ĠGuido": 8889,
    "ĠLeg": 6560,
    "Ġpudieron": 9920,
    "ĠMac": 6429,
    "Ġespacial": 9522,
    "ĠlÃ¡piz": 6572,
    "Ġutilizado": 4811,
    "ĠDer": 6296,
    "cip": 477,
    "ĠCant": 5666,
    "Ġdefinitiva": 9288,
    "rÃ¡fica": 2547,
    "ĠVer": 2008,
    "Ġfuerza": 4580,
    "Ġprocedente": 6690,
    "ĠGiorgio": 6791,
    "ell": 1240,
    "Ġproble": 3363,
    "ĠVilla": 2622,
    "Ġentorno": 4394,
    "cle": 6983,
    "Ġvar": 630,
    "Ġsobrino": 8335,
    "Ġprodujo": 3709,
    "ingham": 9029,
    "OR": 8869,
    "vento": 2389,
    "ĠEvangelio": 7252,
    "Ġposee": 5914,
    "gui": 3211,
    "60": 2678,
    "ĠDomÃŃnguez": 7219,
    "ĠSpa": 9221,
    "Ġparroqui": 6546,
    "ĠInternational": 6699,
    "putaciÃ³n": 3329,
    "Ġescu": 2983,
    "Ġfoto": 1518,
    "ĠZÃºrich": 8719,
    "deres": 7699,
    "osas": 3594,
    "ĠArtista": 6685,
    "ĠDar": 5605,
    "Ġconsiste": 7742,
    "Ġsorpren": 5867,
    "24": 4597,
    "Ġten": 700,
    "Ġson": 606,
    "Ġdetermin": 4467,
    "Ã¡nica": 3188,
    "ĠcafÃ©": 9274,
    "Ġcritic": 7878,
    "ĠEd": 2302,
    "lido": 5481,
    "Ġhabla": 7604,
    "ĠJohannes": 6604,
    "Ġbor": 2624,
    "Ġmanierista": 7740,
    "cue": 415,
    "ĠRep": 2581,
    "Ġservicio": 4291,
    "aga": 8689,
    "ĠNuestra": 5352,
    "Ġencuentro": 6526,
    "ĠAlberto": 3699,
    "Ġrazones": 8377,
    "Ġinicial": 6093,
    "Ġfund": 6954,
    "Ġis": 2504,
    "Ġpal": 3503,
    "Ġj": 345,
    "etti": 5334,
    "ĠWay": 9310,
    "Ġ1878": 5838,
    "ĠhabrÃŃa": 3753,
    "ĠMa": 489,
    "ĠAna": 3237,
    "ghel": 6445,
    "ĠXIX": 1908,
    "ĠfotografÃŃa": 3004,
    "Ã¡logos": 9096,
    "ĠEscorial": 6156,
    "taba": 5402,
    "Ġpatio": 8281,
    "Ġflamenco": 3942,
    "festa": 6253,
    "Ġderiva": 9694,
    "Ãºblica": 2395,
    "tens": 9517,
    "ficamente": 7005,
    "ĠPinacoteca": 5169,
    "laces": 3771,
    "ĠPalazzo": 4803,
    "Ġpropio": 1641,
    "Ġacerca": 5108,
    "Ġdebajo": 6663,
    "Ġliteratura": 4030,
    "ĠtraducciÃ³n": 7695,
    "frÃ¡n": 9039,
    "wski": 8392,
    "ĠlogrÃ³": 5863,
    "Ġanimal": 6094,
    "ĠAlcÃ¡zar": 8989,
    "E": 31,
    "parte": 5657,
    "ĠMari": 9949,
    "Ġpubl": 5462,
    "Ġmodernismo": 6994,
    "Ġhistoria": 1356,
    "Ġsiete": 3345,
    "gÃ³": 1101,
    "memora": 4464,
    "ĠPartido": 7648,
    "Ã©e": 2809,
    "ames": 3687,
    "Ã³lica": 4764,
    "Ġpatrocin": 6951,
    "ĠDavid": 2239,
    "Ġactiva": 8976,
    "ĠÃ©ste": 6925,
    "lbum": 4333,
    "Ġconocimiento": 4402,
    "Ġdei": 6702,
    "Ġmucho": 2111,
    "Ġmundo": 1256,
    "uny": 9104,
    "ĠPla": 2093,
    "Ġarco": 3932,
    "Ġruso": 3882,
    "Ġ1886": 5362,
    "Ġ3": 759,
    "mitage": 6563,
    "Ġcob": 7652,
    "Ġarquitectura": 2215,
    "Ġpresent": 1219,
    "ĠcomprÃ³": 5696,
    "uerte": 5149,
    "olas": 5886,
    "bin": 9218,
    "Ġbatal": 8933,
    "Ġsentimiento": 7738,
    "Ġdefen": 4503,
    "Ġfavor": 4885,
    "Ġ1930": 2994,
    "ya": 664,
    "Ġdivi": 4246,
    "ĠAlcÃ¡": 7404,
    "ÃŃlica": 3690,
    "Ġencargo": 2537,
    "ĠVe": 2790,
    "Ġres": 683,
    "Ġdet": 2801,
    "Ġtemas": 1464,
    "Ġ6": 1236,
    "Ġ1932": 4562,
    "tel": 1776,
    "oro": 3144,
    "Ãģ": 8753,
    "Ġterreno": 7761,
    "Ġfol": 3682,
    "Ġcompuesta": 8573,
    "Ġcircunst": 8619,
    "ĠLin": 6247,
    "he": 511,
    "Ġbiblioteca": 5690,
    "ĠLa": 260,
    "b": 57,
    "ĠRed": 9747,
    "Ġ1867": 6854,
    "Ġmaterial": 3961,
    "iste": 8712,
    "lasco": 7917,
    "Ġproblema": 9050,
    "ĠFernando": 1733,
    "uelas": 4728,
    "Ã©tica": 2158,
    "ĠrevoluciÃ³n": 7852,
    "ĠPadua": 8105,
    "sh": 6258,
    "rik": 6030,
    "Ġot": 431,
    "emis": 6865,
    "zados": 6228,
    "iente": 5035,
    "Ġhel": 8279,
    "ĠSala": 1709,
    "Ġconcur": 6516,
    "Ġ1896": 5321,
    "ĠiluminaciÃ³n": 4883,
    "ĠVic": 1859,
    "sar": 8916,
    "SA": 6045,
    "ĠRena": 3084,
    "ĠDela": 5127,
    "ĠGlas": 9723,
    "ĠTras": 1942,
    "ror": 5975,
    "Ġestadounidenses": 7270,
    "Ã¡ndolo": 7556,
    "ite": 4416,
    "Ġpad": 2964,
    "Ġmezcla": 4463,
    "vre": 2282,
    "etros": 4743,
    "uenos": 1640,
    "Ã¡s": 256,
    "diciones": 4776,
    "Ġnotable": 3783,
    "Ġcabo": 3676,
    "fel": 9127,
    "Ġmuestra": 1149,
    "alÃ³": 6566,
    "Ġprevi": 6392,
    "Ġhacia": 994,
    "ptura": 9316,
    "ĠGuti": 8285,
    "Ġaza": 8973,
    "stro": 3397,
    "Ġdia": 5207,
    "Ġlectura": 6048,
    "Ġpreci": 3935,
    "ĠcondiciÃ³n": 6704,
    "Ġblanco": 2183,
    "ĠXIV": 4631,
    "Ġamigos": 3269,
    "Ġmill": 3953,
    "Ġsugiere": 6220,
    "Ġzonas": 6316,
    "Ġmaestras": 7816,
    "Ġbau": 4715,
    "Ġpro": 262,
    "ĠMassachusetts": 8603,
    "ĠUnido": 5623,
    "Ġcatalo": 8631,
    "Ġsol": 1326,
    "Ġadoles": 7381,
    "Ġhistori": 2286,
    "Ġalumno": 3384,
    "Ġoficiales": 6726,
    "ac": 1658,
    "Ġradic": 5103,
    "Ġcuel": 4856,
    "Ġjap": 5231,
    "bury": 9669,
    "dÃŃgen": 5724,
    "Ġprer": 7843,
    "Ġpone": 8094,
    "Ġconsiderable": 6930,
    "ĠMag": 2305,
    "ciÃ³n": 169,
    "Ġ1866": 6654,
    "ĠBrooklyn": 9374,
    "ĠAk": 9080,
    "Ġmarcado": 8089,
    "burgo": 1968,
    "ura": 174,
    "Ġdinam": 9962,
    "ĠImp": 6413,
    "ental": 1430,
    "70": 2894,
    "ĠDespuÃ©s": 1722,
    "pectiva": 1824,
    "grÃ¡fico": 3555,
    "ase": 996,
    "ĠBlanco": 7958,
    "are": 1079,
    "ticu": 1408,
    "Ġresul": 1893,
    "ĠerÃ³": 7516,
    "onaciÃ³n": 4502,
    "ista": 676,
    "erto": 7132,
    "ĠLeÃ³n": 3026,
    "uega": 7809,
    "Ġale": 1023,
    "ĠexcepciÃ³n": 8806,
    "tin": 4976,
    "ese": 2489,
    "Ġfundada": 7455,
    "laciones": 4011,
    "ĠdedicÃ³": 2608,
    "Ġplen": 6844,
    "Ġretrospectiva": 4353,
    "Ġsangre": 7173,
    "Ġpuerto": 7195,
    "min": 971,
    "ĠCecilia": 9881,
    "rilla": 9804,
    "Ġpoca": 9536,
    "ĠIns": 9702,
    "ĠFil": 3213,
    "teles": 4001,
    "Ġmater": 9015,
    "ĠRi": 5381,
    "kin": 5105,
    "ĠLoren": 2970,
    "Ġtem": 525,
    "itÃ³": 2745,
    "Ġfallecido": 6317,
    "usse": 8778,
    "ĠCat": 2767,
    "ĠJuli": 9259,
    "cch": 5896,
    "Ġsuper": 1783,
    "Ġagua": 2115,
    "Ġinternacionales": 5531,
    "Ġlago": 9843,
    "ctamente": 3005,
    "Ġcatedral": 2882,
    "Ġmix": 7496,
    "Ġprestigio": 8178,
    "ĠMichel": 5988,
    "Ġempieza": 9057,
    "ĠAnton": 4760,
    "Ġrey": 1458,
    "zano": 7720,
    "Ġvan": 910,
    "Ġsea": 3476,
    "ĠsÃ©": 9066,
    "ĠHaarlem": 6968,
    "ocu": 4805,
    "1910": 9537,
    "ette": 5782,
    "Ġquince": 8372,
    "36": 5888,
    "Ġpron": 9427,
    "ĠIV": 2476,
    "ĠTorres": 4576,
    "Ġpiedra": 3492,
    "Ġtipos": 5351,
    "Ġvivi": 4114,
    "yos": 2566,
    "Ġdivor": 9360,
    "Ġotro": 1361,
    "stante": 2032,
    "ĠVenezuela": 4293,
    "ĠbÃ³veda": 6114,
    "inar": 4653,
    "Ġconsiderado": 2706,
    "Ġbar": 1577,
    "Ġ2024": 7848,
    "gentina": 2132,
    "Ġcantidad": 4431,
    "ĠperiÃ³dicos": 8447,
    "ĠRijks": 8988,
    "run": 9721,
    "Ġrepresentadas": 8173,
    "Ġresulta": 6255,
    "ĠFamilia": 5450,
    "Ġlados": 6229,
    "ĠmÃ©todos": 8845,
    "Ġigual": 2730,
    "caro": 8782,
    "ĠEste": 1174,
    "irÃ¡": 9682,
    "emporÃ¡n": 1193,
    "ĠCentro": 1660,
    "Ġingres": 2435,
    "qui": 322,
    "ĠTama": 8743,
    "ĠChe": 5866,
    "cis": 815,
    "ci": 119,
    "bajo": 2859,
    "Ġlarga": 4853,
    "Ġvincu": 4264,
    "ĠpÃ¡ginas": 5278,
    "Ġtor": 1772,
    "dita": 8184,
    "ĠWa": 4422,
    "Ġbellas": 6393,
    "Ġescla": 7860,
    "Ġconsiderados": 9807,
    "ĠNav": 8466,
    "ĠMc": 5603,
    "Ġdemas": 5582,
    "Ġvis": 821,
    "Ġcomprado": 8411,
    "alle": 647,
    "Ġmenos": 1896,
    "An": 5698,
    "cidos": 3588,
    "ĠGregorio": 5720,
    "Ġbarrio": 4950,
    "ĠArque": 7722,
    "Ġdecoraciones": 6803,
    "Ã¡neo": 8395,
    "vales": 7322,
    "ĠCort": 7281,
    "Ġadquiri": 2510,
    "teral": 6788,
    "Ã¡tica": 1732,
    "ve": 456,
    "ĠGÃ³": 4286,
    "ĠPic": 5159,
    "Ġtumb": 8084,
    "Ġedu": 2562,
    "Ġimpul": 4956,
    "Ġelemento": 5087,
    "ĠespaÃ±olas": 8483,
    "real": 2567,
    "oci": 409,
    "Ġfrutas": 6387,
    "ĠPrincip": 7998,
    "Ġcolores": 1075,
    "Ġmercado": 5123,
    "Ġnuevo": 1595,
    "Ġrostro": 3360,
    "ĠEsta": 1102,
    "ĠCass": 8696,
    "ancia": 1089,
    "ĠSECCION": 476,
    "ĠHÃ©rcules": 7418,
    "ĠBar": 690,
    "Ġeta": 2288,
    "Ġtodo": 987,
    "Ġetapas": 7692,
    "oce": 5057,
    "Ġmatrimonio": 2234,
    "Ġvuel": 2679,
    "Ġacces": 8936,
    "Ġposterior": 1547,
    "ĠMunicipal": 3789,
    "Ġ32": 9280,
    "ĠMetropolitano": 6245,
    "let": 6134,
    "ĠopiniÃ³n": 7197,
    "Ġ1989": 3598,
    "Ġfirmado": 5223,
    "alismo": 5597,
    "Ġases": 4913,
    "xo": 9996,
    "ĠbritÃ¡nica": 7715,
    "vÃ©s": 1383,
    "Ġsent": 1198,
    "Ġinaugura": 6662,
    "ĠClar": 7500,
    "Ġdebate": 9968,
    "rest": 5810,
    "atos": 3688,
    "land": 1489,
    "tarse": 5662,
    "Ġpues": 2332,
    "Ġpol": 1130,
    "ĠmaestrÃŃa": 7726,
    "Ġusar": 7768,
    "iche": 6322,
    "Ġnovi": 1694,
    "Ġbarro": 2330,
    "ĠapÃ³stoles": 9074,
    "ĠGenera": 3095,
    "ĠhipÃ³": 7933,
    "Ġhechos": 6034,
    "ĠdÃ³lares": 5423,
    "Ġposible": 2072,
    "ĠTok": 5609,
    "Ġmedieval": 5560,
    "Ġvalores": 5963,
    "ĠNar": 7907,
    "ĠafirmÃ³": 8896,
    "ĠConstant": 4682,
    "isaj": 672,
    "Ġpigmentos": 6076,
    "douard": 6849,
    "Ġequi": 3599,
    "Ġesas": 7178,
    "ral": 680,
    "Ġmateri": 1913,
    "Ġ1892": 4922,
    "Ġ1974": 4185,
    "nas": 2232,
    "ĠCabeza": 9812,
    "Ġtriste": 9854,
    "Ġdiario": 5302,
    "gust": 2479,
    "fas": 5523,
    "Ġidentificado": 7328,
    "Ġdi": 221,
    "Ġaleg": 4531,
    "ĠtÃŃp": 3562,
    "ere": 4388,
    "ana": 391,
    "Ġcierta": 3871,
    "Ġagre": 6447,
    "ĠquizÃ¡": 5740,
    "Ġellas": 2146,
    "vas": 1802,
    "Ġfuturo": 5323,
    "ĠCranach": 9907,
    "Ġfiel": 6970,
    "ĠPolonia": 6960,
    "Ġexclus": 7230,
    "Ġ1880": 4436,
    "SB": 3327,
    "yas": 2360,
    "incip": 636,
    "5": 19,
    "Ġfrecuente": 8489,
    "roco": 6740,
    "Ġemocional": 9436,
    "ĠcompletÃ³": 6527,
    "tista": 1510,
    "mith": 5482,
    "Ġhier": 4828,
    "Ġafirm": 4465,
    "usal": 6366,
    "Ġsino": 1698,
    "Ġdistancia": 7180,
    "Ġrecibir": 6590,
    "Ġentrar": 7969,
    "Ġcur": 2366,
    "ĠNo": 1020,
    "ĠLudwig": 7409,
    "ade": 7680,
    "Ġnarra": 4400,
    "ea": 1386,
    "ĠDante": 8741,
    "Ġllegando": 7280,
    "imedia": 6422,
    "ĠMel": 3948,
    "Ġlit": 8233,
    "inaciones": 8088,
    "Ġbro": 7578,
    "ĠtemÃ¡ticas": 8951,
    "Ġmonta": 4053,
    "Ġexpresionista": 6084,
    "Ġcuest": 4738,
    "Ġsubje": 9672,
    "Ma": 6786,
    "ione": 4064,
    "Ġnove": 2934,
    "Ġmadurez": 7943,
    "Ġprofunda": 7405,
    "Ġaco": 3301,
    "Ġrasgos": 4795,
    ",": 11,
    "eros": 632,
    "Ġcontraste": 4973,
    "cÃ¡n": 5410,
    "Ã³nico": 7391,
    "Ġnaturalismo": 6601,
    "ĠIt": 6904,
    "Ġautodida": 6857,
    "Ġrecono": 7705,
    "Ġpudi": 3912,
    "dados": 3222,
    "ĠMujer": 4549,
    "Ġbuen": 4323,
    "Ġcomo": 228,
    "Ġhuel": 7677,
    "eron": 564,
    "ĠEdad": 4386,
    "ĠEjÃ©rcito": 8650,
    "Ġesquina": 6705,
    "Ġinvent": 3685,
    "ĠseÃ±a": 3060,
    "ĠTe": 1254,
    "giÃ³": 3858,
    "ĠCristÃ³bal": 6463,
    "bate": 5744,
    "ĠJul": 2505,
    "ĠDet": 8327,
    "Ġanteriormente": 6470,
    "Ġestre": 4070,
    "ĠInf": 4002,
    "saciÃ³n": 4217,
    "Ġparti": 626,
    "volu": 1628,
    "Ġeuropea": 7835,
    "Ġpintada": 3469,
    "ĠSup": 4609,
    "ke": 1894,
    "Ġdanza": 8409,
    "Ġaltar": 3728,
    "Ġcorrespondencia": 9261,
    "ĠPacheco": 8898,
    "Ġdin": 3202,
    "Ġcuerpos": 5916
  },
  "itos": {
    "3815": "mÃ³",
    "1228": "Ġcomen",
    "313": "rim",
    "2803": "Ġactividad",
    "1235": "nos",
    "7100": "ĠIndust",
    "3547": "Ġ1987",
    "4598": "Ġtales",
    "1846": "ĠBien",
    "186": "Ġcom",
    "5664": "Ġseguido",
    "7864": "Ġterren",
    "6908": "ĠRetablo",
    "1243": "gio",
    "4711": "Ġnada",
    "5095": "Ġpintadas",
    "7224": "Ġvivos",
    "2255": "ĠplÃ¡st",
    "1377": "Ġdeci",
    "9954": "hite",
    "2535": "ĠGon",
    "8350": "renci",
    "1636": "Ġluego",
    "9268": "stadt",
    "3824": "ĠEstas",
    "5972": "Ġitalianos",
    "5265": "vidad",
    "1": "[UNK]",
    "2464": "ĠEdu",
    "2096": "tol",
    "658": "cer",
    "8718": "Ġmarchante",
    "4206": "ĠZa",
    "1612": "dado",
    "4594": "Ġminiaturas",
    "4699": "Ġ1933",
    "5251": "Ġcoleccionista",
    "7691": "Ġbuscar",
    "1791": "ĠTor",
    "8537": "ĠOviedo",
    "5286": "Ġduda",
    "6086": "mes",
    "2743": "icismo",
    "3821": "osos",
    "1179": "Ã±os",
    "3394": "Ġprotagon",
    "8992": "encial",
    "5796": "Ġexhibe",
    "4180": "ĠBou",
    "3723": "iller",
    "5772": "ĠBeaux",
    "5136": "ĠTres",
    "5050": "igÃ¼edad",
    "5517": "29",
    "3544": "Ġgris",
    "1500": "Ġdef",
    "4726": "ĠCataluÃ±a",
    "4": "SECCION",
    "6598": "Ġposes",
    "4322": "rum",
    "2633": "ĠLouvre",
    "131": "Ġy",
    "6858": "ĠBartolomÃ©",
    "1657": "ĠNi",
    "2200": "Ġprincipales",
    "3673": "Ġdan",
    "2266": "197",
[...]
